{
  "version": "1.0",
  "truncation": null,
  "padding": null,
  "added_tokens": [
    {
      "id": 0,
      "content": "[PAD]",
      "single_word": false,
      "lstrip": false,
      "rstrip": false,
      "normalized": false,
      "special": true
    },
    {
      "id": 1,
      "content": "[UNK]",
      "single_word": false,
      "lstrip": false,
      "rstrip": false,
      "normalized": false,
      "special": true
    },
    {
      "id": 2,
      "content": "[CLS]",
      "single_word": false,
      "lstrip": false,
      "rstrip": false,
      "normalized": false,
      "special": true
    },
    {
      "id": 3,
      "content": "[SEP]",
      "single_word": false,
      "lstrip": false,
      "rstrip": false,
      "normalized": false,
      "special": true
    },
    {
      "id": 4,
      "content": "[MASK]",
      "single_word": false,
      "lstrip": false,
      "rstrip": false,
      "normalized": false,
      "special": true
    }
  ],
  "normalizer": {
    "type": "BertNormalizer",
    "clean_text": true,
    "handle_chinese_chars": true,
    "strip_accents": null,
    "lowercase": true
  },
  "pre_tokenizer": {
    "type": "BertPreTokenizer"
  },
  "post_processor": {
    "type": "TemplateProcessing",
    "single": [
      {
        "SpecialToken": {
          "id": "[CLS]",
          "type_id": 0
        }
      },
      {
        "Sequence": {
          "id": "A",
          "type_id": 0
        }
      },
      {
        "SpecialToken": {
          "id": "[SEP]",
          "type_id": 0
        }
      }
    ],
    "pair": [
      {
        "SpecialToken": {
          "id": "[CLS]",
          "type_id": 0
        }
      },
      {
        "Sequence": {
          "id": "A",
          "type_id": 0
        }
      },
      {
        "SpecialToken": {
          "id": "[SEP]",
          "type_id": 0
        }
      },
      {
        "Sequence": {
          "id": "B",
          "type_id": 1
        }
      },
      {
        "SpecialToken": {
          "id": "[SEP]",
          "type_id": 1
        }
      }
    ],
    "special_tokens": {
      "[CLS]": {
        "id": "[CLS]",
        "ids": [
          2
        ],
        "tokens": [
          "[CLS]"
        ]
      },
      "[SEP]": {
        "id": "[SEP]",
        "ids": [
          3
        ],
        "tokens": [
          "[SEP]"
        ]
      }
    }
  },
  "decoder": {
    "type": "WordPiece",
    "prefix": "##",
    "cleanup": true
  },
  "model": {
    "type": "WordPiece",
    "unk_token": "[UNK]",
    "continuing_subword_prefix": "##",
    "max_input_chars_per_word": 100,
    "vocab": {
      "[PAD]": 0,
      "[UNK]": 1,
      "[CLS]": 2,
      "[SEP]": 3,
      "[MASK]": 4,
      "(": 5,
      ")": 6,
      "*": 7,
      "+": 8,
      ",": 9,
      "-": 10,
      "0": 11,
      "1": 12,
      "2": 13,
      "3": 14,
      "4": 15,
      "5": 16,
      "6": 17,
      "7": 18,
      "8": 19,
      "9": 20,
      ":": 21,
      "[": 22,
      "]": 23,
      "a": 24,
      "b": 25,
      "c": 26,
      "d": 27,
      "e": 28,
      "f": 29,
      "g": 30,
      "h": 31,
      "i": 32,
      "j": 33,
      "l": 34,
      "m": 35,
      "n": 36,
      "o": 37,
      "p": 38,
      "q": 39,
      "r": 40,
      "s": 41,
      "t": 42,
      "u": 43,
      "v": 44,
      "w": 45,
      "x": 46,
      "y": 47,
      "z": 48,
      "##x": 49,
      "##1": 50,
      "##d": 51,
      "##6": 52,
      "##0": 53,
      "##c": 54,
      "##9": 55,
      "##f": 56,
      "##3": 57,
      "##5": 58,
      "##a": 59,
      "##2": 60,
      "##4": 61,
      "##e": 62,
      "##b": 63,
      "##7": 64,
      "##8": 65,
      "##q": 66,
      "##t": 67,
      "##r": 68,
      "##o": 69,
      "##v": 70,
      "##s": 71,
      "##m": 72,
      "##g": 73,
      "##u": 74,
      "##p": 75,
      "##n": 76,
      "##l": 77,
      "##i": 78,
      "##w": 79,
      "##h": 80,
      "##y": 81,
      "##z": 82,
      "##ax": 83,
      "0x": 84,
      "##ov": 85,
      "mov": 86,
      "rax": 87,
      "pt": 88,
      "ptr": 89,
      "##or": 90,
      "##ord": 91,
      "##word": 92,
      "rb": 93,
      "rbp": 94,
      "qword": 95,
      "eax": 96,
      "0x1": 97,
      "rd": 98,
      "0x2": 99,
      "dword": 100,
      "rdx": 101,
      "ca": 102,
      "##ll": 103,
      "call": 104,
      "##mp": 105,
      "##ip": 106,
      "rip": 107,
      "rdi": 108,
      "rs": 109,
      "0x4": 110,
      "##cx": 111,
      "##ea": 112,
      "ed": 113,
      "##dd": 114,
      "add": 115,
      "lea": 116,
      "rcx": 117,
      "cmp": 118,
      "jmp": 119,
      "edx": 120,
      "0x3": 121,
      "rsp": 122,
      "rsi": 123,
      "0x18": 124,
      "je": 125,
      "##te": 126,
      "0x10": 127,
      "by": 128,
      "byte": 129,
      "##st": 130,
      "0x5": 131,
      "te": 132,
      "test": 133,
      "0x20": 134,
      "0x28": 135,
      "r1": 136,
      "jn": 137,
      "##op": 138,
      "jne": 139,
      "0x24": 140,
      "al": 141,
      "0x6": 142,
      "##ff": 143,
      "movs": 144,
      "movsx": 145,
      "0x38": 146,
      "##ub": 147,
      "0xa": 148,
      "sub": 149,
      "##si": 150,
      "rbx": 151,
      "##zx": 152,
      "movzx": 153,
      "movsxd": 154,
      "esi": 155,
      "sh": 156,
      "##nd": 157,
      "0xc": 158,
      "shl": 159,
      "pu": 160,
      "##sh": 161,
      "push": 162,
      "0x14": 163,
      "edi": 164,
      "nop": 165,
      "0x7": 166,
      "0xb": 167,
      "##64": 168,
      "0x22": 169,
      "0x1e": 170,
      "0x49": 171,
      "0x48": 172,
      "0x23": 173,
      "ecx": 174,
      "##et": 175,
      "0x11": 176,
      "end": 177,
      "##br": 178,
      "endbr": 179,
      "endbr64": 180,
      "0x25": 181,
      "eb": 182,
      "ret": 183,
      "0x8": 184,
      "##60": 185,
      "##00": 186,
      "0x21": 187,
      "0xa8": 188,
      "r12": 189,
      "0x13": 190,
      "##50": 191,
      "0xf": 192,
      "##d8": 193,
      "ebx": 194,
      "0x9": 195,
      "##70": 196,
      "0x1c": 197,
      "0x12": 198,
      "0x40": 199,
      "pop": 200,
      "r8": 201,
      "0x30": 202,
      "0xe": 203,
      "0x1f": 204,
      "##ffff": 205,
      "0x4960": 206,
      "0x50": 207,
      "##ve": 208,
      "leave": 209,
      "##eae": 210,
      "0x58": 211,
      "0x246": 212,
      "0xd": 213,
      "##dq": 214,
      "0x19": 215,
      "0x1eeae": 216,
      "cdq": 217,
      "0x17": 218,
      "0x1a": 219,
      "cdqe": 220,
      "0x15": 221,
      "0x68": 222,
      "jl": 223,
      "and": 224,
      "##80": 225,
      "##f0": 226,
      "##b7": 227,
      "0xc0": 228,
      "r8d": 229,
      "0x4a": 230,
      "0x70": 231,
      "0x98": 232,
      "xor": 233,
      "##cc": 234,
      "fs": 235,
      "0x60": 236,
      "0x24650": 237,
      "r13": 238,
      "##20": 239,
      "0x16": 240,
      "0x1b": 241,
      "##9a": 242,
      "0x1d": 243,
      "##10": 244,
      "0x4b": 245,
      "0x2c": 246,
      "##c0": 247,
      "##b0": 248,
      "r12d": 249,
      "##000": 250,
      "0x1d8": 251,
      "##e0": 252,
      "0x80": 253,
      "dl": 254,
      "##98": 255,
      "jg": 256,
      "##90": 257,
      "##be": 258,
      "r15": 259,
      "r14": 260,
      "word": 261,
      "##33": 262,
      "##6a": 263,
      "##40": 264,
      "0x34": 265,
      "##a0": 266,
      "0x4c": 267,
      "0x27": 268,
      "0xb8": 269,
      "##76": 270,
      "##dd0": 271,
      "##1a": 272,
      "##30": 273,
      "jle": 274,
      "0x64": 275,
      "0xb4": 276,
      "##67": 277,
      "0x26": 278,
      "##bc": 279,
      "0xd8": 280,
      "0x78": 281,
      "##23": 282,
      "0x4dd0": 283,
      "0x5c": 284,
      "0x128": 285,
      "0x1a8": 286,
      "xm": 287,
      "##d4": 288,
      "##f8": 289,
      "xmm": 290,
      "##aa": 291,
      "0xffff": 292,
      "st": 293,
      "##56": 294,
      "##ce": 295,
      "##ae": 296,
      "##28": 297,
      "0xacc": 298,
      "##18": 299,
      "##d0": 300,
      "##34": 301,
      "0xacc2": 302,
      "0xb0": 303,
      "0x4980": 304,
      "0x88": 305,
      "0xb4b7": 306,
      "0x4e": 307,
      "0x3c": 308,
      "##bf": 309,
      "0x4d": 310,
      "##1d": 311,
      "##92": 312,
      "0x110": 313,
      "ebp": 314,
      "0x1a89a": 315,
      "##1e": 316,
      "##9d": 317,
      "##ul": 318,
      "##8e": 319,
      "##95": 320,
      "##2c": 321,
      "##ee": 322,
      "##b4": 323,
      "##b8": 324,
      "0x90": 325,
      "0x138": 326,
      "##19": 327,
      "##57": 328,
      "##7c": 329,
      "##f3": 330,
      "##ab": 331,
      "0x150": 332,
      "0x2f": 333,
      "##4f": 334,
      "0xffffffff": 335,
      "##97": 336,
      "0x6d8": 337,
      "##f4": 338,
      "##5b": 339,
      "0x54": 340,
      "r10": 341,
      "0xc8": 342,
      "##37": 343,
      "##51": 344,
      "##58": 345,
      "##e4": 346,
      "0x44": 347,
      "0x118": 348,
      "0x24670": 349,
      "##99": 350,
      "##21": 351,
      "##27": 352,
      "0x47": 353,
      "0x4870": 354,
      "0x4af0": 355,
      "##f6": 356,
      "##mul": 357,
      "0x6c": 358,
      "0x8c": 359,
      "##f7": 360,
      "##dc": 361,
      "##69": 362,
      "##a8": 363,
      "##44": 364,
      "0x108": 365,
      "0x247": 366,
      "0xa0": 367,
      "0x148": 368,
      "0x1c33": 369,
      "0x178": 370,
      "##65": 371,
      "##ac": 372,
      "##fe": 373,
      "##a4": 374,
      "0xf000": 375,
      "sa": 376,
      "##6b": 377,
      "0x198": 378,
      "sar": 379,
      "imul": 380,
      "ja": 381,
      "##5c": 382,
      "##2d": 383,
      "cm": 384,
      "jbe": 385,
      "##d7": 386,
      "##fb": 387,
      "##a3": 388,
      "##2e": 389,
      "cmov": 390,
      "##4b": 391,
      "##75": 392,
      "##54": 393,
      "0x5e": 394,
      "0x4b40": 395,
      "##1c": 396,
      "##13": 397,
      "##63": 398,
      "##93": 399,
      "0x74": 400,
      "0x4b70": 401,
      "or": 402,
      "##26": 403,
      "##25": 404,
      "0xfc": 405,
      "0x12c": 406,
      "0xdc": 407,
      "0xdb": 408,
      "0x158": 409,
      "0x1c33e": 410,
      "##14": 411,
      "##fd": 412,
      "0x100": 413,
      "0x14e": 414,
      "0x250": 415,
      "r9": 416,
      "##ba": 417,
      "0x598": 418,
      "0xe0": 419,
      "##68": 420,
      "##b3": 421,
      "##73": 422,
      "0x2b": 423,
      "jns": 424,
      "0x140": 425,
      "0x224": 426,
      "0x17c": 427,
      "0x24780": 428,
      "##1f": 429,
      "##e8": 430,
      "0x4a70": 431,
      "##1b": 432,
      "##6d": 433,
      "##6f": 434,
      "##af": 435,
      "##stp": 436,
      "0x130": 437,
      "0x120": 438,
      "r13d": 439,
      "fl": 440,
      "##17": 441,
      "##6c": 442,
      "##a9": 443,
      "##24": 444,
      "##ec": 445,
      "##eb": 446,
      "0x2a": 447,
      "0x3f": 448,
      "shr": 449,
      "0x228": 450,
      "0x4820": 451,
      "0x190": 452,
      "js": 453,
      "##15": 454,
      "0x112": 455,
      "0x253": 456,
      "0xe20": 457,
      "0xe205": 458,
      "ax": 459,
      "jae": 460,
      "##53": 461,
      "##7e": 462,
      "0x1e0": 463,
      "0x132": 464,
      "0x14e6a": 465,
      "##9f": 466,
      "##22": 467,
      "##78": 468,
      "0x2d": 469,
      "0x4000": 470,
      "0x1f0": 471,
      "0x4a10": 472,
      "##d5": 473,
      "##6e": 474,
      "##a5": 475,
      "0xf8": 476,
      "##768": 477,
      "fstp": 478,
      "##d2": 479,
      "##9c": 480,
      "##bb": 481,
      "0x400": 482,
      "##ea0": 483,
      "0x104": 484,
      "0x249": 485,
      "0x7f": 486,
      "0xf0": 487,
      "0xe3": 488,
      "0xe8": 489,
      "r9d": 490,
      "se": 491,
      "##db": 492,
      "0x170": 493,
      "r11": 494,
      "0xc4": 495,
      "0x25b": 496,
      "0xd0": 497,
      "##c09": 498,
      "xmm0": 499,
      "xmmword": 500,
      "sete": 501,
      "##61": 502,
      "##c3": 503,
      "##c8": 504,
      "##94": 505,
      "0x107": 506,
      "0x230": 507,
      "0x23f": 508,
      "0x214": 509,
      "0xf768": 510,
      "0x15f": 511,
      "jge": 512,
      "0x598f": 513,
      "##9e": 514,
      "##a6": 515,
      "##bd": 516,
      "0x5c09": 517,
      "0x24d": 518,
      "0x24c": 519,
      "0xce": 520,
      "0x49b0": 521,
      "0x134": 522,
      "0x1504f": 523,
      "##a1": 524,
      "##a2": 525,
      "##il": 526,
      "0x53": 527,
      "0x7c": 528,
      "0x1e7": 529,
      "0x252": 530,
      "0x8000": 531,
      "0x131": 532,
      "0xf4": 533,
      "0xf8e": 534,
      "0x1c8": 535,
      "0xed": 536,
      "0xdf0": 537,
      "0x1b8": 538,
      "0xd875": 539,
      "0xdb1a": 540,
      "##66": 541,
      "##91": 542,
      "##fc": 543,
      "##48": 544,
      "0x59": 545,
      "0x220": 546,
      "0x22a": 547,
      "0x23b": 548,
      "xmm1": 549,
      "0xdc1e": 550,
      "0x112b7": 551,
      "0xf8eb": 552,
      "jb": 553,
      "##3b": 554,
      "##83": 555,
      "##ne": 556,
      "##iv": 557,
      "movab": 558,
      "0x188": 559,
      "0xbc": 560,
      "0x22d": 561,
      "0x22e": 562,
      "0x174": 563,
      "0x168": 564,
      "0x4b10": 565,
      "movabs": 566,
      "##9b": 567,
      "##a7": 568,
      "0x160": 569,
      "0x204": 570,
      "0xbf": 571,
      "0x1e8": 572,
      "0x218": 573,
      "0x94": 574,
      "0x124": 575,
      "0x167c": 576,
      "##f89": 577,
      "0xffffff": 578,
      "fld": 579,
      "0x13223": 580,
      "0x15f50": 581,
      "0xdf09": 582,
      "cs": 583,
      "fx": 584,
      "set": 585,
      "##df": 586,
      "##d3": 587,
      "##ch": 588,
      "##55": 589,
      "##52": 590,
      "0x1eae": 591,
      "0x10c": 592,
      "0x240": 593,
      "0x61": 594,
      "0x71": 595,
      "0xbf89": 596,
      "0x227": 597,
      "0x1e4": 598,
      "0x233": 599,
      "0x23e": 600,
      "0x114": 601,
      "0x4ec0": 602,
      "0x4db0": 603,
      "0x10857": 604,
      "0x107d0": 605,
      "0xed98": 606,
      "0xbfbf": 607,
      "0x167c6": 608,
      "fxch": 609,
      "##cd": 610,
      "0x29": 611,
      "0x430": 612,
      "0x105": 613,
      "0x6e": 614,
      "0xac": 615,
      "0x22c": 616,
      "0x4850": 617,
      "0x11c": 618,
      "0x1156": 619,
      "0x251": 620,
      "0x254": 621,
      "0x25e": 622,
      "0x84": 623,
      "0x2c8": 624,
      "0x110b0": 625,
      "0x47a0": 626,
      "0x1f0e4": 627,
      "mul": 628,
      "##de": 629,
      "##38": 630,
      "##5f": 631,
      "##7f": 632,
      "##72c": 633,
      "##ps": 634,
      "0x164": 635,
      "0x434": 636,
      "0x106": 637,
      "0x208": 638,
      "0x243": 639,
      "0x248": 640,
      "0x62": 641,
      "0x73": 642,
      "0x223": 643,
      "0x113": 644,
      "0x215": 645,
      "0x1395": 646,
      "0x1f7": 647,
      "0x1d3": 648,
      "##6a7": 649,
      "##ea0ea0": 650,
      "0x1e790": 651,
      "0xf433": 652,
      "0x11568": 653,
      "##ad": 654,
      "##29": 655,
      "##7d": 656,
      "0x1ea": 657,
      "0x2e": 658,
      "0x244": 659,
      "0x65": 660,
      "0xbe": 661,
      "0x23c": 662,
      "0x2160": 663,
      "0x195": 664,
      "0x4c70": 665,
      "##bc4": 666,
      "##fe2": 667,
      "0xfcbe": 668,
      "setne": 669,
      "0x1eaed": 670,
      "0x1395a": 671,
      "cl": 672,
      "##12": 673,
      "##5a": 674,
      "0x450": 675,
      "0x200": 676,
      "0x24a": 677,
      "0x672c": 678,
      "0xa4": 679,
      "0x76": 680,
      "0xb9": 681,
      "0xba": 682,
      "0x229": 683,
      "0x49e0": 684,
      "0x232": 685,
      "##506": 686,
      "0x1f8": 687,
      "0x19e": 688,
      "0xc083": 689,
      "0x1dbc4": 690,
      "##ee3": 691,
      "r10d": 692,
      "0x5efb": 693,
      "##c6": 694,
      "##3f": 695,
      "##5e": 696,
      "##2b": 697,
      "0x14c": 698,
      "0x144": 699,
      "0x147": 700,
      "0x1444": 701,
      "0x79": 702,
      "0x71a": 703,
      "0x22b": 704,
      "0x23d": 705,
      "0x235": 706,
      "0x234": 707,
      "0x258": 708,
      "0x13506": 709,
      "r8b": 710,
      "0x1fb": 711,
      "0xda": 712,
      "r15d": 713,
      "##aaaa": 714,
      "0x4df0": 715,
      "0x110ae": 716,
      "0x47e0": 717,
      "##dcw": 718,
      "fldcw": 719,
      "fil": 720,
      "xword": 721,
      "##d9": 722,
      "##96": 723,
      "##36": 724,
      "0x1dd": 725,
      "0x3d": 726,
      "0x185": 727,
      "0x20d": 728,
      "0x20e": 729,
      "0x6d": 730,
      "0xad": 731,
      "0x143": 732,
      "0x7e": 733,
      "0x225": 734,
      "0x238": 735,
      "0x115": 736,
      "0x116a7": 737,
      "0x257": 738,
      "0x216": 739,
      "0x213": 740,
      "0x13c": 741,
      "0x95c": 742,
      "0x1cf": 743,
      "0x1223": 744,
      "0x1f6": 745,
      "0x17a": 746,
      "0x70a9": 747,
      "0x16e": 748,
      "##184": 749,
      "##348": 750,
      "##5b1": 751,
      "0xdbbc": 752,
      "0xe319": 753,
      "0x14445": 754,
      "fild": 755,
      "div": 756,
      "jo": 757,
      "sil": 758,
      "##c9": 759,
      "##co": 760,
      "##add": 761,
      "##74": 762,
      "##86": 763,
      "0x2b7": 764,
      "0x2b4": 765,
      "0x2a3": 766,
      "0x410": 767,
      "0x2064": 768,
      "0x241": 769,
      "0x6b0": 770,
      "0xafe2": 771,
      "0xc3": 772,
      "0xbee3": 773,
      "0x1ed": 774,
      "0x1ee": 775,
      "0x1e5b1": 776,
      "0x4840": 777,
      "0x11348": 778,
      "0x259": 779,
      "0x82": 780,
      "0x210": 781,
      "0x21e": 782,
      "0x217": 783,
      "r12b": 784,
      "##50a": 785,
      "0x1c0": 786,
      "0x1fa": 787,
      "0x19d": 788,
      "0x151": 789,
      "0xc067": 790,
      "0xc04b": 791,
      "0x167": 792,
      "0x1b0": 793,
      "0x1bb": 794,
      "##285": 795,
      "##37b": 796,
      "cmove": 797,
      "0x249b7": 798,
      "0x5367": 799,
      "0x106d4": 800,
      "0x19e23": 801,
      "0x12238": 802,
      "##com": 803,
      "fadd": 804,
      "##div": 805,
      "##c2": 806,
      "##c7": 807,
      "##f1": 808,
      "##f51": 809,
      "##3a": 810,
      "##4e": 811,
      "0xff": 812,
      "0xdd0": 813,
      "movdq": 814,
      "0x270": 815,
      "0x3a": 816,
      "0x203": 817,
      "0x202": 818,
      "0x24f": 819,
      "0x245": 820,
      "0x24e": 821,
      "0x63": 822,
      "0x1456": 823,
      "0x7d": 824,
      "0x7a": 825,
      "0x769": 826,
      "0x226": 827,
      "0x231": 828,
      "0x236": 829,
      "0x237": 830,
      "0x11a": 831,
      "0x21d": 832,
      "0x219": 833,
      "0x9c": 834,
      "##706": 835,
      "0x1c6": 836,
      "0x12e": 837,
      "##ffffff": 838,
      "0x17e": 839,
      "0x1ac": 840,
      "##80d": 841,
      "0x4a60": 842,
      "##cca": 843,
      "0x1bc": 844,
      "##9aa": 845,
      "##924": 846,
      "0x11095": 847,
      "##e4c": 848,
      "0x7176": 849,
      "0x71aa": 850,
      "0x82f4": 851,
      "movdqa": 852,
      "0x769b": 853,
      "##d1": 854,
      "##ca": 855,
      "##39": 856,
      "##aps": 857,
      "##46": 858,
      "##72": 859,
      "##89": 860,
      "movaps": 861,
      "0x2b8": 862,
      "0x3ff": 863,
      "0x318": 864,
      "0x10a": 865,
      "0x24b": 866,
      "0xa3": 867,
      "0x22f": 868,
      "0x1e3": 869,
      "0x1ecca": 870,
      "0x4830": 871,
      "0x23a": 872,
      "0x11d": 873,
      "0x117": 874,
      "0x25184": 875,
      "0x21c": 876,
      "0xfa": 877,
      "0xf7": 878,
      "0x1cd": 879,
      "0x1c924": 880,
      "0xe5": 881,
      "0x1f9": 882,
      "0x1f2": 883,
      "##ffffffff": 884,
      "0x1790": 885,
      "0x1a4": 886,
      "0x16c": 887,
      "0x4d30": 888,
      "##1ec": 889,
      "##7c8": 890,
      "##bad": 891,
      "##ec2": 892,
      "0xb9ce": 893,
      "0x115fd": 894,
      "0x1cf27": 895,
      "0x1f6f0": 896,
      "fcom": 897,
      "no": 898,
      "##d26": 899,
      "##fa": 900,
      "##59": 901,
      "##2f": 902,
      "##49": 903,
      "##e6": 904,
      "##b5": 905,
      "##71": 906,
      "##8b": 907,
      "##ups": 908,
      "movups": 909,
      "0x2b0": 910,
      "0x42": 911,
      "0x458": 912,
      "0x36": 913,
      "0x39": 914,
      "0x32": 915,
      "0x184": 916,
      "0x597": 917,
      "0x651": 918,
      "##ff9": 919,
      "0xa000": 920,
      "0xbd": 921,
      "0xb7": 922,
      "0xb706": 923,
      "0x22d7": 924,
      "0x4990": 925,
      "0x25d": 926,
      "0x25f": 927,
      "0x8d": 928,
      "0x8f3": 929,
      "##0000": 930,
      "0x21b": 931,
      "0x137": 932,
      "0x1c4": 933,
      "0x1ce": 934,
      "0x308": 935,
      "0xe4": 936,
      "0xe7": 937,
      "0x1f4": 938,
      "0x1f30": 939,
      "0x1ad": 940,
      "0x1a0": 941,
      "0x1510": 942,
      "##f0b": 943,
      "0x16a": 944,
      "0x1d5": 945,
      "##18e": 946,
      "##1d2": 947,
      "0x1386a": 948,
      "##f36": 949,
      "0xffffffffffffffff": 950,
      "0x4780": 951,
      "0x8c8": 952,
      "0x24720": 953,
      "cmovl": 954,
      "##1c1": 955,
      "##17a": 956,
      "##eb9": 957,
      "0x25360": 958,
      "0xce57": 959,
      "0x22dbc": 960,
      "0x61f7": 961,
      "0x1e4bf": 962,
      "0x10599": 963,
      "##381": 964,
      "0x1ea4b": 965,
      "0x6598": 966,
      "0x21605": 967,
      "0x19593": 968,
      "0x1fb51": 969,
      "0xadac": 970,
      "0x95c5": 971,
      "0x1ee92": 972,
      "0xdd09": 973,
      "0x14566": 974,
      "not": 975,
      "ah": 976,
      "bp": 977,
      "fn": 978,
      "fi": 979,
      "fmul": 980,
      "##16": 981,
      "##123": 982,
      "##d6": 983,
      "##da": 984,
      "##630": 985,
      "##c5": 986,
      "##cb": 987,
      "##cw": 988,
      "##9b3": 989,
      "##f2": 990,
      "##31": 991,
      "##e1": 992,
      "##7a": 993,
      "##sd": 994,
      "0xea": 995,
      "0x2cc": 996,
      "0x26a": 997,
      "0x2a0": 998,
      "0x2d4": 999,
      "0x180": 1000,
      "##stcw": 1001,
      "0x5f": 1002,
      "0x205": 1003,
      "0x20a": 1004,
      "0x2000": 1005,
      "0x28d": 1006,
      "0x286": 1007,
      "0x280": 1008,
      "0x288": 1009,
      "r11d": 1010,
      "0x24ce": 1011,
      "0x6a0": 1012,
      "0x6b8": 1013,
      "0xca": 1014,
      "0xc2": 1015,
      "0xc7": 1016,
      "0xc5b": 1017,
      "0x14f4": 1018,
      "0x14ff9": 1019,
      "0x7b": 1020,
      "0x71ec": 1021,
      "0x2297": 1022,
      "0x1ec": 1023,
      "0x1ef": 1024,
      "0x1ef4": 1025,
      "0x1e50a": 1026,
      "0x48a0": 1027,
      "0x239": 1028,
      "0x237c8": 1029,
      "0x23eb9": 1030,
      "0x111": 1031,
      "0x25a": 1032,
      "0x211": 1033,
      "0x21f": 1034,
      "0x2123": 1035,
      "0x135": 1036,
      "0x1314": 1037,
      "0xfe": 1038,
      "0xfd26": 1039,
      "0x1cc": 1040,
      "0x1c3": 1041,
      "0x1c5": 1042,
      "0x30c": 1043,
      "0xe65": 1044,
      "0x1fd": 1045,
      "0x1f5": 1046,
      "0x1f80": 1047,
      "0x1f381": 1048,
      "0xd6": 1049,
      "0xd7": 1050,
      "0x19c": 1051,
      "0x1a7": 1052,
      "0x152": 1053,
      "0x154": 1054,
      "0x1527": 1055,
      "##cccc": 1056,
      "0x1bec2": 1057,
      "0x1d1": 1058,
      "0x1de4c": 1059,
      "##107": 1060,
      "0x4be0": 1061,
      "##982": 1062,
      "##6a6": 1063,
      "0x27e": 1064,
      "0x278": 1065,
      "0xb8a5": 1066,
      "##1ad": 1067,
      "0x64c9": 1068,
      "0x263": 1069,
      "##f8c": 1070,
      "xmm2": 1071,
      "##aab": 1072,
      "##1da": 1073,
      "##199": 1074,
      "##7cb": 1075,
      "##ab1": 1076,
      "0x15065": 1077,
      "##37d": 1078,
      "0x6c8": 1079,
      "0x17864": 1080,
      "##2d6": 1081,
      "##132": 1082,
      "0x25090": 1083,
      "0x2b6": 1084,
      "0x140a9": 1085,
      "0x224dd": 1086,
      "##6f5": 1087,
      "0x1906f": 1088,
      "##7e2": 1089,
      "0xe3ee": 1090,
      "0x23f5a": 1091,
      "0x214a4": 1092,
      "0x13121": 1093,
      "0xfffffff8": 1094,
      "0x23360": 1095,
      "0x6267": 1096,
      "0xbe95": 1097,
      "0x2160e": 1098,
      "0x147f7": 1099,
      "0x18521": 1100,
      "0x16e18": 1101,
      "0x1ed56": 1102,
      "0x259c0": 1103,
      "0x151b4": 1104,
      "0x7a67": 1105,
      "0x11d64": 1106,
      "bpl": 1107,
      "fnstcw": 1108,
      "fistp": 1109,
      "0xc5ba": 1110,
      "0x13149": 1111,
      "bt": 1112,
      "bl": 1113,
      "idiv": 1114,
      "px": 1115,
      "##11": 1116,
      "##c1": 1117,
      "##c4": 1118,
      "##f57": 1119,
      "##35": 1120,
      "##32": 1121,
      "##5d": 1122,
      "##4d": 1123,
      "##45": 1124,
      "##ed": 1125,
      "##84": 1126,
      "0xea0ea0": 1127,
      "0x260": 1128,
      "0x420": 1129,
      "0x428": 1130,
      "0x454": 1131,
      "##ea1": 1132,
      "0x3e": 1133,
      "0x3b": 1134,
      "0x18b": 1135,
      "0x1844": 1136,
      "0x101": 1137,
      "0x109": 1138,
      "0x102": 1139,
      "0x10000": 1140,
      "0x55": 1141,
      "0x5a": 1142,
      "0x56b": 1143,
      "0x20c": 1144,
      "0x20b": 1145,
      "0x207": 1146,
      "0x20e0": 1147,
      "0x20a8": 1148,
      "0x2470": 1149,
      "0x66": 1150,
      "0x69": 1151,
      "0x61da": 1152,
      "0xae": 1153,
      "0xc6": 1154,
      "0xc9": 1155,
      "0xc44": 1156,
      "0x146": 1157,
      "0x149": 1158,
      "0x14a": 1159,
      "0x14b": 1160,
      "0x72": 1161,
      "0xb1": 1162,
      "0xb3": 1163,
      "0xb5": 1164,
      "0xb2": 1165,
      "0xb2c": 1166,
      "0xbf36": 1167,
      "0x221": 1168,
      "0x222": 1169,
      "0x48f0": 1170,
      "0x48b0": 1171,
      "0x4890": 1172,
      "0x231c": 1173,
      "0x2337b": 1174,
      "0x239aa": 1175,
      "0x1193": 1176,
      "0x251c1": 1177,
      "0x83": 1178,
      "0x800": 1179,
      "0x8cc": 1180,
      "0x810": 1181,
      "##00e": 1182,
      "0x21a": 1183,
      "0x212": 1184,
      "0x21e0": 1185,
      "0x133": 1186,
      "0x99": 1187,
      "0x1c9d": 1188,
      "0x1c2d6": 1189,
      "0x1267": 1190,
      "0xece": 1191,
      "0xe73": 1192,
      "0x1f7c": 1193,
      "0x503a": 1194,
      "0xd5": 1195,
      "0xda6": 1196,
      "0x1934": 1197,
      "0x19f51": 1198,
      "0x171": 1199,
      "0x173": 1200,
      "0x17b": 1201,
      "0x1af": 1202,
      "0x1a63": 1203,
      "0x15c": 1204,
      "0x15e": 1205,
      "0x4ab0": 1206,
      "0x1b1": 1207,
      "0x1d6": 1208,
      "0x1d0": 1209,
      "0x1dc": 1210,
      "0x1df": 1211,
      "0x1de": 1212,
      "##984": 1213,
      "r14d": 1214,
      "##a0c": 1215,
      "0x27c": 1216,
      "##1af": 1217,
      "0xb486": 1218,
      "0x26c": 1219,
      "##28f": 1220,
      "##283": 1221,
      "##343": 1222,
      "0x882d": 1223,
      "0x4d50": 1224,
      "0x4d40": 1225,
      "##929": 1226,
      "##8ed": 1227,
      "##8e8": 1228,
      "##ee8": 1229,
      "##b4b": 1230,
      "##abb": 1231,
      "##27b": 1232,
      "0x47c0": 1233,
      "0x6c6b": 1234,
      "##dc5": 1235,
      "##2ef": 1236,
      "cmova": 1237,
      "cmovne": 1238,
      "0xfc3f": 1239,
      "0x14ed2": 1240,
      "0x25020": 1241,
      "0x2242c": 1242,
      "##1b5": 1243,
      "0x13221": 1244,
      "##78f": 1245,
      "##bbb": 1246,
      "0x249f3": 1247,
      "0xce1e": 1248,
      "##a2f": 1249,
      "0x25220": 1250,
      "0x1b85f": 1251,
      "##3b9": 1252,
      "0x174ce": 1253,
      "0x254e0": 1254,
      "##ea0ea0ea1": 1255,
      "0x7637": 1256,
      "0xb9ff": 1257,
      "0xdad7": 1258,
      "0x143d4": 1259,
      "0x2064e": 1260,
      "0x1e3ee": 1261,
      "0x1cd2c": 1262,
      "0x1790f": 1263,
      "0x6517": 1264,
      "0x22d72": 1265,
      "0x8f3d": 1266,
      "0x1f30c": 1267,
      "cmovle": 1268,
      "0x1119a": 1269,
      "0xe655": 1270,
      "0x1f808": 1271,
      "pxor": 1272,
      "0xea0ea0ea0ea0ea1": 1273,
      "0xece2": 1274,
      "0xda62": 1275,
      "cq": 1276,
      "cv": 1277,
      "fdiv": 1278,
      "##62": 1279,
      "##cf": 1280,
      "##f9": 1281,
      "##f5": 1282,
      "##3c": 1283,
      "##2a": 1284,
      "##4c": 1285,
      "##42": 1286,
      "##47": 1287,
      "##e3": 1288,
      "##b1": 1289,
      "##b6": 1290,
      "##b2": 1291,
      "##7b": 1292,
      "##85": 1293,
      "##82": 1294,
      "##87": 1295,
      "0x1b7": 1296,
      "0x2a8": 1297,
      "0x41": 1298,
      "0x35": 1299,
      "0x300": 1300,
      "0x3ffffff": 1301,
      "0x182": 1302,
      "0x18e": 1303,
      "0x187": 1304,
      "0x10e": 1305,
      "0x5d": 1306,
      "0x52": 1307,
      "0x5d4": 1308,
      "0x201": 1309,
      "0x20f": 1310,
      "0x20b7": 1311,
      "0x20be": 1312,
      "0x201b5": 1313,
      "0x285": 1314,
      "0x242": 1315,
      "0x24bd": 1316,
      "0x2417a": 1317,
      "0x6f": 1318,
      "movsd": 1319,
      "0xad7": 1320,
      "0xcf": 1321,
      "0xcb": 1322,
      "0x147e2": 1323,
      "0x75": 1324,
      "0xb6": 1325,
      "0xbf0b": 1326,
      "0x2267": 1327,
      "0x22f8": 1328,
      "0x227e": 1329,
      "0x22c3": 1330,
      "0x2280d": 1331,
      "0x1e2": 1332,
      "0x1e1d": 1333,
      "0x4970": 1334,
      "0x49c0": 1335,
      "0x4930": 1336,
      "0x23a2f": 1337,
      "0x119": 1338,
      "0x111d2": 1339,
      "0x25c": 1340,
      "0x255": 1341,
      "0x2570": 1342,
      "0x2527": 1343,
      "0x251f": 1344,
      "0x25630": 1345,
      "0x8a": 1346,
      "0x8d8": 1347,
      "0x8d4": 1348,
      "0x8d0": 1349,
      "0x8b8": 1350,
      "##60c": 1351,
      "##60f": 1352,
      "0x2110": 1353,
      "0x216b": 1354,
      "0x216a6": 1355,
      "0x13b": 1356,
      "0x134b": 1357,
      "0x13107": 1358,
      "0x13f57": 1359,
      "0xf6": 1360,
      "0xf5": 1361,
      "0xf285": 1362,
      "##d8c": 1363,
      "##d89": 1364,
      "0x9d": 1365,
      "0x9b": 1366,
      "0x956": 1367,
      "0x1c9": 1368,
      "0x1cea": 1369,
      "0x12f": 1370,
      "0x123": 1371,
      "0xef": 1372,
      "0x1f18e": 1373,
      "0xdf": 1374,
      "0xd4": 1375,
      "0xdf6": 1376,
      "0xdab1": 1377,
      "0x19b": 1378,
      "0x199b3": 1379,
      "0x178ed": 1380,
      "0x1a6": 1381,
      "0x1ae": 1382,
      "0x15d": 1383,
      "0x15285": 1384,
      "0x15199": 1385,
      "##f07": 1386,
      "##b7a": 1387,
      "0x4ac0": 1388,
      "##cc8": 1389,
      "0x162": 1390,
      "0x166e": 1391,
      "0x1b6": 1392,
      "0x1b4": 1393,
      "##9a5": 1394,
      "0x1df0": 1395,
      "0x1df8c": 1396,
      "##101": 1397,
      "0x4bf0": 1398,
      "##c0a": 1399,
      "##e08": 1400,
      "##90d": 1401,
      "##908": 1402,
      "##a04": 1403,
      "0x4cf0": 1404,
      "0x272": 1405,
      "0x27b": 1406,
      "##76d": 1407,
      "##766": 1408,
      "##1a9": 1409,
      "##1ab": 1410,
      "0x262": 1411,
      "##bc9": 1412,
      "##23b": 1413,
      "##aaf": 1414,
      "##ce1": 1415,
      "##ae7": 1416,
      "##185": 1417,
      "##d05": 1418,
      "0x4e40": 1419,
      "0x4ed0": 1420,
      "##bf9": 1421,
      "##9d9": 1422,
      "##95c": 1423,
      "##958": 1424,
      "##ee5": 1425,
      "##571": 1426,
      "##4fa": 1427,
      "##5b5": 1428,
      "##5b2": 1429,
      "##37e": 1430,
      "##51f": 1431,
      "0x448": 1432,
      "##994": 1433,
      "0x4770": 1434,
      "##f6c": 1435,
      "##f63": 1436,
      "0x6c4": 1437,
      "##f73": 1438,
      "##693": 1439,
      "##442": 1440,
      "0x10883": 1441,
      "##65e": 1442,
      "##fe1": 1443,
      "##fe3": 1444,
      "##a47": 1445,
      "##a35": 1446,
      "##2e6": 1447,
      "cmovs": 1448,
      "cmovbe": 1449,
      "##4b1": 1450,
      "##25f": 1451,
      "0xdcbe": 1452,
      "0xdcfb": 1453,
      "##14d": 1454,
      "##b39": 1455,
      "##1bd": 1456,
      "##6de": 1457,
      "##af1": 1458,
      "##248": 1459,
      "##eb2": 1460,
      "##ebb": 1461,
      "0x2532d": 1462,
      "##785": 1463,
      "##d59": 1464,
      "##9c7": 1465,
      "0x104ce": 1466,
      "0x249b4": 1467,
      "0xd0e0": 1468,
      "##c3a": 1469,
      "##bd1": 1470,
      "0xcef6": 1471,
      "##fc9": 1472,
      "0x22a19": 1473,
      "0x23b00": 1474,
      "0x20455": 1475,
      "0x23363": 1476,
      "0x25e00": 1477,
      "0x248aa": 1478,
      "0x23ca1": 1479,
      "0x229c0": 1480,
      "0x232ac": 1481,
      "0xda70": 1482,
      "0x20649": 1483,
      "0x167e0": 1484,
      "0x1bbae": 1485,
      "0x1f298": 1486,
      "fcomi": 1487,
      "0x8df4": 1488,
      "0x15106": 1489,
      "0x16abc": 1490,
      "0xea22": 1491,
      "0x1ef4c": 1492,
      "0x2123c": 1493,
      "0x56bd": 1494,
      "0x21e0b": 1495,
      "0x1c9de": 1496,
      "0x12678": 1497,
      "0xe739": 1498,
      "0x19342": 1499,
      "cqo": 1500,
      "cvt": 1501,
      "0xad7b": 1502,
      "0x1e1db": 1503,
      "0x251f5": 1504,
      "0x21109": 1505,
      "0x216b9": 1506,
      "0x956f": 1507,
      "fu": 1508,
      "jp": 1509,
      "ne": 1510,
      "##d70": 1511,
      "##656": 1512,
      "##61f": 1513,
      "##992": 1514,
      "##3d": 1515,
      "##3e": 1516,
      "##590": 1517,
      "##41": 1518,
      "##e9": 1519,
      "##ef": 1520,
      "##e2": 1521,
      "##b9": 1522,
      "##79": 1523,
      "##77": 1524,
      "##8c": 1525,
      "0xdd": 1526,
      "0x1ff": 1527,
      "0x267": 1528,
      "0x2d0": 1529,
      "0x292": 1530,
      "0x29d": 1531,
      "0x29f": 1532,
      "0x2aaaa": 1533,
      "##ea2": 1534,
      "0x33": 1535,
      "0x18c": 1536,
      "0x18a35": 1537,
      "0x18992": 1538,
      "0x10d": 1539,
      "0x10be": 1540,
      "0x57": 1541,
      "0x558": 1542,
      "0x565": 1543,
      "0x52e6": 1544,
      "0x206": 1545,
      "0x20aa": 1546,
      "0x20bf": 1547,
      "0x24d8": 1548,
      "0x24d4": 1549,
      "0x24bf": 1550,
      "0x6c0": 1551,
      "0x6a8": 1552,
      "0x6785": 1553,
      "##ubr": 1554,
      "0xa123": 1555,
      "0xaf73": 1556,
      "0xcc": 1557,
      "0xc5": 1558,
      "0x14d": 1559,
      "0x145": 1560,
      "0x14b8": 1561,
      "0x14c3": 1562,
      "0x14af1": 1563,
      "0x733": 1564,
      "0x714": 1565,
      "0xbb7": 1566,
      "0xbab": 1567,
      "0xba8": 1568,
      "0xbd5": 1569,
      "0xbfe3": 1570,
      "0xba47": 1571,
      "##649": 1572,
      "##64f": 1573,
      "0x229a": 1574,
      "0x224f": 1575,
      "0x22dc": 1576,
      "0x22d2": 1577,
      "0x229c": 1578,
      "0x22c8": 1579,
      "0x227cb": 1580,
      "0x1eb": 1581,
      "0x1e36": 1582,
      "0x1e1ab": 1583,
      "0x1ed59": 1584,
      "0x1e61f": 1585,
      "0x4900": 1586,
      "0x4950": 1587,
      "0x2364": 1588,
      "0x231a": 1589,
      "0x236c": 1590,
      "0x2378f": 1591,
      "0x23c3a": 1592,
      "0x11b": 1593,
      "0x112ef": 1594,
      "0x25b7": 1595,
      "0x25b0": 1596,
      "0x2534": 1597,
      "0x2593": 1598,
      "0x25ba": 1599,
      "0x251af": 1600,
      "0x2565e": 1601,
      "0x81": 1602,
      "0x8f": 1603,
      "##004": 1604,
      "0x2133": 1605,
      "0x215c": 1606,
      "0x2173": 1607,
      "0x13d": 1608,
      "0x13a": 1609,
      "0x13c0": 1610,
      "0x13766": 1611,
      "##501": 1612,
      "##507": 1613,
      "0xf97": 1614,
      "0xfa4": 1615,
      "0xf5f": 1616,
      "##d8f": 1617,
      "##d8b": 1618,
      "0x95": 1619,
      "0x9e": 1620,
      "0x9929": 1621,
      "##707": 1622,
      "##7073": 1623,
      "0x1ce4c": 1624,
      "0x126": 1625,
      "0x127": 1626,
      "0x12ff": 1627,
      "0x12dc5": 1628,
      "0x12590": 1629,
      "0xec": 1630,
      "0xe56": 1631,
      "0xe768": 1632,
      "0x1f1": 1633,
      "0x1fc": 1634,
      "0x1f3": 1635,
      "0x1fbe": 1636,
      "0x1fb4": 1637,
      "0x1f58": 1638,
      "0x1f6c": 1639,
      "0x1f4b1": 1640,
      "0x501a": 1641,
      "0xd3": 1642,
      "0xd2": 1643,
      "0xd9a": 1644,
      "0x19de": 1645,
      "0x17d": 1646,
      "0x1a28": 1647,
      "0x1a7f": 1648,
      "0x1a123": 1649,
      "0x15a": 1650,
      "0x1537d": 1651,
      "0x15283": 1652,
      "##f0c": 1653,
      "##b7f": 1654,
      "0xc048": 1655,
      "0x4a00": 1656,
      "0x4a80": 1657,
      "0x4a20": 1658,
      "##cc1": 1659,
      "fsubr": 1660,
      "##20c": 1661,
      "##208": 1662,
      "0x161": 1663,
      "0x169": 1664,
      "0x1bd": 1665,
      "0x1b3": 1666,
      "0x1bebb": 1667,
      "##9af": 1668,
      "##9a2": 1669,
      "##9a8": 1670,
      "0x1dbad": 1671,
      "0x1d185": 1672,
      "##c0c": 1673,
      "##98d": 1674,
      "##98e": 1675,
      "##988": 1676,
      "##903": 1677,
      "##904": 1678,
      "##330": 1679,
      "##6ae": 1680,
      "##401": 1681,
      "##a03": 1682,
      "0x4c00": 1683,
      "0x4c20": 1684,
      "0x4cb0": 1685,
      "0x4ce0": 1686,
      "0x4c90": 1687,
      "0x4c30": 1688,
      "0x271": 1689,
      "0x275": 1690,
      "0x274": 1691,
      "##76c": 1692,
      "##765": 1693,
      "0x6449": 1694,
      "0x26b": 1695,
      "0x1a832": 1696,
      "##d4a": 1697,
      "##f8a": 1698,
      "##561": 1699,
      "##ce8": 1700,
      "##ae9": 1701,
      "##282": 1702,
      "##188": 1703,
      "0xb099": 1704,
      "0x88c1": 1705,
      "0x4e20": 1706,
      "0x4e10": 1707,
      "##bf4": 1708,
      "0x4d20": 1709,
      "0x4da0": 1710,
      "##1d6": 1711,
      "##1d9": 1712,
      "##926": 1713,
      "##92c": 1714,
      "##1e6": 1715,
      "##9d2": 1716,
      "##959": 1717,
      "##2c6": 1718,
      "##eee": 1719,
      "##b4f": 1720,
      "##b4e": 1721,
      "##b47": 1722,
      "##b88": 1723,
      "##4f9": 1724,
      "##979": 1725,
      "##973": 1726,
      "0xc8f0": 1727,
      "0xc825": 1728,
      "##513": 1729,
      "##589": 1730,
      "##e45": 1731,
      "##e4a": 1732,
      "##21b": 1733,
      "##275": 1734,
      "##f6d": 1735,
      "##f7f": 1736,
      "##f7a": 1737,
      "##f72": 1738,
      "##696": 1739,
      "##694": 1740,
      "0xa07d": 1741,
      "0x1c33d": 1742,
      "##acd": 1743,
      "##fe5": 1744,
      "0x19874": 1745,
      "##2df": 1746,
      "##d73": 1747,
      "##fb1": 1748,
      "##a31": 1749,
      "##a38": 1750,
      "##2e5": 1751,
      "##2e8": 1752,
      "##759": 1753,
      "##755": 1754,
      "##752": 1755,
      "##54a": 1756,
      "0x5e89": 1757,
      "##138": 1758,
      "##631": 1759,
      "##25a": 1760,
      "0xdbba": 1761,
      "0x15880": 1762,
      "##fdb": 1763,
      "0x1009c": 1764,
      "0x5982": 1765,
      "##b35": 1766,
      "0x2243b": 1767,
      "##1b2": 1768,
      "##af9": 1769,
      "##15d": 1770,
      "##152": 1771,
      "0x112a4": 1772,
      "##53d": 1773,
      "##535": 1774,
      "##538": 1775,
      "0x1e0ec": 1776,
      "0x1e08b": 1777,
      "##22a": 1778,
      "##222": 1779,
      "##6e3": 1780,
      "##a5e": 1781,
      "0xe3a6": 1782,
      "##db1": 1783,
      "##c8b": 1784,
      "0xcef3": 1785,
      "##fcf": 1786,
      "0x220da": 1787,
      "0x22e99": 1788,
      "0x1741b": 1789,
      "##9b2": 1790,
      "##a71": 1791,
      "0x20465": 1792,
      "0xffffffbf": 1793,
      "setb": 1794,
      "##52a": 1795,
      "0x1eaeb": 1796,
      "0x251ea": 1797,
      "##7f2": 1798,
      "0x164e0": 1799,
      "0x20890": 1800,
      "0x1d392": 1801,
      "0x1d35c": 1802,
      "0xbe2d": 1803,
      "0x20079": 1804,
      "0x235e4": 1805,
      "0x17a10": 1806,
      "0x241f7": 1807,
      "0x19dea": 1808,
      "0x1bbaa": 1809,
      "0x1c6dd": 1810,
      "0x1c6f3": 1811,
      "0x17e25": 1812,
      "0xa3c0": 1813,
      "0xa31a": 1814,
      "0xe522": 1815,
      "fcomip": 1816,
      "0x1842d": 1817,
      "0xbd2e": 1818,
      "0xe4db": 1819,
      "0xe797": 1820,
      "0x1d520": 1821,
      "0x24ce3": 1822,
      "0xca28": 1823,
      "0x14f47": 1824,
      "0x1527a": 1825,
      "btc": 1826,
      "0x18b18": 1827,
      "0x1844c": 1828,
      "0x20e04": 1829,
      "0xc9ce": 1830,
      "0xc444": 1831,
      "0x14b6e": 1832,
      "0xb2aa": 1833,
      "0xb2c4": 1834,
      "0x231c6": 1835,
      "0x21264": 1836,
      "0x1a63e": 1837,
      "0x1d62e": 1838,
      "fdivp": 1839,
      "0x5d44": 1840,
      "0x24bde": 1841,
      "0xb69a": 1842,
      "0x22c3d": 1843,
      "0x2570c": 1844,
      "0x25279": 1845,
      "0x8a13": 1846,
      "0x134b5": 1847,
      "0x1c9f4": 1848,
      "0x166ef": 1849,
      "0x1df08": 1850,
      "fucom": 1851,
      "neg": 1852,
      "0x2aaaaaab": 1853,
      "0x7145": 1854,
      "0xbd5a": 1855,
      "0x22dc2": 1856,
      "0x1e362": 1857,
      "0x231a5": 1858,
      "0x25345": 1859,
      "0x1a7f5": 1860,
      "dx": 1861,
      "sbb": 1862,
      "##180": 1863,
      "##15c": 1864,
      "##6d4": 1865,
      "##61d": 1866,
      "##6b8": 1867,
      "##900": 1868,
      "##956": 1869,
      "##9bd": 1870,
      "##318": 1871,
      "##319": 1872,
      "##500": 1873,
      "##a2c": 1874,
      "##292": 1875,
      "##2sd": 1876,
      "##4a": 1877,
      "##b56": 1878,
      "##b99": 1879,
      "##7ce": 1880,
      "##81": 1881,
      "##8f": 1882,
      "##8a": 1883,
      "##ts": 1884,
      "0x2f0": 1885,
      "0x2e0": 1886,
      "0x2f8": 1887,
      "0x2e8": 1888,
      "0x29c": 1889,
      "0x45": 1890,
      "0x4fd": 1891,
      "##ea6": 1892,
      "##ea3": 1893,
      "##ea7": 1894,
      "0x31": 1895,
      "0x37": 1896,
      "0x181": 1897,
      "0x18d": 1898,
      "0x18f": 1899,
      "0x183": 1900,
      "0x18a4": 1901,
      "0x1875": 1902,
      "0x18ee8": 1903,
      "0x18b35": 1904,
      "0x103": 1905,
      "0x1000": 1906,
      "0x10d8": 1907,
      "0x10a0": 1908,
      "0x10ce": 1909,
      "0x10d0": 1910,
      "0x10b8": 1911,
      "0x1019": 1912,
      "0x109e": 1913,
      "0x10a2": 1914,
      "0x10ee8": 1915,
      "0x1014d": 1916,
      "0x51": 1917,
      "0x56": 1918,
      "0x5b": 1919,
      "0x540": 1920,
      "0x534": 1921,
      "0x5dc": 1922,
      "0x5994": 1923,
      "0x5fcf": 1924,
      "0x2090": 1925,
      "0x20b4": 1926,
      "0x2057": 1927,
      "0x20ab": 1928,
      "0x2058": 1929,
      "0x20f6": 1930,
      "0x20ac": 1931,
      "0x20e8": 1932,
      "0x20a9": 1933,
      "0x20c3": 1934,
      "0x20c2": 1935,
      "0x20630": 1936,
      "0x204fa": 1937,
      "0x20d8f": 1938,
      "0x28e": 1939,
      "0x28b": 1940,
      "0x287": 1941,
      "0x28d7": 1942,
      "0x28fb": 1943,
      "0x2854": 1944,
      "jno": 1945,
      "0x24be": 1946,
      "0x24bc": 1947,
      "0x2495": 1948,
      "0x24ea0": 1949,
      "0x24982": 1950,
      "0x24132": 1951,
      "0x24fc9": 1952,
      "0x24330": 1953,
      "0x242c6": 1954,
      "0x6b": 1955,
      "0x67": 1956,
      "0x670": 1957,
      "0x6000": 1958,
      "0x624": 1959,
      "0x6f7f": 1960,
      "##ff1": 1961,
      "##ff7": 1962,
      "0xaf": 1963,
      "0xaa": 1964,
      "0xa2": 1965,
      "0xa28": 1966,
      "0xa3f": 1967,
      "0xa1ec": 1968,
      "0xaf63": 1969,
      "0xa152": 1970,
      "##si2sd": 1971,
      "0xcd": 1972,
      "0xcdd": 1973,
      "0xc000": 1974,
      "0xc33": 1975,
      "0xc18": 1976,
      "0xcf4": 1977,
      "0xcd7": 1978,
      "0xc9c": 1979,
      "0xc285": 1980,
      "0xcc7": 1981,
      "0xc80d": 1982,
      "0xc9aa": 1983,
      "0xcbad": 1984,
      "0xc101": 1985,
      "0xce08": 1986,
      "0xca04": 1987,
      "0xc98e": 1988,
      "0x142": 1989,
      "0x1476": 1990,
      "0x14d0": 1991,
      "0x14bf": 1992,
      "0x147c": 1993,
      "0x14ab": 1994,
      "0x14b3": 1995,
      "0x1473": 1996,
      "0x1478": 1997,
      "0x14bb": 1998,
      "0x1491": 1999,
      "0x14984": 2000,
      "0x14bbb": 2001,
      "0x1460c": 2002,
      "0x14bc9": 2003,
      "0x14fe1": 2004,
      "0x1498d": 2005,
      "0x77": 2006,
      "0x7ff": 2007,
      "0x756": 2008,
      "0x763": 2009,
      "0x725": 2010,
      "0x772c": 2011,
      "0x71d2": 2012,
      "0x7248": 2013,
      "0x7b4e": 2014,
      "0xb28": 2015,
      "0xbac": 2016,
      "0xb184": 2017,
      "0xb138": 2018,
      "##641": 2019,
      "##64b": 2020,
      "0x22be": 2021,
      "0x226a": 2022,
      "0x221a": 2023,
      "0x22b4": 2024,
      "0x2299": 2025,
      "0x22fb": 2026,
      "0x22a9": 2027,
      "0x229f": 2028,
      "0x22a5": 2029,
      "0x223b": 2030,
      "0x22982": 2031,
      "0x22d8c": 2032,
      "0x22d05": 2033,
      "0x221b2": 2034,
      "0x229b2": 2035,
      "0x1e9": 2036,
      "0x1e8e": 2037,
      "0x1e4b": 2038,
      "0x1e17": 2039,
      "0x1efe2": 2040,
      "0x1eee5": 2041,
      "0x1e20c": 2042,
      "0x1ef7a": 2043,
      "0x4920": 2044,
      "0x4910": 2045,
      "0x49d0": 2046,
      "0x4800": 2047,
      "0x4810": 2048,
      "0x48c0": 2049,
      "0x2300": 2050,
      "0x23a0": 2051,
      "0x2323": 2052,
      "0x23ee": 2053,
      "0x23f3": 2054,
      "0x234f": 2055,
      "0x23f7": 2056,
      "0x232d": 2057,
      "0x23d7": 2058,
      "0x2314": 2059,
      "0x236d": 2060,
      "0x236f": 2061,
      "0x2318e": 2062,
      "0x231ad": 2063,
      "0x23f8c": 2064,
      "0x2300e": 2065,
      "0x23a0c": 2066,
      "0x23bc9": 2067,
      "0x23ea2": 2068,
      "0x23222": 2069,
      "0x11e": 2070,
      "0x1180": 2071,
      "0x1133": 2072,
      "0x11a0": 2073,
      "0x1130": 2074,
      "0x112c": 2075,
      "0x11e8": 2076,
      "0x1194": 2077,
      "0x25f0": 2078,
      "0x25bc": 2079,
      "0x2528": 2080,
      "0x252c": 2081,
      "0x25f3": 2082,
      "0x25f4": 2083,
      "0x25e4": 2084,
      "0x25b3": 2085,
      "0x25ec": 2086,
      "0x2578": 2087,
      "0x25958": 2088,
      "0x2537e": 2089,
      "0x87": 2090,
      "0x8c0": 2091,
      "0x8b0": 2092,
      "0x848": 2093,
      "##604": 2094,
      "0x21d8": 2095,
      "0x212c": 2096,
      "0x21dc": 2097,
      "0x21ba": 2098,
      "0x21c8": 2099,
      "0x2150a": 2100,
      "0x21199": 2101,
      "0x21984": 2102,
      "0x2127b": 2103,
      "0x21bf9": 2104,
      "0x21bd1": 2105,
      "0x214f9": 2106,
      "0x139": 2107,
      "0x13e": 2108,
      "0x13b7": 2109,
      "0x13d4": 2110,
      "0x138e": 2111,
      "0x1321": 2112,
      "0x1327": 2113,
      "0x136c": 2114,
      "0x13db": 2115,
      "0x1394": 2116,
      "0x1338": 2117,
      "0x13208": 2118,
      "##50d": 2119,
      "##509": 2120,
      "##50f": 2121,
      "##503": 2122,
      "##508": 2123,
      "0xf1": 2124,
      "0xf00": 2125,
      "0xfaa": 2126,
      "0xfce": 2127,
      "0xfd0": 2128,
      "0xfac": 2129,
      "0xf6b": 2130,
      "0xf68": 2131,
      "0xf25a": 2132,
      "##d81": 2133,
      "##d80": 2134,
      "##d87": 2135,
      "##d88": 2136,
      "0x91": 2137,
      "0x921": 2138,
      "0x924": 2139,
      "##708": 2140,
      "0x1c1": 2141,
      "0x1ca": 2142,
      "0x1c2": 2143,
      "0x1ca0": 2144,
      "0x1cb8": 2145,
      "0x1c7e": 2146,
      "0x1c48": 2147,
      "0x1c343": 2148,
      "0x1cd89": 2149,
      "0x1cf07": 2150,
      "0x1c9a5": 2151,
      "0x1cd8b": 2152,
      "0x1cdb1": 2153,
      "0x122": 2154,
      "0x12b": 2155,
      "0x12ee": 2156,
      "0x1238": 2157,
      "0x12b39": 2158,
      "0x12a31": 2159,
      "0x30d": 2160,
      "0xe1": 2161,
      "0xec0": 2162,
      "0xe90": 2163,
      "0xecd": 2164,
      "0xe1a9": 2165,
      "0xe6de": 2166,
      "0x1fe": 2167,
      "0x1f67": 2168,
      "0x1f5b": 2169,
      "0x1fa4": 2170,
      "0x1fba": 2171,
      "0x1f73": 2172,
      "0x1f7e": 2173,
      "0x1f78": 2174,
      "0x1fbd": 2175,
      "0x1fde": 2176,
      "0x1fad": 2177,
      "0x501f": 2178,
      "0x5094": 2179,
      "0x5858": 2180,
      "0x246cc": 2181,
      "0x24630": 2182,
      "0x246bc": 2183,
      "0x246cd": 2184,
      "0x246e1": 2185,
      "0xdce": 2186,
      "0xd6f5": 2187,
      "0x199": 2188,
      "0x19f": 2189,
      "0x194": 2190,
      "0x19c0": 2191,
      "0x19aa": 2192,
      "0x1999": 2193,
      "0x1993": 2194,
      "0x199c": 2195,
      "0x19a1": 2196,
      "0x19cd": 2197,
      "0x1928f": 2198,
      "0x19f6c": 2199,
      "0x19501": 2200,
      "0x1915c": 2201,
      "0x19319": 2202,
      "0x179": 2203,
      "0x17b0": 2204,
      "0x17a0": 2205,
      "0x17a8": 2206,
      "0x17a0c": 2207,
      "0x1754a": 2208,
      "0x1aa": 2209,
      "0x1a7c": 2210,
      "0x1ac3": 2211,
      "0x1ac8": 2212,
      "0x1aee3": 2213,
      "0x1a706": 2214,
      "0x1a500": 2215,
      "0x156": 2216,
      "0x153": 2217,
      "0x15b": 2218,
      "0x1554": 2219,
      "0x1526": 2220,
      "0x1537b": 2221,
      "0x156f5": 2222,
      "0x15401": 2223,
      "0x152e8": 2224,
      "0x15538": 2225,
      "0x157ce": 2226,
      "##806": 2227,
      "##804": 2228,
      "##b75": 2229,
      "0x4a30": 2230,
      "0x4ad0": 2231,
      "0x98b5": 2232,
      "##ccd": 2233,
      "0x604e": 2234,
      "##203": 2235,
      "0x16f": 2236,
      "0x165": 2237,
      "0x1690": 2238,
      "0x16ab": 2239,
      "0x1637b": 2240,
      "0x16acd": 2241,
      "0x16631": 2242,
      "0x1b5": 2243,
      "0x1ba": 2244,
      "0x1be": 2245,
      "0x1bce": 2246,
      "0x1bb3": 2247,
      "0x1b3b9": 2248,
      "0x1bb7a": 2249,
      "##9a6": 2250,
      "##9ae": 2251,
      "0x1d4": 2252,
      "0x1db": 2253,
      "0x1d67": 2254,
      "0x1d68": 2255,
      "##102": 2256,
      "0x4b60": 2257,
      "0x4b20": 2258,
      "0x4bb0": 2259,
      "0x4b90": 2260,
      "0x4ba0": 2261,
      "##c03": 2262,
      "##b07": 2263,
      "##e09": 2264,
      "0x801": 2265,
      "##985": 2266,
      "##beb": 2267,
      "##33c": 2268,
      "##335": 2269,
      "##334": 2270,
      "##6a2": 2271,
      "##409": 2272,
      "##402": 2273,
      "##404": 2274,
      "0x4c50": 2275,
      "0x27d": 2276,
      "0x27f": 2277,
      "0x273": 2278,
      "0x27e4": 2279,
      "##762": 2280,
      "##76e": 2281,
      "##1a6": 2282,
      "##308": 2283,
      "0x64c8": 2284,
      "0x6487": 2285,
      "##671": 2286,
      "##67a": 2287,
      "##67e": 2288,
      "0x26f": 2289,
      "0x265": 2290,
      "0x268": 2291,
      "0x2614": 2292,
      "0x2624": 2293,
      "##bcf": 2294,
      "##bc5": 2295,
      "0x5cf2": 2296,
      "0x1289a": 2297,
      "0x1282b": 2298,
      "##d46": 2299,
      "##aa1": 2300,
      "##56e": 2301,
      "##ce7": 2302,
      "##18a": 2303,
      "##34e": 2304,
      "##347": 2305,
      "0xb04c": 2306,
      "0x4e70": 2307,
      "0x4e80": 2308,
      "0x4eb0": 2309,
      "0x4e30": 2310,
      "##bf2": 2311,
      "0x4d00": 2312,
      "0x4d10": 2313,
      "0x4de0": 2314,
      "##1d7": 2315,
      "0x1107f": 2316,
      "0x110ca": 2317,
      "##1e2": 2318,
      "##9d1": 2319,
      "##573": 2320,
      "##f3d": 2321,
      "##f32": 2322,
      "0x150f8": 2323,
      "0xffffffffffffff": 2324,
      "##9726": 2325,
      "##f42": 2326,
      "0x54a0": 2327,
      "0x5458": 2328,
      "0x54a2": 2329,
      "##373": 2330,
      "##517": 2331,
      "##581": 2332,
      "0x1182d": 2333,
      "##991": 2334,
      "##996": 2335,
      "##999": 2336,
      "##27d": 2337,
      "0x47d0": 2338,
      "##f6e": 2339,
      "##f6b": 2340,
      "0x6c9": 2341,
      "##dca": 2342,
      "##dc8": 2343,
      "##69c": 2344,
      "##a86": 2345,
      "##44a": 2346,
      "0x108b4": 2347,
      "0x1c33a": 2348,
      "0x1c337": 2349,
      "##feb": 2350,
      "##a4c": 2351,
      "##a49": 2352,
      "##5cd": 2353,
      "##5c4": 2354,
      "##2de": 2355,
      "##fba": 2356,
      "##a3d70": 2357,
      "cmovg": 2358,
      "cmovae": 2359,
      "##541": 2360,
      "0x5e90": 2361,
      "0x5e1d": 2362,
      "0x5ed5": 2363,
      "0x5e66": 2364,
      "0x7486": 2365,
      "##266": 2366,
      "##26f": 2367,
      "##262": 2368,
      "##25d": 2369,
      "0xdc6b": 2370,
      "0xdc1c": 2371,
      "##142": 2372,
      "##fda": 2373,
      "0x10098": 2374,
      "0x1009b": 2375,
      "0x1008c": 2376,
      "##ba2": 2377,
      "0x5985": 2378,
      "0x598e": 2379,
      "0x598b": 2380,
      "0x5988": 2381,
      "##686": 2382,
      "##68f": 2383,
      "##b36": 2384,
      "##b32": 2385,
      "##738": 2386,
      "0x2b5": 2387,
      "0x2b93": 2388,
      "0x22428": 2389,
      "0x22425": 2390,
      "0x2241f": 2391,
      "0x22422": 2392,
      "##6d3": 2393,
      "##6da": 2394,
      "##6f1": 2395,
      "##6fc": 2396,
      "##afc": 2397,
      "##afa": 2398,
      "##6cf": 2399,
      "##6ca": 2400,
      "##249": 2401,
      "##24a": 2402,
      "##ec4": 2403,
      "##eb5": 2404,
      "0x2a2": 2405,
      "0x2a27": 2406,
      "0x228dc": 2407,
      "0x22814": 2408,
      "0x228c6": 2409,
      "0x228cb": 2410,
      "0x19024": 2411,
      "##15f": 2412,
      "0x25326": 2413,
      "##53b": 2414,
      "##53ffffff": 2415,
      "0x1e064": 2416,
      "##9fa": 2417,
      "##786": 2418,
      "##78c": 2419,
      "0x1f01d": 2420,
      "0x1f092": 2421,
      "##6e5": 2422,
      "##a52": 2423,
      "##d2f": 2424,
      "##d2a": 2425,
      "##d2si": 2426,
      "0x24966": 2427,
      "0xe380": 2428,
      "0xe3d0": 2429,
      "0x25b67": 2430,
      "0x25b34": 2431,
      "##617073": 2432,
      "##c3c": 2433,
      "0x10771": 2434,
      "0x230e0": 2435,
      "0x23076": 2436,
      "0x230b8": 2437,
      "0x23f26": 2438,
      "0x2141c": 2439,
      "0x15f6a": 2440,
      "##9e5": 2441,
      "##bd9": 2442,
      "0x24da4": 2443,
      "0x24c60": 2444,
      "0x1349f": 2445,
      "##a12": 2446,
      "0x1e7aa": 2447,
      "0xdf03": 2448,
      "0x1b861": 2449,
      "0x1b89e": 2450,
      "##fcb": 2451,
      "##48b": 2452,
      "0x5960": 2453,
      "0x5970": 2454,
      "0x596a": 2455,
      "0x5976": 2456,
      "0x5967": 2457,
      "0x597c": 2458,
      "0x596d": 2459,
      "0x220c5": 2460,
      "0x22af0": 2461,
      "0x18810": 2462,
      "0xbcd0": 2463,
      "0xbc5b": 2464,
      "0x22edf": 2465,
      "0x174ca": 2466,
      "##a74": 2467,
      "0x160ea": 2468,
      "0x160db": 2469,
      "0x204d8": 2470,
      "0x204b7": 2471,
      "0x204c9": 2472,
      "0x1e818": 2473,
      "0x1e827": 2474,
      "0x1e86b": 2475,
      "0x1e854": 2476,
      "0x21865": 2477,
      "0x21824": 2478,
      "0xfffffffe": 2479,
      "0xfffffffd": 2480,
      "0xffffffc7": 2481,
      "##df9": 2482,
      "##dfa": 2483,
      "##555": 2484,
      "0x227dc": 2485,
      "0x227fc": 2486,
      "0x1e464": 2487,
      "0x23310": 2488,
      "0x23ed8": 2489,
      "0x11460": 2490,
      "0x114f0": 2491,
      "0x1147e": 2492,
      "0x22c92": 2493,
      "0x22c48": 2494,
      "0x22c47": 2495,
      "0x25100": 2496,
      "0x25150": 2497,
      "0x2511d": 2498,
      "0x25490": 2499,
      "0x25e1f": 2500,
      "mulsd": 2501,
      "##de7": 2502,
      "##7f1": 2503,
      "0x10629": 2504,
      "0x208f8": 2505,
      "0x243b0": 2506,
      "0x243e0": 2507,
      "0x243f8": 2508,
      "0x24319": 2509,
      "0x24876": 2510,
      "0x24873": 2511,
      "0x22396": 2512,
      "0x1131a": 2513,
      "0x1d31f": 2514,
      "0x1d391": 2515,
      "##7da": 2516,
      "0x1ea34": 2517,
      "0x244e0": 2518,
      "0x24428": 2519,
      "0x195be": 2520,
      "0x19595": 2521,
      "##12a": 2522,
      "0x2008e": 2523,
      "0x24a95": 2524,
      "0xa493": 2525,
      "0xa40000": 2526,
      "0x766d": 2527,
      "0xbab8": 2528,
      "0x23250": 2529,
      "0x2322c": 2530,
      "0x14ca2": 2531,
      "0x14425": 2532,
      "0x14758": 2533,
      "0x23d92": 2534,
      "0x23470": 2535,
      "0x258cc": 2536,
      "0x258a8": 2537,
      "##aaaaaaaa": 2538,
      "0x1dd69": 2539,
      "0x1851d": 2540,
      "0x20dfd": 2541,
      "0x20e51": 2542,
      "0x143eb": 2543,
      "0x7edb": 2544,
      "0x225f4": 2545,
      "0x238d0": 2546,
      "0x11551": 2547,
      "0x257d4": 2548,
      "0x95c1": 2549,
      "0x95c4": 2550,
      "divsd": 2551,
      "0xc36b": 2552,
      "0x210c6": 2553,
      "0x217a0": 2554,
      "0x1fa67": 2555,
      "0x167a5": 2556,
      "0x20315": 2557,
      "0x20280": 2558,
      "0x2022c": 2559,
      "0x24fe0": 2560,
      "0x24560": 2561,
      "0x245d8": 2562,
      "0x24590": 2563,
      "0x245a8": 2564,
      "0x24e28": 2565,
      "0x63db": 2566,
      "0x63617073": 2567,
      "0x14565": 2568,
      "0x22692": 2569,
      "0x226f4": 2570,
      "0x2314f": 2571,
      "0x237af": 2572,
      "0x11af4": 2573,
      "0x23af8": 2574,
      "0x21cfa": 2575,
      "0xfa28": 2576,
      "0xe5f6": 2577,
      "0x1a43a": 2578,
      "0x5979": 2579,
      "0x597f": 2580,
      "0x5973": 2581,
      "0x6512": 2582,
      "0xb7e8": 2583,
      "0x22d71": 2584,
      "0x8f3c": 2585,
      "0x21b25": 2586,
      "0x1ce9e": 2587,
      "0x1adcc": 2588,
      "0x1ad6f": 2589,
      "0x15104": 2590,
      "fmulp": 2591,
      "0x5f91": 2592,
      "0x205d4": 2593,
      "0xca1e": 2594,
      "0xc223": 2595,
      "0xc221": 2596,
      "0x14f44": 2597,
      "0x22979": 2598,
      "0x22977": 2599,
      "0x1ef13": 2600,
      "0x23918": 2601,
      "0x239e8": 2602,
      "0x21163": 2603,
      "0x135a5": 2604,
      "0x1ccfd": 2605,
      "0x1c363": 2606,
      "0x1c528": 2607,
      "0x1c599": 2608,
      "0x1a730": 2609,
      "0x152ff": 2610,
      "##cccccccc": 2611,
      "0x1d127": 2612,
      "0x2b6c0": 2613,
      "0x102f3": 2614,
      "0x55cc": 2615,
      "0x5ab7": 2616,
      "0x20b57": 2617,
      "0x20e03": 2618,
      "0x20a8a": 2619,
      "0xc66f": 2620,
      "0xc9e8": 2621,
      "0xc446": 2622,
      "0x14a76": 2623,
      "0x725b": 2624,
      "0xb5fe": 2625,
      "0xb2c6": 2626,
      "0x1193b": 2627,
      "0x1f7c7": 2628,
      "0x17158": 2629,
      "0x173fc": 2630,
      "0x17b14": 2631,
      "0x1af40": 2632,
      "0x15c92": 2633,
      "0x1b14f": 2634,
      "0x1dcf7": 2635,
      "0x1df1e": 2636,
      "0x1de33": 2637,
      "0x3fffffff": 2638,
      "0x3ffffff53ffffff": 2639,
      "0x187fb": 2640,
      "0x20b71": 2641,
      "0xcf5c": 2642,
      "0x75af": 2643,
      "0x1e2d8": 2644,
      "0x255cc": 2645,
      "0x1cea5": 2646,
      "0xef64": 2647,
      "0xdf6b": 2648,
      "0x1b4c5": 2649,
      "cvtts": 2650,
      "cvtsi2sd": 2651,
      "0x10bef": 2652,
      "0x5582": 2653,
      "0x565f": 2654,
      "0x20aaa": 2655,
      "0x24d45": 2656,
      "0x733f": 2657,
      "0x224f7": 2658,
      "0x22d29": 2659,
      "0x21333": 2660,
      "0x2173c": 2661,
      "0x13adb": 2662,
      "0x13c01": 2663,
      "0xf5f9": 2664,
      "0x95d4": 2665,
      "0x127ad": 2666,
      "0xe569": 2667,
      "0x1fc40": 2668,
      "0x1fb42": 2669,
      "0x1f58a": 2670,
      "0xd9a3": 2671,
      "0x1a28b": 2672,
      "fucomi": 2673,
      "0x4fd9": 2674,
      "0x18a4e": 2675,
      "0x1875a": 2676,
      "0x10ced": 2677,
      "0x10d03": 2678,
      "0x5dc3": 2679,
      "0x2090c": 2680,
      "0x20b48": 2681,
      "0x20575": 2682,
      "0x20a96": 2683,
      "0x24bcb": 2684,
      "0x24951": 2685,
      "0x6703": 2686,
      "0xa3f9": 2687,
      "0xc33a": 2688,
      "0xc182": 2689,
      "0xc9c4": 2690,
      "0x14912": 2691,
      "0x7565": 2692,
      "0x725e": 2693,
      "0x2299b": 2694,
      "0x232d3": 2695,
      "0x23147": 2696,
      "0xfd0b": 2697,
      "0xf6b3": 2698,
      "0x9212": 2699,
      "0x924d": 2700,
      "0x1c48d": 2701,
      "0x1238b": 2702,
      "0xec0b": 2703,
      "0xe901": 2704,
      "0xecd1": 2705,
      "0x1f67c": 2706,
      "0x1fde3": 2707,
      "0x1999f": 2708,
      "0x19a16": 2709,
      "0x19cda": 2710,
      "0x17b0d": 2711,
      "0x15547": 2712,
      "0x1bce6": 2713,
      "0x1bb3e": 2714,
      "0x1d679": 2715,
      "0x1d683": 2716,
      "0xfffffffffffffff8": 2717,
      "0xa4000000": 2718,
      "cvttsd2si": 2719,
      "adc": 2720,
      "##160": 2721,
      "##1bc": 2722,
      "##17c": 2723,
      "##1f6": 2724,
      "##163": 2725,
      "##125": 2726,
      "##df0": 2727,
      "##d19": 2728,
      "##680": 2729,
      "##6cc": 2730,
      "##610": 2731,
      "##667": 2732,
      "##6ee": 2733,
      "##657": 2734,
      "##614": 2735,
      "##6f63": 2736,
      "##6373": 2737,
      "##01": 2738,
      "##0a": 2739,
      "##cf0": 2740,
      "##964": 2741,
      "##9d4": 2742,
      "##918": 2743,
      "##91d": 2744,
      "##9b4": 2745,
      "##9f3": 2746,
      "##997": 2747,
      "##9e4": 2748,
      "##9bb": 2749,
      "##fa8": 2750,
      "##fa3": 2751,
      "##f15": 2752,
      "##fc8": 2753,
      "##fa1": 2754,
      "##f5f": 2755,
      "##370": 2756,
      "##340": 2757,
      "##3b8": 2758,
      "##357": 2759,
      "##321": 2760,
      "##5f4": 2761,
      "##5a8": 2762,
      "##5ac": 2763,
      "##5a4": 2764,
      "##a33": 2765,
      "##ace": 2766,
      "##a28": 2767,
      "##ad3": 2768,
      "##2cc": 2769,
      "##26a": 2770,
      "##2a8": 2771,
      "##225": 2772,
      "##43": 2773,
      "##4a0": 2774,
      "##463": 2775,
      "##473": 2776,
      "##46e": 2777,
      "##e5": 2778,
      "##e7": 2779,
      "##e5c": 2780,
      "##e2b": 2781,
      "##e32": 2782,
      "##bea": 2783,
      "##bf0": 2784,
      "##b1e": 2785,
      "##ba8": 2786,
      "##b2d": 2787,
      "##793": 2788,
      "##7fd": 2789,
      "##77e": 2790,
      "##8d": 2791,
      "##88": 2792,
      "##rp": 2793,
      "##ns": 2794,
      "0xea0": 2795,
      "0x1dd0": 2796,
      "0x264": 2797,
      "0x2d8": 2798,
      "0x29a": 2799,
      "0x290": 2800,
      "0x295": 2801,
      "0x29e": 2802,
      "0x4f": 2803,
      "0x4cc": 2804,
      "0x4e0": 2805,
      "0x4d4": 2806,
      "0x4ea0": 2807,
      "0x4535": 2808,
      "0x4d80": 2809,
      "##ead": 2810,
      "##ea9": 2811,
      "##eaa": 2812,
      "##ddd": 2813,
      "##dd6": 2814,
      "##ddc": 2815,
      "0x3e8": 2816,
      "0x3feb": 2817,
      "0x18f0": 2818,
      "0x1820": 2819,
      "0x189a": 2820,
      "0x18e0": 2821,
      "0x1840": 2822,
      "0x18d4": 2823,
      "0x18f8": 2824,
      "0x18ae": 2825,
      "0x18ee": 2826,
      "0x18f4": 2827,
      "0x18e4": 2828,
      "0x1869": 2829,
      "0x1863": 2830,
      "0x18e8": 2831,
      "0x1817": 2832,
      "0x1822": 2833,
      "0x18c8": 2834,
      "0x1848": 2835,
      "0x184e": 2836,
      "0x1880d": 2837,
      "0x18ec2": 2838,
      "0x18283": 2839,
      "0x18abb": 2840,
      "0x185b2": 2841,
      "0x181bd": 2842,
      "0x1876c": 2843,
      "0x18bf4": 2844,
      "0x18fe5": 2845,
      "0x18535": 2846,
      "0x18ff1": 2847,
      "0x1850f": 2848,
      "0x18334": 2849,
      "0x18a86": 2850,
      "0x186d3": 2851,
      "0x186cc": 2852,
      "0x1080": 2853,
      "0x1010": 2854,
      "0x10c0": 2855,
      "0x106a": 2856,
      "0x109d": 2857,
      "0x1057": 2858,
      "0x1051": 2859,
      "0x104b": 2860,
      "0x1054": 2861,
      "0x106d": 2862,
      "0x1053": 2863,
      "0x10ee3": 2864,
      "0x10bad": 2865,
      "0x10f0b": 2866,
      "0x10132": 2867,
      "0x101a9": 2868,
      "0x10571": 2869,
      "0x10693": 2870,
      "0x10b7f": 2871,
      "0x109af": 2872,
      "0x109a2": 2873,
      "0x106ae": 2874,
      "0x10b4e": 2875,
      "0x10e4a": 2876,
      "0x10755": 2877,
      "0x1053d": 2878,
      "0x10a5e": 2879,
      "0x10db1": 2880,
      "0x10a71": 2881,
      "0x10b56": 2882,
      "0x10ea3": 2883,
      "0x10203": 2884,
      "0x10bcf": 2885,
      "0x10a4c": 2886,
      "0x105cd": 2887,
      "0x1025d": 2888,
      "0x10738": 2889,
      "0x1024a": 2890,
      "0x10c3c": 2891,
      "0x10f15": 2892,
      "0x10bea": 2893,
      "0x10ddc": 2894,
      "0x564": 2895,
      "0x500": 2896,
      "0x5d8": 2897,
      "0x5e0": 2898,
      "0x523": 2899,
      "0x51e": 2900,
      "0x5b4": 2901,
      "0x5a4": 2902,
      "0x56a7": 2903,
      "0x5f51": 2904,
      "0x5d26": 2905,
      "0x5abb": 2906,
      "0x59a5": 2907,
      "0x5ae7": 2908,
      "0x5d05": 2909,
      "0x5ee5": 2910,
      "0x55b5": 2911,
      "0x5649": 2912,
      "0x5ae9": 2913,
      "0x5fb1": 2914,
      "0x56e3": 2915,
      "0x56a2": 2916,
      "0x5aa1": 2917,
      "0x5996": 2918,
      "0x5f6b": 2919,
      "0x5a52": 2920,
      "0x59e5": 2921,
      "0x20f0": 2922,
      "0x2020": 2923,
      "0x20c0": 2924,
      "0x2030": 2925,
      "0x20bc": 2926,
      "0x20d4": 2927,
      "0x208e": 2928,
      "0x20ee": 2929,
      "0x204f": 2930,
      "0x2021": 2931,
      "0x2065": 2932,
      "0x20a4": 2933,
      "0x20a3": 2934,
      "0x2063": 2935,
      "0x2073": 2936,
      "0x20ec": 2937,
      "0x20c8": 2938,
      "0x20bd": 2939,
      "0x2052": 2940,
      "0x205f": 2941,
      "0x20f36": 2942,
      "0x201ad": 2943,
      "0x20b4b": 2944,
      "0x20dc5": 2945,
      "0x20a2f": 2946,
      "0x20d8c": 2947,
      "0x202e6": 2948,
      "0x20b39": 2949,
      "0x206de": 2950,
      "0x20707": 2951,
      "0x20f0c": 2952,
      "0x20c0c": 2953,
      "0x20188": 2954,
      "0x2092c": 2955,
      "0x20979": 2956,
      "0x20973": 2957,
      "0x20e45": 2958,
      "0x20d73": 2959,
      "0x20a31": 2960,
      "0x20759": 2961,
      "0x20af9": 2962,
      "0x207f2": 2963,
      "0x209a6": 2964,
      "0x20335": 2965,
      "0x20f3d": 2966,
      "0x20f42": 2967,
      "0x20262": 2968,
      "0x20918": 2969,
      "0x289": 2970,
      "0x2800": 2971,
      "0x286a": 2972,
      "0x2830": 2973,
      "0x28bc": 2974,
      "0x289d": 2975,
      "0x28b8": 2976,
      "0x2857": 2977,
      "0x284b": 2978,
      "0x2868": 2979,
      "0x28bb": 2980,
      "0x2855": 2981,
      "0x28fe2": 2982,
      "0x2860f": 2983,
      "0x2876d": 2984,
      "0x289d9": 2985,
      "0x28571": 2986,
      "0x285b5": 2987,
      "0x28693": 2988,
      "0x28561": 2989,
      "0x28696": 2990,
      "0x28fdb": 2991,
      "0x28538": 2992,
      "0x28318": 2993,
      "0x28d87": 2994,
      "0x289ae": 2995,
      "0x28671": 2996,
      "0x28347": 2997,
      "0x2869c": 2998,
      "0x286ca": 2999,
      "0x289e5": 3000,
      "0x28cf0": 3001,
      "0x28fc8": 3002,
      "0x28340": 3003,
      "0x284a0": 3004,
      "0x24ff": 3005,
      "0x24cc": 3006,
      "0x249a": 3007,
      "0x24c0": 3008,
      "0x24dd0": 3009,
      "0x24f8": 3010,
      "0x24aa": 3011,
      "0x2456": 3012,
      "0x24ae": 3013,
      "0x2418": 3014,
      "0x24d0": 3015,
      "0x2434": 3016,
      "0x248e": 3017,
      "0x2457": 3018,
      "0x2421": 3019,
      "0x24f6": 3020,
      "0x24dc": 3021,
      "0x24a8": 3022,
      "0x242d": 3023,
      "0x2493": 3024,
      "0x241f": 3025,
      "0x2417": 3026,
      "0x245b1": 3027,
      "0x24cca": 3028,
      "0x249aa": 3029,
      "0x24343": 3030,
      "0x24b4b": 3031,
      "0x243b9": 3032,
      "0x24c0a": 3033,
      "0x2476d": 3034,
      "0x24766": 3035,
      "0x24aaf": 3036,
      "0x24185": 3037,
      "0x2495c": 3038,
      "0x24a47": 3039,
      "0x24004": 3040,
      "0x24507": 3041,
      "0x24208": 3042,
      "0x249af": 3043,
      "0x24c0c": 3044,
      "0x24988": 3045,
      "0x24401": 3046,
      "0x24a03": 3047,
      "0x24f8a": 3048,
      "0x24ae9": 3049,
      "0x24926": 3050,
      "0x2492c": 3051,
      "0x244f9": 3052,
      "0x24513": 3053,
      "0x24d73": 3054,
      "0x24a38": 3055,
      "0x2452a": 3056,
      "0x2464b": 3057,
      "0x24b07": 3058,
      "0x24404": 3059,
      "0x24308": 3060,
      "0x24991": 3061,
      "0x24b36": 3062,
      "0x24ead": 3063,
      "0x24ddd": 3064,
      "0x600": 3065,
      "0x6e0": 3066,
      "0x698": 3067,
      "0x633": 3068,
      "0x630": 3069,
      "0x656": 3070,
      "0x62c": 3071,
      "0x614": 3072,
      "0x6ec": 3073,
      "0x653": 3074,
      "0x636": 3075,
      "0x61af": 3076,
      "0x627b": 3077,
      "0x6693": 3078,
      "0x61bd": 3079,
      "0x6bd1": 3080,
      "0x6188": 3081,
      "0x6755": 3082,
      "0x6a5e": 3083,
      "0x650d": 3084,
      "0x6409": 3085,
      "0x6373": 3086,
      "0x6581": 3087,
      "0x6686": 3088,
      "##ffd": 3089,
      "##ff6": 3090,
      "##ff0": 3091,
      "##fff": 3092,
      "##ffa": 3093,
      "##ff8": 3094,
      "0x38e3": 3095,
      "0xa70": 3096,
      "0xa1a": 3097,
      "0xaaa": 3098,
      "0xaee": 3099,
      "0xaf3": 3100,
      "0xa4f": 3101,
      "0xa5b": 3102,
      "0xa65": 3103,
      "0xa26": 3104,
      "0xa6d": 3105,
      "0xad3": 3106,
      "0xaf57": 3107,
      "0xab7a": 3108,
      "0xaae7": 3109,
      "0xa248": 3110,
      "0xad8f": 3111,
      "0xa988": 3112,
      "0xac8b": 3113,
      "0xa900": 3114,
      "0xa956": 3115,
      "0xaff7": 3116,
      "0xa50f": 3117,
      "0xa44a": 3118,
      "0xab32": 3119,
      "0xaafa": 3120,
      "0xad2a": 3121,
      "0xaaaaaaaaa": 3122,
      "0xa614": 3123,
      "0xa5f4": 3124,
      "0xab2d": 3125,
      "0xcf0": 3126,
      "0xcb0": 3127,
      "0xc1a": 3128,
      "0xcee": 3129,
      "0xcab": 3130,
      "0xc21": 3131,
      "0xcf7": 3132,
      "0xc1c": 3133,
      "0xc73": 3134,
      "0xcc3": 3135,
      "0xc66": 3136,
      "0xcd3": 3137,
      "0xc38": 3138,
      "0xc7d": 3139,
      "0xc96": 3140,
      "0xc74": 3141,
      "0xcf51": 3142,
      "0xc6a6": 3143,
      "0xcab1": 3144,
      "0xc929": 3145,
      "0xc27b": 3146,
      "0xcbbb": 3147,
      "0xc76d": 3148,
      "0xcae7": 3149,
      "0xcfc9": 3150,
      "0xc649": 3151,
      "0xc76c": 3152,
      "0xc973": 3153,
      "0xc752": 3154,
      "0xc180": 3155,
      "0xc604": 3156,
      "0xc708": 3157,
      "0xcce7": 3158,
      "0xcfba": 3159,
      "0xceb5": 3160,
      "0xc15f": 3161,
      "0xcfcb": 3162,
      "0xccccccccc": 3163,
      "0xc1bc": 3164,
      "0x1400": 3165,
      "0x14f0": 3166,
      "0x14b0": 3167,
      "0x1490": 3168,
      "0x14be": 3169,
      "0x1433": 3170,
      "0x14bc": 3171,
      "0x14d4": 3172,
      "0x14ae": 3173,
      "0x148e": 3174,
      "0x1495": 3175,
      "0x142c": 3176,
      "0x1497": 3177,
      "0x14ac": 3178,
      "0x14a4": 3179,
      "0x146b": 3180,
      "0x1493": 3181,
      "0x14ba": 3182,
      "0x146f": 3183,
      "0x149f": 3184,
      "0x149c": 3185,
      "0x149e": 3186,
      "0x149b": 3187,
      "0x145e": 3188,
      "0x1478f": 3189,
      "0x14c0a": 3190,
      "0x14a04": 3191,
      "0x1423b": 3192,
      "0x14958": 3193,
      "0x14571": 3194,
      "0x14994": 3195,
      "0x14707": 3196,
      "0x14904": 3197,
      "0x146ae": 3198,
      "0x14926": 3199,
      "0x14eee": 3200,
      "0x14b4f": 3201,
      "0x14fe5": 3202,
      "0x14759": 3203,
      "0x14631": 3204,
      "0x14fdb": 3205,
      "0x146e3": 3206,
      "0x14708": 3207,
      "0x14806": 3208,
      "0x14c03": 3209,
      "0x14f32": 3210,
      "0x145cd": 3211,
      "0x1426f": 3212,
      "0x14a74": 3213,
      "0x14f5f": 3214,
      "0x14eaa": 3215,
      "0x7f0": 3216,
      "0x7000": 3217,
      "0x798": 3218,
      "0x7ee": 3219,
      "0x7b8": 3220,
      "0x717": 3221,
      "0x76c": 3222,
      "0x778": 3223,
      "0x75e": 3224,
      "0x7ffffffff": 3225,
      "0x77cb": 3226,
      "0x7908": 3227,
      "0x7ee5": 3228,
      "0x7ae9": 3229,
      "0x71e6": 3230,
      "0x7a38": 3231,
      "0x7d87": 3232,
      "0x79726": 3233,
      "0xb60": 3234,
      "0xbd8": 3235,
      "0xbc0": 3236,
      "0xbbe": 3237,
      "0xbbc": 3238,
      "0xbaa": 3239,
      "0xbb8": 3240,
      "0xb57": 3241,
      "0xbb3": 3242,
      "0xb6c": 3243,
      "0xbdb": 3244,
      "0xbc09": 3245,
      "0xb2f": 3246,
      "0xbaab": 3247,
      "0xbb4b": 3248,
      "0xbabb": 3249,
      "0xbc0a": 3250,
      "0xb507": 3251,
      "0xbcc1": 3252,
      "0xbce8": 3253,
      "0xb188": 3254,
      "0xbb88": 3255,
      "0xb589": 3256,
      "0xb15d": 3257,
      "0xbb99": 3258,
      "0xb641": 3259,
      "0xb102": 3260,
      "0xb762": 3261,
      "0xb249": 3262,
      "0xbb1e": 3263,
      "##640": 3264,
      "##643": 3265,
      "##644": 3266,
      "##642f": 3267,
      "0x2270": 3268,
      "0x22b7": 3269,
      "0x2220": 3270,
      "0x2290": 3271,
      "0x2233": 3272,
      "0x22a0": 3273,
      "0x2292": 3274,
      "0x221e": 3275,
      "0x229d": 3276,
      "0x228e": 3277,
      "0x2295": 3278,
      "0x222c": 3279,
      "0x22b8": 3280,
      "0x22e4": 3281,
      "0x22f6": 3282,
      "0x2244": 3283,
      "0x22a4": 3284,
      "0x226b": 3285,
      "0x224b": 3286,
      "0x221c": 3287,
      "0x2213": 3288,
      "0x2263": 3289,
      "0x2214": 3290,
      "0x22fd": 3291,
      "0x22e8": 3292,
      "0x22eb": 3293,
      "0x2278": 3294,
      "0x226e": 3295,
      "0x22db": 3296,
      "0x2294": 3297,
      "0x22fc": 3298,
      "0x22bc4": 3299,
      "0x22f51": 3300,
      "0x22f0b": 3301,
      "0x2217a": 3302,
      "0x22107": 3303,
      "0x22ab1": 3304,
      "0x222d6": 3305,
      "0x22132": 3306,
      "0x22984": 3307,
      "0x22343": 3308,
      "0x22929": 3309,
      "0x228e8": 3310,
      "0x22ee8": 3311,
      "0x22b4b": 3312,
      "0x22dc5": 3313,
      "0x222ef": 3314,
      "0x2278f": 3315,
      "0x2260f": 3316,
      "0x22cc8": 3317,
      "0x22e08": 3318,
      "0x22908": 3319,
      "0x22ce1": 3320,
      "0x229d9": 3321,
      "0x22fe3": 3322,
      "0x2214d": 3323,
      "0x226de": 3324,
      "0x22eb2": 3325,
      "0x22004": 3326,
      "0x22707": 3327,
      "0x22cc1": 3328,
      "0x22988": 3329,
      "0x22903": 3330,
      "0x22561": 3331,
      "0x22282": 3332,
      "0x22959": 3333,
      "0x22589": 3334,
      "0x22f7f": 3335,
      "0x22694": 3336,
      "0x22222": 3337,
      "0x22ea6": 3338,
      "0x22503": 3339,
      "0x22d81": 3340,
      "0x22c03": 3341,
      "0x22762": 3342,
      "0x22d46": 3343,
      "0x2234e": 3344,
      "0x22573": 3345,
      "0x22f42": 3346,
      "0x22a86": 3347,
      "0x22ba2": 3348,
      "0x22686": 3349,
      "0x22b32": 3350,
      "0x22738": 3351,
      "0x226fc": 3352,
      "0x226cf": 3353,
      "0x22ec4": 3354,
      "0x22a12": 3355,
      "0x2212a": 3356,
      "0x22643": 3357,
      "0x1e90": 3358,
      "0x1ed4": 3359,
      "0x1e18": 3360,
      "0x1eee": 3361,
      "0x1e5c": 3362,
      "0x1efb": 3363,
      "0x1e93": 3364,
      "0x1e7e": 3365,
      "0x1ed2": 3366,
      "0x1e61": 3367,
      "0x1e9e": 3368,
      "0x1e3f": 3369,
      "0x1e18e": 3370,
      "0x1e1c1": 3371,
      "0x1e60c": 3372,
      "0x1ed8c": 3373,
      "0x1ebf9": 3374,
      "0x1ef6c": 3375,
      "0x1ef73": 3376,
      "0x1e442": 3377,
      "0x1eb7f": 3378,
      "0x1e973": 3379,
      "0x1efb1": 3380,
      "0x1e752": 3381,
      "0x1e15d": 3382,
      "0x1e508": 3383,
      "0x1eb75": 3384,
      "0x1e985": 3385,
      "0x1e33c": 3386,
      "0x1ebcf": 3387,
      "0x1edca": 3388,
      "0x1ebd9": 3389,
      "0x1ede7": 3390,
      "0x1e125": 3391,
      "0x1e5a8": 3392,
      "0x1e640": 3393,
      "0x49f0": 3394,
      "0x4940": 3395,
      "0x49a0": 3396,
      "0x4935": 3397,
      "0x4941": 3398,
      "0x4860": 3399,
      "0x4880": 3400,
      "0x48e0": 3401,
      "0x48d0": 3402,
      "0x2360": 3403,
      "0x23b7": 3404,
      "0x2320": 3405,
      "0x2310": 3406,
      "0x2398": 3407,
      "0x23be": 3408,
      "0x2330": 3409,
      "0x23f8": 3410,
      "0x2356": 3411,
      "0x23d0": 3412,
      "0x231e": 3413,
      "0x23b8": 3414,
      "0x2357": 3415,
      "0x2397": 3416,
      "0x23f4": 3417,
      "0x235b": 3418,
      "0x2337": 3419,
      "0x2351": 3420,
      "0x2358": 3421,
      "0x2344": 3422,
      "0x23ac": 3423,
      "0x23fe": 3424,
      "0x236b": 3425,
      "0x235c": 3426,
      "0x2363": 3427,
      "0x2368": 3428,
      "0x23b3": 3429,
      "0x23e8": 3430,
      "0x2317": 3431,
      "0x2324": 3432,
      "0x23ec": 3433,
      "0x23d5": 3434,
      "0x23d2": 3435,
      "0x236a7": 3436,
      "0x2374": 3437,
      "0x2380d": 3438,
      "0x2328f": 3439,
      "0x238e8": 3440,
      "0x23101": 3441,
      "0x23908": 3442,
      "0x2376d": 3443,
      "0x23aaf": 3444,
      "0x2351f": 3445,
      "0x23442": 3446,
      "0x2365e": 3447,
      "0x23d59": 3448,
      "0x239a8": 3449,
      "0x23c0c": 3450,
      "0x2398d": 3451,
      "0x236ae": 3452,
      "0x23765": 3453,
      "0x23d4a": 3454,
      "0x23ce8": 3455,
      "0x23bf4": 3456,
      "0x23b47": 3457,
      "0x2321b": 3458,
      "0x23696": 3459,
      "0x23fb1": 3460,
      "0x23138": 3461,
      "0x23535": 3462,
      "0x2352a": 3463,
      "0x23b07": 3464,
      "0x23402": 3465,
      "0x23bf2": 3466,
      "0x2327d": 3467,
      "0x23f6e": 3468,
      "0x23dc8": 3469,
      "0x2325d": 3470,
      "0x23fda": 3471,
      "0x23afc": 3472,
      "0x23786": 3473,
      "0x236e5": 3474,
      "0x23bd9": 3475,
      "0x2348b": 3476,
      "0x23ea9": 3477,
      "0x23ff6": 3478,
      "0x119a": 3479,
      "0x11e0": 3480,
      "0x1198": 3481,
      "0x111a": 3482,
      "0x1123": 3483,
      "0x11f8": 3484,
      "0x1128": 3485,
      "0x119d": 3486,
      "0x118e": 3487,
      "0x117c": 3488,
      "0x114f": 3489,
      "0x1197": 3490,
      "0x11a8": 3491,
      "0x116b": 3492,
      "0x112e": 3493,
      "0x1163": 3494,
      "0x11fd": 3495,
      "0x1168": 3496,
      "0x1117": 3497,
      "0x11a5": 3498,
      "0x11bb": 3499,
      "0x119e": 3500,
      "0x1166": 3501,
      "0x11fc": 3502,
      "0x11184": 3503,
      "0x1137b": 3504,
      "0x111da": 3505,
      "0x11132": 3506,
      "0x118e8": 3507,
      "0x1160f": 3508,
      "0x11f07": 3509,
      "0x1123b": 3510,
      "0x11958": 3511,
      "0x115b5": 3512,
      "0x11bd1": 3513,
      "0x11904": 3514,
      "0x11513": 3515,
      "0x11696": 3516,
      "0x11a38": 3517,
      "0x11752": 3518,
      "0x11af9": 3519,
      "0x11a5e": 3520,
      "0x116d4": 3521,
      "0x11402": 3522,
      "0x11bc5": 3523,
      "0x1144a": 3524,
      "0x11a4c": 3525,
      "0x112de": 3526,
      "0x11249": 3527,
      "0x1178c": 3528,
      "0x11555": 3529,
      "0x11680": 3530,
      "0x11fa8": 3531,
      "0x2580": 3532,
      "0x25cc": 3533,
      "0x25000": 3534,
      "0x2590": 3535,
      "0x251a": 3536,
      "0x25d4": 3537,
      "0x25f8": 3538,
      "0x25aa": 3539,
      "0x25ae": 3540,
      "0x25d0": 3541,
      "0x258e": 3542,
      "0x25b4": 3543,
      "0x25b8": 3544,
      "0x257c": 3545,
      "0x254f": 3546,
      "0x2551": 3547,
      "0x25f7": 3548,
      "0x25a4": 3549,
      "0x25fb": 3550,
      "0x252e": 3551,
      "0x251c": 3552,
      "0x25e8": 3553,
      "0x2515": 3554,
      "0x259f": 3555,
      "0x25d3": 3556,
      "0x25ad": 3557,
      "0x25f1": 3558,
      "0x259aa": 3559,
      "0x257c8": 3560,
      "0x25f0b": 3561,
      "0x2517a": 3562,
      "0x25cb": 3563,
      "0x25132": 3564,
      "0x257e2": 3565,
      "0x25b4b": 3566,
      "0x25bbb": 3567,
      "0x25d89": 3568,
      "0x25cc8": 3569,
      "0x25e08": 3570,
      "0x2590d": 3571,
      "0x25ce1": 3572,
      "0x25ae7": 3573,
      "0x2514d": 3574,
      "0x251bd": 3575,
      "0x25c3a": 3576,
      "0x25ea2": 3577,
      "0x259af": 3578,
      "0x259a2": 3579,
      "0x25f8a": 3580,
      "0x25eee": 3581,
      "0x25b88": 3582,
      "0x25513": 3583,
      "0x25f6d": 3584,
      "0x25af9": 3585,
      "0x25a71": 3586,
      "0x256b8": 3587,
      "0x25509": 3588,
      "0x25d81": 3589,
      "0x25e09": 3590,
      "0x25409": 3591,
      "0x25266": 3592,
      "0x25dfa": 3593,
      "0x25610": 3594,
      "0x8e0": 3595,
      "0x8be": 3596,
      "0x8a0": 3597,
      "0x858": 3598,
      "0x8a8": 3599,
      "0x81c": 3600,
      "0x873": 3601,
      "0x8e8": 3602,
      "0x817": 3603,
      "0x880d": 3604,
      "0x8924": 3605,
      "0x83b9": 3606,
      "0x85b2": 3607,
      "0x8f6c": 3608,
      "0x8903": 3609,
      "0x8fe5": 3610,
      "0x87f2": 3611,
      "0x8508": 3612,
      "0x8517": 3613,
      "0x8991": 3614,
      "0x8997": 3615,
      "0x8e5c": 3616,
      "##601": 3617,
      "##603": 3618,
      "##60e": 3619,
      "##00d": 3620,
      "0x2150": 3621,
      "0x21cc": 3622,
      "0x21be": 3623,
      "0x21a0": 3624,
      "0x21bc": 3625,
      "0x21d4": 3626,
      "0x21f8": 3627,
      "0x21aa": 3628,
      "0x2156": 3629,
      "0x21ce": 3630,
      "0x217c": 3631,
      "0x21f3": 3632,
      "0x21f4": 3633,
      "0x2158": 3634,
      "0x21e4": 3635,
      "0x2199": 3636,
      "0x2121": 3637,
      "0x2127": 3638,
      "0x2144": 3639,
      "0x2165": 3640,
      "0x21ac": 3641,
      "0x21d7": 3642,
      "0x21a3": 3643,
      "0x2163": 3644,
      "0x2193": 3645,
      "0x211b": 3646,
      "0x2117": 3647,
      "0x21a9": 3648,
      "0x21ec": 3649,
      "0x2178": 3650,
      "0x21db": 3651,
      "0x2194": 3652,
      "0x21d3": 3653,
      "0x21cd": 3654,
      "0x21de": 3655,
      "0x213f": 3656,
      "0x212b": 3657,
      "0x21c2": 3658,
      "0x21ff9": 3659,
      "0x21381": 3660,
      "0x21107": 3661,
      "0x2128f": 3662,
      "0x218e8": 3663,
      "0x21cc8": 3664,
      "0x2190d": 3665,
      "0x21ce1": 3666,
      "0x21d05": 3667,
      "0x215b5": 3668,
      "0x21f63": 3669,
      "0x21442": 3670,
      "0x214b1": 3671,
      "0x211bd": 3672,
      "0x21649": 3673,
      "0x21f0c": 3674,
      "0x219a8": 3675,
      "0x21a03": 3676,
      "0x21561": 3677,
      "0x21b4f": 3678,
      "0x2121b": 3679,
      "0x21275": 3680,
      "0x21f72": 3681,
      "0x212e5": 3682,
      "0x2122a": 3683,
      "0x21ea6": 3684,
      "0x21ff1": 3685,
      "0x21985": 3686,
      "0x2167e": 3687,
      "0x2134e": 3688,
      "0x211d7": 3689,
      "0x219d1": 3690,
      "0x21feb": 3691,
      "0x21a49": 3692,
      "0x216ca": 3693,
      "0x21d2f": 3694,
      "0x21dfa": 3695,
      "0x21dd6": 3696,
      "0x21ffd": 3697,
      "0xa829": 3698,
      "0xa849": 3699,
      "0xa8e6": 3700,
      "0xa8f5": 3701,
      "0x136": 3702,
      "0x1380": 3703,
      "0x13b0": 3704,
      "0x1323": 3705,
      "0x13ae": 3706,
      "0x1328": 3707,
      "0x13d0": 3708,
      "0x1319": 3709,
      "0x13ab": 3710,
      "0x13f7": 3711,
      "0x13ac": 3712,
      "0x131f": 3713,
      "0x13c8": 3714,
      "0x13a7": 3715,
      "0x135f": 3716,
      "0x1374": 3717,
      "0x13ec2": 3718,
      "0x131d2": 3719,
      "0x131c1": 3720,
      "0x131ad": 3721,
      "0x13aab": 3722,
      "0x13101": 3723,
      "0x131a9": 3724,
      "0x1325f": 3725,
      "0x13ebb": 3726,
      "0x131d6": 3727,
      "0x13926": 3728,
      "0x13f6d": 3729,
      "0x13d73": 3730,
      "0x13fdb": 3731,
      "0x1361d": 3732,
      "0x13334": 3733,
      "0x1367a": 3734,
      "0x1356e": 3735,
      "0x13347": 3736,
      "0x13fa1": 3737,
      "0x13ff0": 3738,
      "0x13601": 3739,
      "0xfd8": 3740,
      "0xf9a": 3741,
      "0xfb4": 3742,
      "0xf57": 3743,
      "0xfab": 3744,
      "0xf37": 3745,
      "0xf15": 3746,
      "0xf7e": 3747,
      "0xfea0": 3748,
      "0xf94": 3749,
      "0xf9b3": 3750,
      "0xf982": 3751,
      "0xf6a6": 3752,
      "0xf1ad": 3753,
      "0xfaaf": 3754,
      "0xf95c": 3755,
      "0xf994": 3756,
      "0xfa35": 3757,
      "0xf25f": 3758,
      "0xfaf1": 3759,
      "0xfeb2": 3760,
      "0xf9c7": 3761,
      "0xf98e": 3762,
      "0xf765": 3763,
      "0xf282": 3764,
      "0xf152": 3765,
      "0xf956": 3766,
      "0xfb99": 3767,
      "0xf671": 3768,
      "0xf999": 3769,
      "0xfafc": 3770,
      "0xf7f1": 3771,
      "0xf7da": 3772,
      "0xf9bb": 3773,
      "0xf321": 3774,
      "0xf225": 3775,
      "##d83": 3776,
      "##d84": 3777,
      "0x9f": 3778,
      "0x9b7": 3779,
      "0x9a0": 3780,
      "0x9aa": 3781,
      "0x944": 3782,
      "0x9ac": 3783,
      "0x9fd": 3784,
      "0x9e8": 3785,
      "0x978": 3786,
      "0x9c3": 3787,
      "0x948": 3788,
      "0x97cb": 3789,
      "0x9ce1": 3790,
      "0x9004": 3791,
      "0x9904": 3792,
      "0x9589": 3793,
      "0x9e4a": 3794,
      "0x92e5": 3795,
      "0x954a": 3796,
      "0x9ea7": 3797,
      "0x918a": 3798,
      "0x9ec4": 3799,
      "0x953b": 3800,
      "0x9357": 3801,
      "0x977e": 3802,
      "##701": 3803,
      "0x1c76": 3804,
      "0x1c8e": 3805,
      "0x1cab": 3806,
      "0x1cd7": 3807,
      "0x1c6d": 3808,
      "0x1c9f": 3809,
      "0x1cf89": 3810,
      "0x1c4e": 3811,
      "0x1cabb": 3812,
      "0x1c60f": 3813,
      "0x1c1ab": 3814,
      "0x1cd4a": 3815,
      "0x1ce45": 3816,
      "0x1c7f2": 3817,
      "0x1c804": 3818,
      "0x1ca49": 3819,
      "0x1c6f1": 3820,
      "0x1cd2a": 3821,
      "0x1cde7": 3822,
      "0x1cba8": 3823,
      "0x1c793": 3824,
      "0x1230": 3825,
      "0x12bc": 3826,
      "0x12f8": 3827,
      "0x1228": 3828,
      "0x1234": 3829,
      "0x12bf": 3830,
      "0x129d": 3831,
      "0x12f4": 3832,
      "0x1251": 3833,
      "0x122e": 3834,
      "0x1273": 3835,
      "0x12e8": 3836,
      "0x126c": 3837,
      "0x12ec": 3838,
      "0x129b": 3839,
      "0x12d3": 3840,
      "0x12de": 3841,
      "0x12fe2": 3842,
      "0x12348": 3843,
      "0x1250a": 3844,
      "0x12f51": 3845,
      "0x12f36": 3846,
      "0x1217a": 3847,
      "0x122ef": 3848,
      "0x12c0a": 3849,
      "0x12a04": 3850,
      "0x12aaf": 3851,
      "0x1225f": 3852,
      "0x12785": 3853,
      "0x129c7": 3854,
      "0x12fc9": 3855,
      "0x129a8": 3856,
      "0x12330": 3857,
      "0x122df": 3858,
      "0x12fcf": 3859,
      "0x12180": 3860,
      "0x12641": 3861,
      "0x1264b": 3862,
      "0x12d80": 3863,
      "0x129ae": 3864,
      "0x12beb": 3865,
      "0x1276e": 3866,
      "0x121e2": 3867,
      "0x12f32": 3868,
      "0x12dca": 3869,
      "0x12fda": 3870,
      "0x1268f": 3871,
      "0x126f1": 3872,
      "0x12eb5": 3873,
      "0x129fa": 3874,
      "0x126e5": 3875,
      "0x12df9": 3876,
      "0x127f1": 3877,
      "0x12163": 3878,
      "0x129d4": 3879,
      "0x12ace": 3880,
      "0x12603": 3881,
      "0x401": 3882,
      "0x4068": 3883,
      "0x4071": 3884,
      "0x4016": 3885,
      "0xe40": 3886,
      "0xe30": 3887,
      "0xef8": 3888,
      "0xe18": 3889,
      "0xebf": 3890,
      "0xe1e": 3891,
      "0xeb4": 3892,
      "0xee4": 3893,
      "0xef6": 3894,
      "0xe2e": 3895,
      "0xe54": 3896,
      "0xe68": 3897,
      "0xe15": 3898,
      "0xefc": 3899,
      "0xe37d": 3900,
      "0xe37e": 3901,
      "0xe51f": 3902,
      "0xe765": 3903,
      "0xed4a": 3904,
      "0xe1d9": 3905,
      "0xeb4f": 3906,
      "0xe53d": 3907,
      "0xec8b": 3908,
      "0xe6d4": 3909,
      "0xe292": 3910,
      "0xeb56": 3911,
      "0xeea7": 3912,
      "0xe67e": 3913,
      "0xebc5": 3914,
      "0xed46": 3915,
      "0xefba": 3916,
      "0xe78c": 3917,
      "0xe26a": 3918,
      "0xee32": 3919,
      "0xeff8": 3920,
      "0xe644": 3921,
      "0x1f33": 3922,
      "0x1f76": 3923,
      "0x1fbc": 3924,
      "0x1fd4": 3925,
      "0x1f56": 3926,
      "0x1f18": 3927,
      "0x1f92": 3928,
      "0x1f8e": 3929,
      "0x1f37": 3930,
      "0x1fa8": 3931,
      "0x1f1c": 3932,
      "0x1f13": 3933,
      "0x1f26": 3934,
      "0x1fec": 3935,
      "0x1f94": 3936,
      "0x1f29": 3937,
      "0x1f5e": 3938,
      "0x1f4e": 3939,
      "0x1f46": 3940,
      "0x1f7c8": 3941,
      "0x1faab": 3942,
      "0x1f7e2": 3943,
      "0x1f90d": 3944,
      "0x1f9d9": 3945,
      "0x1f95c": 3946,
      "0x1f37e": 3947,
      "0x1f51f": 3948,
      "0x1fb39": 3949,
      "0x1f9c7": 3950,
      "0x1f1e6": 3951,
      "0x1f9d2": 3952,
      "0x1feee": 3953,
      "0x1fb88": 3954,
      "0x1fe45": 3955,
      "0x1f22a": 3956,
      "0x1f102": 3957,
      "0x1f1e2": 3958,
      "0x1f5c4": 3959,
      "0x1f541": 3960,
      "0x1fb36": 3961,
      "0x1f6da": 3962,
      "0x1f9fa": 3963,
      "0x1fa74": 3964,
      "0x1fd84": 3965,
      "0x50e0": 3966,
      "0x50ce": 3967,
      "0x5021": 3968,
      "0x50f2": 3969,
      "0x585e": 3970,
      "0x246ea": 3971,
      "0x24667": 3972,
      "0x246f8": 3973,
      "0x246d0": 3974,
      "0x2469d": 3975,
      "0x24669": 3976,
      "0x246b3": 3977,
      "0x2466c": 3978,
      "0x246d5": 3979,
      "0x24661": 3980,
      "0x2465a": 3981,
      "0x24689": 3982,
      "0x246c5": 3983,
      "0x2467b": 3984,
      "0x24687": 3985,
      "0xd76": 3986,
      "0xd23": 3987,
      "0xd37": 3988,
      "0xd6b": 3989,
      "0xd1f": 3990,
      "0xd6c": 3991,
      "0xd55": 3992,
      "0xd5e": 3993,
      "0xdb7a": 3994,
      "0xdbf9": 3995,
      "0xd4fa": 3996,
      "0xdfe1": 3997,
      "0xd64f": 3998,
      "0xd501": 3999,
      "0xd959": 4000,
      "0xd759": 4001,
      "0xd6e3": 4002,
      "0xd52a": 4003,
      "0xdf3d": 4004,
      "0xd68f": 4005,
      "0xd6fc": 4006,
      "0xd15f": 4007,
      "0xd786": 4008,
      "0xde2b": 4009,
      "0x199a": 4010,
      "0x19ae": 4011,
      "0x19f7": 4012,
      "0x19d7": 4013,
      "0x191f": 4014,
      "0x1953": 4015,
      "0x19d5": 4016,
      "0x196e": 4017,
      "0x19a2": 4018,
      "0x19d3": 4019,
      "0x19add": 4020,
      "0x194e": 4021,
      "0x19eb9": 4022,
      "0x19a0c": 4023,
      "0x19442": 4024,
      "0x191d9": 4025,
      "0x19f6d": 4026,
      "0x19694": 4027,
      "0x196b8": 4028,
      "0x19a2c": 4029,
      "0x19503": 4030,
      "0x19667": 4031,
      "0x19ad3": 4032,
      "0x19ffa": 4033,
      "0x1780": 4034,
      "0x17e0": 4035,
      "0x1719": 4036,
      "0x1757": 4037,
      "0x175b": 4038,
      "0x1744": 4039,
      "0x17ac": 4040,
      "0x1793": 4041,
      "0x17bb": 4042,
      "0x176a7": 4043,
      "0x1750a": 4044,
      "0x1700e": 4045,
      "0x175b2": 4046,
      "0x1725f": 4047,
      "0x17ce8": 4048,
      "0x17f7a": 4049,
      "0x17b35": 4050,
      "0x17a71": 4051,
      "0x17f6e": 4052,
      "0x175c4": 4053,
      "0x176da": 4054,
      "0x176cf": 4055,
      "0x17a52": 4056,
      "0x17a12": 4057,
      "0x17fcb": 4058,
      "0x17df9": 4059,
      "0x176ee": 4060,
      "0x175a4": 4061,
      "0x1ac0": 4062,
      "0x1a34": 4063,
      "0x1aa8": 4064,
      "0x1a6c": 4065,
      "0x1a7e": 4066,
      "0x1ad3": 4067,
      "0x1a52": 4068,
      "0x1a5e": 4069,
      "0x1abad": 4070,
      "0x1a7cb": 4071,
      "0x1ad89": 4072,
      "0x1acc8": 4073,
      "0x1a571": 4074,
      "0x1a5b2": 4075,
      "0x1aeb2": 4076,
      "0x1a507": 4077,
      "0x1acc1": 4078,
      "0x1a9a2": 4079,
      "0x1ab47": 4080,
      "0x1a755": 4081,
      "0x1a53d": 4082,
      "0x1a292": 4083,
      "0x1ad88": 4084,
      "0x1a203": 4085,
      "0x1a67a": 4086,
      "0x1a517": 4087,
      "0x1a2de": 4088,
      "0x1a541": 4089,
      "0x1a48b": 4090,
      "0x1a160": 4091,
      "0x1a9b4": 4092,
      "0x1a370": 4093,
      "0x1abf0": 4094,
      "0x1580": 4095,
      "0x15a0": 4096,
      "0x15bf": 4097,
      "0x151e": 4098,
      "0x152c": 4099,
      "0x1519": 4100,
      "0x15ab": 4101,
      "0x1521": 4102,
      "0x1524": 4103,
      "0x1522": 4104,
      "0x159c": 4105,
      "0x15a7": 4106,
      "0x152b": 4107,
      "0x151ad": 4108,
      "0x1500e": 4109,
      "0x1523b": 4110,
      "0x15248": 4111,
      "0x1520c": 4112,
      "0x15a03": 4113,
      "0x151e6": 4114,
      "0x152c6": 4115,
      "0x15979": 4116,
      "0x151b2": 4117,
      "0x1522a": 4118,
      "0x15900": 4119,
      "0x15ff7": 4120,
      "0x1569c": 4121,
      "0x15c3c": 4122,
      "0x15964": 4123,
      "0x155ac": 4124,
      "0x6894": 4125,
      "0x689b": 4126,
      "0x685e": 4127,
      "0x68f1": 4128,
      "0x6831": 4129,
      "##b73": 4130,
      "0xc020": 4131,
      "0xc021": 4132,
      "0xc0af": 4133,
      "0xc0a9": 4134,
      "0xc0eb": 4135,
      "0xc0a2": 4136,
      "0xc0c2": 4137,
      "0xc0d6": 4138,
      "0xc082": 4139,
      "0xc043": 4140,
      "0x4a50": 4141,
      "0x4ae0": 4142,
      "0x4a90": 4143,
      "0x4abe": 4144,
      "0x4a40": 4145,
      "0x4aa0": 4146,
      "0x4a76": 4147,
      "0x4a22": 4148,
      "0x4ae7": 4149,
      "0x707e": 4150,
      "0x988e": 4151,
      "0x983c": 4152,
      "##cc7": 4153,
      "0x6075": 4154,
      "0x60eb": 4155,
      "##20d": 4156,
      "##20a": 4157,
      "0x1698": 4158,
      "0x16b8": 4159,
      "0x16a8": 4160,
      "0x16a4": 4161,
      "0x16e8": 4162,
      "0x166d": 4163,
      "0x166c": 4164,
      "0x16a9": 4165,
      "0x16ec": 4166,
      "0x16982": 4167,
      "0x166f5": 4168,
      "0x16abb": 4169,
      "0x163b9": 4170,
      "0x16656": 4171,
      "0x1664f": 4172,
      "0x169d2": 4173,
      "0x16b47": 4174,
      "0x16318": 4175,
      "0x16ea3": 4176,
      "0x16604": 4177,
      "0x16509": 4178,
      "0x1676e": 4179,
      "0x169d1": 4180,
      "0x16581": 4181,
      "0x16262": 4182,
      "0x16d2f": 4183,
      "0x167da": 4184,
      "0x16d19": 4185,
      "0x163b8": 4186,
      "0x16fff": 4187,
      "0x1be0": 4188,
      "0x1b2c": 4189,
      "0x1bfe": 4190,
      "0x1be8": 4191,
      "0x1bec": 4192,
      "0x1b6e": 4193,
      "0x1ba1": 4194,
      "0x1ba7": 4195,
      "0x1b38": 4196,
      "0x1b506": 4197,
      "0x1bbad": 4198,
      "0x1b00e": 4199,
      "0x1b1af": 4200,
      "0x1b8ed": 4201,
      "0x1b8e8": 4202,
      "0x1b4fa": 4203,
      "0x1b282": 4204,
      "0x1b21b": 4205,
      "0x1b2df": 4206,
      "0x1bd88": 4207,
      "0x1baa1": 4208,
      "0x1b6d3": 4209,
      "0x1bafa": 4210,
      "0x1b53b": 4211,
      "0x1b2a8": 4212,
      "0x1bd83": 4213,
      "0x1bb73": 4214,
      "0x1d95": 4215,
      "0x1dee": 4216,
      "0x1d19": 4217,
      "0x1d37": 4218,
      "0x1d27": 4219,
      "0x1d65": 4220,
      "0x1d13": 4221,
      "0x1d63": 4222,
      "0x1dba": 4223,
      "0x1d6c": 4224,
      "0x1d6e": 4225,
      "0x1d27b": 4226,
      "0x1d60c": 4227,
      "0x1deb2": 4228,
      "0x1d903": 4229,
      "0x1df8a": 4230,
      "0x1de4a": 4231,
      "0x1df72": 4232,
      "0x1dacd": 4233,
      "0x1db75": 4234,
      "0x1dce7": 4235,
      "0x1d1d7": 4236,
      "0x1da28": 4237,
      "0x1d2cc": 4238,
      "0x1d7fd": 4239,
      "0x1d00d": 4240,
      "0x1dcc7": 4241,
      "0x4b00": 4242,
      "0x4b50": 4243,
      "0x4b80": 4244,
      "0x4bc0": 4245,
      "0x4b30": 4246,
      "0x4bd0": 4247,
      "0x2c2": 4248,
      "##0002b": 4249,
      "0x1d81d": 4250,
      "0x1d8db": 4251,
      "0x1d859": 4252,
      "0x1d8e2": 4253,
      "0x809b": 4254,
      "0x80ca": 4255,
      "0x808b": 4256,
      "##be3": 4257,
      "0x4c60": 4258,
      "0x4c80": 4259,
      "0x4c10": 4260,
      "0x4c40": 4261,
      "0x4ca0": 4262,
      "0x4cd0": 4263,
      "0x2718": 4264,
      "0x272c": 4265,
      "0x27b4": 4266,
      "0x27b8": 4267,
      "0x2797": 4268,
      "0x27f4": 4269,
      "0x27db": 4270,
      "0x2794": 4271,
      "0x27de": 4272,
      "0x27bbb": 4273,
      "0x279a5": 4274,
      "0x2790d": 4275,
      "0x2723b": 4276,
      "0x279c7": 4277,
      "0x27d8b": 4278,
      "0x2776c": 4279,
      "0x271d9": 4280,
      "0x27959": 4281,
      "0x27275": 4282,
      "0x27c8b": 4283,
      "0x279bd": 4284,
      "0x27a2c": 4285,
      "0x27806": 4286,
      "0x27e09": 4287,
      "0x27335": 4288,
      "0x27bf2": 4289,
      "0x27996": 4290,
      "0x27dc8": 4291,
      "0x27266": 4292,
      "0x27142": 4293,
      "0x27ba2": 4294,
      "0x2724a": 4295,
      "0x279f3": 4296,
      "0x27a33": 4297,
      "0x2720a": 4298,
      "0x27be3": 4299,
      "0xb833": 4300,
      "0xb8a0": 4301,
      "0xb86c": 4302,
      "0xb835": 4303,
      "##7665": 4304,
      "##762f": 4305,
      "##30a": 4306,
      "##304": 4307,
      "0x64ce": 4308,
      "0x64bf": 4309,
      "0x641d": 4310,
      "0x6461": 4311,
      "0x6455": 4312,
      "0x643a": 4313,
      "0x647b": 4314,
      "0x64657": 4315,
      "0xb410": 4316,
      "0xb4a3": 4317,
      "0xb4f1": 4318,
      "0xb4b5": 4319,
      "0xb48b": 4320,
      "0xb4f2": 4321,
      "0xb462": 4322,
      "##673": 4323,
      "0x2623": 4324,
      "0x2628": 4325,
      "0x261e": 4326,
      "0x262c": 4327,
      "0x26f7": 4328,
      "0x261c": 4329,
      "0x2668": 4330,
      "0x2615": 4331,
      "0x26c09": 4332,
      "0x26c8": 4333,
      "0x269b3": 4334,
      "0x2637d": 4335,
      "0x266f5": 4336,
      "0x26283": 4337,
      "0x26f07": 4338,
      "0x269d9": 4339,
      "0x26693": 4340,
      "0x26fe1": 4341,
      "0x26b7f": 4342,
      "0x261d6": 4343,
      "0x2692c": 4344,
      "0x2625a": 4345,
      "0x269b2": 4346,
      "0x2661d": 4347,
      "0x269bd": 4348,
      "0x2650d": 4349,
      "0x26ccd": 4350,
      "0x26beb": 4351,
      "0x261a6": 4352,
      "0x2618a": 4353,
      "0x26999": 4354,
      "0x2627d": 4355,
      "0x26f6b": 4356,
      "0x2612a": 4357,
      "0x261f6": 4358,
      "0x26df0": 4359,
      "0x2691d": 4360,
      "0x2660e": 4361,
      "0x2620d": 4362,
      "0x2630a": 4363,
      "0xd8b": 4364,
      "0xd84f": 4365,
      "0xd801": 4366,
      "##238": 4367,
      "0x5cb7": 4368,
      "0x5c4f": 4369,
      "0x5c97": 4370,
      "0x5c4a": 4371,
      "0x128f8": 4372,
      "0x1288e": 4373,
      "0x1287e": 4374,
      "0x128ad": 4375,
      "0x1a837": 4376,
      "0x1a868": 4377,
      "0x1a87f": 4378,
      "0x1a84e": 4379,
      "0x1a811": 4380,
      "##aa9": 4381,
      "0xfffffa3": 4382,
      "0xacc1": 4383,
      "##342": 4384,
      "0xb0cc": 4385,
      "0xb03f": 4386,
      "0xb072": 4387,
      "0xb031": 4388,
      "0xb03e": 4389,
      "0x4e60": 4390,
      "0x4e00": 4391,
      "0x4e50": 4392,
      "0x4ee0": 4393,
      "0x4e90": 4394,
      "0x4d60": 4395,
      "0x4d70": 4396,
      "0x4dc0": 4397,
      "0x4d90": 4398,
      "0x4d7c": 4399,
      "##1d5": 4400,
      "0x110f0": 4401,
      "0x1108e": 4402,
      "0x110fe": 4403,
      "0x1106b": 4404,
      "0x11094": 4405,
      "0x11091": 4406,
      "0x1108b": 4407,
      "0x11085": 4408,
      "0x11082": 4409,
      "0x11088": 4410,
      "##8e39": 4411,
      "##955": 4412,
      "##b851f": 4413,
      "0x9031": 4414,
      "0x90e1": 4415,
      "0x13833": 4416,
      "0x13892": 4417,
      "0x13899": 4418,
      "0x1384b": 4419,
      "0x13863": 4420,
      "0x13873": 4421,
      "0x1381b": 4422,
      "0x138f5": 4423,
      "0x150ea": 4424,
      "0x150ff": 4425,
      "0x15018": 4426,
      "0x15025": 4427,
      "0x15035": 4428,
      "0x150ed": 4429,
      "##97e": 4430,
      "##9727": 4431,
      "0x5497": 4432,
      "0x5413": 4433,
      "0x5415": 4434,
      "0x549f": 4435,
      "0x5449": 4436,
      "0xc8f": 4437,
      "0xc800": 4438,
      "0xc827": 4439,
      "0xc866": 4440,
      "0xc855": 4441,
      "0xc852": 4442,
      "##374": 4443,
      "0x118b0": 4444,
      "0x1186a": 4445,
      "0x11867": 4446,
      "0x118bc": 4447,
      "0x11818": 4448,
      "0x1188e": 4449,
      "0x1186b": 4450,
      "0x1184b": 4451,
      "0x11854": 4452,
      "0x1181c": 4453,
      "0x1186f": 4454,
      "0x11861": 4455,
      "0x11894": 4456,
      "0x118a2": 4457,
      "0x118a7": 4458,
      "0x118ad": 4459,
      "0x1185a": 4460,
      "0x118f1": 4461,
      "0x11839": 4462,
      "0x118d6": 4463,
      "0x118c1": 4464,
      "0x1185d": 4465,
      "0x11845": 4466,
      "0x47f0": 4467,
      "0x47b0": 4468,
      "0x47bd": 4469,
      "0x6c64": 4470,
      "0x6c6a": 4471,
      "0x6c67": 4472,
      "0x6c61": 4473,
      "0x6c3b": 4474,
      "0x8c33": 4475,
      "0x8c21": 4476,
      "0x8c65": 4477,
      "0x8c9f": 4478,
      "0x8c22": 4479,
      "0x8c48": 4480,
      "0x8c16": 4481,
      "0x8cda": 4482,
      "##f7473": 4483,
      "##6968": 4484,
      "0x10892": 4485,
      "0x108ac": 4486,
      "0x108d7": 4487,
      "0x108c3": 4488,
      "0x10835": 4489,
      "0x10842": 4490,
      "0x108b1": 4491,
      "0x247c0": 4492,
      "0x24740": 4493,
      "0x24797": 4494,
      "0x24737": 4495,
      "0x24778": 4496,
      "0x247b9": 4497,
      "0xa0b5": 4498,
      "0x14867": 4499,
      "0x148bc": 4500,
      "0x1481d": 4501,
      "0x14858": 4502,
      "0x148af": 4503,
      "0x14848": 4504,
      "0x148cd": 4505,
      "0x14839": 4506,
      "0x148da": 4507,
      "0x1485d": 4508,
      "0x1484d": 4509,
      "0x1c331": 4510,
      "0x1c334": 4511,
      "0x17897": 4512,
      "0x17844": 4513,
      "0x1783b": 4514,
      "0x178ca": 4515,
      "0x1784d": 4516,
      "##6520": 4517,
      "##6567": 4518,
      "##6b63": 4519,
      "0x198f8": 4520,
      "0x19821": 4521,
      "0x19873": 4522,
      "##a382": 4523,
      "cmovb": 4524,
      "cmovns": 4525,
      "##543": 4526,
      "0x5ee0": 4527,
      "0x5e5b": 4528,
      "0x5e36": 4529,
      "0x5ef9": 4530,
      "0x5e8c": 4531,
      "0x5e8f": 4532,
      "##63762f": 4533,
      "0x7428": 4534,
      "0x741d": 4535,
      "0x7454": 4536,
      "0x74c7": 4537,
      "0x7485": 4538,
      "0x7482": 4539,
      "0xfc6": 4540,
      "0xfc10": 4541,
      "0xfc4b": 4542,
      "0xfc1f": 4543,
      "0xfc45": 4544,
      "0xfc3d": 4545,
      "0x12c6a": 4546,
      "0x12cb8": 4547,
      "0xdcd7": 4548,
      "0xdc12": 4549,
      "0xdba0": 4550,
      "0xdb61": 4551,
      "0x158db": 4552,
      "0x100f3": 4553,
      "0x100f6": 4554,
      "0x10069": 4555,
      "0x100a3": 4556,
      "0x10066": 4557,
      "0x100cd": 4558,
      "0x100c6": 4559,
      "0x14e54": 4560,
      "0x14e68": 4561,
      "0x14e53": 4562,
      "0x25040": 4563,
      "0x250a0": 4564,
      "0x250ce": 4565,
      "0x250b4": 4566,
      "0x250b8": 4567,
      "0x250ab": 4568,
      "0x2505b": 4569,
      "0x25099": 4570,
      "0x250f6": 4571,
      "0x250f7": 4572,
      "0x250dc": 4573,
      "0x250fd": 4574,
      "0x25068": 4575,
      "0x250a1": 4576,
      "0x25066": 4577,
      "0x250fc": 4578,
      "0x250a7": 4579,
      "0x250d3": 4580,
      "0x250ad": 4581,
      "0x250c7": 4582,
      "0x250d1": 4583,
      "0x25071": 4584,
      "0x250f9": 4585,
      "0x25042": 4586,
      "0x25041": 4587,
      "0xe0d8": 4588,
      "0xe0bf": 4589,
      "0xe09f": 4590,
      "0xe0a6": 4591,
      "0xe0d1": 4592,
      "##68b": 4593,
      "0x2b53": 4594,
      "0x2b9f": 4595,
      "0x2b908": 4596,
      "0x2b95c": 4597,
      "0x2b64f": 4598,
      "0x2b9d2": 4599,
      "0x2b979": 4600,
      "0x2b694": 4601,
      "0x2b804": 4602,
      "0x2b9a6": 4603,
      "0x2b6a2": 4604,
      "0x2b555": 4605,
      "0x2b9e4": 4606,
      "0x2b701": 4607,
      "0x2b955": 4608,
      "0x2b97e": 4609,
      "0x2b543": 4610,
      "0x2b68b": 4611,
      "0x14092": 4612,
      "0x1405b": 4613,
      "0x14065": 4614,
      "0x14093": 4615,
      "0x14014": 4616,
      "0x140a7": 4617,
      "0x1405a": 4618,
      "0x1405d": 4619,
      "0x224ea": 4620,
      "0x22492": 4621,
      "0x2249d": 4622,
      "0x22466": 4623,
      "0x2249b": 4624,
      "0x224df": 4625,
      "0x2242b": 4626,
      "0x22471": 4627,
      "0x22411": 4628,
      "0x22435": 4629,
      "0x2242a": 4630,
      "0x17ca9": 4631,
      "0x17c71": 4632,
      "##6d6f63": 4633,
      "0x130dd": 4634,
      "0x130d0": 4635,
      "0x130dc": 4636,
      "0x130ac": 4637,
      "0x1306b": 4638,
      "0x13094": 4639,
      "0x130bd": 4640,
      "0x130ad": 4641,
      "0x1307d": 4642,
      "0x13036": 4643,
      "0x13084": 4644,
      "0x1303c": 4645,
      "0x1302a": 4646,
      "0x13042": 4647,
      "0x130e2": 4648,
      "0x130b9": 4649,
      "0x120c7": 4650,
      "0x1204d": 4651,
      "0x2a6a7": 4652,
      "0x2a37d": 4653,
      "0x2a28f": 4654,
      "0x2a343": 4655,
      "0x2a275": 4656,
      "0x2a2df": 4657,
      "0x2a2e5": 4658,
      "0x2a2e8": 4659,
      "0x2a15d": 4660,
      "0x2a33c": 4661,
      "0x2a404": 4662,
      "0x2a26f": 4663,
      "0x2a17c": 4664,
      "0x2a304": 4665,
      "0x2a673": 4666,
      "0x2a342": 4667,
      "0x2a374": 4668,
      "0x228d": 4669,
      "0x228b0": 4670,
      "0x228e0": 4671,
      "0x22828": 4672,
      "0x228f4": 4673,
      "0x228f7": 4674,
      "0x228d7": 4675,
      "0x22813": 4676,
      "0x22893": 4677,
      "0x22861": 4678,
      "0x228c8": 4679,
      "0x22866": 4680,
      "0x2283b": 4681,
      "0x228a7": 4682,
      "0x22855": 4683,
      "0x228de": 4684,
      "0x228d9": 4685,
      "0x2283a": 4686,
      "0x22839": 4687,
      "0x22884": 4688,
      "0x22842": 4689,
      "0x228b2": 4690,
      "0x19075": 4691,
      "0x19068": 4692,
      "0x1121d": 4693,
      "0x112ab": 4694,
      "0x1125b": 4695,
      "0x1122e": 4696,
      "0x1129e": 4697,
      "0x112b5": 4698,
      "0x253ea": 4699,
      "0x25364": 4700,
      "0x25399": 4701,
      "0x253f6": 4702,
      "0x253ac": 4703,
      "0x253a3": 4704,
      "0x253ec": 4705,
      "0x253d5": 4706,
      "0x2536e": 4707,
      "0x253a2": 4708,
      "0x253fc": 4709,
      "0x253c6": 4710,
      "0x253cf": 4711,
      "0x253f5": 4712,
      "0x253e3": 4713,
      "0x2538f": 4714,
      "0x1e0d8": 4715,
      "0x1e04b": 4716,
      "0x1e068": 4717,
      "0x1e0f1": 4718,
      "0x1e089": 4719,
      "0x1326a": 4720,
      "0x132f8": 4721,
      "0x13219": 4722,
      "0x132a3": 4723,
      "0x132a7": 4724,
      "0x1f090": 4725,
      "0x1f018": 4726,
      "0x1f034": 4727,
      "0x1f01b": 4728,
      "0x1f0af": 4729,
      "0x1f0df": 4730,
      "0x1f07f": 4731,
      "0xf8b0": 4732,
      "0xf898": 4733,
      "0xf89d": 4734,
      "0xf813": 4735,
      "0xf815": 4736,
      "0xf829": 4737,
      "0xf83f": 4738,
      "0xf896": 4739,
      "0xf87a": 4740,
      "0xf884": 4741,
      "0xf8b1": 4742,
      "0x24920": 4743,
      "0x2491a": 4744,
      "0x249d0": 4745,
      "0x249e8": 4746,
      "0x7f60": 4747,
      "0x7fd4": 4748,
      "0x7f56": 4749,
      "0x7f13": 4750,
      "0x7fcd": 4751,
      "0xf076": 4752,
      "0xf0ac": 4753,
      "0xf0af": 4754,
      "0xf053": 4755,
      "0xf07d": 4756,
      "0xf089": 4757,
      "0xf0f9": 4758,
      "0xf08d": 4759,
      "0xe316": 4760,
      "0xe8fb": 4761,
      "0xe8fa": 4762,
      "0xe832": 4763,
      "0x170a9": 4764,
      "0xc43f": 4765,
      "0xc436": 4766,
      "0x25b70": 4767,
      "0x25b20": 4768,
      "0x25b9a": 4769,
      "0x25bae": 4770,
      "0x25b95": 4771,
      "0x25b37": 4772,
      "0x25b51": 4773,
      "0x25b6b": 4774,
      "0x25b5c": 4775,
      "0x25b2e": 4776,
      "0x25b1c": 4777,
      "0x25b93": 4778,
      "0x25bba": 4779,
      "0x25bb3": 4780,
      "0x25b24": 4781,
      "0x25b53": 4782,
      "0x25b9f": 4783,
      "0x25b94": 4784,
      "0x25b12": 4785,
      "0x25b5a": 4786,
      "0xd037": 4787,
      "0xd0ac": 4788,
      "0xd0df": 4789,
      "0xd072": 4790,
      "0xd041": 4791,
      "##6162": 4792,
      "0x107d": 4793,
      "0x107ce": 4794,
      "0x1071b": 4795,
      "0x10746": 4796,
      "0x230ff": 4797,
      "0x230ae": 4798,
      "0x23058": 4799,
      "0x23099": 4800,
      "0x230a8": 4801,
      "0x23044": 4802,
      "0x2304b": 4803,
      "0x23013": 4804,
      "0x230ba": 4805,
      "0x2306d": 4806,
      "0x230bb": 4807,
      "0x23048": 4808,
      "0x230d1": 4809,
      "0x2302f": 4810,
      "0x23031": 4811,
      "0x23011": 4812,
      "0x23081": 4813,
      "0x23f64": 4814,
      "0x23f70": 4815,
      "0x23f80": 4816,
      "0x23fc0": 4817,
      "0x23fe0": 4818,
      "0x23fd4": 4819,
      "0x23faa": 4820,
      "0x23fae": 4821,
      "0x23fb4": 4822,
      "0x23f51": 4823,
      "0x23f21": 4824,
      "0x23f5c": 4825,
      "0x23f17": 4826,
      "0x23f94": 4827,
      "0x23f5d": 4828,
      "0x214ea": 4829,
      "0x214c0": 4830,
      "0x21428": 4831,
      "0x21434": 4832,
      "0x2148e": 4833,
      "0x21473": 4834,
      "0x2147e": 4835,
      "0x214db": 4836,
      "0x214a6": 4837,
      "0x21466": 4838,
      "0x21491": 4839,
      "0x2149b": 4840,
      "0x21412": 4841,
      "0x21439": 4842,
      "0x214cb": 4843,
      "0x15f64": 4844,
      "0x15fe4": 4845,
      "0x15f13": 4846,
      "0x24d60": 4847,
      "0x24d33": 4848,
      "0x24d1a": 4849,
      "0x24d30": 4850,
      "0x24d28": 4851,
      "0x24d57": 4852,
      "0x24d7c": 4853,
      "0x24d69": 4854,
      "0x24da8": 4855,
      "0x24d6b": 4856,
      "0x24d14": 4857,
      "0x24d68": 4858,
      "0x24d6d": 4859,
      "0x24deb": 4860,
      "0x24d53": 4861,
      "0x24da1": 4862,
      "0x24d66": 4863,
      "0x24d12": 4864,
      "0x24d3c": 4865,
      "0x24d3e": 4866,
      "0x24c9a": 4867,
      "0x24cb0": 4868,
      "0x24cbe": 4869,
      "0x24ca0": 4870,
      "0x24cf8": 4871,
      "0x24c18": 4872,
      "0x24c1e": 4873,
      "0x24c8e": 4874,
      "0x24cb4": 4875,
      "0x24cf4": 4876,
      "0x24cf6": 4877,
      "0x24cdc": 4878,
      "0x24c65": 4879,
      "0x24ca4": 4880,
      "0x24cfd": 4881,
      "0x24c1b": 4882,
      "0x24ca9": 4883,
      "0x24cbd": 4884,
      "0x24cd1": 4885,
      "0x24c2a": 4886,
      "0xcedd": 4887,
      "0xce54": 4888,
      "0xce1c": 4889,
      "0x13480": 4890,
      "0x1341e": 4891,
      "0x13478": 4892,
      "0x1349e": 4893,
      "0x1349b": 4894,
      "0x1347f": 4895,
      "0x134c6": 4896,
      "0x13486": 4897,
      "0x134e6": 4898,
      "0x1347b": 4899,
      "0x5360": 4900,
      "0x53ac": 4901,
      "0x53ba": 4902,
      "0x5324": 4903,
      "0x539f": 4904,
      "0x5361": 4905,
      "0x5329": 4906,
      "0x53c6": 4907,
      "0x53c7": 4908,
      "0x1e7ce": 4909,
      "0x1e792": 4910,
      "0x1e795": 4911,
      "0x1e7a8": 4912,
      "0x252ea": 4913,
      "0x25200": 4914,
      "0x252d8": 4915,
      "0x25270": 4916,
      "0x252e0": 4917,
      "0x25290": 4918,
      "0x25240": 4919,
      "0x25230": 4920,
      "0x25256": 4921,
      "0x2527c": 4922,
      "0x25299": 4923,
      "0x25254": 4924,
      "0x252b3": 4925,
      "0x252a6": 4926,
      "0x252a7": 4927,
      "0x252b6": 4928,
      "0x131ff": 4929,
      "0x13170": 4930,
      "0x131c0": 4931,
      "0x131e0": 4932,
      "0x13176": 4933,
      "0x13192": 4934,
      "0x13195": 4935,
      "0x1312c": 4936,
      "0x13119": 4937,
      "0x13151": 4938,
      "0x1314b": 4939,
      "0x13126": 4940,
      "0x131ba": 4941,
      "0x1311b": 4942,
      "0x1316f": 4943,
      "0xf464": 4944,
      "0xf4d2": 4945,
      "0xf8e8": 4946,
      "0x1c8ab": 4947,
      "0x1c8b3": 4948,
      "0x1c846": 4949,
      "0xed34": 4950,
      "0xedb8": 4951,
      "0xedfe": 4952,
      "0xedaf": 4953,
      "0xdf02": 4954,
      "0x1b88e": 4955,
      "0x1b897": 4956,
      "0x1b866": 4957,
      "0x1b87d": 4958,
      "0x1b8f1": 4959,
      "0x1b881": 4960,
      "0x59b7": 4961,
      "0x5956": 4962,
      "0x5928": 4963,
      "0x591e": 4964,
      "0x59ee": 4965,
      "0x5968": 4966,
      "0x220c0": 4967,
      "0x220aa": 4968,
      "0x2204f": 4969,
      "0x22044": 4970,
      "0x22054": 4971,
      "0x22017": 4972,
      "0x2206c": 4973,
      "0x22094": 4974,
      "0x220f1": 4975,
      "0x220b5": 4976,
      "0x22031": 4977,
      "0x220e1": 4978,
      "0x2207a": 4979,
      "0x220cf": 4980,
      "0x22085": 4981,
      "0x22a9a": 4982,
      "0x22a33": 4983,
      "0x22abc": 4984,
      "0x22a28": 4985,
      "0x22a1d": 4986,
      "0x22a37": 4987,
      "0x22a99": 4988,
      "0x22adc": 4989,
      "0x22a2d": 4990,
      "0x22afb": 4991,
      "0x22a68": 4992,
      "0x22ade": 4993,
      "0x22ad1": 4994,
      "0x22a7b": 4995,
      "0x23b70": 4996,
      "0x23bf0": 4997,
      "0x23b98": 4998,
      "0x23b6a": 4999,
      "0x23b40": 5000,
      "0x23bf8": 5001,
      "0x23b1d": 5002,
      "0x23bb8": 5003,
      "0x23b58": 5004,
      "0x23b21": 5005,
      "0x23b2d": 5006,
      "0x23bba": 5007,
      "0x23b68": 5008,
      "0x23b1f": 5009,
      "0x23b52": 5010,
      "0x23b16": 5011,
      "0x1886": 5012,
      "0xbcd8": 5013,
      "0xbc70": 5014,
      "0xbc28": 5015,
      "0xbc9d": 5016,
      "0xbc8e": 5017,
      "0xbc97": 5018,
      "0xbc44": 5019,
      "0xbc1b": 5020,
      "0xbc6c": 5021,
      "0xbc24": 5022,
      "0xbc59": 5023,
      "0xbc45": 5024,
      "0x22d20": 5025,
      "0x22d10": 5026,
      "0x22d76": 5027,
      "0x22df8": 5028,
      "0x22d5b": 5029,
      "0x22da8": 5030,
      "0x22dac": 5031,
      "0x22d2e": 5032,
      "0x22d68": 5033,
      "0x22da1": 5034,
      "0x22d66": 5035,
      "0x22ded": 5036,
      "0x22e98": 5037,
      "0x22e23": 5038,
      "0x22ed4": 5039,
      "0x22ef8": 5040,
      "0x22e4f": 5041,
      "0x22e13": 5042,
      "0x22e1f": 5043,
      "0x22e6d": 5044,
      "0x22e6f": 5045,
      "0x22e17": 5046,
      "0x22e61": 5047,
      "0x22e52": 5048,
      "0x22e7d": 5049,
      "0x22e62": 5050,
      "0x17476": 5051,
      "0x1741a": 5052,
      "0x17430": 5053,
      "0x174bc": 5054,
      "0x174e8": 5055,
      "0x17417": 5056,
      "0x174cd": 5057,
      "0x1747a": 5058,
      "0x174e2": 5059,
      "0x168f8": 5060,
      "0x168bf": 5061,
      "0x16897": 5062,
      "0x168a5": 5063,
      "0x168a6": 5064,
      "0x1685e": 5065,
      "0x160ed": 5066,
      "0x204f0": 5067,
      "0x20453": 5068,
      "0x204ad": 5069,
      "0x204e1": 5070,
      "0x20462": 5071,
      "0xbfaa": 5072,
      "0x1e8b0": 5073,
      "0x1e837": 5074,
      "0x1e869": 5075,
      "0x1e8a4": 5076,
      "0x1e81c": 5077,
      "0x1e89f": 5078,
      "0x1e829": 5079,
      "0x1e859": 5080,
      "0x21850": 5081,
      "0x21870": 5082,
      "0x21890": 5083,
      "0x218bf": 5084,
      "0x2189d": 5085,
      "0x218f3": 5086,
      "0x21837": 5087,
      "0x21827": 5088,
      "0x21863": 5089,
      "0x21893": 5090,
      "0x218d3": 5091,
      "0x2187d": 5092,
      "0x21845": 5093,
      "0x21885": 5094,
      "0x9430": 5095,
      "0x94a5": 5096,
      "0x124b8": 5097,
      "0x12497": 5098,
      "0x124a3": 5099,
      "0x12452": 5100,
      "0x167c1": 5101,
      "0xffffffe8": 5102,
      "0xfffffff5": 5103,
      "0xffffffb6": 5104,
      "0x10c9a": 5105,
      "0x10c1a": 5106,
      "0x10c23": 5107,
      "0x10c26": 5108,
      "0x10c9e": 5109,
      "0x10c47": 5110,
      "0x24060": 5111,
      "0x240d0": 5112,
      "0x2401e": 5113,
      "0x240b4": 5114,
      "0x24019": 5115,
      "0x240f7": 5116,
      "0x240ac": 5117,
      "0x24054": 5118,
      "0x240ba": 5119,
      "0x24038": 5120,
      "0x24012": 5121,
      "0x24096": 5122,
      "0x240cb": 5123,
      "0x2404d": 5124,
      "0x240b6": 5125,
      "0x2403d": 5126,
      "0x240e5": 5127,
      "0x61f3": 5128,
      "0x61f6": 5129,
      "0x617073": 5130,
      "0x616373": 5131,
      "0x71a0": 5132,
      "0x71bf": 5133,
      "0x719d": 5134,
      "0x7169": 5135,
      "0x7175": 5136,
      "0x716f": 5137,
      "0x716c": 5138,
      "0x7166": 5139,
      "0x227a0": 5140,
      "0x2271a": 5141,
      "0x227fe": 5142,
      "0x227ba": 5143,
      "0x227d5": 5144,
      "0x227d2": 5145,
      "0x22774": 5146,
      "0x2274e": 5147,
      "0x22772": 5148,
      "0x2274c": 5149,
      "0x22747": 5150,
      "0x227b2": 5151,
      "0x227b9": 5152,
      "0x1e450": 5153,
      "0x1e4a6": 5154,
      "0x233bc": 5155,
      "0x233f3": 5156,
      "0x233e4": 5157,
      "0x233af": 5158,
      "0x233d5": 5159,
      "0x23e70": 5160,
      "0x23e20": 5161,
      "0x23e10": 5162,
      "0x23ee0": 5163,
      "0x23e40": 5164,
      "0x23ef8": 5165,
      "0x23ece": 5166,
      "0x23ebf": 5167,
      "0x23e8e": 5168,
      "0x23edc": 5169,
      "0x23e69": 5170,
      "0x23eb3": 5171,
      "0x23ed2": 5172,
      "0x23e5f": 5173,
      "0x23ef9": 5174,
      "0x114ee": 5175,
      "0x11421": 5176,
      "0x11415": 5177,
      "0x114a1": 5178,
      "0x114df": 5179,
      "0x11455": 5180,
      "0x114e3": 5181,
      "0x29000": 5182,
      "0x291b5": 5183,
      "0x29f0c": 5184,
      "0x29bf4": 5185,
      "0x291d6": 5186,
      "0x29f72": 5187,
      "0x291a6": 5188,
      "0x29308": 5189,
      "0x29142": 5190,
      "0x29238": 5191,
      "0x291d5": 5192,
      "0x10550": 5193,
      "0x10590": 5194,
      "0x1059d": 5195,
      "0x1052c": 5196,
      "0x105a3": 5197,
      "0x105d5": 5198,
      "0x1059c": 5199,
      "0x105df": 5200,
      "0x105d6": 5201,
      "0x6ebe": 5202,
      "0x6e13": 5203,
      "0x6e6f": 5204,
      "0xac9d": 5205,
      "0xac71": 5206,
      "0x22c6a": 5207,
      "0x22cae": 5208,
      "0x22c1d": 5209,
      "0x22c19": 5210,
      "0x22cf4": 5211,
      "0x22c99": 5212,
      "0x22cdc": 5213,
      "0x22c2d": 5214,
      "0x22c12": 5215,
      "0x22cb2": 5216,
      "0x11cb7": 5217,
      "0x11cab": 5218,
      "0x11ca6": 5219,
      "0x11566": 5220,
      "0x251d8": 5221,
      "0x25190": 5222,
      "0x25176": 5223,
      "0x25163": 5224,
      "0x25126": 5225,
      "0x25114": 5226,
      "0x2511f": 5227,
      "0x254ff": 5228,
      "0x25470": 5229,
      "0x254f0": 5230,
      "0x254c0": 5231,
      "0x254f8": 5232,
      "0x25438": 5233,
      "0x2547f": 5234,
      "0x2547d": 5235,
      "0x25459": 5236,
      "0x25ebc": 5237,
      "0x25e1d": 5238,
      "0x25e37": 5239,
      "0x25ed7": 5240,
      "0x25e75": 5241,
      "0x25e93": 5242,
      "0x25e68": 5243,
      "0x25e66": 5244,
      "0x25ed9": 5245,
      "0x25e72": 5246,
      "0x84af": 5247,
      "0x1646b": 5248,
      "0x10698": 5249,
      "0x10657": 5250,
      "0x1066c": 5251,
      "0x208ea": 5252,
      "0x208d8": 5253,
      "0x208d0": 5254,
      "0x20858": 5255,
      "0x20821": 5256,
      "0x2085c": 5257,
      "0x20883": 5258,
      "0x208d3": 5259,
      "0x20846": 5260,
      "0x2088b": 5261,
      "0x24310": 5262,
      "0x2431d": 5263,
      "0x24357": 5264,
      "0x243f6": 5265,
      "0x24329": 5266,
      "0x2432f": 5267,
      "0x243cf": 5268,
      "0x24810": 5269,
      "0x248a0": 5270,
      "0x248d4": 5271,
      "0x24828": 5272,
      "0x24818": 5273,
      "0x248b8": 5274,
      "0x24861": 5275,
      "0x62c0": 5276,
      "0x621a": 5277,
      "0x6251": 5278,
      "0x6265": 5279,
      "0x62fd": 5280,
      "0x62b6": 5281,
      "0x739a": 5282,
      "0x73ae": 5283,
      "0x7329": 5284,
      "0x73c5": 5285,
      "0x73656": 5286,
      "0x7363762f": 5287,
      "0x2239a": 5288,
      "0x22310": 5289,
      "0x223b0": 5290,
      "0x22395": 5291,
      "0x2237c": 5292,
      "0x223f4": 5293,
      "0x223a8": 5294,
      "0x2236b": 5295,
      "0x223c6": 5296,
      "0x223d9": 5297,
      "0x223d1": 5298,
      "0x223c4": 5299,
      "0x223e9": 5300,
      "0x113f6": 5301,
      "0x11369": 5302,
      "0x1135c": 5303,
      "0x113e8": 5304,
      "0x11317": 5305,
      "0x113d5": 5306,
      "0x113c8": 5307,
      "0x113a6": 5308,
      "0x11352": 5309,
      "0x113de": 5310,
      "0x113e6": 5311,
      "0x11311": 5312,
      "0x113ed": 5313,
      "0x21500": 5314,
      "0x215f0": 5315,
      "0x2156a": 5316,
      "0x21576": 5317,
      "0x215ae": 5318,
      "0x2151d": 5319,
      "0x21519": 5320,
      "0x21537": 5321,
      "0x215a8": 5322,
      "0x215fb": 5323,
      "0x215a3": 5324,
      "0x215e8": 5325,
      "0x21524": 5326,
      "0x215d6": 5327,
      "0x215e1": 5328,
      "0x13957": 5329,
      "0x1f7ea": 5330,
      "0x1f7b7": 5331,
      "0x1f7bc": 5332,
      "0x1f795": 5333,
      "0x1f797": 5334,
      "0x1f7e4": 5335,
      "0x1f7d7": 5336,
      "0x1f7b3": 5337,
      "0x1f773": 5338,
      "0x1f7a9": 5339,
      "0x1f79f": 5340,
      "0x1f791": 5341,
      "0x1f77d": 5342,
      "0x1f749": 5343,
      "0x1f74c": 5344,
      "0x1d38e": 5345,
      "0x1d3b4": 5346,
      "0x1d3ac": 5347,
      "0x1d326": 5348,
      "0x1d3a6": 5349,
      "0x1ea98": 5350,
      "0x1ea26": 5351,
      "0x1ea49": 5352,
      "0x1ead6": 5353,
      "0x2e2e": 5354,
      "0x24480": 5355,
      "0x24410": 5356,
      "0x244c0": 5357,
      "0x244a0": 5358,
      "0x24419": 5359,
      "0x244cd": 5360,
      "0x244d9": 5361,
      "0x244c9": 5362,
      "0x244c2": 5363,
      "0x244e6": 5364,
      "0x6570": 5365,
      "0x6519": 5366,
      "0x655c": 5367,
      "0xbe56": 5368,
      "0xbeb8": 5369,
      "0xbe54": 5370,
      "0xbe53": 5371,
      "0xbe72": 5372,
      "0x23c50": 5373,
      "0x23c9a": 5374,
      "0x23ce0": 5375,
      "0x23cd4": 5376,
      "0x23c27": 5377,
      "0x23ca8": 5378,
      "0x23c5c": 5379,
      "0x23c14": 5380,
      "0x23c24": 5381,
      "0x23c5e": 5382,
      "0x2160b": 5383,
      "0x195e8": 5384,
      "0x195d2": 5385,
      "0x195e6": 5386,
      "0x2008a": 5387,
      "0x24a60": 5388,
      "0x24ac0": 5389,
      "0x24aa0": 5390,
      "0x24abc": 5391,
      "0x24af8": 5392,
      "0x24ad0": 5393,
      "0x24a7c": 5394,
      "0x24a2d": 5395,
      "0x24a54": 5396,
      "0x24a6f": 5397,
      "0x24ad5": 5398,
      "0xa4bf": 5399,
      "0xa4ef": 5400,
      "0x7650": 5401,
      "0x761e": 5402,
      "0x7651": 5403,
      "0x766b": 5404,
      "0xba64": 5405,
      "0xbae0": 5406,
      "0xba90": 5407,
      "0xba92": 5408,
      "0xba19": 5409,
      "0xbaf3": 5410,
      "0xba97": 5411,
      "0xbaf6": 5412,
      "0xbafb": 5413,
      "0xba25": 5414,
      "0xba7e": 5415,
      "0x229b0": 5416,
      "0x22990": 5417,
      "0x22976": 5418,
      "0x22928": 5419,
      "0x22934": 5420,
      "0x229b4": 5421,
      "0x2291f": 5422,
      "0x22917": 5423,
      "0x229bb": 5424,
      "0x2326a": 5425,
      "0x2321e": 5426,
      "0x23221": 5427,
      "0x232a4": 5428,
      "0x232a7": 5429,
      "0x1f8ff": 5430,
      "0x1f870": 5431,
      "0x1f8d4": 5432,
      "0x1f8dc": 5433,
      "0x1f869": 5434,
      "0x1f85c": 5435,
      "0x1f8fb": 5436,
      "0x1f8a9": 5437,
      "0x1f8cd": 5438,
      "0x1f8c6": 5439,
      "0x1f8c9": 5440,
      "0x1f846": 5441,
      "0x1f8c4": 5442,
      "0x19e25": 5443,
      "0x19e74": 5444,
      "0x19e77": 5445,
      "##c6573": 5446,
      "0x14ca4": 5447,
      "0x14c15": 5448,
      "0x14c9f": 5449,
      "0x14ca1": 5450,
      "0x14cfa": 5451,
      "0x1441e": 5452,
      "0x144d2": 5453,
      "0x14730": 5454,
      "0x14719": 5455,
      "0x147f3": 5456,
      "0x147f6": 5457,
      "0x14443": 5458,
      "0x71a6": 5459,
      "0x71a9": 5460,
      "0x71a3": 5461,
      "0x22bf0": 5462,
      "0x22bb7": 5463,
      "0x22bcc": 5464,
      "0x22bf8": 5465,
      "0x22bbf": 5466,
      "0x22b58": 5467,
      "0x22bac": 5468,
      "0x22b6b": 5469,
      "0x22bd7": 5470,
      "0x22b93": 5471,
      "0x22b1f": 5472,
      "0x22b9e": 5473,
      "0x23d00": 5474,
      "0x23de0": 5475,
      "0x23d90": 5476,
      "0x23da0": 5477,
      "0x23d1d": 5478,
      "0x23d97": 5479,
      "0x23d5b": 5480,
      "0x23d26": 5481,
      "0x23d14": 5482,
      "0x23da5": 5483,
      "0x23500": 5484,
      "0x235d0": 5485,
      "0x235f3": 5486,
      "0x235ab": 5487,
      "0x2354f": 5488,
      "0x235f6": 5489,
      "0x23544": 5490,
      "0x2359c": 5491,
      "0x235fc": 5492,
      "0x234ff": 5493,
      "0x23410": 5494,
      "0x2341e": 5495,
      "0x2345b": 5496,
      "0x23469": 5497,
      "0x23425": 5498,
      "0x234e8": 5499,
      "0x234de": 5500,
      "0x23496": 5501,
      "0x23474": 5502,
      "0x2586a": 5503,
      "0x258bc": 5504,
      "0x25848": 5505,
      "0x25812": 5506,
      "0x258d9": 5507,
      "0x258fa": 5508,
      "0x25859": 5509,
      "0x2584d": 5510,
      "0x1fbbe": 5511,
      "0x1fbd4": 5512,
      "0x1fb1f": 5513,
      "0x1fb1b": 5514,
      "0x1fb9f": 5515,
      "0xdad4": 5516,
      "0xda69": 5517,
      "0xda6e": 5518,
      "##aaaaaa9": 5519,
      "0x1dd50": 5520,
      "0x1ddbe": 5521,
      "0x1dd76": 5522,
      "0x1dd67": 5523,
      "0x1ddf6": 5524,
      "0x1ddf7": 5525,
      "0x1ddec": 5526,
      "0x1dd53": 5527,
      "0x1dd52": 5528,
      "0x18520": 5529,
      "0x18510": 5530,
      "0x18537": 5531,
      "0x20dea": 5532,
      "0x20df0": 5533,
      "0x20d99": 5534,
      "0x20d65": 5535,
      "0x20d6b": 5536,
      "0x20d93": 5537,
      "0x20d68": 5538,
      "0x20daf": 5539,
      "0x20d24": 5540,
      "0x20e00": 5541,
      "0x20eb0": 5542,
      "0x20e1d": 5543,
      "0x20ed7": 5544,
      "0x20e1c": 5545,
      "0x20e53": 5546,
      "0x20e91": 5547,
      "0x20e3b": 5548,
      "0x20e31": 5549,
      "0x6d9d": 5550,
      "0x6d6d6f63": 5551,
      "0xad20": 5552,
      "0xad76": 5553,
      "0xad95": 5554,
      "0xadf3": 5555,
      "0x14396": 5556,
      "0x143c2": 5557,
      "0x1432f": 5558,
      "0x143e9": 5559,
      "0x7ed8": 5560,
      "0x7ee0": 5561,
      "0x7edc": 5562,
      "0x225ff": 5563,
      "0x225cc": 5564,
      "0x225be": 5565,
      "0x22556": 5566,
      "0x22519": 5567,
      "0x225e4": 5568,
      "0x225d7": 5569,
      "0x22524": 5570,
      "0x22594": 5571,
      "0x23860": 5572,
      "0x23810": 5573,
      "0x23867": 5574,
      "0x23873": 5575,
      "0x2389b": 5576,
      "0x2382b": 5577,
      "0x23886": 5578,
      "0x238c2": 5579,
      "0x2384a": 5580,
      "0x11567": 5581,
      "0x257c0": 5582,
      "0x25740": 5583,
      "0x25730": 5584,
      "0x2578e": 5585,
      "0x257ab": 5586,
      "0x25721": 5587,
      "0x2579e": 5588,
      "0x2577f": 5589,
      "0x25777": 5590,
      "0x2169a": 5591,
      "0x216be": 5592,
      "0x2166a": 5593,
      "0x2161a": 5594,
      "0x21630": 5595,
      "0x21667": 5596,
      "0x21656": 5597,
      "0x21692": 5598,
      "0x216b4": 5599,
      "0x216f3": 5600,
      "0x21629": 5601,
      "0x213cc": 5602,
      "0x21398": 5603,
      "0x213aa": 5604,
      "0x2131e": 5605,
      "0x21321": 5606,
      "0x213a3": 5607,
      "0x213fd": 5608,
      "0x213ec": 5609,
      "0x213d5": 5610,
      "0x21329": 5611,
      "0x213ca": 5612,
      "0x13cf3": 5613,
      "0x13c5b": 5614,
      "0x13c99": 5615,
      "0x13ca3": 5616,
      "0x13c54": 5617,
      "0x13c94": 5618,
      "0x13c9b": 5619,
      "0x1cfce": 5620,
      "0x1cf25": 5621,
      "0x1cfa5": 5622,
      "0x12232": 5623,
      "0x1f6e0": 5624,
      "0x1f6ee": 5625,
      "0x1f6d7": 5626,
      "0x17a6a": 5627,
      "0x17a76": 5628,
      "0x17a30": 5629,
      "0x17a67": 5630,
      "0x17ab4": 5631,
      "0x17a5b": 5632,
      "0x17a1c": 5633,
      "0x17ad5": 5634,
      "0x16e1d": 5635,
      "0x16e14": 5636,
      "0x16e1f": 5637,
      "0x16e17": 5638,
      "0x16e9f": 5639,
      "0x2b764": 5640,
      "0x2b799": 5641,
      "0x2b765": 5642,
      "0x2b793": 5643,
      "0x2b725": 5644,
      "0x2b7d2": 5645,
      "0x2b7c8": 5646,
      "0x2b7a6": 5647,
      "0x2b7d9": 5648,
      "0x2b772": 5649,
      "0x2b4ea": 5650,
      "0x2b4a8": 5651,
      "0x2b483": 5652,
      "0x2b4d9": 5653,
      "0x2b4f1": 5654,
      "0x2a3af": 5655,
      "0x2a36e": 5656,
      "0x2a3a7": 5657,
      "0x2a355": 5658,
      "0x2a3ad": 5659,
      "0x2a3c2": 5660,
      "0x2a389": 5661,
      "0x2a3d6": 5662,
      "0x2a387": 5663,
      "0x2a3ef": 5664,
      "0x20646": 5665,
      "0x241b0": 5666,
      "0x241e0": 5667,
      "0x241a0": 5668,
      "0x241d0": 5669,
      "0x241f3": 5670,
      "0x24144": 5671,
      "0xc36a": 5672,
      "0xc3ac": 5673,
      "0xc3fe": 5674,
      "0xc3d7": 5675,
      "0xc325": 5676,
      "0xc3fd": 5677,
      "0xc36d": 5678,
      "0xc3ef": 5679,
      "0x1ede8": 5680,
      "0x1edeb": 5681,
      "0x1ed15": 5682,
      "0x1eda2": 5683,
      "0x1ee6d": 5684,
      "0x1ee66": 5685,
      "0x1eed3": 5686,
      "0x25928": 5687,
      "0x25937": 5688,
      "0x25965": 5689,
      "0x2591b": 5690,
      "0x8228": 5691,
      "0x21050": 5692,
      "0x21080": 5693,
      "0x210ab": 5694,
      "0x210a4": 5695,
      "0x21017": 5696,
      "0x210df": 5697,
      "0x21012": 5698,
      "0x210c4": 5699,
      "0x21e56": 5700,
      "0x21ef3": 5701,
      "0x21e27": 5702,
      "0x21efe": 5703,
      "0x21e73": 5704,
      "0x21e7e": 5705,
      "0x21e61": 5706,
      "0x21e9b": 5707,
      "0x21ed3": 5708,
      "0x21e39": 5709,
      "0x217d8": 5710,
      "0x21792": 5711,
      "0x21758": 5712,
      "0x217f6": 5713,
      "0x217a3": 5714,
      "0x217ba": 5715,
      "0x21773": 5716,
      "0x21778": 5717,
      "0x1c067": 5718,
      "0x1c089": 5719,
      "0x1fa64": 5720,
      "0x1fab0": 5721,
      "0x1fa40": 5722,
      "0x1fa97": 5723,
      "0x1fa5b": 5724,
      "0x1fa54": 5725,
      "0x1fa6d": 5726,
      "0x1fa17": 5727,
      "0x19d00": 5728,
      "0x19db7": 5729,
      "0x19de0": 5730,
      "0x19dce": 5731,
      "0x19d69": 5732,
      "0x19dac": 5733,
      "0x19da5": 5734,
      "0x151ff": 5735,
      "0x1519a": 5736,
      "0x151c0": 5737,
      "0x15168": 5738,
      "0x16740": 5739,
      "0x1675c": 5740,
      "0x167a6": 5741,
      "0x167a2": 5742,
      "0x1b0d1": 5743,
      "0x1b03d": 5744,
      "0x1bb00": 5745,
      "0x1bb18": 5746,
      "0x1bb2d": 5747,
      "0xfff": 5748,
      "0xfff0": 5749,
      "0xffbb": 5750,
      "0xffca": 5751,
      "0xff84": 5752,
      "0xffb1": 5753,
      "0xdd02": 5754,
      "0xdd07": 5755,
      "0x270f": 5756,
      "0x270bc": 5757,
      "0x270ce": 5758,
      "0x27058": 5759,
      "0x27065": 5760,
      "0x2706c": 5761,
      "0x270c8": 5762,
      "0x270e6": 5763,
      "0x270e3": 5764,
      "0x203a0": 5765,
      "0x20376": 5766,
      "0x203ec": 5767,
      "0x203a1": 5768,
      "0x20391": 5769,
      "0x203de": 5770,
      "0x20329": 5771,
      "0x20233": 5772,
      "0x20240": 5773,
      "0x202fb": 5774,
      "0x202af": 5775,
      "0x202bb": 5776,
      "0x24fb7": 5777,
      "0x24f9a": 5778,
      "0x24f10": 5779,
      "0x24f1e": 5780,
      "0x24fa8": 5781,
      "0x24f2d": 5782,
      "0x24faf": 5783,
      "0x2454f": 5784,
      "0x24e64": 5785,
      "0x24eb7": 5786,
      "0x24e9a": 5787,
      "0x24e40": 5788,
      "0x24e51": 5789,
      "0x24e55": 5790,
      "0x24efa": 5791,
      "0x6300": 5792,
      "0x6328": 5793,
      "0x63c7": 5794,
      "0x22620": 5795,
      "0x226c0": 5796,
      "0x2262c": 5797,
      "0x2261c": 5798,
      "0x2262b": 5799,
      "0x23190": 5800,
      "0x231a0": 5801,
      "0x231bf": 5802,
      "0x2312c": 5803,
      "0x2315b": 5804,
      "0x23158": 5805,
      "0x2314b": 5806,
      "0x23664": 5807,
      "0x23660": 5808,
      "0x236f0": 5809,
      "0x23620": 5810,
      "0x23633": 5811,
      "0x236f8": 5812,
      "0x2365b": 5813,
      "0x23621": 5814,
      "0x2362e": 5815,
      "0x237d8": 5816,
      "0x23720": 5817,
      "0x237ce": 5818,
      "0x23718": 5819,
      "0x2377c": 5820,
      "0x2379f": 5821,
      "0x237a5": 5822,
      "0x11a50": 5823,
      "0x11a10": 5824,
      "0x11a34": 5825,
      "0x11a97": 5826,
      "0x11a5b": 5827,
      "0x11a13": 5828,
      "0x11a6c": 5829,
      "0x21d10": 5830,
      "0x21dc0": 5831,
      "0x21d6a": 5832,
      "0x21d34": 5833,
      "0x21d1e": 5834,
      "0x21de4": 5835,
      "0x21d9c": 5836,
      "0x21d61": 5837,
      "0x21da7": 5838,
      "0x21960": 5839,
      "0x21950": 5840,
      "0x21990": 5841,
      "0x21923": 5842,
      "0x219d4": 5843,
      "0x21918": 5844,
      "0x219d0": 5845,
      "0x2196b": 5846,
      "0x219ba": 5847,
      "0x9cdc": 5848,
      "0x9c75": 5849,
      "0x9c26": 5850,
      "0x1c627": 5851,
      "0x1c6dc": 5852,
      "0x1c622": 5853,
      "0x12e67": 5854,
      "0x12e18": 5855,
      "0x12e65": 5856,
      "0x12efb": 5857,
      "0x12e9f": 5858,
      "0x12ed5": 5859,
      "0x12e6e": 5860,
      "0x12e91": 5861,
      "0x12e59": 5862,
      "##fffffff": 5863,
      "0x17eea": 5864,
      "0x17e64": 5865,
      "0x17e58": 5866,
      "0x17e24": 5867,
      "0x17e3b": 5868,
      "0x17e39": 5869,
      "0x1ac80": 5870,
      "0x1ac6a": 5871,
      "0x1acbc": 5872,
      "0x1acbf": 5873,
      "0x1ac69": 5874,
      "0x1ac25": 5875,
      "0x1ac14": 5876,
      "0x1ac1b": 5877,
      "0x1ac6d": 5878,
      "0x1bc23": 5879,
      "0x1bc22": 5880,
      "0x1bca5": 5881,
      "0x2b8f6": 5882,
      "0x2b86c": 5883,
      "0x2b8c8": 5884,
      "0x2b8bd": 5885,
      "0x2b83b": 5886,
      "0x2b83c": 5887,
      "0x2b82a": 5888,
      "0x2b8b1": 5889,
      "0x10a90": 5890,
      "0x10abe": 5891,
      "0x10a34": 5892,
      "0x10a92": 5893,
      "0x10a8e": 5894,
      "0x10a21": 5895,
      "0x10a25": 5896,
      "0x10a68": 5897,
      "0x24b00": 5898,
      "0x24bb7": 5899,
      "0x24bc0": 5900,
      "0x24bb8": 5901,
      "0x24b58": 5902,
      "0x24b13": 5903,
      "0x24b26": 5904,
      "0x24b9e": 5905,
      "0xa352": 5906,
      "0xa3d70": 5907,
      "0x22f00": 5908,
      "0x22fd8": 5909,
      "0x22f92": 5910,
      "0x22f95": 5911,
      "0x22f58": 5912,
      "0x22f26": 5913,
      "0x22f1b": 5914,
      "0x22fa2": 5915,
      "0x1e323": 5916,
      "0x1e3d2": 5917,
      "0x1e3ed": 5918,
      "0x23a80": 5919,
      "0x23af0": 5920,
      "0x23a9a": 5921,
      "0x23a90": 5922,
      "0x23a1c": 5923,
      "0x23a68": 5924,
      "0x11d9a": 5925,
      "0x11d3b": 5926,
      "0x11770": 5927,
      "0x117b7": 5928,
      "0x1179a": 5929,
      "0x117c0": 5930,
      "0x11723": 5931,
      "0x117aa": 5932,
      "0x117a9": 5933,
      "0x1172b": 5934,
      "0x21c67": 5935,
      "0x21c34": 5936,
      "0x21c4b": 5937,
      "0x21cbd": 5938,
      "0x21c45": 5939,
      "0x21cb2": 5940,
      "0xfa9a": 5941,
      "0xfa30": 5942,
      "0xfabc": 5943,
      "0xfa9d": 5944,
      "0xfa8e": 5945,
      "0xfa2e": 5946,
      "0xf7f0": 5947,
      "0xf790": 5948,
      "0xf7be": 5949,
      "0xf7d4": 5950,
      "0xf71d": 5951,
      "0xf7b8": 5952,
      "0xf7f6": 5953,
      "0xf7fb": 5954,
      "0x1cdea": 5955,
      "0x1cdae": 5956,
      "0x1cda3": 5957,
      "0xe592": 5958,
      "0xe5ec": 5959,
      "0xe59c": 5960,
      "0x1f920": 5961,
      "0x1f9be": 5962,
      "0x1f940": 5963,
      "0x1f9b4": 5964,
      "0x1f9b8": 5965,
      "0x1f944": 5966,
      "0x1f963": 5967,
      "0x1f9ba": 5968,
      "0x1f210": 5969,
      "0x1f2e0": 5970,
      "0x1f22e": 5971,
      "0x1f225": 5972,
      "0x1790e": 5973,
      "0x1790b": 5974,
      "0x17908": 5975,
      "0x1a42c": 5976,
      "0x1a426": 5977,
      "0x1a41f": 5978,
      "0x1a4a6": 5979,
      "0x1a466": 5980,
      "0x1a43b": 5981,
      "0x16c99": 5982,
      "0x16c1c": 5983,
      "0x16caf": 5984,
      "0x16c46": 5985,
      "0x18492": 5986,
      "0x18497": 5987,
      "0x18461": 5988,
      "0x184cd": 5989,
      "0x597e": 5990,
      "0xbd57": 5991,
      "0xbdf3": 5992,
      "0xbd58": 5993,
      "0xbde4": 5994,
      "0xb7ea": 5995,
      "0xb780": 5996,
      "0xb775": 5997,
      "0xb748": 5998,
      "0xb772": 5999,
      "0x25dff": 6000,
      "0x25d50": 6001,
      "0x25d90": 6002,
      "0x25d34": 6003,
      "0x25da4": 6004,
      "0x25d13": 6005,
      "0x25d61": 6006,
      "0x25f80": 6007,
      "0x25f10": 6008,
      "0x25fd4": 6009,
      "0x25fa4": 6010,
      "0x25f13": 6011,
      "0x25f24": 6012,
      "0x25fa1": 6013,
      "0x8d40": 6014,
      "0x8d14": 6015,
      "0x8dad": 6016,
      "##00000000": 6017,
      "0x21bcc": 6018,
      "0x21bdc": 6019,
      "0x21b68": 6020,
      "0x21b9c": 6021,
      "0x21b61": 6022,
      "0x13760": 6023,
      "0x13718": 6024,
      "0x1371e": 6025,
      "0x1374b": 6026,
      "0x137eb": 6027,
      "0x137db": 6028,
      "0x137d3": 6029,
      "0x1c45b": 6030,
      "0x1c4cd": 6031,
      "0x1ce00": 6032,
      "0x1ce56": 6033,
      "0x1ced0": 6034,
      "0x1ce2c": 6035,
      "0x1ce74": 6036,
      "0xe498": 6037,
      "0xe437": 6038,
      "0xe49b": 6039,
      "0xe45f": 6040,
      "0xe728": 6041,
      "0xe77c": 6042,
      "0xe77e": 6043,
      "0xe77a": 6044,
      "0x1f410": 6045,
      "0x1f419": 6046,
      "0x1f45b": 6047,
      "0x1f426": 6048,
      "0x1f4af": 6049,
      "0x1f4df": 6050,
      "0x1f436": 6051,
      "0x1f306": 6052,
      "0x1f30a": 6053,
      "0x1ad27": 6054,
      "0x1ada8": 6055,
      "0x1ad65": 6056,
      "0x1a0ff": 6057,
      "0x1a0f8": 6058,
      "0x1a02d": 6059,
      "0x15108": 6060,
      "0x16a9d": 6061,
      "0x16ab8": 6062,
      "0x16a51": 6063,
      "0x1d519": 6064,
      "0x1d5e4": 6065,
      "0x1d5fd": 6066,
      "0x1d5ec": 6067,
      "0xea1b": 6068,
      "0xeac3": 6069,
      "0x26a93": 6070,
      "0x26a1f": 6071,
      "0x26a53": 6072,
      "0x26a48": 6073,
      "0x26a39": 6074,
      "0x26a84": 6075,
      "0x2a06a": 6076,
      "0x2a05c": 6077,
      "0x2a036": 6078,
      "0x1801a": 6079,
      "0x18029": 6080,
      "0x180c4": 6081,
      "0x5f64": 6082,
      "0x5fee": 6083,
      "0x5fa6": 6084,
      "0x205d8": 6085,
      "0x20595": 6086,
      "0x20537": 6087,
      "0x205df": 6088,
      "0x20aff": 6089,
      "0x20abe": 6090,
      "0x20af3": 6091,
      "0x20a15": 6092,
      "0x20adf": 6093,
      "0x20ad3": 6094,
      "0x20000002b": 6095,
      "0x28d70": 6096,
      "0x28dbc": 6097,
      "0x28d56": 6098,
      "0x28dce": 6099,
      "0x28d34": 6100,
      "0x28db3": 6101,
      "0x28660": 6102,
      "0x28698": 6103,
      "0x286ce": 6104,
      "0x2862c": 6105,
      "0x28669": 6106,
      "0x2866f": 6107,
      "0x28070": 6108,
      "0x2801a": 6109,
      "0x2809d": 6110,
      "0x2808e": 6111,
      "0x280f3": 6112,
      "0x280bb": 6113,
      "0x28890": 6114,
      "0x2886d": 6115,
      "0x2889e": 6116,
      "0x2884e": 6117,
      "0x24cee": 6118,
      "0x24ceb": 6119,
      "0x24ce8": 6120,
      "0xcacc": 6121,
      "0xc2d4": 6122,
      "0xc2e4": 6123,
      "0xc760": 6124,
      "0xc79a": 6125,
      "0xc734": 6126,
      "0xc7a8": 6127,
      "0xc791": 6128,
      "0xc748": 6129,
      "0x14f42": 6130,
      "0x7b40": 6131,
      "0x2297d": 6132,
      "0x2297f": 6133,
      "0x1ecff": 6134,
      "0x1ec5b": 6135,
      "0x1ec69": 6136,
      "0x1ec13": 6137,
      "0x1ec73": 6138,
      "0x1ec53": 6139,
      "0x1efae": 6140,
      "0x1efa2": 6141,
      "0x1ef5f": 6142,
      "0x1ef96": 6143,
      "0x1ef4a": 6144,
      "0x1ef47": 6145,
      "0x239ff": 6146,
      "0x23963": 6147,
      "0x11166": 6148,
      "0x25aff": 6149,
      "0x25ac0": 6150,
      "0x25af3": 6151,
      "0x25a69": 6152,
      "0x25afe": 6153,
      "0x25a1b": 6154,
      "0x21150": 6155,
      "0x211cc": 6156,
      "0x211a0": 6157,
      "0x21128": 6158,
      "0x21faa": 6159,
      "0x21f2c": 6160,
      "0x21f58": 6161,
      "0x21f99": 6162,
      "0x21f17": 6163,
      "0x21f94": 6164,
      "0x21235": 6165,
      "0x2123a": 6166,
      "0x13520": 6167,
      "0x135a3": 6168,
      "0x135e8": 6169,
      "0x1359c": 6170,
      "0xfef": 6171,
      "0xfe8e": 6172,
      "0xfef7": 6173,
      "0xfe75": 6174,
      "0xfe54": 6175,
      "0xfedf": 6176,
      "0x1cca4": 6177,
      "0x1c31d": 6178,
      "0x1c39d": 6179,
      "0x1c357": 6180,
      "0x1c32e": 6181,
      "0x1c567": 6182,
      "0x1c556": 6183,
      "0xe652": 6184,
      "0x1fd20": 6185,
      "0x1fdf8": 6186,
      "0x1fdfd": 6187,
      "0x1fd17": 6188,
      "0x1fda6": 6189,
      "0x1fd12": 6190,
      "0x1f530": 6191,
      "0x1f5aa": 6192,
      "0x1f5bf": 6193,
      "0x1f557": 6194,
      "0x1f5d7": 6195,
      "0x1f526": 6196,
      "0x1f805": 6197,
      "0xd62": 6198,
      "0xd6ea": 6199,
      "0xd6d4": 6200,
      "0xd637": 6201,
      "0xd61c": 6202,
      "0xd615": 6203,
      "0xd7ae": 6204,
      "0xd75b": 6205,
      "0xd7dc": 6206,
      "0xd744": 6207,
      "0xd7d5": 6208,
      "0xd7b5": 6209,
      "0x19cff": 6210,
      "0x19ca0": 6211,
      "0x19cd0": 6212,
      "0x19c1c": 6213,
      "0x1a72d": 6214,
      "0x1a793": 6215,
      "0x1a7af": 6216,
      "0x1a791": 6217,
      "0x15200": 6218,
      "0x152bf": 6219,
      "0x15219": 6220,
      "0x152fd": 6221,
      "0x15454": 6222,
      "0x15455": 6223,
      "0x1527d": 6224,
      "0x15274": 6225,
      "0x1527e": 6226,
      "##ccccccd": 6227,
      "0x1d1e0": 6228,
      "0x1d1bc": 6229,
      "0x1d156": 6230,
      "0x1d12e": 6231,
      "0x27e20": 6232,
      "0x27e67": 6233,
      "0x27e58": 6234,
      "0x27e52": 6235,
      "0x27e5e": 6236,
      "0x27e72": 6237,
      "0x278be": 6238,
      "0x27865": 6239,
      "0x278fe": 6240,
      "0x27893": 6241,
      "0x278a2": 6242,
      "0x278cd": 6243,
      "0x263dd": 6244,
      "0x26319": 6245,
      "0x2632d": 6246,
      "0x263ec": 6247,
      "0x2636e": 6248,
      "0x26396": 6249,
      "0x2b6ce": 6250,
      "0x2b6ee": 6251,
      "0x2b697": 6252,
      "0x2b66b": 6253,
      "0x260e0": 6254,
      "0x26098": 6255,
      "0x26091": 6256,
      "0x260c4": 6257,
      "0x2600a": 6258,
      "0x18bd5": 6259,
      "0x18b2b": 6260,
      "0x1844b": 6261,
      "0x18448": 6262,
      "0x101c0": 6263,
      "0x10167": 6264,
      "0x101d4": 6265,
      "0x101ce": 6266,
      "0x10151": 6267,
      "0x1097c": 6268,
      "0x109f3": 6269,
      "0x10969": 6270,
      "0x1091f": 6271,
      "0x109eb": 6272,
      "0x10267": 6273,
      "0x10219": 6274,
      "0x10226": 6275,
      "0x5576": 6276,
      "0x551d": 6277,
      "0x55ab": 6278,
      "0x5afd": 6279,
      "0x56bb": 6280,
      "0x20c9d": 6281,
      "0x20ca8": 6282,
      "0x20c25": 6283,
      "0x20c14": 6284,
      "0x20c7e": 6285,
      "0x20bb7": 6286,
      "0x20b19": 6287,
      "0x20b14": 6288,
      "0x207cc": 6289,
      "0x2078e": 6290,
      "0x2074f": 6291,
      "0x207a4": 6292,
      "0x20778": 6293,
      "0x20a8c": 6294,
      "0x20a82": 6295,
      "0x20a8b": 6296,
      "0x2470c": 6297,
      "0x24703": 6298,
      "0x2470a": 6299,
      "0x24702": 6300,
      "0x2470e": 6301,
      "0x6690": 6302,
      "0x661a": 6303,
      "0x66f6": 6304,
      "0xae15": 6305,
      "0xae22": 6306,
      "0xae5f": 6307,
      "0xae7a": 6308,
      "0xae5d": 6309,
      "0xc61a": 6310,
      "0xc699": 6311,
      "0xc621": 6312,
      "0x14664": 6313,
      "0x146b0": 6314,
      "0x146b4": 6315,
      "0x14619": 6316,
      "0x1466b": 6317,
      "0x14980": 6318,
      "0x14920": 6319,
      "0x14919": 6320,
      "0x149f7": 6321,
      "0x1496d": 6322,
      "0x14a92": 6323,
      "0x14a2c": 6324,
      "0x14a27": 6325,
      "0x14bf8": 6326,
      "0x14b63": 6327,
      "0x72a7": 6328,
      "0xb1b7": 6329,
      "0xb176": 6330,
      "0xb19d": 6331,
      "0xb1fe": 6332,
      "0xb1b3": 6333,
      "0xb360": 6334,
      "0xb398": 6335,
      "0xb3d7": 6336,
      "0xb324": 6337,
      "0xb35a": 6338,
      "0xb510": 6339,
      "0xb55b": 6340,
      "0xb5a4": 6341,
      "0xb250": 6342,
      "0xb2d4": 6343,
      "0x22195": 6344,
      "0x22158": 6345,
      "0x22154": 6346,
      "0x22163": 6347,
      "0x22115": 6348,
      "0x2221a": 6349,
      "0x22230": 6350,
      "0x2229d": 6351,
      "0x222a8": 6352,
      "0x22254": 6353,
      "0x231c3": 6354,
      "0x231ca": 6355,
      "0x11936": 6356,
      "0x1193c": 6357,
      "0x11938": 6358,
      "0x83c0": 6359,
      "0x8398": 6360,
      "0x8354": 6361,
      "0x839f": 6362,
      "0x83e6": 6363,
      "0x8ccb": 6364,
      "0x21af0": 6365,
      "0x21a19": 6366,
      "0x21a21": 6367,
      "0x21afb": 6368,
      "0x21a2e": 6369,
      "0x212aa": 6370,
      "0x2126b": 6371,
      "0x21e08": 6372,
      "0x13380": 6373,
      "0x13328": 6374,
      "0x133d0": 6375,
      "0x1336b": 6376,
      "0x1336c": 6377,
      "0x1c9d9": 6378,
      "0x1267d": 6379,
      "0xe736": 6380,
      "0x1f7cf": 6381,
      "0x1f7c5": 6382,
      "0x1f7c2": 6383,
      "0xd523": 6384,
      "0xd5ee": 6385,
      "0xd544": 6386,
      "0xd5a1": 6387,
      "0x1934e": 6388,
      "0x171ff": 6389,
      "0x17370": 6390,
      "0x173b7": 6391,
      "0x173da": 6392,
      "0x17b19": 6393,
      "0x17b37": 6394,
      "0x17bac": 6395,
      "0x1afdd": 6396,
      "0x1afae": 6397,
      "0x1af1c": 6398,
      "0x1a63c": 6399,
      "0x1a635": 6400,
      "0x15cf6": 6401,
      "0x15e60": 6402,
      "0x15ece": 6403,
      "0x15ed5": 6404,
      "0x15e9c": 6405,
      "0x15ed9": 6406,
      "0x1b180": 6407,
      "0x1b120": 6408,
      "0x1b1f4": 6409,
      "0x1d61d": 6410,
      "0x1d613": 6411,
      "0x1d070": 6412,
      "0x1d063": 6413,
      "0x1d06e": 6414,
      "0x1d0c3": 6415,
      "0x1d046": 6416,
      "0x1dcfd": 6417,
      "0x1dc6d": 6418,
      "0x1dcbb": 6419,
      "0x1dfbe": 6420,
      "0x1df76": 6421,
      "0x1df1c": 6422,
      "0x1de2e": 6423,
      "0x1ded3": 6424,
      "0x1de36": 6425,
      "0x27c9a": 6426,
      "0x27c67": 6427,
      "0x27c58": 6428,
      "0x27c25": 6429,
      "0x27c16": 6430,
      "0x26c90": 6431,
      "0x26cbe": 6432,
      "0x26cd4": 6433,
      "0x26c18": 6434,
      "0x26caf": 6435,
      "fdivrp": 6436,
      "0x1b780": 6437,
      "0x1b72e": 6438,
      "0x1b786": 6439,
      "0x1b7f2": 6440,
      "0x41ff": 6441,
      "0x182bc": 6442,
      "0x182ce": 6443,
      "0x182ae": 6444,
      "0x182bd": 6445,
      "0x18e40": 6446,
      "0x18e56": 6447,
      "0x18e5a": 6448,
      "0x18e36": 6449,
      "0x187ea": 6450,
      "0x187d2": 6451,
      "0x10e40": 6452,
      "0x10e13": 6453,
      "0x10ed2": 6454,
      "0x10efa": 6455,
      "0x5df0": 6456,
      "0x5d67": 6457,
      "0x5d6e": 6458,
      "0x5da6": 6459,
      "0x52f6": 6460,
      "0x52fb": 6461,
      "0x529e": 6462,
      "0x5d4d": 6463,
      "0x201bf": 6464,
      "0x2015c": 6465,
      "0x2012d": 6466,
      "0x20f34": 6467,
      "0x20f5c": 6468,
      "0x20f54": 6469,
      "0x20fc8": 6470,
      "0x20b7d": 6471,
      "0x20b76": 6472,
      "0x20be1": 6473,
      "0x20bef": 6474,
      "0x20be4": 6475,
      "0x20be7": 6476,
      "0x2856a": 6477,
      "0x285ee": 6478,
      "0x28551": 6479,
      "0x28594": 6480,
      "0x242dd": 6481,
      "0x24250": 6482,
      "0x242f0": 6483,
      "0x242b0": 6484,
      "0x24bd9": 6485,
      "0x6f20": 6486,
      "0x6fa0": 6487,
      "0x6f1b": 6488,
      "0xcfbe": 6489,
      "0xcf5e": 6490,
      "0xcbb0": 6491,
      "0xcbab": 6492,
      "0xcbac": 6493,
      "0xcb6f": 6494,
      "0x7551": 6495,
      "0x7558": 6496,
      "0xb680": 6497,
      "0x2267c": 6498,
      "0x22679": 6499,
      "0x2267a": 6500,
      "0x2267e": 6501,
      "0x22f85": 6502,
      "0x22f82": 6503,
      "0x22f8e": 6504,
      "0x22f87": 6505,
      "0x227e1": 6506,
      "0x227ed": 6507,
      "0x227e6": 6508,
      "0x227e9": 6509,
      "0x22c3c": 6510,
      "0x1e2bf": 6511,
      "0x1e219": 6512,
      "0x119ce": 6513,
      "0x119fe": 6514,
      "0x11913": 6515,
      "0x11915": 6516,
      "0x25cf0": 6517,
      "0x25c10": 6518,
      "0x25c17": 6519,
      "0x25c53": 6520,
      "0x25510": 6521,
      "0x25554": 6522,
      "0x25707": 6523,
      "0x2527e": 6524,
      "0x8a97": 6525,
      "0x8d4f": 6526,
      "0x13b56": 6527,
      "0x13bab": 6528,
      "0x13b5c": 6529,
      "0x13b6d": 6530,
      "0x134b3": 6531,
      "0xf6d4": 6532,
      "0xf6ee": 6533,
      "0xf657": 6534,
      "0xf669": 6535,
      "0xf550": 6536,
      "0xf556": 6537,
      "0xf5f3": 6538,
      "0xf5d9": 6539,
      "0x9d69": 6540,
      "0x9deb": 6541,
      "0x9bf0": 6542,
      "0x9b19": 6543,
      "0x9bd5": 6544,
      "0x9b96": 6545,
      "0x1c997": 6546,
      "0x1cea3": 6547,
      "0x1cea4": 6548,
      "0x12f33": 6549,
      "0x12f21": 6550,
      "0x12fa3": 6551,
      "0x12f94": 6552,
      "0x123ea": 6553,
      "0x123b8": 6554,
      "0x12352": 6555,
      "0x123d9": 6556,
      "0xef98": 6557,
      "0xef17": 6558,
      "0xdfb7": 6559,
      "0xdfbe": 6560,
      "0xdfbc": 6561,
      "0xdf5a": 6562,
      "0xd47c": 6563,
      "0xd4c2": 6564,
      "0xd459": 6565,
      "0xd416": 6566,
      "0xdf69": 6567,
      "0xdf68": 6568,
      "0x19b34": 6569,
      "0x19b1d": 6570,
      "0x19b27": 6571,
      "0x19b15": 6572,
      "0x1a619": 6573,
      "0x1a66c": 6574,
      "0x1a66e": 6575,
      "0x1ae00": 6576,
      "0x1aefd": 6577,
      "0x1aefc": 6578,
      "0x1aed9": 6579,
      "0x15db7": 6580,
      "0x15da3": 6581,
      "0x15da1": 6582,
      "0x15dad": 6583,
      "0x16298": 6584,
      "0x162ac": 6585,
      "0x162a1": 6586,
      "0x162a2": 6587,
      "0x166e5": 6588,
      "0x1b419": 6589,
      "0x1b429": 6590,
      "0x1df05": 6591,
      "0x272a0": 6592,
      "0x272bc": 6593,
      "0x272ac": 6594,
      "0x27291": 6595,
      "0x27bb8": 6596,
      "0x27b69": 6597,
      "0x27bac": 6598,
      "0x27b52": 6599,
      "0x26298": 6600,
      "0x26292": 6601,
      "0x262ac": 6602,
      "0x262a1": 6603,
      "##656c6573": 6604,
      "0xddce": 6605,
      "0xdd73": 6606,
      "0xdd91": 6607,
      "0x1ff52": 6608,
      "0x1ff46": 6609,
      "0x1ffe9": 6610,
      "0x267b4": 6611,
      "0x267d5": 6612,
      "0x267a5": 6613,
      "0x292f0": 6614,
      "0x29268": 6615,
      "0x292d1": 6616,
      "0x29d15": 6617,
      "0x29dad": 6618,
      "0x29d2f": 6619,
      "0x29f1e": 6620,
      "0x29fc1": 6621,
      "0x29fcf": 6622,
      "0x18cd8": 6623,
      "0x18c4b": 6624,
      "0x18cf2": 6625,
      "0x10dcc": 6626,
      "0x10d99": 6627,
      "0x10d9e": 6628,
      "0x10bed": 6629,
      "0x57a4": 6630,
      "0x57af": 6631,
      "0x558c": 6632,
      "0x565d": 6633,
      "0x20634": 6634,
      "0x206e8": 6635,
      "0x206eb": 6636,
      "0x20aa1": 6637,
      "0x20bf3": 6638,
      "0x20bf2": 6639,
      "0x20bfb": 6640,
      "0x24d8d": 6641,
      "0x24d83": 6642,
      "0x24d8e": 6643,
      "0x24d47": 6644,
      "0x24bf1": 6645,
      "0x24bfd": 6646,
      "0x24bfa": 6647,
      "0xcc90": 6648,
      "0xcc12": 6649,
      "0xccf1": 6650,
      "0xc5b8": 6651,
      "0xc5f7": 6652,
      "0xc5d3": 6653,
      "0x14d60": 6654,
      "0x14d98": 6655,
      "0x14d15": 6656,
      "0x145ff": 6657,
      "0x145bc": 6658,
      "0x145bf": 6659,
      "0x14b86": 6660,
      "0x14b82": 6661,
      "0x14b87": 6662,
      "0x14c39": 6663,
      "0x14c3f": 6664,
      "0x14c3b": 6665,
      "0x7335": 6666,
      "0xbb71": 6667,
      "0xbb79": 6668,
      "0xbb72": 6669,
      "0xbabd": 6670,
      "0xbaba": 6671,
      "0xbab2": 6672,
      "0xba86": 6673,
      "0xba8c": 6674,
      "0xba87": 6675,
      "0x229a0": 6676,
      "0x229ac": 6677,
      "0x229ab": 6678,
      "0x224f1": 6679,
      "0x22d2b": 6680,
      "0x229cf": 6681,
      "0x229c3": 6682,
      "0x229c4": 6683,
      "0x22c83": 6684,
      "0x22c82": 6685,
      "0x22c87": 6686,
      "0x1eba0": 6687,
      "0x1eb19": 6688,
      "0x1eb11": 6689,
      "0x23640": 6690,
      "0x23644": 6691,
      "0x2364e": 6692,
      "0x236cd": 6693,
      "0x236c6": 6694,
      "0x236c2": 6695,
      "0x11b28": 6696,
      "0x11b97": 6697,
      "0x11b91": 6698,
      "0x25b7d": 6699,
      "0x25b7c": 6700,
      "0x25b73": 6701,
      "0x25b0d": 6702,
      "0x25b0c": 6703,
      "0x25b0b": 6704,
      "0x25931": 6705,
      "0x2593f": 6706,
      "0x25935": 6707,
      "0x25ba9": 6708,
      "0x25baf": 6709,
      "0x25ba5": 6710,
      "0x811d": 6711,
      "0x8f23": 6712,
      "0x8fb8": 6713,
      "0x8f99": 6714,
      "0x2133a": 6715,
      "0x215c1": 6716,
      "0x215ca": 6717,
      "0x215cb": 6718,
      "0x2173e": 6719,
      "0x13dc0": 6720,
      "0x13d6a": 6721,
      "0x13d63": 6722,
      "0x13af4": 6723,
      "0x13c08": 6724,
      "0xf972": 6725,
      "0xf97b": 6726,
      "0xf978": 6727,
      "0xfa43": 6728,
      "0xfa45": 6729,
      "0xfa4a": 6730,
      "0xf5f2": 6731,
      "0x959b": 6732,
      "0x9e51": 6733,
      "0x9e58": 6734,
      "0x9e77": 6735,
      "0x12670": 6736,
      "0x1266a": 6737,
      "0x12622": 6738,
      "0x12775": 6739,
      "0x12ff0": 6740,
      "0x12ffe": 6741,
      "0x12ff8": 6742,
      "0xec7c": 6743,
      "0xec1c": 6744,
      "0xecbb": 6745,
      "0xe566": 6746,
      "0x1f134": 6747,
      "0x1f1bf": 6748,
      "0x1f157": 6749,
      "0x1fcdf": 6750,
      "0x1f370": 6751,
      "0x1f320": 6752,
      "0x1f3cb": 6753,
      "0x1fbef": 6754,
      "0x1fbe5": 6755,
      "0x1fbe7": 6756,
      "0x1fb44": 6757,
      "0x1f584": 6758,
      "0x1f6c6": 6759,
      "0x1f6c5": 6760,
      "0x1f6c7": 6761,
      "0xd31a": 6762,
      "0xd315": 6763,
      "0xd391": 6764,
      "0xd276": 6765,
      "0xd2ae": 6766,
      "0xd2b8": 6767,
      "0xd9a0": 6768,
      "0x19de6": 6769,
      "0x19de9": 6770,
      "0x19de3": 6771,
      "0x17da0": 6772,
      "0x17d13": 6773,
      "0x17d6e": 6774,
      "0x1a284": 6775,
      "0x15ad8": 6776,
      "0x15a33": 6777,
      "0x15a4f": 6778,
      "0x161b8": 6779,
      "0x1614f": 6780,
      "0x1611b": 6781,
      "0x16923": 6782,
      "0x169bf": 6783,
      "0x169ee": 6784,
      "0x1bdb0": 6785,
      "0x1bd27": 6786,
      "0x1bd65": 6787,
      "0x1b3ff": 6788,
      "0x1b3eb": 6789,
      "0x1b3c6": 6790,
      "0x27176": 6791,
      "0x271ce": 6792,
      "0x27134": 6793,
      "0x2759a": 6794,
      "0x2751a": 6795,
      "0x2754f": 6796,
      "0x27419": 6797,
      "0x27413": 6798,
      "0x2743e": 6799,
      "0x26b10": 6800,
      "0x26b21": 6801,
      "0x26b1f": 6802,
      "fucomip": 6803,
      "0x29c60": 6804,
      "0x29c8a": 6805,
      "0x4527": 6806,
      "0x181bf": 6807,
      "0x18137": 6808,
      "0x18de0": 6809,
      "0x18db4": 6810,
      "0x18f58": 6811,
      "0x18f9b": 6812,
      "0x18322": 6813,
      "0x183c3": 6814,
      "0x10350": 6815,
      "0x1039e": 6816,
      "0x10d85": 6817,
      "0x10d8a": 6818,
      "0x10a09": 6819,
      "0x10a07": 6820,
      "0x10b81": 6821,
      "0x10b86": 6822,
      "0x10196": 6823,
      "0x10193": 6824,
      "0x109e1": 6825,
      "0x109e2": 6826,
      "0x10a2a": 6827,
      "0x10a2b": 6828,
      "0x51cc": 6829,
      "0x5623": 6830,
      "0x5b96": 6831,
      "0x540f": 6832,
      "0x540a": 6833,
      "0x534f": 6834,
      "0x534a": 6835,
      "0x20ab6": 6836,
      "0x20aba": 6837,
      "0x2058a": 6838,
      "0x20582": 6839,
      "0x20f61": 6840,
      "0x20f68": 6841,
      "0x20aca": 6842,
      "0x20ac4": 6843,
      "0x20e8c": 6844,
      "0x20e84": 6845,
      "0x20c3e": 6846,
      "0x20c3b": 6847,
      "0x20c2f": 6848,
      "0x20c2a": 6849,
      "0x28e99": 6850,
      "0x28e7a": 6851,
      "0x28b97": 6852,
      "0x28d79": 6853,
      "0x28d75": 6854,
      "0x28fb9": 6855,
      "0x28fb2": 6856,
      "0x28549": 6857,
      "0x28548": 6858,
      "0x24be1": 6859,
      "0x24bee": 6860,
      "0x6b2b": 6861,
      "0x6700": 6862,
      "0x624c": 6863,
      "0x6243": 6864,
      "0xaf20": 6865,
      "0xafe0": 6866,
      "0xaae0": 6867,
      "0xaabc": 6868,
      "0xa218": 6869,
      "0xa257": 6870,
      "0xa286": 6871,
      "0xcd1e": 6872,
      "0xcd1f": 6873,
      "0xcdd1": 6874,
      "0xcdd8": 6875,
      "0xcf4d": 6876,
      "0xcf48": 6877,
      "0xcd77": 6878,
      "0xcd78": 6879,
      "0xcc7a": 6880,
      "0xcc7b": 6881,
      "0x14270": 6882,
      "0x142bd": 6883,
      "0x14769": 6884,
      "0x14763": 6885,
      "0x14d06": 6886,
      "0x14d02": 6887,
      "0x14bf3": 6888,
      "0x14bfe": 6889,
      "0x147c5": 6890,
      "0x147c4": 6891,
      "0x14ab9": 6892,
      "0x14ab3": 6893,
      "0x14b31": 6894,
      "0x14b3f": 6895,
      "0x1473a": 6896,
      "0x1473b": 6897,
      "0x14789": 6898,
      "0x14783": 6899,
      "0x14bb5": 6900,
      "0x14bb2": 6901,
      "0x77d7": 6902,
      "0x7726": 6903,
      "0x7636": 6904,
      "0x763e": 6905,
      "0xb28d": 6906,
      "0xb286": 6907,
      "0xbacf": 6908,
      "0xbac5": 6909,
      "0x22bed": 6910,
      "0x226a1": 6911,
      "0x226aa": 6912,
      "0x221a3": 6913,
      "0x221aa": 6914,
      "0x22b45": 6915,
      "0x22b42": 6916,
      "0x22fb5": 6917,
      "0x22fbb": 6918,
      "0x22a9f": 6919,
      "0x22a94": 6920,
      "0x229f1": 6921,
      "0x229fc": 6922,
      "0x22a59": 6923,
      "0x22a55": 6924,
      "0x223b1": 6925,
      "0x223b6": 6926,
      "0x1e930": 6927,
      "0x1e913": 6928,
      "0x1e8ec": 6929,
      "0x1e8e2": 6930,
      "0x1e4b3": 6931,
      "0x1e4ba": 6932,
      "0x1e172": 6933,
      "0x1e177": 6934,
      "0x2300c": 6935,
      "0x23005": 6936,
      "0x23a01": 6937,
      "0x23a0b": 6938,
      "0x23231": 6939,
      "0x2323d": 6940,
      "0x23ee4": 6941,
      "0x23eeb": 6942,
      "0x23f31": 6943,
      "0x23f3e": 6944,
      "0x234f4": 6945,
      "0x234fb": 6946,
      "0x23f7b": 6947,
      "0x23f77": 6948,
      "0x23d72": 6949,
      "0x23d74": 6950,
      "0x236d1": 6951,
      "0x236d6": 6952,
      "0x236f9": 6953,
      "0x236f2": 6954,
      "0x11e3b": 6955,
      "0x11e12": 6956,
      "0x1180f": 6957,
      "0x1180a": 6958,
      "0x11331": 6959,
      "0x11339": 6960,
      "0x11a0d": 6961,
      "0x11a07": 6962,
      "0x11306": 6963,
      "0x1130c": 6964,
      "0x112c3": 6965,
      "0x112c8": 6966,
      "0x11e8c": 6967,
      "0x11e87": 6968,
      "0x1194c": 6969,
      "0x1194a": 6970,
      "0x25f01": 6971,
      "0x25f04": 6972,
      "0x25bc6": 6973,
      "0x25bc7": 6974,
      "0x25284": 6975,
      "0x25288": 6976,
      "0x252cd": 6977,
      "0x252c8": 6978,
      "0x25f3c": 6979,
      "0x25f38": 6980,
      "0x25f4e": 6981,
      "0x25f47": 6982,
      "0x25e49": 6983,
      "0x25e42": 6984,
      "0x25b3c": 6985,
      "0x25b3a": 6986,
      "0x25ec5": 6987,
      "0x25eca": 6988,
      "0x2578a": 6989,
      "0x25784": 6990,
      "0x8756": 6991,
      "0x87ba": 6992,
      "0x848f": 6993,
      "0x21d83": 6994,
      "0x21d8e": 6995,
      "0x212c4": 6996,
      "0x212cb": 6997,
      "0x21dc1": 6998,
      "0x21dcb": 6999,
      "0x21baf": 7000,
      "0x21ba7": 7001,
      "0x21c8d": 7002,
      "0x21c82": 7003,
      "0x1391c": 7004,
      "0x13917": 7005,
      "0x13e50": 7006,
      "0x13ef7": 7007,
      "0x13b72": 7008,
      "0x13b77": 7009,
      "0x13d4d": 7010,
      "0x13d4c": 7011,
      "0x138e6": 7012,
      "0x138eb": 7013,
      "0x1321c": 7014,
      "0x1321f": 7015,
      "0x1327f": 7016,
      "0x1327e": 7017,
      "0x136c9": 7018,
      "0x136c3": 7019,
      "0x13dbd": 7020,
      "0x13db9": 7021,
      "0x1394d": 7022,
      "0x13948": 7023,
      "0x1338c": 7024,
      "0x13382": 7025,
      "0xf133": 7026,
      "0xf169": 7027,
      "0xf006": 7028,
      "0xf009": 7029,
      "0xfaa9": 7030,
      "0xfaa8": 7031,
      "0xfcec": 7032,
      "0xfce5": 7033,
      "0xfac9": 7034,
      "0xfac8": 7035,
      "0xf68d": 7036,
      "0xf68a": 7037,
      "0x9176": 7038,
      "0x911d": 7039,
      "0x1c120": 7040,
      "0x1c165": 7041,
      "0x1ca10": 7042,
      "0x1ca37": 7043,
      "0x1c2dd": 7044,
      "0x1c269": 7045,
      "0x1ca06": 7046,
      "0x1ca08": 7047,
      "0x1cb8d": 7048,
      "0x1cb85": 7049,
      "0x1c7e1": 7050,
      "0x1c7e7": 7051,
      "0x122c0": 7052,
      "0x122f6": 7053,
      "0x12bff": 7054,
      "0x12b50": 7055,
      "0x12eec": 7056,
      "0x12eef": 7057,
      "0xe121": 7058,
      "0xe154": 7059,
      "0x1fe7e": 7060,
      "0x1fe9f": 7061,
      "0x1f5bd": 7062,
      "0x1f5b3": 7063,
      "0x1fa45": 7064,
      "0x1fa42": 7065,
      "0x1fba1": 7066,
      "0x1fba9": 7067,
      "0x1f73f": 7068,
      "0x1f73b": 7069,
      "0x1f7e9": 7070,
      "0x1f7e7": 7071,
      "0x1f78a": 7072,
      "0x1f787": 7073,
      "0x1fbd6": 7074,
      "0x1fbde": 7075,
      "0x1fad1": 7076,
      "0x1fad9": 7077,
      "0x585861": 7078,
      "0xdcef": 7079,
      "0xdce3": 7080,
      "0x199b7": 7081,
      "0x19934": 7082,
      "0x19f90": 7083,
      "0x19f2e": 7084,
      "0x194cc": 7085,
      "0x19452": 7086,
      "0x19c0e": 7087,
      "0x19c07": 7088,
      "0x19aa4": 7089,
      "0x19aa7": 7090,
      "0x19931": 7091,
      "0x19935": 7092,
      "0x199c9": 7093,
      "0x199ca": 7094,
      "0x1799d": 7095,
      "0x179fe": 7096,
      "0x17a0f": 7097,
      "0x17a0e": 7098,
      "0x17a85": 7099,
      "0x17a87": 7100,
      "0x1aa57": 7101,
      "0x1aa5c": 7102,
      "0x1a7cd": 7103,
      "0x1a7c7": 7104,
      "0x1ac39": 7105,
      "0x1ac3b": 7106,
      "0x1ac81": 7107,
      "0x1ac87": 7108,
      "0x156ff": 7109,
      "0x156bf": 7110,
      "0x1531d": 7111,
      "0x15358": 7112,
      "0x15bd4": 7113,
      "0x15b61": 7114,
      "0x1526d": 7115,
      "0x15268": 7116,
      "0x16fb0": 7117,
      "0x16f13": 7118,
      "0x16580": 7119,
      "0x165eb": 7120,
      "0x16906": 7121,
      "0x16907": 7122,
      "0x16ab5": 7123,
      "0x16ab2": 7124,
      "0x1b550": 7125,
      "0x1b54f": 7126,
      "0x1ba4f": 7127,
      "0x1ba6d": 7128,
      "0x1bebe": 7129,
      "0x1be27": 7130,
      "0x1d4a3": 7131,
      "0x1d461": 7132,
      "0x1dbbe": 7133,
      "0x1db54": 7134,
      "0x27d9a": 7135,
      "0x27dfb": 7136,
      "0x27f50": 7137,
      "0x27f23": 7138,
      "0x273d0": 7139,
      "0x2732e": 7140,
      "0x27e49": 7141,
      "0x27e43": 7142,
      "0x26f1b": 7143,
      "0x26f91": 7144,
      "0x265ab": 7145,
      "0x2652e": 7146,
      "0x268ab": 7147,
      "0x268ba": 7148,
      "0x26143": 7149,
      "0x2614a": 7150,
      "0x26246": 7151,
      "0x26243": 7152,
      "##56e6567": 7153,
      "##972656e6567": 7154,
      "##a3d70b": 7155,
      "##a3d70a3d70b": 7156,
      "cmovge": 7157,
      "0x2b537": 7158,
      "0x2b55c": 7159,
      "0x2b93c": 7160,
      "0x2b932": 7161,
      "0x2a2ff": 7162,
      "0x2a2ee": 7163,
      "0x2a27e": 7164,
      "0x2a278": 7165,
      "0x636170736b63": 7166,
      "##463656c6573": 7167,
      "##46e6520": 7168,
      "0xea0d": 7169,
      "0x1dd07": 7170,
      "0x264fe": 7171,
      "0x29a1c": 7172,
      "0x2907d": 7173,
      "0x295ba": 7174,
      "0x29e13": 7175,
      "0x4cc0": 7176,
      "0x4e03": 7177,
      "0x4d44": 7178,
      "0x18f02": 7179,
      "0x18206": 7180,
      "0x18e0e": 7181,
      "0x1840a": 7182,
      "0x18d45": 7183,
      "0x18f8b": 7184,
      "0x18ee7": 7185,
      "0x18f4c": 7186,
      "0x18e41": 7187,
      "0x1869f": 7188,
      "0x1863b": 7189,
      "0x18e87": 7190,
      "0x18178": 7191,
      "0x1822b": 7192,
      "0x18c8c": 7193,
      "0x18483": 7194,
      "0x184ef": 7195,
      "0x10801": 7196,
      "0x10106": 7197,
      "0x10c04": 7198,
      "0x106aa": 7199,
      "0x109dc": 7200,
      "0x1057d": 7201,
      "0x10515": 7202,
      "0x104b3": 7203,
      "0x10546": 7204,
      "0x106d2": 7205,
      "0x10536": 7206,
      "0x5648": 7207,
      "0x5008": 7208,
      "0x5d8e": 7209,
      "0x5e0a": 7210,
      "0x5234": 7211,
      "0x51eb851f": 7212,
      "0x5b49": 7213,
      "0x5a48": 7214,
      "0x20f05": 7215,
      "0x20204": 7216,
      "0x20c0d": 7217,
      "0x20306": 7218,
      "0x20bc8": 7219,
      "0x20d4d": 7220,
      "0x208e4": 7221,
      "0x20eeb": 7222,
      "0x204fd": 7223,
      "0x20215": 7224,
      "0x2065d": 7225,
      "0x20a43": 7226,
      "0x20a3a": 7227,
      "0x20639": 7228,
      "0x20736": 7229,
      "0x20ecb": 7230,
      "0x20c8f": 7231,
      "0x20bda": 7232,
      "0x2052f": 7233,
      "0x205f1": 7234,
      "0x28001": 7235,
      "0x286ab": 7236,
      "0x28309": 7237,
      "0x28bc7": 7238,
      "0x289d3": 7239,
      "0x28b8f": 7240,
      "0x28572": 7241,
      "0x284bd": 7242,
      "0x2868d": 7243,
      "0x28bb9": 7244,
      "0x28559": 7245,
      "0x24ffe": 7246,
      "0x24cc4": 7247,
      "0x249a0": 7248,
      "0x24c01": 7249,
      "0x24f8f": 7250,
      "0x24aaa": 7251,
      "0x24569": 7252,
      "0x24aeb": 7253,
      "0x2418c": 7254,
      "0x24d06": 7255,
      "0x2434a": 7256,
      "0x248e5": 7257,
      "0x2457f": 7258,
      "0x24214": 7259,
      "0x24f62": 7260,
      "0x24dc7": 7261,
      "0x24a82": 7262,
      "0x242db": 7263,
      "0x24938": 7264,
      "0x241f2": 7265,
      "0x2417f": 7266,
      "0x600c": 7267,
      "0x698c": 7268,
      "0x6336": 7269,
      "0x630e": 7270,
      "0x6563": 7271,
      "0x62c1": 7272,
      "0x614e": 7273,
      "0x6ec5": 7274,
      "0x653a": 7275,
      "0x636972656e6567": 7276,
      "0x38e38e39": 7277,
      "0xa70c": 7278,
      "0xa1a3": 7279,
      "0xaaae": 7280,
      "0xaeed": 7281,
      "0xaf3e": 7282,
      "0xa4fe": 7283,
      "0xa65c": 7284,
      "0xa268": 7285,
      "0xa6d5": 7286,
      "0xad3c": 7287,
      "0xaaaaaaaaaaaaaaa9": 7288,
      "0xcf0f": 7289,
      "0xcb02": 7290,
      "0xc1aa": 7291,
      "0xcee9": 7292,
      "0xcab6": 7293,
      "0xc21c": 7294,
      "0xcf77": 7295,
      "0xc1c9": 7296,
      "0xc73e": 7297,
      "0xcc32": 7298,
      "0xcd39": 7299,
      "0xc386": 7300,
      "0xc7d1": 7301,
      "0xc962": 7302,
      "0xc749": 7303,
      "0xcccccccccccccccd": 7304,
      "0x14002": 7305,
      "0x14f04": 7306,
      "0x14b03": 7307,
      "0x14906": 7308,
      "0x14be4": 7309,
      "0x14338": 7310,
      "0x14bcd": 7311,
      "0x14d48": 7312,
      "0x14ae5": 7313,
      "0x148e6": 7314,
      "0x1495e": 7315,
      "0x142c2": 7316,
      "0x14974": 7317,
      "0x14ac5": 7318,
      "0x14a46": 7319,
      "0x146bb": 7320,
      "0x1493b": 7321,
      "0x14baf": 7322,
      "0x146fa": 7323,
      "0x149fc": 7324,
      "0x149cd": 7325,
      "0x149e3": 7326,
      "0x149b9": 7327,
      "0x145ef": 7328,
      "0x7f09": 7329,
      "0x7000a382": 7330,
      "0x7983": 7331,
      "0x7ee4": 7332,
      "0x7b81": 7333,
      "0x7172": 7334,
      "0x7787": 7335,
      "0x75e1": 7336,
      "0x7fffffffffffffff": 7337,
      "0x79726f7473": 7338,
      "0xb602": 7339,
      "0xbd8a": 7340,
      "0xbc08": 7341,
      "0xbbe5": 7342,
      "0xbbc6": 7343,
      "0xbaa8": 7344,
      "0xbb86": 7345,
      "0xb577": 7346,
      "0xbb3a": 7347,
      "0xb6c9": 7348,
      "0xbdbd": 7349,
      "0xb2f9": 7350,
      "0x2270b": 7351,
      "0x22b76": 7352,
      "0x22201": 7353,
      "0x2290e": 7354,
      "0x22333": 7355,
      "0x22a0f": 7356,
      "0x22921": 7357,
      "0x221e4": 7358,
      "0x229da": 7359,
      "0x228e9": 7360,
      "0x2295a": 7361,
      "0x222c5": 7362,
      "0x22b85": 7363,
      "0x22e47": 7364,
      "0x22f66": 7365,
      "0x22445": 7366,
      "0x22a42": 7367,
      "0x226b5": 7368,
      "0x224b6": 7369,
      "0x221c3": 7370,
      "0x22135": 7371,
      "0x22632": 7372,
      "0x22143": 7373,
      "0x22fd3": 7374,
      "0x22e8d": 7375,
      "0x22eb1": 7376,
      "0x22788": 7377,
      "0x226ed": 7378,
      "0x22db5": 7379,
      "0x22947": 7380,
      "0x22fca": 7381,
      "0x1e909": 7382,
      "0x1ed41": 7383,
      "0x1e187": 7384,
      "0x1eee2": 7385,
      "0x1e5cf": 7386,
      "0x1efb3": 7387,
      "0x1e93a": 7388,
      "0x1e7e9": 7389,
      "0x1ed2b": 7390,
      "0x1e611": 7391,
      "0x1e9ed": 7392,
      "0x1e3f1": 7393,
      "0x2360d": 7394,
      "0x23b78": 7395,
      "0x23202": 7396,
      "0x2310d": 7397,
      "0x2398f": 7398,
      "0x23be6": 7399,
      "0x23301": 7400,
      "0x23f83": 7401,
      "0x2356c": 7402,
      "0x23d08": 7403,
      "0x231e9": 7404,
      "0x23b8b": 7405,
      "0x2357e": 7406,
      "0x23977": 7407,
      "0x23f4a": 7408,
      "0x235b6": 7409,
      "0x2337a": 7410,
      "0x2351c": 7411,
      "0x2358d": 7412,
      "0x2344c": 7413,
      "0x23acb": 7414,
      "0x23fed": 7415,
      "0x236b6": 7416,
      "0x235c5": 7417,
      "0x2363c": 7418,
      "0x23687": 7419,
      "0x23b31": 7420,
      "0x23e84": 7421,
      "0x23177": 7422,
      "0x2324e": 7423,
      "0x23ec7": 7424,
      "0x23d5e": 7425,
      "0x23d29": 7426,
      "0x23746": 7427,
      "0x119ad": 7428,
      "0x11e0d": 7429,
      "0x11981": 7430,
      "0x111a2": 7431,
      "0x1123d": 7432,
      "0x11f81": 7433,
      "0x1128d": 7434,
      "0x119df": 7435,
      "0x118ef": 7436,
      "0x117c3": 7437,
      "0x114f5": 7438,
      "0x11975": 7439,
      "0x11a8c": 7440,
      "0x116bd": 7441,
      "0x112e2": 7442,
      "0x11638": 7443,
      "0x11fd2": 7444,
      "0x1168a": 7445,
      "0x11179": 7446,
      "0x11a55": 7447,
      "0x11bb5": 7448,
      "0x119e9": 7449,
      "0x11662": 7450,
      "0x11fcd": 7451,
      "0x25808": 7452,
      "0x25cc6": 7453,
      "0x25902": 7454,
      "0x251a4": 7455,
      "0x25d43": 7456,
      "0x25f87": 7457,
      "0x25aa7": 7458,
      "0x25aed": 7459,
      "0x25d04": 7460,
      "0x258e7": 7461,
      "0x25b45": 7462,
      "0x25b89": 7463,
      "0x257cd": 7464,
      "0x254f2": 7465,
      "0x25512": 7466,
      "0x25f78": 7467,
      "0x25a41": 7468,
      "0x25fb6": 7469,
      "0x252e1": 7470,
      "0x251cf": 7471,
      "0x25e83": 7472,
      "0x25159": 7473,
      "0x259f1": 7474,
      "0x25d36": 7475,
      "0x25ad1": 7476,
      "0x25f16": 7477,
      "0x25cb9": 7478,
      "0x8be1": 7479,
      "0x81c8": 7480,
      "0x873a": 7481,
      "0x8e89": 7482,
      "0x817d": 7483,
      "0x2150e": 7484,
      "0x21cc3": 7485,
      "0x21be7": 7486,
      "0x21a0e": 7487,
      "0x21bc1": 7488,
      "0x21d4b": 7489,
      "0x21f84": 7490,
      "0x21aad": 7491,
      "0x2156d": 7492,
      "0x21cec": 7493,
      "0x217c9": 7494,
      "0x21f37": 7495,
      "0x21f4d": 7496,
      "0x21584": 7497,
      "0x21e44": 7498,
      "0x2199e": 7499,
      "0x21211": 7500,
      "0x21279": 7501,
      "0x21448": 7502,
      "0x21654": 7503,
      "0x21ac9": 7504,
      "0x21d78": 7505,
      "0x21a3e": 7506,
      "0x2163e": 7507,
      "0x2193d": 7508,
      "0x211b6": 7509,
      "0x2117e": 7510,
      "0x21a91": 7511,
      "0x21ec8": 7512,
      "0x21783": 7513,
      "0x21db2": 7514,
      "0x21948": 7515,
      "0x21d3a": 7516,
      "0x21cd6": 7517,
      "0x21def": 7518,
      "0x213f2": 7519,
      "0x212b6": 7520,
      "0x21c2f": 7521,
      "0x13803": 7522,
      "0x13b05": 7523,
      "0x1323e": 7524,
      "0x13ae8": 7525,
      "0x13284": 7526,
      "0x13d09": 7527,
      "0x1319b": 7528,
      "0x13ab9": 7529,
      "0x13f71": 7530,
      "0x13aca": 7531,
      "0x131fa": 7532,
      "0x13c8d": 7533,
      "0x13a7d": 7534,
      "0x135fa": 7535,
      "0x1374c": 7536,
      "0xfd82": 7537,
      "0xf9a7": 7538,
      "0xfb4a": 7539,
      "0xf57b": 7540,
      "0xfabd": 7541,
      "0xf375": 7542,
      "0xf155": 7543,
      "0xf7e5": 7544,
      "0xf941": 7545,
      "0x9b7b": 7546,
      "0x9a02": 7547,
      "0x9aa2": 7548,
      "0x944b": 7549,
      "0x9ac7": 7550,
      "0x9fde": 7551,
      "0x9e8a": 7552,
      "0x9784": 7553,
      "0x9c35": 7554,
      "0x948a": 7555,
      "0x1c76b": 7556,
      "0x1c8ec": 7557,
      "0x1cab5": 7558,
      "0x1cd7a": 7559,
      "0x1c6d9": 7560,
      "0x1c9f2": 7561,
      "0x1c4e9": 7562,
      "0x12302": 7563,
      "0x12bc3": 7564,
      "0x12f82": 7565,
      "0x12289": 7566,
      "0x1234f": 7567,
      "0x12bf6": 7568,
      "0x129db": 7569,
      "0x12f45": 7570,
      "0x12516": 7571,
      "0x122e3": 7572,
      "0x12735": 7573,
      "0x12e8f": 7574,
      "0x126c2": 7575,
      "0x12ecd": 7576,
      "0x129b5": 7577,
      "0x12d32": 7578,
      "0x12de1": 7579,
      "0xe40f": 7580,
      "0xe30f": 7581,
      "0xef8e": 7582,
      "0xe18f": 7583,
      "0xebf5": 7584,
      "0xe1e8": 7585,
      "0xeb41": 7586,
      "0xee4e": 7587,
      "0xef61": 7588,
      "0xe2e7": 7589,
      "0xe549": 7590,
      "0xe688": 7591,
      "0xe15a": 7592,
      "0xefc4": 7593,
      "0x1f33e": 7594,
      "0x1f769": 7595,
      "0x1fbce": 7596,
      "0x1fd42": 7597,
      "0x1f568": 7598,
      "0x1f189": 7599,
      "0x1f927": 7600,
      "0x1f8e1": 7601,
      "0x1f37f": 7602,
      "0x1fa83": 7603,
      "0x1f1c2": 7604,
      "0x1f139": 7605,
      "0x1f26d": 7606,
      "0x1fec6": 7607,
      "0x1f943": 7608,
      "0x1f296": 7609,
      "0x1f5e7": 7610,
      "0x1f4e6": 7611,
      "0x1f462": 7612,
      "0xd761": 7613,
      "0xd23c": 7614,
      "0xd378": 7615,
      "0xd6ba": 7616,
      "0xd1f1": 7617,
      "0xd6c1": 7618,
      "0xd55d": 7619,
      "0xd5e9": 7620,
      "0x199a3": 7621,
      "0x19ae6": 7622,
      "0x19f7e": 7623,
      "0x19d79": 7624,
      "0x191f9": 7625,
      "0x19531": 7626,
      "0x19d5f": 7627,
      "0x196ef": 7628,
      "0x19a2a": 7629,
      "0x19d35": 7630,
      "0x194e2": 7631,
      "0x1780c": 7632,
      "0x17e05": 7633,
      "0x17193": 7634,
      "0x17579": 7635,
      "0x175b3": 7636,
      "0x17444": 7637,
      "0x17acf": 7638,
      "0x17931": 7639,
      "0x17bb6": 7640,
      "0x1ac0e": 7641,
      "0x1a341": 7642,
      "0x1aa84": 7643,
      "0x1a6c3": 7644,
      "0x1a7e6": 7645,
      "0x1ad3e": 7646,
      "0x1a52b": 7647,
      "0x1a5e5": 7648,
      "0x1580b": 7649,
      "0x15a08": 7650,
      "0x15bfa": 7651,
      "0x151e3": 7652,
      "0x152ca": 7653,
      "0x1519e": 7654,
      "0x15ab2": 7655,
      "0x15213": 7656,
      "0x15241": 7657,
      "0x15229": 7658,
      "0x159c5": 7659,
      "0x15a7f": 7660,
      "0x152b9": 7661,
      "0x16986": 7662,
      "0x16b83": 7663,
      "0x16a8a": 7664,
      "0x16a4d": 7665,
      "0x16e8b": 7666,
      "0x166db": 7667,
      "0x166c6": 7668,
      "0x16a9c": 7669,
      "0x16ecf": 7670,
      "0x1be0f": 7671,
      "0x1b2c4": 7672,
      "0x1bfe9": 7673,
      "0x1be82": 7674,
      "0x1bec1": 7675,
      "0x1b6e2": 7676,
      "0x1ba11": 7677,
      "0x1ba7a": 7678,
      "0x1b387": 7679,
      "0x1d954": 7680,
      "0x1deef": 7681,
      "0x1d194": 7682,
      "0x1d379": 7683,
      "0x1d273": 7684,
      "0x1d653": 7685,
      "0x1d136": 7686,
      "0x1d63d": 7687,
      "0x1dba6": 7688,
      "0x1d6c4": 7689,
      "0x1d6e1": 7690,
      "0x2718b": 7691,
      "0x272cb": 7692,
      "0x27b43": 7693,
      "0x27b8c": 7694,
      "0x2797d": 7695,
      "0x27f41": 7696,
      "0x27db9": 7697,
      "0x2794a": 7698,
      "0x27de2": 7699,
      "##7665642f": 7700,
      "0x64657463656c6573": 7701,
      "0x26235": 7702,
      "0x2628c": 7703,
      "0x261ef": 7704,
      "0x262c9": 7705,
      "0x26f7d": 7706,
      "0x261cb": 7707,
      "0x26684": 7708,
      "0x2615e": 7709,
      "0x26c89": 7710,
      "0xfffffa3c": 7711,
      "##972746e6520": 7712,
      "##69682e": 7713,
      "0x2b53e": 7714,
      "0x2b9f5": 7715,
      "0x6170735e": 7716,
      "0x61637365": 7717,
      "0x73656972746e6520": 7718,
      "0x7363762f7665642f": 7719,
      "0xa3d70a3d70a3d70b": 7720,
      "0x636170736b636162": 7721,
      "0x7000a38200000000": 7722,
      "0x79726f747369682e": 7723
    }
  }
}