{
  "version": "1.0",
  "truncation": null,
  "padding": null,
  "added_tokens": [
    {
      "id": 0,
      "content": "[PAD]",
      "single_word": false,
      "lstrip": false,
      "rstrip": false,
      "normalized": false,
      "special": true
    },
    {
      "id": 1,
      "content": "[UNK]",
      "single_word": false,
      "lstrip": false,
      "rstrip": false,
      "normalized": false,
      "special": true
    },
    {
      "id": 2,
      "content": "[CLS]",
      "single_word": false,
      "lstrip": false,
      "rstrip": false,
      "normalized": false,
      "special": true
    },
    {
      "id": 3,
      "content": "[SEP]",
      "single_word": false,
      "lstrip": false,
      "rstrip": false,
      "normalized": false,
      "special": true
    },
    {
      "id": 4,
      "content": "[MASK]",
      "single_word": false,
      "lstrip": false,
      "rstrip": false,
      "normalized": false,
      "special": true
    }
  ],
  "normalizer": {
    "type": "BertNormalizer",
    "clean_text": true,
    "handle_chinese_chars": true,
    "strip_accents": null,
    "lowercase": true
  },
  "pre_tokenizer": {
    "type": "BertPreTokenizer"
  },
  "post_processor": {
    "type": "TemplateProcessing",
    "single": [
      {
        "SpecialToken": {
          "id": "[CLS]",
          "type_id": 0
        }
      },
      {
        "Sequence": {
          "id": "A",
          "type_id": 0
        }
      },
      {
        "SpecialToken": {
          "id": "[SEP]",
          "type_id": 0
        }
      }
    ],
    "pair": [
      {
        "SpecialToken": {
          "id": "[CLS]",
          "type_id": 0
        }
      },
      {
        "Sequence": {
          "id": "A",
          "type_id": 0
        }
      },
      {
        "SpecialToken": {
          "id": "[SEP]",
          "type_id": 0
        }
      },
      {
        "Sequence": {
          "id": "B",
          "type_id": 1
        }
      },
      {
        "SpecialToken": {
          "id": "[SEP]",
          "type_id": 1
        }
      }
    ],
    "special_tokens": {
      "[CLS]": {
        "id": "[CLS]",
        "ids": [
          2
        ],
        "tokens": [
          "[CLS]"
        ]
      },
      "[SEP]": {
        "id": "[SEP]",
        "ids": [
          3
        ],
        "tokens": [
          "[SEP]"
        ]
      }
    }
  },
  "decoder": {
    "type": "WordPiece",
    "prefix": "##",
    "cleanup": true
  },
  "model": {
    "type": "WordPiece",
    "unk_token": "[UNK]",
    "continuing_subword_prefix": "##",
    "max_input_chars_per_word": 100,
    "vocab": {
      "[PAD]": 0,
      "[UNK]": 1,
      "[CLS]": 2,
      "[SEP]": 3,
      "[MASK]": 4,
      "(": 5,
      ")": 6,
      "*": 7,
      "+": 8,
      ",": 9,
      "-": 10,
      "0": 11,
      "1": 12,
      "2": 13,
      "3": 14,
      "4": 15,
      "5": 16,
      "6": 17,
      "7": 18,
      "8": 19,
      "9": 20,
      ":": 21,
      "[": 22,
      "]": 23,
      "a": 24,
      "b": 25,
      "c": 26,
      "d": 27,
      "e": 28,
      "f": 29,
      "g": 30,
      "h": 31,
      "i": 32,
      "j": 33,
      "l": 34,
      "m": 35,
      "n": 36,
      "o": 37,
      "p": 38,
      "q": 39,
      "r": 40,
      "s": 41,
      "t": 42,
      "u": 43,
      "v": 44,
      "w": 45,
      "x": 46,
      "y": 47,
      "z": 48,
      "##x": 49,
      "##f": 50,
      "##b": 51,
      "##4": 52,
      "##a": 53,
      "##2": 54,
      "##8": 55,
      "##d": 56,
      "##1": 57,
      "##5": 58,
      "##9": 59,
      "##7": 60,
      "##3": 61,
      "##c": 62,
      "##0": 63,
      "##6": 64,
      "##e": 65,
      "##u": 66,
      "##l": 67,
      "##s": 68,
      "##i": 69,
      "##o": 70,
      "##r": 71,
      "##v": 72,
      "##h": 73,
      "##g": 74,
      "##p": 75,
      "##m": 76,
      "##q": 77,
      "##n": 78,
      "##t": 79,
      "##w": 80,
      "##z": 81,
      "##y": 82,
      "##ax": 83,
      "0x": 84,
      "##ov": 85,
      "mov": 86,
      "rax": 87,
      "pt": 88,
      "ptr": 89,
      "##or": 90,
      "##ord": 91,
      "##word": 92,
      "rb": 93,
      "rbp": 94,
      "qword": 95,
      "eax": 96,
      "0x1": 97,
      "rd": 98,
      "0x2": 99,
      "dword": 100,
      "rdx": 101,
      "ca": 102,
      "##ll": 103,
      "call": 104,
      "##mp": 105,
      "##ip": 106,
      "rip": 107,
      "rdi": 108,
      "rs": 109,
      "0x4": 110,
      "##cx": 111,
      "##ea": 112,
      "ed": 113,
      "##dd": 114,
      "add": 115,
      "lea": 116,
      "rcx": 117,
      "cmp": 118,
      "jmp": 119,
      "edx": 120,
      "0x3": 121,
      "rsp": 122,
      "rsi": 123,
      "0x18": 124,
      "je": 125,
      "##te": 126,
      "0x10": 127,
      "by": 128,
      "byte": 129,
      "##st": 130,
      "0x5": 131,
      "te": 132,
      "test": 133,
      "0x20": 134,
      "0x28": 135,
      "r1": 136,
      "jn": 137,
      "##op": 138,
      "jne": 139,
      "0x24": 140,
      "al": 141,
      "0x6": 142,
      "##ff": 143,
      "movs": 144,
      "movsx": 145,
      "0x38": 146,
      "##ub": 147,
      "0xa": 148,
      "sub": 149,
      "##si": 150,
      "rbx": 151,
      "##zx": 152,
      "movzx": 153,
      "movsxd": 154,
      "esi": 155,
      "sh": 156,
      "##nd": 157,
      "0xc": 158,
      "shl": 159,
      "pu": 160,
      "##sh": 161,
      "push": 162,
      "0x14": 163,
      "edi": 164,
      "nop": 165,
      "0x7": 166,
      "0xb": 167,
      "##64": 168,
      "0x22": 169,
      "0x1e": 170,
      "0x49": 171,
      "0x48": 172,
      "0x23": 173,
      "ecx": 174,
      "##et": 175,
      "0x11": 176,
      "end": 177,
      "##br": 178,
      "endbr": 179,
      "endbr64": 180,
      "0x25": 181,
      "eb": 182,
      "ret": 183,
      "0x8": 184,
      "##60": 185,
      "##00": 186,
      "0x21": 187,
      "0xa8": 188,
      "r12": 189,
      "0x13": 190,
      "##50": 191,
      "0xf": 192,
      "##d8": 193,
      "ebx": 194,
      "0x9": 195,
      "##70": 196,
      "0x12": 197,
      "0x1c": 198,
      "0x40": 199,
      "pop": 200,
      "r8": 201,
      "0x30": 202,
      "0xe": 203,
      "0x1f": 204,
      "##ffff": 205,
      "0x4960": 206,
      "0x50": 207,
      "##ve": 208,
      "leave": 209,
      "##eae": 210,
      "0x58": 211,
      "0x246": 212,
      "0xd": 213,
      "##dq": 214,
      "0x19": 215,
      "0x1eeae": 216,
      "cdq": 217,
      "0x17": 218,
      "0x1a": 219,
      "cdqe": 220,
      "0x15": 221,
      "0x68": 222,
      "jl": 223,
      "and": 224,
      "##80": 225,
      "##f0": 226,
      "##b7": 227,
      "0xc0": 228,
      "r8d": 229,
      "0x4a": 230,
      "0x70": 231,
      "0x98": 232,
      "xor": 233,
      "##cc": 234,
      "fs": 235,
      "0x60": 236,
      "0x24650": 237,
      "r13": 238,
      "##20": 239,
      "0x16": 240,
      "0x1b": 241,
      "##9a": 242,
      "0x1d": 243,
      "##10": 244,
      "0x4b": 245,
      "0x2c": 246,
      "##b0": 247,
      "##c0": 248,
      "r12d": 249,
      "##000": 250,
      "0x1d8": 251,
      "##e0": 252,
      "0x80": 253,
      "dl": 254,
      "##98": 255,
      "jg": 256,
      "##be": 257,
      "##90": 258,
      "r14": 259,
      "r15": 260,
      "word": 261,
      "##33": 262,
      "##40": 263,
      "##6a": 264,
      "0x34": 265,
      "##a0": 266,
      "0x4c": 267,
      "0x27": 268,
      "0xb8": 269,
      "##76": 270,
      "##dd0": 271,
      "##1a": 272,
      "##30": 273,
      "jle": 274,
      "0x64": 275,
      "0xb4": 276,
      "##67": 277,
      "0x26": 278,
      "##bc": 279,
      "0xd8": 280,
      "0x78": 281,
      "##23": 282,
      "0x4dd0": 283,
      "0x5c": 284,
      "0x128": 285,
      "0x1a8": 286,
      "xm": 287,
      "##f8": 288,
      "##d4": 289,
      "xmm": 290,
      "##aa": 291,
      "0xffff": 292,
      "st": 293,
      "##56": 294,
      "##ae": 295,
      "##28": 296,
      "##ce": 297,
      "0xacc": 298,
      "##d0": 299,
      "##18": 300,
      "##34": 301,
      "0xacc2": 302,
      "0xb0": 303,
      "0x4980": 304,
      "0x88": 305,
      "0xb4b7": 306,
      "0x4e": 307,
      "0x3c": 308,
      "##bf": 309,
      "0x4d": 310,
      "##1d": 311,
      "##92": 312,
      "0x110": 313,
      "ebp": 314,
      "0x1a89a": 315,
      "##1e": 316,
      "##9d": 317,
      "##ul": 318,
      "##8e": 319,
      "##b4": 320,
      "##b8": 321,
      "##2c": 322,
      "##95": 323,
      "##ee": 324,
      "0x90": 325,
      "0x138": 326,
      "##19": 327,
      "##57": 328,
      "##7c": 329,
      "##f3": 330,
      "##ab": 331,
      "0x150": 332,
      "0x2f": 333,
      "##4f": 334,
      "0xffffffff": 335,
      "##97": 336,
      "0x6d8": 337,
      "##f4": 338,
      "##5b": 339,
      "0x54": 340,
      "r10": 341,
      "0xc8": 342,
      "##58": 343,
      "##51": 344,
      "##37": 345,
      "##e4": 346,
      "0x44": 347,
      "0x118": 348,
      "0x24670": 349,
      "##21": 350,
      "##27": 351,
      "##99": 352,
      "0x47": 353,
      "0x4870": 354,
      "0x4af0": 355,
      "##f6": 356,
      "##mul": 357,
      "0x6c": 358,
      "0x8c": 359,
      "##f7": 360,
      "##44": 361,
      "##a8": 362,
      "##dc": 363,
      "##36": 364,
      "0x108": 365,
      "0x247": 366,
      "0xa0": 367,
      "0x148": 368,
      "0x1c33": 369,
      "0x178": 370,
      "##ac": 371,
      "##fe": 372,
      "##a4": 373,
      "##65": 374,
      "##69": 375,
      "0xf000": 376,
      "sa": 377,
      "0x198": 378,
      "sar": 379,
      "imul": 380,
      "ja": 381,
      "##2d": 382,
      "##5c": 383,
      "cm": 384,
      "jbe": 385,
      "##fb": 386,
      "##2e": 387,
      "##d7": 388,
      "cmov": 389,
      "##b9": 390,
      "##4b": 391,
      "##a3": 392,
      "##75": 393,
      "##25": 394,
      "0x5e": 395,
      "0x4b40": 396,
      "##26": 397,
      "##1c": 398,
      "0x74": 399,
      "0x4b70": 400,
      "or": 401,
      "##13": 402,
      "##54": 403,
      "0xfc": 404,
      "0x12c": 405,
      "0xdb": 406,
      "0xdc": 407,
      "0x158": 408,
      "0x1c33e": 409,
      "##fd": 410,
      "##ba": 411,
      "##14": 412,
      "0x100": 413,
      "0x14e": 414,
      "0x250": 415,
      "r9": 416,
      "##bd": 417,
      "0x598": 418,
      "0xe0": 419,
      "##b3": 420,
      "##93": 421,
      "##68": 422,
      "jns": 423,
      "0x140": 424,
      "0x224": 425,
      "0x17c": 426,
      "0x24780": 427,
      "##1f": 428,
      "##7e": 429,
      "0x4a70": 430,
      "##fc": 431,
      "##66": 432,
      "0x2a": 433,
      "##stp": 434,
      "0x130": 435,
      "0x120": 436,
      "r13d": 437,
      "fl": 438,
      "##bb": 439,
      "##a9": 440,
      "##24": 441,
      "##e8": 442,
      "##ec": 443,
      "0x3f": 444,
      "shr": 445,
      "0x228": 446,
      "0x4820": 447,
      "0x190": 448,
      "js": 449,
      "##af": 450,
      "##15": 451,
      "##17": 452,
      "##73": 453,
      "0x2b": 454,
      "0x112": 455,
      "0xe20": 456,
      "0xe205": 457,
      "ax": 458,
      "jae": 459,
      "##6d": 460,
      "##63": 461,
      "0x1e0": 462,
      "0x253": 463,
      "0x132": 464,
      "0x14e6a": 465,
      "##22": 466,
      "##1b": 467,
      "##53": 468,
      "##78": 469,
      "##6c": 470,
      "0x2d": 471,
      "0x4000": 472,
      "0x1f0": 473,
      "0x4a10": 474,
      "##a5": 475,
      "##6f": 476,
      "0xf8": 477,
      "##768": 478,
      "fstp": 479,
      "##d2": 480,
      "0x400": 481,
      "##ea0": 482,
      "0x104": 483,
      "0x249": 484,
      "0xf0": 485,
      "0xe8": 486,
      "0xe3": 487,
      "r9d": 488,
      "se": 489,
      "##d5": 490,
      "##9c": 491,
      "0x170": 492,
      "r11": 493,
      "0xc4": 494,
      "0x7f": 495,
      "0xd0": 496,
      "##c09": 497,
      "xmm0": 498,
      "xmmword": 499,
      "sete": 500,
      "##48": 501,
      "##a6": 502,
      "##c3": 503,
      "0x107": 504,
      "0xce": 505,
      "0x23f": 506,
      "0x230": 507,
      "0x23e": 508,
      "0x214": 509,
      "0xf768": 510,
      "0x15f": 511,
      "jge": 512,
      "0x598f": 513,
      "##6e": 514,
      "0x5c09": 515,
      "0x24d": 516,
      "0x24c": 517,
      "0x49b0": 518,
      "0x1504f": 519,
      "##a2": 520,
      "##ad": 521,
      "##a1": 522,
      "##9e": 523,
      "##c8": 524,
      "##il": 525,
      "0x7c": 526,
      "0x22e": 527,
      "0x1e7": 528,
      "0x25b": 529,
      "0x8000": 530,
      "0x134": 531,
      "0x131": 532,
      "0xf4": 533,
      "0xf8e": 534,
      "0x1c8": 535,
      "0xed": 536,
      "0xdf0": 537,
      "0x1b8": 538,
      "0xd875": 539,
      "0xdb1a": 540,
      "##9f": 541,
      "##94": 542,
      "##6b": 543,
      "0x59": 544,
      "0x53": 545,
      "0x22d": 546,
      "0x220": 547,
      "0x23b": 548,
      "0x252": 549,
      "xmm1": 550,
      "0xdc1e": 551,
      "0x112b7": 552,
      "0xf8eb": 553,
      "jb": 554,
      "##a7": 555,
      "##83": 556,
      "##91": 557,
      "##61": 558,
      "##iv": 559,
      "##ne": 560,
      "movab": 561,
      "0x188": 562,
      "0xbc": 563,
      "0x174": 564,
      "0x168": 565,
      "0x4b10": 566,
      "movabs": 567,
      "0x160": 568,
      "0x29": 569,
      "0x204": 570,
      "0x61": 571,
      "0xbf": 572,
      "0x1e8": 573,
      "0x218": 574,
      "0x94": 575,
      "0x124": 576,
      "0x167c": 577,
      "##f89": 578,
      "0xffffff": 579,
      "fld": 580,
      "0x13223": 581,
      "0x15f50": 582,
      "0xdf09": 583,
      "cs": 584,
      "fx": 585,
      "set": 586,
      "##db": 587,
      "##52": 588,
      "##55": 589,
      "##9b": 590,
      "##ch": 591,
      "0x1eae": 592,
      "0x105": 593,
      "0x10c": 594,
      "0x240": 595,
      "0x71": 596,
      "0xbf89": 597,
      "0x22a": 598,
      "0x227": 599,
      "0x1e4": 600,
      "0x114": 601,
      "0x251": 602,
      "0x4ec0": 603,
      "0x4db0": 604,
      "0x10857": 605,
      "0x107d0": 606,
      "0xed98": 607,
      "0xbfbf": 608,
      "0x167c6": 609,
      "fxch": 610,
      "##df": 611,
      "##de": 612,
      "0x430": 613,
      "0x243": 614,
      "0x6e": 615,
      "0xac": 616,
      "0x223": 617,
      "0x22c": 618,
      "0x4850": 619,
      "0x11c": 620,
      "0x1156": 621,
      "0x254": 622,
      "0x25e": 623,
      "0x84": 624,
      "0x2c8": 625,
      "0x110b0": 626,
      "0x47a0": 627,
      "0x1f0e4": 628,
      "mul": 629,
      "##d3": 630,
      "##5f": 631,
      "##5e": 632,
      "##7f": 633,
      "##72c": 634,
      "##38": 635,
      "##cd": 636,
      "##ps": 637,
      "0x164": 638,
      "0x434": 639,
      "0x208": 640,
      "0x248": 641,
      "0x62": 642,
      "0x216": 643,
      "0x1395": 644,
      "0x1f7": 645,
      "0x1d3": 646,
      "##6a7": 647,
      "##ea0ea0": 648,
      "0x1e790": 649,
      "0xf433": 650,
      "0x11568": 651,
      "##29": 652,
      "##7d": 653,
      "##6d4": 654,
      "0x1ea": 655,
      "0x2e": 656,
      "0x244": 657,
      "0x65": 658,
      "0xbe": 659,
      "0x229": 660,
      "0x23c": 661,
      "0x113": 662,
      "0x215": 663,
      "0x2160": 664,
      "0x19e": 665,
      "0x4c70": 666,
      "##bc4": 667,
      "##fe2": 668,
      "0xfcbe": 669,
      "setne": 670,
      "0x1eaed": 671,
      "0x1395a": 672,
      "cl": 673,
      "##12": 674,
      "##5a": 675,
      "0x450": 676,
      "0x200": 677,
      "0x24a": 678,
      "0x672c": 679,
      "0xa4": 680,
      "0x73": 681,
      "0xba": 682,
      "0xb9": 683,
      "0x49e0": 684,
      "0x232": 685,
      "0x233": 686,
      "##506": 687,
      "0x1f8": 688,
      "0x195": 689,
      "0xc083": 690,
      "0x1dbc4": 691,
      "##ee3": 692,
      "r10d": 693,
      "0x5efb": 694,
      "##3f": 695,
      "##c6": 696,
      "0x144": 697,
      "0x147": 698,
      "0x14c": 699,
      "0x1444": 700,
      "0x79": 701,
      "0x71a": 702,
      "0x234": 703,
      "0x23d": 704,
      "0x235": 705,
      "0x258": 706,
      "0x13506": 707,
      "r8b": 708,
      "0x1fb": 709,
      "r15d": 710,
      "##aaaa": 711,
      "0x4df0": 712,
      "0x110ae": 713,
      "0x47e0": 714,
      "##dcw": 715,
      "fldcw": 716,
      "fil": 717,
      "xword": 718,
      "##2b": 719,
      "##d9": 720,
      "##3b": 721,
      "0x1dd": 722,
      "0x3d": 723,
      "0x185": 724,
      "0x20d": 725,
      "0x20e": 726,
      "0x6d": 727,
      "0xad": 728,
      "0x143": 729,
      "0x76": 730,
      "0x7e": 731,
      "0x225": 732,
      "0x238": 733,
      "0x115": 734,
      "0x116a7": 735,
      "0x257": 736,
      "0x213": 737,
      "0x13c": 738,
      "0x95c": 739,
      "0x1223": 740,
      "0x1cf": 741,
      "0x1f6": 742,
      "0xda": 743,
      "0x17a": 744,
      "0x70a9": 745,
      "0x16e": 746,
      "##184": 747,
      "##348": 748,
      "##5b1": 749,
      "0xdbbc": 750,
      "0xe319": 751,
      "0x14445": 752,
      "fild": 753,
      "div": 754,
      "jo": 755,
      "sil": 756,
      "##b5": 757,
      "##46": 758,
      "##add": 759,
      "##c9": 760,
      "##co": 761,
      "0x2b7": 762,
      "0x2b4": 763,
      "0x410": 764,
      "0x106d4": 765,
      "0x2064": 766,
      "0x241": 767,
      "0x6b0": 768,
      "0xafe2": 769,
      "0xbee3": 770,
      "0x22b": 771,
      "0x226": 772,
      "0x1ee": 773,
      "0x1e5b1": 774,
      "0x4840": 775,
      "0x237": 776,
      "0x11348": 777,
      "0x259": 778,
      "0x82": 779,
      "0x219": 780,
      "0x217": 781,
      "0x210": 782,
      "0x21e": 783,
      "r12b": 784,
      "##50a": 785,
      "0x12e": 786,
      "0x1c0": 787,
      "0x1fa": 788,
      "0x19d": 789,
      "0x151": 790,
      "0xc067": 791,
      "0xc04b": 792,
      "0x167": 793,
      "0x1bb": 794,
      "0x1b0": 795,
      "##285": 796,
      "##37b": 797,
      "cmove": 798,
      "0x249b7": 799,
      "0x5367": 800,
      "0x19e23": 801,
      "0x12238": 802,
      "##com": 803,
      "fadd": 804,
      "##f1": 805,
      "##f51": 806,
      "##4e": 807,
      "##2f": 808,
      "##86": 809,
      "##div": 810,
      "##96": 811,
      "##74": 812,
      "##3a": 813,
      "##c7": 814,
      "##eb": 815,
      "0xff": 816,
      "0xdd0": 817,
      "movdq": 818,
      "0x270": 819,
      "0x2a3": 820,
      "0x3a": 821,
      "0x202": 822,
      "0x203": 823,
      "0x24f": 824,
      "0x245": 825,
      "0x24e": 826,
      "0x1456": 827,
      "0x7a": 828,
      "0x7d": 829,
      "0x769": 830,
      "0x1ed": 831,
      "0x23a": 832,
      "0x231": 833,
      "0x236": 834,
      "0x11a": 835,
      "0x21d": 836,
      "0x21c": 837,
      "0xfa": 838,
      "0x9c": 839,
      "##706": 840,
      "0x1c6": 841,
      "##ffffff": 842,
      "0x17e": 843,
      "0x1ac": 844,
      "##80d": 845,
      "0x4a60": 846,
      "##cca": 847,
      "0x1bc": 848,
      "##9aa": 849,
      "##924": 850,
      "0x11095": 851,
      "##e4c": 852,
      "0x7176": 853,
      "0x71aa": 854,
      "0x82f4": 855,
      "movdqa": 856,
      "0x769b": 857,
      "##aps": 858,
      "##89": 859,
      "##72": 860,
      "##39": 861,
      "##ca": 862,
      "movaps": 863,
      "0x2b8": 864,
      "0x3ff": 865,
      "0x318": 866,
      "0x10a": 867,
      "0x24b": 868,
      "0xa3": 869,
      "0xbd": 870,
      "0x22f": 871,
      "0x1e3": 872,
      "0x1ecca": 873,
      "0x4830": 874,
      "0x117": 875,
      "0x25d": 876,
      "0x25184": 877,
      "0x211": 878,
      "0xf7": 879,
      "0x1cd": 880,
      "0x1c924": 881,
      "0xe5": 882,
      "0xe7": 883,
      "0x1f2": 884,
      "0x1f9": 885,
      "##ffffffff": 886,
      "0x1790": 887,
      "0x1a4": 888,
      "0x16c": 889,
      "0x4d30": 890,
      "##1ec": 891,
      "##7c8": 892,
      "##bad": 893,
      "##ec2": 894,
      "0xb9ce": 895,
      "0x115fd": 896,
      "0x1cf27": 897,
      "0x1f6f0": 898,
      "fcom": 899,
      "no": 900,
      "##fa": 901,
      "##b1": 902,
      "##49": 903,
      "##4c": 904,
      "##8b": 905,
      "##d1": 906,
      "##d26": 907,
      "##16": 908,
      "##59": 909,
      "##71": 910,
      "##ups": 911,
      "movups": 912,
      "0x2b0": 913,
      "0x42": 914,
      "0x458": 915,
      "0x32": 916,
      "0x39": 917,
      "0x36": 918,
      "0x184": 919,
      "0x56": 920,
      "0x597": 921,
      "0x20c": 922,
      "0x63": 923,
      "0x651": 924,
      "##ff9": 925,
      "0xa000": 926,
      "0xc3": 927,
      "0x149": 928,
      "0xb706": 929,
      "0x22d7": 930,
      "0x4990": 931,
      "0x11d": 932,
      "0x25f": 933,
      "0x8d": 934,
      "0x8f3": 935,
      "##0000": 936,
      "0x1c4": 937,
      "0x1ce": 938,
      "0x308": 939,
      "0xe4": 940,
      "0x1f4": 941,
      "0x1f30": 942,
      "0xd6": 943,
      "0x1ad": 944,
      "0x1a0": 945,
      "0x152": 946,
      "0x1510": 947,
      "##f0b": 948,
      "0x16a": 949,
      "0x1d1": 950,
      "0x1d5": 951,
      "##18e": 952,
      "##1d2": 953,
      "0x1386a": 954,
      "##f36": 955,
      "0xffffffffffffffff": 956,
      "0x4780": 957,
      "0x8c8": 958,
      "##363": 959,
      "0x24720": 960,
      "cmovl": 961,
      "##1c1": 962,
      "##17a": 963,
      "0x25360": 964,
      "0xce57": 965,
      "0x22dbc": 966,
      "0x61f7": 967,
      "0x10599": 968,
      "0x1e4bf": 969,
      "##381": 970,
      "0x1ea4b": 971,
      "0x6598": 972,
      "0x21605": 973,
      "0x19593": 974,
      "0x1fb51": 975,
      "0xadac": 976,
      "0x95c5": 977,
      "0x1ee92": 978,
      "0xdd09": 979,
      "0x14566": 980,
      "not": 981,
      "ah": 982,
      "bp": 983,
      "fi": 984,
      "fn": 985,
      "fmul": 986,
      "##f2": 987,
      "##b6": 988,
      "##da": 989,
      "##d6": 990,
      "##123": 991,
      "##9b3": 992,
      "##7a": 993,
      "##32": 994,
      "##31": 995,
      "##3c": 996,
      "##cw": 997,
      "##630": 998,
      "##e6": 999,
      "##sd": 1000,
      "0xea": 1001,
      "0x2cc": 1002,
      "0x26a": 1003,
      "0x2a0": 1004,
      "0x2d4": 1005,
      "0x180": 1006,
      "##stcw": 1007,
      "0x5f": 1008,
      "0x205": 1009,
      "0x207": 1010,
      "0x2000": 1011,
      "0x288": 1012,
      "0x28d": 1013,
      "0x280": 1014,
      "r11d": 1015,
      "0x24ce": 1016,
      "0x6a0": 1017,
      "0x6b8": 1018,
      "0xca": 1019,
      "0xc2": 1020,
      "0xc7": 1021,
      "0xc5b": 1022,
      "0x14f4": 1023,
      "0x14ff9": 1024,
      "0x7b": 1025,
      "0x71ec": 1026,
      "0x2297": 1027,
      "0x1ef": 1028,
      "0x1ec": 1029,
      "0x1ef4": 1030,
      "0x1e50a": 1031,
      "0x48a0": 1032,
      "0x239": 1033,
      "0x237c8": 1034,
      "0x111": 1035,
      "0x25a": 1036,
      "0x83": 1037,
      "0x21f": 1038,
      "0x21b": 1039,
      "0x2123": 1040,
      "0x135": 1041,
      "0x137": 1042,
      "0x1314": 1043,
      "0xfe": 1044,
      "0xfd26": 1045,
      "0x1c5": 1046,
      "0x1cc": 1047,
      "0x30c": 1048,
      "0xe65": 1049,
      "0x1fd": 1050,
      "0x1f5": 1051,
      "0x1f80": 1052,
      "0x1f381": 1053,
      "0xd7": 1054,
      "0xda6": 1055,
      "0x19c": 1056,
      "0x1a7": 1057,
      "0x154": 1058,
      "0x1527": 1059,
      "##cccc": 1060,
      "0x1bec2": 1061,
      "0x1de4c": 1062,
      "##107": 1063,
      "0x4be0": 1064,
      "##982": 1065,
      "##6a6": 1066,
      "0x278": 1067,
      "0x27e": 1068,
      "0xb8a5": 1069,
      "##1ad": 1070,
      "0x64c9": 1071,
      "##f8c": 1072,
      "xmm2": 1073,
      "##aab": 1074,
      "##1da": 1075,
      "##199": 1076,
      "##7cb": 1077,
      "##ab1": 1078,
      "0x15065": 1079,
      "##37d": 1080,
      "0x6c8": 1081,
      "0x17864": 1082,
      "##2d6": 1083,
      "##132": 1084,
      "0x25090": 1085,
      "0x140a9": 1086,
      "0x224dd": 1087,
      "##7e2": 1088,
      "0x1906f": 1089,
      "##6f5": 1090,
      "0xe3ee": 1091,
      "0x23f5a": 1092,
      "0x23eb9": 1093,
      "0x214a4": 1094,
      "0x13121": 1095,
      "0xfffffff8": 1096,
      "0x6267": 1097,
      "0xbe95": 1098,
      "0x2160e": 1099,
      "0x23360": 1100,
      "0x147f7": 1101,
      "0x18521": 1102,
      "0x16e18": 1103,
      "0x259c0": 1104,
      "0x151b4": 1105,
      "0x7a67": 1106,
      "0x1ed56": 1107,
      "0x11d64": 1108,
      "bpl": 1109,
      "fistp": 1110,
      "fnstcw": 1111,
      "0xc5ba": 1112,
      "0x13149": 1113,
      "bl": 1114,
      "bt": 1115,
      "idiv": 1116,
      "px": 1117,
      "##f5": 1118,
      "##f57": 1119,
      "##b2": 1120,
      "##4d": 1121,
      "##45": 1122,
      "##47": 1123,
      "##2a": 1124,
      "##84": 1125,
      "##5d": 1126,
      "##35": 1127,
      "##c4": 1128,
      "##c2": 1129,
      "##ed": 1130,
      "##e1": 1131,
      "0xea0ea0": 1132,
      "0x260": 1133,
      "0x420": 1134,
      "0x428": 1135,
      "0x454": 1136,
      "##ea1": 1137,
      "0x3b": 1138,
      "0x3e": 1139,
      "0x1844": 1140,
      "0x102": 1141,
      "0x101": 1142,
      "0x10000": 1143,
      "0x5a": 1144,
      "0x55": 1145,
      "0x20b": 1146,
      "0x20e0": 1147,
      "0x20a8": 1148,
      "0x286": 1149,
      "0x2470": 1150,
      "0x69": 1151,
      "0x66": 1152,
      "0x61da": 1153,
      "0xae": 1154,
      "0xc9": 1155,
      "0xc44": 1156,
      "0x14b": 1157,
      "0x14a": 1158,
      "0x146": 1159,
      "0x72": 1160,
      "0xb2": 1161,
      "0xb1": 1162,
      "0xb5": 1163,
      "0xb7": 1164,
      "0xb3": 1165,
      "0xb2c": 1166,
      "0xbf36": 1167,
      "0x221": 1168,
      "0x48f0": 1169,
      "0x48b0": 1170,
      "0x4890": 1171,
      "0x231c": 1172,
      "0x2337b": 1173,
      "0x239aa": 1174,
      "0x119": 1175,
      "0x25c": 1176,
      "0x251c1": 1177,
      "0x800": 1178,
      "0x8cc": 1179,
      "0x810": 1180,
      "##00e": 1181,
      "0x21a": 1182,
      "0x21e0": 1183,
      "0x13d": 1184,
      "0xf6": 1185,
      "0x99": 1186,
      "##707": 1187,
      "0x1267": 1188,
      "0x1c9d": 1189,
      "0x1c2d6": 1190,
      "0xece": 1191,
      "0x1f7c": 1192,
      "0x503a": 1193,
      "0xd5": 1194,
      "0x1934": 1195,
      "0x19f51": 1196,
      "0x17b": 1197,
      "0x171": 1198,
      "0x173": 1199,
      "0x1af": 1200,
      "0x1a63": 1201,
      "0x15c": 1202,
      "0x15e": 1203,
      "0x4ab0": 1204,
      "0x1b1": 1205,
      "0x1b3": 1206,
      "0x1be": 1207,
      "0x1df": 1208,
      "0x1dc": 1209,
      "0x1d0": 1210,
      "0x1d6": 1211,
      "0x1de": 1212,
      "##984": 1213,
      "r14d": 1214,
      "##a0c": 1215,
      "0x27c": 1216,
      "##1af": 1217,
      "0xb486": 1218,
      "0x263": 1219,
      "0x26c": 1220,
      "##28f": 1221,
      "##283": 1222,
      "##343": 1223,
      "0x882d": 1224,
      "0x4d50": 1225,
      "0x4d40": 1226,
      "##929": 1227,
      "##8e8": 1228,
      "##8ed": 1229,
      "##b4b": 1230,
      "##ee8": 1231,
      "##abb": 1232,
      "##27b": 1233,
      "0x47c0": 1234,
      "0x6c6b": 1235,
      "##dc5": 1236,
      "##2ef": 1237,
      "cmova": 1238,
      "cmovne": 1239,
      "0xfc3f": 1240,
      "0x14ed2": 1241,
      "0x25020": 1242,
      "0x2242c": 1243,
      "##bbb": 1244,
      "0x2b6": 1245,
      "0x13221": 1246,
      "##1b5": 1247,
      "##78f": 1248,
      "0x249f3": 1249,
      "0xce1e": 1250,
      "##a2f": 1251,
      "0x1b85f": 1252,
      "0x25220": 1253,
      "0x174ce": 1254,
      "0x254e0": 1255,
      "##ea0ea0ea1": 1256,
      "0xb9ff": 1257,
      "0x143d4": 1258,
      "0x7637": 1259,
      "0xdad7": 1260,
      "0x2064e": 1261,
      "0x1e3ee": 1262,
      "0x1cd2c": 1263,
      "0x1790f": 1264,
      "0x6517": 1265,
      "0x22d72": 1266,
      "0x8f3d": 1267,
      "0x1f30c": 1268,
      "cmovle": 1269,
      "0x1119a": 1270,
      "0xe655": 1271,
      "0x1f808": 1272,
      "0xda62": 1273,
      "pxor": 1274,
      "0xea0ea0ea0ea0ea1": 1275,
      "0xece2": 1276,
      "cv": 1277,
      "cq": 1278,
      "fdiv": 1279,
      "##f9": 1280,
      "##42": 1281,
      "##82": 1282,
      "##85": 1283,
      "##87": 1284,
      "##11": 1285,
      "##cb": 1286,
      "##c1": 1287,
      "##c5": 1288,
      "##e3": 1289,
      "0x1b7": 1290,
      "0x2a8": 1291,
      "0x2b9": 1292,
      "0x41": 1293,
      "0x35": 1294,
      "0x300": 1295,
      "0x3ffffff": 1296,
      "0x18b": 1297,
      "0x182": 1298,
      "0x187": 1299,
      "0x18e": 1300,
      "0x109": 1301,
      "0x106": 1302,
      "0x10e": 1303,
      "0x52": 1304,
      "0x5d": 1305,
      "0x5d4": 1306,
      "0x20a": 1307,
      "0x201": 1308,
      "0x20b7": 1309,
      "0x20be": 1310,
      "0x201b5": 1311,
      "0x285": 1312,
      "0x242": 1313,
      "0x24bd": 1314,
      "0x2417a": 1315,
      "0x6f": 1316,
      "movsd": 1317,
      "0xad7": 1318,
      "0xcf": 1319,
      "0xcb": 1320,
      "0x147e2": 1321,
      "0x75": 1322,
      "0xb6": 1323,
      "0xbf0b": 1324,
      "0x222": 1325,
      "0x2267": 1326,
      "0x22f8": 1327,
      "0x227e": 1328,
      "0x22c3": 1329,
      "0x2280d": 1330,
      "0x1e2": 1331,
      "0x1e1d": 1332,
      "0x4970": 1333,
      "0x49c0": 1334,
      "0x4930": 1335,
      "0x23363": 1336,
      "0x23a2f": 1337,
      "0x1193": 1338,
      "0x111d2": 1339,
      "0x255": 1340,
      "0x2527": 1341,
      "0x251f": 1342,
      "0x25630": 1343,
      "0x8a": 1344,
      "0x8d8": 1345,
      "0x8d4": 1346,
      "0x8d0": 1347,
      "0x8b8": 1348,
      "##60f": 1349,
      "##60c": 1350,
      "0x212": 1351,
      "0x2110": 1352,
      "0x216a6": 1353,
      "0x13b": 1354,
      "0x134b": 1355,
      "0x13107": 1356,
      "0x13f57": 1357,
      "0xf5": 1358,
      "0xf285": 1359,
      "##d89": 1360,
      "##d8c": 1361,
      "0x956": 1362,
      "##70c": 1363,
      "0x12f": 1364,
      "0x123": 1365,
      "0x1c9": 1366,
      "0x1c3": 1367,
      "0x1cea": 1368,
      "0xef": 1369,
      "0xe73": 1370,
      "0x1f18e": 1371,
      "0xdf": 1372,
      "0xdf6": 1373,
      "0xdab1": 1374,
      "0x19b": 1375,
      "0x199b3": 1376,
      "0x178ed": 1377,
      "0x1ae": 1378,
      "0x15d": 1379,
      "0x15285": 1380,
      "0x15199": 1381,
      "##f07": 1382,
      "##b7a": 1383,
      "0x4ac0": 1384,
      "##cc8": 1385,
      "0x162": 1386,
      "0x166e": 1387,
      "0x1b6": 1388,
      "##9a5": 1389,
      "0x1df0": 1390,
      "0x1df8c": 1391,
      "##101": 1392,
      "0x4bf0": 1393,
      "##c0a": 1394,
      "##e08": 1395,
      "##908": 1396,
      "##90d": 1397,
      "##a04": 1398,
      "0x4cf0": 1399,
      "0x27b": 1400,
      "0x272": 1401,
      "##76d": 1402,
      "##766": 1403,
      "##1ab": 1404,
      "##1a9": 1405,
      "0x262": 1406,
      "##bc9": 1407,
      "##23b": 1408,
      "##aaf": 1409,
      "##ae7": 1410,
      "##ce1": 1411,
      "##d05": 1412,
      "##185": 1413,
      "0x4e40": 1414,
      "0x4ed0": 1415,
      "##bf9": 1416,
      "##9d9": 1417,
      "##958": 1418,
      "##95c": 1419,
      "##ee5": 1420,
      "##571": 1421,
      "##4fa": 1422,
      "##5b2": 1423,
      "##5b5": 1424,
      "##51f": 1425,
      "##37e": 1426,
      "0x448": 1427,
      "##994": 1428,
      "0x4770": 1429,
      "##f63": 1430,
      "##f6c": 1431,
      "0x6c4": 1432,
      "##f73": 1433,
      "##442": 1434,
      "##36b": 1435,
      "0x10883": 1436,
      "##fe1": 1437,
      "##fe3": 1438,
      "##a47": 1439,
      "##65e": 1440,
      "##693": 1441,
      "##2e6": 1442,
      "cmovs": 1443,
      "cmovbe": 1444,
      "##4b1": 1445,
      "##a35": 1446,
      "##25f": 1447,
      "0xdcbe": 1448,
      "0xdcfb": 1449,
      "##14d": 1450,
      "##bd1": 1451,
      "##b39": 1452,
      "##fcf": 1453,
      "##fc9": 1454,
      "##248": 1455,
      "##af1": 1456,
      "##6de": 1457,
      "0x2532d": 1458,
      "##785": 1459,
      "0x104ce": 1460,
      "0x249b4": 1461,
      "##d59": 1462,
      "##9c7": 1463,
      "0xd0e0": 1464,
      "##c3a": 1465,
      "0xcef6": 1466,
      "0x23b00": 1467,
      "0x20455": 1468,
      "0x22a19": 1469,
      "0x25e00": 1470,
      "0x248aa": 1471,
      "0x216b9": 1472,
      "0x229c0": 1473,
      "0x23ca1": 1474,
      "0x232ac": 1475,
      "0xda70": 1476,
      "0x20649": 1477,
      "0x167e0": 1478,
      "0x1bbae": 1479,
      "0x1f298": 1480,
      "fcomi": 1481,
      "0x56bd": 1482,
      "0x8df4": 1483,
      "0x15106": 1484,
      "0x16abc": 1485,
      "0xea22": 1486,
      "0x1ef4c": 1487,
      "0x2123c": 1488,
      "0x21e0b": 1489,
      "0x12678": 1490,
      "0x1c9de": 1491,
      "0x19342": 1492,
      "cvt": 1493,
      "cqo": 1494,
      "0xad7b": 1495,
      "0x1e1db": 1496,
      "0x251f5": 1497,
      "0x21109": 1498,
      "0x956f": 1499,
      "0xe739": 1500,
      "fu": 1501,
      "jp": 1502,
      "ne": 1503,
      "##41": 1504,
      "##8c": 1505,
      "##d70": 1506,
      "##590": 1507,
      "##992": 1508,
      "##7b": 1509,
      "##79": 1510,
      "##77": 1511,
      "##3d": 1512,
      "##3e": 1513,
      "##cf": 1514,
      "##62": 1515,
      "##61f": 1516,
      "##ef": 1517,
      "##e2": 1518,
      "##e9": 1519,
      "0xdd": 1520,
      "0x1ff": 1521,
      "0x267": 1522,
      "0x2d0": 1523,
      "0x292": 1524,
      "0x29d": 1525,
      "0x2aaaa": 1526,
      "##ea2": 1527,
      "0x33": 1528,
      "0x181": 1529,
      "0x18c": 1530,
      "0x18a35": 1531,
      "0x18992": 1532,
      "0x10d": 1533,
      "0x10be": 1534,
      "0x109e": 1535,
      "0x57": 1536,
      "0x558": 1537,
      "0x565": 1538,
      "0x52e6": 1539,
      "0x20f": 1540,
      "0x20aa": 1541,
      "0x20bf": 1542,
      "0x28b": 1543,
      "0x24d8": 1544,
      "0x24d4": 1545,
      "0x24bf": 1546,
      "0x6c0": 1547,
      "0x6a8": 1548,
      "0x636": 1549,
      "0x6785": 1550,
      "##ubr": 1551,
      "0xa123": 1552,
      "0xaf73": 1553,
      "0xc5": 1554,
      "0xcc": 1555,
      "0xc6": 1556,
      "0xc66": 1557,
      "0x14d": 1558,
      "0x145": 1559,
      "0x14b8": 1560,
      "0x14c3": 1561,
      "0x14af1": 1562,
      "0x733": 1563,
      "0x714": 1564,
      "0x766": 1565,
      "0xbb7": 1566,
      "0xbab": 1567,
      "0xba8": 1568,
      "0xbd5": 1569,
      "0xbfe3": 1570,
      "0xba47": 1571,
      "##64f": 1572,
      "##649": 1573,
      "0x229a": 1574,
      "0x224f": 1575,
      "0x22dc": 1576,
      "0x22d2": 1577,
      "0x229c": 1578,
      "0x22c8": 1579,
      "0x227cb": 1580,
      "0x1e36": 1581,
      "0x1e1ab": 1582,
      "0x1ed59": 1583,
      "0x1e61f": 1584,
      "0x4900": 1585,
      "0x4950": 1586,
      "0x2364": 1587,
      "0x231a": 1588,
      "0x236c": 1589,
      "0x2378f": 1590,
      "0x23c3a": 1591,
      "0x112ef": 1592,
      "0x25b7": 1593,
      "0x25b0": 1594,
      "0x2534": 1595,
      "0x25b9": 1596,
      "0x25ba": 1597,
      "0x2593": 1598,
      "0x251af": 1599,
      "0x2570c": 1600,
      "0x2565e": 1601,
      "0x8f": 1602,
      "0x81": 1603,
      "##004": 1604,
      "0x2133": 1605,
      "0x215c": 1606,
      "0x2173": 1607,
      "0x139": 1608,
      "0x133": 1609,
      "0x13e": 1610,
      "0x13c0": 1611,
      "0x13766": 1612,
      "##501": 1613,
      "##507": 1614,
      "0xf97": 1615,
      "0xfa4": 1616,
      "0xf5f": 1617,
      "##d8f": 1618,
      "##d8b": 1619,
      "0x9d": 1620,
      "0x95": 1621,
      "0x9e": 1622,
      "0x9929": 1623,
      "0x127": 1624,
      "0x126": 1625,
      "0x12ff": 1626,
      "0x12dc5": 1627,
      "0x12590": 1628,
      "0x1ce4c": 1629,
      "0xec": 1630,
      "0xe56": 1631,
      "0xe768": 1632,
      "0x1f1": 1633,
      "0x1fc": 1634,
      "0x1fbe": 1635,
      "0x1fb4": 1636,
      "0x1f58": 1637,
      "0x1f6c": 1638,
      "0x1f4b1": 1639,
      "0x501a": 1640,
      "0xd4": 1641,
      "0xd2": 1642,
      "0xd3": 1643,
      "0xd9a": 1644,
      "0x19de": 1645,
      "0x17d": 1646,
      "0x1a28": 1647,
      "0x1a7f": 1648,
      "0x1a123": 1649,
      "0x15a": 1650,
      "0x1537d": 1651,
      "0x15283": 1652,
      "##f0c": 1653,
      "##b7f": 1654,
      "0xc048": 1655,
      "0x4a00": 1656,
      "0x4a80": 1657,
      "0x4a20": 1658,
      "##cc1": 1659,
      "fsubr": 1660,
      "##208": 1661,
      "##20c": 1662,
      "0x161": 1663,
      "0x169": 1664,
      "0x163": 1665,
      "0x1bd": 1666,
      "##9af": 1667,
      "##9a2": 1668,
      "##9a8": 1669,
      "0x1dbad": 1670,
      "0x1d185": 1671,
      "##c0c": 1672,
      "##988": 1673,
      "##98d": 1674,
      "##98e": 1675,
      "##904": 1676,
      "##903": 1677,
      "##330": 1678,
      "##401": 1679,
      "##6ae": 1680,
      "##a03": 1681,
      "0x4c00": 1682,
      "0x4c20": 1683,
      "0x4cb0": 1684,
      "0x4ce0": 1685,
      "0x4c90": 1686,
      "0x4c30": 1687,
      "0x274": 1688,
      "0x27d": 1689,
      "0x271": 1690,
      "0x275": 1691,
      "##765": 1692,
      "##76c": 1693,
      "0x6449": 1694,
      "0x26b": 1695,
      "0x1a832": 1696,
      "##f8a": 1697,
      "##d4a": 1698,
      "##561": 1699,
      "##ae9": 1700,
      "##282": 1701,
      "##ce8": 1702,
      "##188": 1703,
      "0xb099": 1704,
      "0x88c1": 1705,
      "0x4e20": 1706,
      "0x4e10": 1707,
      "##bf4": 1708,
      "0x4d20": 1709,
      "0x4da0": 1710,
      "##1d9": 1711,
      "##1d6": 1712,
      "##92c": 1713,
      "##926": 1714,
      "##1e6": 1715,
      "##9d2": 1716,
      "##b4f": 1717,
      "##b47": 1718,
      "##b4e": 1719,
      "##b88": 1720,
      "##2c6": 1721,
      "##959": 1722,
      "##eee": 1723,
      "##4f9": 1724,
      "##979": 1725,
      "##973": 1726,
      "0xc8f0": 1727,
      "0xc825": 1728,
      "##589": 1729,
      "##513": 1730,
      "##e4a": 1731,
      "##e45": 1732,
      "##21b": 1733,
      "##275": 1734,
      "##f6d": 1735,
      "##f7f": 1736,
      "##f7a": 1737,
      "##f72": 1738,
      "##36e": 1739,
      "0xa07d": 1740,
      "0x1c33d": 1741,
      "##acd": 1742,
      "##fe5": 1743,
      "##694": 1744,
      "##696": 1745,
      "0x19874": 1746,
      "##2df": 1747,
      "##fb1": 1748,
      "##2e8": 1749,
      "##2e5": 1750,
      "##d73": 1751,
      "##a38": 1752,
      "##a31": 1753,
      "##752": 1754,
      "##755": 1755,
      "##759": 1756,
      "##25a": 1757,
      "0x5e89": 1758,
      "##138": 1759,
      "##54a": 1760,
      "0xdbba": 1761,
      "0x15880": 1762,
      "##fdb": 1763,
      "0x1009c": 1764,
      "0x5982": 1765,
      "##b35": 1766,
      "0x2243b": 1767,
      "##af9": 1768,
      "##152": 1769,
      "##15d": 1770,
      "0x112a4": 1771,
      "##631": 1772,
      "0x1e0ec": 1773,
      "0x1e08b": 1774,
      "##22a": 1775,
      "##222": 1776,
      "##1b2": 1777,
      "##538": 1778,
      "##53d": 1779,
      "##535": 1780,
      "##a5e": 1781,
      "0xe3a6": 1782,
      "0xcef3": 1783,
      "##6e3": 1784,
      "##ad1": 1785,
      "##c8b": 1786,
      "0x22e99": 1787,
      "0x220da": 1788,
      "##a71": 1789,
      "0x1741b": 1790,
      "0x20465": 1791,
      "0xffffffbf": 1792,
      "setb": 1793,
      "##db1": 1794,
      "##52a": 1795,
      "##9b2": 1796,
      "0x1eaeb": 1797,
      "0x251ea": 1798,
      "##7f2": 1799,
      "0x164e0": 1800,
      "0x20890": 1801,
      "0x1d392": 1802,
      "0x1d35c": 1803,
      "0xbe2d": 1804,
      "0x20079": 1805,
      "0x235e4": 1806,
      "0x17a10": 1807,
      "0x241f7": 1808,
      "0x19dea": 1809,
      "0x1bbaa": 1810,
      "##eb2": 1811,
      "0x1c6dd": 1812,
      "0x1c6f3": 1813,
      "0x17e25": 1814,
      "0xa3c0": 1815,
      "0xa31a": 1816,
      "0xbd2e": 1817,
      "0xe522": 1818,
      "0xe797": 1819,
      "fcomip": 1820,
      "0x1842d": 1821,
      "0xe4db": 1822,
      "0x1d520": 1823,
      "0x24ce3": 1824,
      "0xca28": 1825,
      "0x14f47": 1826,
      "0x1527a": 1827,
      "btc": 1828,
      "0x1844c": 1829,
      "0x20e04": 1830,
      "0xc9ce": 1831,
      "0xc444": 1832,
      "0x14b6e": 1833,
      "0xb2aa": 1834,
      "0xb2c4": 1835,
      "0x231c6": 1836,
      "0x1a63e": 1837,
      "0x1bebb": 1838,
      "0x1d62e": 1839,
      "fdivp": 1840,
      "0x18b18": 1841,
      "0x5d44": 1842,
      "0x24bde": 1843,
      "0xb69a": 1844,
      "0x22c3d": 1845,
      "0x25279": 1846,
      "0x8a13": 1847,
      "0x21264": 1848,
      "0x134b5": 1849,
      "0x1c9f4": 1850,
      "0x166ef": 1851,
      "0x1df08": 1852,
      "fucom": 1853,
      "neg": 1854,
      "0x2aaaaaab": 1855,
      "0x7145": 1856,
      "0xbd5a": 1857,
      "0x22dc2": 1858,
      "0x1e362": 1859,
      "0x231a5": 1860,
      "0x25345": 1861,
      "0x1a7f5": 1862,
      "dx": 1863,
      "sbb": 1864,
      "##bf0": 1865,
      "##b56": 1866,
      "##b19": 1867,
      "##b99": 1868,
      "##4a": 1869,
      "##a2c": 1870,
      "##292": 1871,
      "##2sd": 1872,
      "##8f": 1873,
      "##8a": 1874,
      "##81": 1875,
      "##180": 1876,
      "##15c": 1877,
      "##500": 1878,
      "##900": 1879,
      "##956": 1880,
      "##9bd": 1881,
      "##7ce": 1882,
      "##370": 1883,
      "##319": 1884,
      "##61d": 1885,
      "##6b8": 1886,
      "##sd2": 1887,
      "##tsd2": 1888,
      "0x2f0": 1889,
      "0x2e0": 1890,
      "0x2f8": 1891,
      "0x2e8": 1892,
      "0x29c": 1893,
      "0x45": 1894,
      "0x4fd": 1895,
      "##ea7": 1896,
      "##ea3": 1897,
      "##ea6": 1898,
      "0x31": 1899,
      "0x37": 1900,
      "0x18f": 1901,
      "0x18d": 1902,
      "0x183": 1903,
      "0x18a4": 1904,
      "0x1875": 1905,
      "0x18ee8": 1906,
      "0x18b35": 1907,
      "0x103": 1908,
      "0x1000": 1909,
      "0x10d8": 1910,
      "0x10a0": 1911,
      "0x10ce": 1912,
      "0x10d0": 1913,
      "0x10b8": 1914,
      "0x1019": 1915,
      "0x10a2": 1916,
      "0x10ee8": 1917,
      "0x1014d": 1918,
      "0x51": 1919,
      "0x540": 1920,
      "0x534": 1921,
      "0x5dc": 1922,
      "0x5994": 1923,
      "0x5fcf": 1924,
      "0x206": 1925,
      "0x2090": 1926,
      "0x20b4": 1927,
      "0x2057": 1928,
      "0x20ab": 1929,
      "0x2058": 1930,
      "0x20f6": 1931,
      "0x20ac": 1932,
      "0x20a9": 1933,
      "0x20e8": 1934,
      "0x20c3": 1935,
      "0x20ad": 1936,
      "0x20630": 1937,
      "0x204fa": 1938,
      "0x20d8f": 1939,
      "0x287": 1940,
      "0x283": 1941,
      "0x28e": 1942,
      "0x28fb": 1943,
      "0x28d7": 1944,
      "0x2854": 1945,
      "jno": 1946,
      "0x24be": 1947,
      "0x24bc": 1948,
      "0x2495": 1949,
      "0x24ea0": 1950,
      "0x24982": 1951,
      "0x24132": 1952,
      "0x24fc9": 1953,
      "0x24330": 1954,
      "0x242c6": 1955,
      "0x6b": 1956,
      "0x67": 1957,
      "0x670": 1958,
      "0x6000": 1959,
      "0x624": 1960,
      "0x6f7f": 1961,
      "##ff1": 1962,
      "##ff7": 1963,
      "0xaf": 1964,
      "0xaa": 1965,
      "0xa2": 1966,
      "0xa28": 1967,
      "0xa3f": 1968,
      "0xa1ec": 1969,
      "0xaf63": 1970,
      "0xa152": 1971,
      "##si2sd": 1972,
      "0xcd": 1973,
      "0xcdd": 1974,
      "0xc000": 1975,
      "0xc33": 1976,
      "0xc18": 1977,
      "0xcf4": 1978,
      "0xcd7": 1979,
      "0xc9c": 1980,
      "0xc285": 1981,
      "0xcc7": 1982,
      "0xc80d": 1983,
      "0xc9aa": 1984,
      "0xcbad": 1985,
      "0xc101": 1986,
      "0xce08": 1987,
      "0xca04": 1988,
      "0xc36b": 1989,
      "0xc98e": 1990,
      "0x142": 1991,
      "0x1476": 1992,
      "0x14d0": 1993,
      "0x14bf": 1994,
      "0x147c": 1995,
      "0x14ab": 1996,
      "0x14b3": 1997,
      "0x14bb": 1998,
      "0x1473": 1999,
      "0x1478": 2000,
      "0x1491": 2001,
      "0x14984": 2002,
      "0x14bbb": 2003,
      "0x1460c": 2004,
      "0x14bc9": 2005,
      "0x14fe1": 2006,
      "0x1498d": 2007,
      "0x77": 2008,
      "0x7ff": 2009,
      "0x756": 2010,
      "0x725": 2011,
      "0x772c": 2012,
      "0x71d2": 2013,
      "0x7248": 2014,
      "0x7b4e": 2015,
      "0xb28": 2016,
      "0xbac": 2017,
      "0xb7e": 2018,
      "0xb184": 2019,
      "0xb138": 2020,
      "##64b": 2021,
      "##641": 2022,
      "0x22be": 2023,
      "0x226a": 2024,
      "0x221a": 2025,
      "0x22b4": 2026,
      "0x2299": 2027,
      "0x22fb": 2028,
      "0x22b9": 2029,
      "0x22a9": 2030,
      "0x22a5": 2031,
      "0x22982": 2032,
      "0x22d8c": 2033,
      "0x22d05": 2034,
      "0x221b2": 2035,
      "0x229b2": 2036,
      "0x1e9": 2037,
      "0x1e8e": 2038,
      "0x1e4b": 2039,
      "0x1e17": 2040,
      "0x1ede": 2041,
      "0x1efe2": 2042,
      "0x1eee5": 2043,
      "0x1e20c": 2044,
      "0x1ef7a": 2045,
      "0x4920": 2046,
      "0x4910": 2047,
      "0x49d0": 2048,
      "0x4800": 2049,
      "0x4810": 2050,
      "0x48c0": 2051,
      "0x2300": 2052,
      "0x23a0": 2053,
      "0x2323": 2054,
      "0x23ee": 2055,
      "0x23f3": 2056,
      "0x234f": 2057,
      "0x23f7": 2058,
      "0x232d": 2059,
      "0x23d7": 2060,
      "0x2314": 2061,
      "0x236d": 2062,
      "0x236f": 2063,
      "0x2318e": 2064,
      "0x231ad": 2065,
      "0x23f8c": 2066,
      "0x2300e": 2067,
      "0x23a0c": 2068,
      "0x23bc9": 2069,
      "0x23ea2": 2070,
      "0x23222": 2071,
      "0x11b": 2072,
      "0x116": 2073,
      "0x11e": 2074,
      "0x1180": 2075,
      "0x1133": 2076,
      "0x11a0": 2077,
      "0x1130": 2078,
      "0x112c": 2079,
      "0x11e8": 2080,
      "0x1194": 2081,
      "0x25f0": 2082,
      "0x25bc": 2083,
      "0x2528": 2084,
      "0x252c": 2085,
      "0x25f3": 2086,
      "0x25f4": 2087,
      "0x25e4": 2088,
      "0x25b3": 2089,
      "0x25ec": 2090,
      "0x2578": 2091,
      "0x25958": 2092,
      "0x2537e": 2093,
      "0x87": 2094,
      "0x8b0": 2095,
      "0x8c0": 2096,
      "0x848": 2097,
      "##604": 2098,
      "0x21d8": 2099,
      "0x212c": 2100,
      "0x21dc": 2101,
      "0x21ba": 2102,
      "0x21c8": 2103,
      "0x2150a": 2104,
      "0x21199": 2105,
      "0x21984": 2106,
      "0x2127b": 2107,
      "0x21bf9": 2108,
      "0x21bd1": 2109,
      "0x214f9": 2110,
      "0x13b7": 2111,
      "0x13d4": 2112,
      "0x138e": 2113,
      "0x1321": 2114,
      "0x1327": 2115,
      "0x136c": 2116,
      "0x13ad": 2117,
      "0x1338": 2118,
      "0x13208": 2119,
      "##50f": 2120,
      "##508": 2121,
      "##50d": 2122,
      "##509": 2123,
      "##503": 2124,
      "0xf1": 2125,
      "0xf00": 2126,
      "0xfaa": 2127,
      "0xfce": 2128,
      "0xfd0": 2129,
      "0xfac": 2130,
      "0xf68": 2131,
      "0xf25a": 2132,
      "##d88": 2133,
      "##d81": 2134,
      "##d87": 2135,
      "##d80": 2136,
      "0x91": 2137,
      "0x921": 2138,
      "0x924": 2139,
      "##708": 2140,
      "##7073": 2141,
      "0x12b": 2142,
      "0x122": 2143,
      "0x12ee": 2144,
      "0x1238": 2145,
      "0x12b39": 2146,
      "0x12a31": 2147,
      "0x1ca": 2148,
      "0x1c2": 2149,
      "0x1c1": 2150,
      "0x1ca0": 2151,
      "0x1cb8": 2152,
      "0x1c7e": 2153,
      "0x1c48": 2154,
      "0x1c363": 2155,
      "0x1c343": 2156,
      "0x1cd89": 2157,
      "0x1cf07": 2158,
      "0x1c9a5": 2159,
      "0x1cd8b": 2160,
      "0x1cdb1": 2161,
      "0x30d": 2162,
      "0xe1": 2163,
      "0xec0": 2164,
      "0xe90": 2165,
      "0xecd": 2166,
      "0xe1a9": 2167,
      "0xe6de": 2168,
      "0x1fe": 2169,
      "0x1f67": 2170,
      "0x1f5b": 2171,
      "0x1fa4": 2172,
      "0x1fba": 2173,
      "0x1fbd": 2174,
      "0x1f7e": 2175,
      "0x1f73": 2176,
      "0x1f78": 2177,
      "0x1fde": 2178,
      "0x501f": 2179,
      "0x5094": 2180,
      "0x5858": 2181,
      "0x246cc": 2182,
      "0x24630": 2183,
      "0x246bc": 2184,
      "0x246cd": 2185,
      "0x246e1": 2186,
      "0xdce": 2187,
      "0xd6f5": 2188,
      "0x19f": 2189,
      "0x194": 2190,
      "0x199": 2191,
      "0x19c0": 2192,
      "0x19aa": 2193,
      "0x1999": 2194,
      "0x1993": 2195,
      "0x199c": 2196,
      "0x19a1": 2197,
      "0x19cd": 2198,
      "0x1928f": 2199,
      "0x19f6c": 2200,
      "0x19501": 2201,
      "0x1915c": 2202,
      "0x19319": 2203,
      "0x179": 2204,
      "0x17b0": 2205,
      "0x17a0": 2206,
      "0x17a8": 2207,
      "0x17a0c": 2208,
      "0x1754a": 2209,
      "0x1aa": 2210,
      "0x1a6": 2211,
      "0x1a7c": 2212,
      "0x1a66": 2213,
      "0x1ac3": 2214,
      "0x1ac8": 2215,
      "0x1aee3": 2216,
      "0x1a706": 2217,
      "0x1a500": 2218,
      "0x15b": 2219,
      "0x153": 2220,
      "0x156": 2221,
      "0x1526": 2222,
      "0x1554": 2223,
      "0x1537b": 2224,
      "0x156f5": 2225,
      "0x15401": 2226,
      "0x152e8": 2227,
      "0x15538": 2228,
      "0x157ce": 2229,
      "##804": 2230,
      "##806": 2231,
      "##b75": 2232,
      "0x4a30": 2233,
      "0x4ad0": 2234,
      "0x98b5": 2235,
      "##ccd": 2236,
      "0x604e": 2237,
      "##203": 2238,
      "0x16f": 2239,
      "0x1690": 2240,
      "0x16ab": 2241,
      "0x1637b": 2242,
      "0x16acd": 2243,
      "0x16631": 2244,
      "0x1b4": 2245,
      "0x1ba": 2246,
      "0x1b5": 2247,
      "0x1bce": 2248,
      "0x1bb3": 2249,
      "0x1b4c": 2250,
      "0x1bb7a": 2251,
      "##9a6": 2252,
      "##9ae": 2253,
      "0x1db": 2254,
      "0x1d4": 2255,
      "0x1d67": 2256,
      "0x1d68": 2257,
      "##102": 2258,
      "0x4b60": 2259,
      "0x4b20": 2260,
      "0x4bb0": 2261,
      "0x4b90": 2262,
      "0x4ba0": 2263,
      "##b07": 2264,
      "##c03": 2265,
      "##e09": 2266,
      "0x801": 2267,
      "##985": 2268,
      "##beb": 2269,
      "##334": 2270,
      "##335": 2271,
      "##33c": 2272,
      "##404": 2273,
      "##402": 2274,
      "##409": 2275,
      "##6a2": 2276,
      "0x4c50": 2277,
      "0x27f": 2278,
      "0x273": 2279,
      "0x27e4": 2280,
      "##762": 2281,
      "##76e": 2282,
      "##1a6": 2283,
      "##308": 2284,
      "0x64c8": 2285,
      "0x6487": 2286,
      "##67a": 2287,
      "##671": 2288,
      "##67e": 2289,
      "0x26f": 2290,
      "0x268": 2291,
      "0x265": 2292,
      "0x2614": 2293,
      "0x2624": 2294,
      "##bcf": 2295,
      "##bc5": 2296,
      "0x5cf2": 2297,
      "0x1289a": 2298,
      "0x1282b": 2299,
      "##d46": 2300,
      "##aa1": 2301,
      "##56e": 2302,
      "##ce7": 2303,
      "##18a": 2304,
      "##347": 2305,
      "##34e": 2306,
      "0xb04c": 2307,
      "0x4e70": 2308,
      "0x4e80": 2309,
      "0x4eb0": 2310,
      "0x4e30": 2311,
      "##bf2": 2312,
      "0x4d00": 2313,
      "0x4d10": 2314,
      "0x4de0": 2315,
      "##1d7": 2316,
      "0x1107f": 2317,
      "0x110ca": 2318,
      "##1e2": 2319,
      "##9d1": 2320,
      "##573": 2321,
      "##f32": 2322,
      "##f3d": 2323,
      "0x150f8": 2324,
      "0xffffffffffffff": 2325,
      "##9726": 2326,
      "##f42": 2327,
      "0x54a0": 2328,
      "0x5458": 2329,
      "0x54a2": 2330,
      "##581": 2331,
      "##517": 2332,
      "0x1182d": 2333,
      "##27d": 2334,
      "##991": 2335,
      "##999": 2336,
      "##996": 2337,
      "0x47d0": 2338,
      "##f6b": 2339,
      "##f6e": 2340,
      "0x6c9": 2341,
      "##44a": 2342,
      "##a86": 2343,
      "##dca": 2344,
      "##dc8": 2345,
      "##369": 2346,
      "##3656": 2347,
      "0x108b4": 2348,
      "0x1c33a": 2349,
      "0x1c337": 2350,
      "##feb": 2351,
      "##a49": 2352,
      "##a4c": 2353,
      "##69c": 2354,
      "##2de": 2355,
      "##5c4": 2356,
      "##5cd": 2357,
      "##fba": 2358,
      "cmovg": 2359,
      "cmovae": 2360,
      "##b96": 2361,
      "##a3d70": 2362,
      "##254": 2363,
      "##25d": 2364,
      "0x5e90": 2365,
      "0x5e1d": 2366,
      "0x5e66": 2367,
      "0x5ed5": 2368,
      "##26f": 2369,
      "##262": 2370,
      "##266": 2371,
      "0x7486": 2372,
      "##541": 2373,
      "0xdc1c": 2374,
      "0xdc6b": 2375,
      "##fda": 2376,
      "##ba2": 2377,
      "##142": 2378,
      "0x10098": 2379,
      "0x1009b": 2380,
      "0x1008c": 2381,
      "##bd5": 2382,
      "##bd9": 2383,
      "0x598b": 2384,
      "0x5988": 2385,
      "0x5985": 2386,
      "0x598e": 2387,
      "##b32": 2388,
      "##68f": 2389,
      "##686": 2390,
      "0x22428": 2391,
      "0x22425": 2392,
      "0x2241f": 2393,
      "0x22422": 2394,
      "##fcb": 2395,
      "##fc8": 2396,
      "##fcd": 2397,
      "##66b": 2398,
      "0x2a2": 2399,
      "0x2a27": 2400,
      "##24a": 2401,
      "##249": 2402,
      "##ec4": 2403,
      "0x228dc": 2404,
      "0x22814": 2405,
      "0x228c6": 2406,
      "0x228cb": 2407,
      "0x19024": 2408,
      "##afa": 2409,
      "##15f": 2410,
      "##738": 2411,
      "0x2b5": 2412,
      "##6da": 2413,
      "##6d3": 2414,
      "##63e": 2415,
      "0x1e064": 2416,
      "0x25326": 2417,
      "##53b": 2418,
      "##53ffffff": 2419,
      "##78c": 2420,
      "##786": 2421,
      "##6cf": 2422,
      "##6ca": 2423,
      "0x1f01d": 2424,
      "0x1f092": 2425,
      "##a52": 2426,
      "##6f1": 2427,
      "##d2f": 2428,
      "##d2a": 2429,
      "0x24966": 2430,
      "0xe380": 2431,
      "0xe3d0": 2432,
      "##48b": 2433,
      "##c3c": 2434,
      "0x10771": 2435,
      "0x23f26": 2436,
      "0x230e0": 2437,
      "0x23076": 2438,
      "0x230b8": 2439,
      "0x23ed8": 2440,
      "0x2141c": 2441,
      "0x15f6a": 2442,
      "##6e5": 2443,
      "0x24da4": 2444,
      "0x24c60": 2445,
      "##a12": 2446,
      "##9e5": 2447,
      "0x22edf": 2448,
      "0x1e7aa": 2449,
      "0x25b67": 2450,
      "0x25b34": 2451,
      "0x1349f": 2452,
      "0xdf03": 2453,
      "0x1b89e": 2454,
      "0x1b861": 2455,
      "##9fa": 2456,
      "##9f1": 2457,
      "0x5960": 2458,
      "0x5970": 2459,
      "0x596a": 2460,
      "0x5976": 2461,
      "0x5967": 2462,
      "0x597c": 2463,
      "0x596d": 2464,
      "0x220c5": 2465,
      "##a74": 2466,
      "0x18810": 2467,
      "0xbcd0": 2468,
      "0xbc5b": 2469,
      "0x174ca": 2470,
      "0x160ea": 2471,
      "0x160db": 2472,
      "0x204d8": 2473,
      "0x204b7": 2474,
      "0x204c9": 2475,
      "0x1e818": 2476,
      "0x1e827": 2477,
      "0x1e854": 2478,
      "0x1e86b": 2479,
      "0x21865": 2480,
      "0x21824": 2481,
      "0xfffffffe": 2482,
      "0xfffffffd": 2483,
      "0xffffffc7": 2484,
      "##555": 2485,
      "0x22af0": 2486,
      "0x227dc": 2487,
      "0x227fc": 2488,
      "0x1e464": 2489,
      "0x11460": 2490,
      "0x114f0": 2491,
      "0x1147e": 2492,
      "0x25100": 2493,
      "0x25150": 2494,
      "0x2511d": 2495,
      "##dfa": 2496,
      "##df9": 2497,
      "0x243b0": 2498,
      "0x243e0": 2499,
      "0x243f8": 2500,
      "0x24319": 2501,
      "0x22396": 2502,
      "0x22c92": 2503,
      "0x22c48": 2504,
      "0x22c47": 2505,
      "0x25490": 2506,
      "0x25e1f": 2507,
      "mulsd": 2508,
      "##5e1": 2509,
      "##7f1": 2510,
      "0x208f8": 2511,
      "0x24876": 2512,
      "0x24873": 2513,
      "0x1d31f": 2514,
      "0x1d391": 2515,
      "##7da": 2516,
      "0x1ea34": 2517,
      "0x244e0": 2518,
      "0x24428": 2519,
      "0x1131a": 2520,
      "##12a": 2521,
      "0x2008e": 2522,
      "0x24a95": 2523,
      "0xa493": 2524,
      "0xa40000": 2525,
      "0xbab8": 2526,
      "0x23250": 2527,
      "0x2322c": 2528,
      "0x23310": 2529,
      "0x195be": 2530,
      "0x19595": 2531,
      "0x14425": 2532,
      "0x14758": 2533,
      "0x14ca2": 2534,
      "0x23470": 2535,
      "0x23d92": 2536,
      "0x258cc": 2537,
      "0x258a8": 2538,
      "##aaaaaaaa": 2539,
      "0x1dd69": 2540,
      "0x1851d": 2541,
      "0x20dfd": 2542,
      "0x20e51": 2543,
      "0x143eb": 2544,
      "0x7edb": 2545,
      "0x225f4": 2546,
      "0x238d0": 2547,
      "0x11551": 2548,
      "0x257d4": 2549,
      "0x95c4": 2550,
      "0x95c1": 2551,
      "divsd": 2552,
      "0x22692": 2553,
      "0x226f4": 2554,
      "0x237af": 2555,
      "0x217a0": 2556,
      "0x210c6": 2557,
      "0x1fa67": 2558,
      "0x167a5": 2559,
      "0x20280": 2560,
      "0x2022c": 2561,
      "0x20315": 2562,
      "0x24fe0": 2563,
      "0x24560": 2564,
      "0x245d8": 2565,
      "0x24590": 2566,
      "0x245a8": 2567,
      "0x24e28": 2568,
      "0x14565": 2569,
      "0x23af8": 2570,
      "0x2314f": 2571,
      "0x11af4": 2572,
      "0x21cfa": 2573,
      "0xfa28": 2574,
      "0x21163": 2575,
      "0xe5f6": 2576,
      "0x1a43a": 2577,
      "0x597f": 2578,
      "0x5979": 2579,
      "0x5973": 2580,
      "0x63db": 2581,
      "0x6512": 2582,
      "0x22d71": 2583,
      "0x8f3c": 2584,
      "0x1ce9e": 2585,
      "0x1adcc": 2586,
      "0x1ad6f": 2587,
      "0x152ff": 2588,
      "0x15104": 2589,
      "0x1d127": 2590,
      "fmulp": 2591,
      "0x5f91": 2592,
      "0x205d4": 2593,
      "0xca1e": 2594,
      "0xc223": 2595,
      "0xc221": 2596,
      "0x14f44": 2597,
      "0x22979": 2598,
      "0x22977": 2599,
      "0x1ef13": 2600,
      "0x23918": 2601,
      "0x239e8": 2602,
      "0x21b25": 2603,
      "0x135a5": 2604,
      "0x1c528": 2605,
      "0x1c599": 2606,
      "0x1ccfd": 2607,
      "0x1a730": 2608,
      "##cccccccc": 2609,
      "0x102f3": 2610,
      "0x5ab7": 2611,
      "0x55cc": 2612,
      "0x20b57": 2613,
      "0x20e03": 2614,
      "0x20a8a": 2615,
      "0xc9e8": 2616,
      "0xc446": 2617,
      "0x14a76": 2618,
      "0x725b": 2619,
      "0xb5fe": 2620,
      "0xb2c6": 2621,
      "0xf6b3": 2622,
      "0x1f7c7": 2623,
      "0x17b14": 2624,
      "0x17158": 2625,
      "0x173fc": 2626,
      "0x1af40": 2627,
      "0x15c92": 2628,
      "0x1b14f": 2629,
      "0x1b3b9": 2630,
      "0x1df1e": 2631,
      "0x1dcf7": 2632,
      "0x1de33": 2633,
      "0x2b6c0": 2634,
      "0x3fffffff": 2635,
      "0x3ffffff53ffffff": 2636,
      "0x187fb": 2637,
      "0x10629": 2638,
      "0x20b71": 2639,
      "0xcf5c": 2640,
      "0x75af": 2641,
      "0x1e2d8": 2642,
      "0x1193b": 2643,
      "0x255cc": 2644,
      "0x1cea5": 2645,
      "0xef64": 2646,
      "0xdf6b": 2647,
      "cvttsd2": 2648,
      "cvtsi2sd": 2649,
      "0x10bef": 2650,
      "0x5582": 2651,
      "0x565f": 2652,
      "0x20aaa": 2653,
      "0x24d45": 2654,
      "0x6361": 2655,
      "0xc66f": 2656,
      "0x733f": 2657,
      "0x766d": 2658,
      "0x224f7": 2659,
      "0x22d29": 2660,
      "0x21333": 2661,
      "0x2173c": 2662,
      "0x13c01": 2663,
      "0xf5f9": 2664,
      "0x95d4": 2665,
      "0x127ad": 2666,
      "0xe569": 2667,
      "0x1fc40": 2668,
      "0x1fb42": 2669,
      "0x1f58a": 2670,
      "0xd9a3": 2671,
      "0x1a28b": 2672,
      "fucomi": 2673,
      "0x4fd9": 2674,
      "0x18a4e": 2675,
      "0x1875a": 2676,
      "0x10ced": 2677,
      "0x10d03": 2678,
      "0x5dc3": 2679,
      "0x2090c": 2680,
      "0x20b48": 2681,
      "0x20575": 2682,
      "0x20a96": 2683,
      "0x24bcb": 2684,
      "0x24951": 2685,
      "0x6703": 2686,
      "0xa3f9": 2687,
      "0xc33a": 2688,
      "0xc182": 2689,
      "0xc9c4": 2690,
      "0x14912": 2691,
      "0x7565": 2692,
      "0x725e": 2693,
      "0xb7e8": 2694,
      "0x2299b": 2695,
      "0x232d3": 2696,
      "0x23147": 2697,
      "0x13adb": 2698,
      "0xfd0b": 2699,
      "0x9212": 2700,
      "0x924d": 2701,
      "0x1238b": 2702,
      "0x1c48d": 2703,
      "0xec0b": 2704,
      "0xe901": 2705,
      "0xecd1": 2706,
      "0x1f67c": 2707,
      "0x1fde3": 2708,
      "0x1999f": 2709,
      "0x19a16": 2710,
      "0x19cda": 2711,
      "0x17b0d": 2712,
      "0x15547": 2713,
      "0x1bce6": 2714,
      "0x1bb3e": 2715,
      "0x1b4c5": 2716,
      "0x1d679": 2717,
      "0x1d683": 2718,
      "0xfffffffffffffff8": 2719,
      "0xa4000000": 2720,
      "cvttsd2si": 2721,
      "adc": 2722,
      "##fa8": 2723,
      "##fa3": 2724,
      "##f15": 2725,
      "##fa1": 2726,
      "##f5f": 2727,
      "##bea": 2728,
      "##ba0": 2729,
      "##b1e": 2730,
      "##ba8": 2731,
      "##b2d": 2732,
      "##43": 2733,
      "##4a0": 2734,
      "##46e": 2735,
      "##a33": 2736,
      "##a28": 2737,
      "##ace": 2738,
      "##af4": 2739,
      "##2cc": 2740,
      "##26a": 2741,
      "##2a8": 2742,
      "##225": 2743,
      "##88": 2744,
      "##8d": 2745,
      "##df0": 2746,
      "##d19": 2747,
      "##160": 2748,
      "##1bc": 2749,
      "##17c": 2750,
      "##1f6": 2751,
      "##125": 2752,
      "##163": 2753,
      "##580": 2754,
      "##5f4": 2755,
      "##5a8": 2756,
      "##5ac": 2757,
      "##5a4": 2758,
      "##964": 2759,
      "##9d4": 2760,
      "##918": 2761,
      "##91d": 2762,
      "##9b4": 2763,
      "##9f3": 2764,
      "##997": 2765,
      "##9bb": 2766,
      "##7fd": 2767,
      "##793": 2768,
      "##77e": 2769,
      "##320": 2770,
      "##357": 2771,
      "##321": 2772,
      "##cf0": 2773,
      "##0a": 2774,
      "##01": 2775,
      "##6cc": 2776,
      "##610": 2777,
      "##667": 2778,
      "##656": 2779,
      "##6ee": 2780,
      "##657": 2781,
      "##637": 2782,
      "##614": 2783,
      "##6f63": 2784,
      "##e5": 2785,
      "##e7": 2786,
      "##e5c": 2787,
      "##e2b": 2788,
      "##e32": 2789,
      "##rp": 2790,
      "##ns": 2791,
      "0xea0": 2792,
      "0x1dd0": 2793,
      "0x264": 2794,
      "0x2d8": 2795,
      "0x29a": 2796,
      "0x290": 2797,
      "0x295": 2798,
      "0x29e": 2799,
      "0x29f": 2800,
      "0x4f": 2801,
      "0x4cc": 2802,
      "0x4e0": 2803,
      "0x4d4": 2804,
      "0x4ea0": 2805,
      "0x4535": 2806,
      "0x4d80": 2807,
      "##eaa": 2808,
      "##ead": 2809,
      "##ea9": 2810,
      "##ddd": 2811,
      "##ddc": 2812,
      "##dd6": 2813,
      "0x3e8": 2814,
      "0x3feb": 2815,
      "0x18f0": 2816,
      "0x1820": 2817,
      "0x189a": 2818,
      "0x18e0": 2819,
      "0x1840": 2820,
      "0x18f8": 2821,
      "0x18d4": 2822,
      "0x18ae": 2823,
      "0x18ee": 2824,
      "0x18f4": 2825,
      "0x18e4": 2826,
      "0x1869": 2827,
      "0x18e8": 2828,
      "0x1817": 2829,
      "0x1863": 2830,
      "0x1822": 2831,
      "0x1848": 2832,
      "0x18c8": 2833,
      "0x184e": 2834,
      "0x1880d": 2835,
      "0x18ec2": 2836,
      "0x18283": 2837,
      "0x18abb": 2838,
      "0x185b2": 2839,
      "0x1876c": 2840,
      "0x18bf4": 2841,
      "0x18fe5": 2842,
      "0x18535": 2843,
      "0x18ff1": 2844,
      "0x1850f": 2845,
      "0x18334": 2846,
      "0x18a86": 2847,
      "0x18bd5": 2848,
      "0x186d3": 2849,
      "0x186cc": 2850,
      "0x1080": 2851,
      "0x1010": 2852,
      "0x10c0": 2853,
      "0x106a": 2854,
      "0x109d": 2855,
      "0x1057": 2856,
      "0x1051": 2857,
      "0x104b": 2858,
      "0x1054": 2859,
      "0x1066": 2860,
      "0x106d": 2861,
      "0x10ee3": 2862,
      "0x10bad": 2863,
      "0x10f0b": 2864,
      "0x10132": 2865,
      "0x101a9": 2866,
      "0x10571": 2867,
      "0x10693": 2868,
      "0x10b7f": 2869,
      "0x109af": 2870,
      "0x109a2": 2871,
      "0x106ae": 2872,
      "0x10b4e": 2873,
      "0x10e4a": 2874,
      "0x10755": 2875,
      "0x1053d": 2876,
      "0x10a5e": 2877,
      "0x10a71": 2878,
      "0x10db1": 2879,
      "0x10b56": 2880,
      "0x10ea3": 2881,
      "0x10203": 2882,
      "0x10bcf": 2883,
      "0x10a4c": 2884,
      "0x105cd": 2885,
      "0x1025d": 2886,
      "0x1024a": 2887,
      "0x10738": 2888,
      "0x10c3c": 2889,
      "0x10f15": 2890,
      "0x10bea": 2891,
      "0x10ddc": 2892,
      "0x5b": 2893,
      "0x564": 2894,
      "0x500": 2895,
      "0x5d8": 2896,
      "0x5e0": 2897,
      "0x523": 2898,
      "0x51e": 2899,
      "0x5b4": 2900,
      "0x536": 2901,
      "0x5a4": 2902,
      "0x56a7": 2903,
      "0x5f51": 2904,
      "0x5d26": 2905,
      "0x5abb": 2906,
      "0x59a5": 2907,
      "0x5ae7": 2908,
      "0x5d05": 2909,
      "0x5ee5": 2910,
      "0x55b5": 2911,
      "0x5649": 2912,
      "0x5ae9": 2913,
      "0x5fb1": 2914,
      "0x56e3": 2915,
      "0x56a2": 2916,
      "0x5aa1": 2917,
      "0x5996": 2918,
      "0x5f6b": 2919,
      "0x5b96": 2920,
      "0x5a52": 2921,
      "0x59e5": 2922,
      "0x20f0": 2923,
      "0x2020": 2924,
      "0x20c0": 2925,
      "0x2030": 2926,
      "0x20bc": 2927,
      "0x20d4": 2928,
      "0x208e": 2929,
      "0x20ee": 2930,
      "0x204f": 2931,
      "0x2021": 2932,
      "0x20a4": 2933,
      "0x2065": 2934,
      "0x20a3": 2935,
      "0x20bd": 2936,
      "0x20ec": 2937,
      "0x2063": 2938,
      "0x206e": 2939,
      "0x20c8": 2940,
      "0x2052": 2941,
      "0x205f": 2942,
      "0x20f36": 2943,
      "0x201ad": 2944,
      "0x20707": 2945,
      "0x20b4b": 2946,
      "0x20dc5": 2947,
      "0x20a2f": 2948,
      "0x20d8c": 2949,
      "0x202e6": 2950,
      "0x20b39": 2951,
      "0x206de": 2952,
      "0x20f0c": 2953,
      "0x20c0c": 2954,
      "0x20188": 2955,
      "0x2092c": 2956,
      "0x20979": 2957,
      "0x20973": 2958,
      "0x20e45": 2959,
      "0x20d73": 2960,
      "0x20a31": 2961,
      "0x20759": 2962,
      "0x20af9": 2963,
      "0x207f2": 2964,
      "0x209a6": 2965,
      "0x20335": 2966,
      "0x20f3d": 2967,
      "0x20f42": 2968,
      "0x20262": 2969,
      "0x20fc8": 2970,
      "0x20918": 2971,
      "0x289": 2972,
      "0x2800": 2973,
      "0x286a": 2974,
      "0x2830": 2975,
      "0x28bc": 2976,
      "0x289d": 2977,
      "0x28b8": 2978,
      "0x2857": 2979,
      "0x284b": 2980,
      "0x2868": 2981,
      "0x2866": 2982,
      "0x2855": 2983,
      "0x28fe2": 2984,
      "0x2860f": 2985,
      "0x2876d": 2986,
      "0x289d9": 2987,
      "0x28571": 2988,
      "0x285b5": 2989,
      "0x28693": 2990,
      "0x28561": 2991,
      "0x28696": 2992,
      "0x28fdb": 2993,
      "0x28538": 2994,
      "0x28d87": 2995,
      "0x289ae": 2996,
      "0x28671": 2997,
      "0x28347": 2998,
      "0x2869c": 2999,
      "0x28fc8": 3000,
      "0x286ca": 3001,
      "0x289e5": 3002,
      "0x284a0": 3003,
      "0x28cf0": 3004,
      "0x24ff": 3005,
      "0x24cc": 3006,
      "0x249a": 3007,
      "0x24c0": 3008,
      "0x24dd0": 3009,
      "0x24f8": 3010,
      "0x24aa": 3011,
      "0x2456": 3012,
      "0x24ae": 3013,
      "0x24d0": 3014,
      "0x2418": 3015,
      "0x2434": 3016,
      "0x248e": 3017,
      "0x2457": 3018,
      "0x2421": 3019,
      "0x24f6": 3020,
      "0x24a8": 3021,
      "0x24dc": 3022,
      "0x242d": 3023,
      "0x24b9": 3024,
      "0x2493": 3025,
      "0x241f": 3026,
      "0x2417": 3027,
      "0x245b1": 3028,
      "0x24cca": 3029,
      "0x249aa": 3030,
      "0x24343": 3031,
      "0x24b4b": 3032,
      "0x24c0a": 3033,
      "0x2476d": 3034,
      "0x24766": 3035,
      "0x24aaf": 3036,
      "0x24185": 3037,
      "0x2495c": 3038,
      "0x24a47": 3039,
      "0x24004": 3040,
      "0x24507": 3041,
      "0x24208": 3042,
      "0x249af": 3043,
      "0x24c0c": 3044,
      "0x24988": 3045,
      "0x24401": 3046,
      "0x24a03": 3047,
      "0x24f8a": 3048,
      "0x24ae9": 3049,
      "0x2492c": 3050,
      "0x24926": 3051,
      "0x244f9": 3052,
      "0x24513": 3053,
      "0x24d73": 3054,
      "0x24a38": 3055,
      "0x2452a": 3056,
      "0x2464b": 3057,
      "0x24b07": 3058,
      "0x24404": 3059,
      "0x24308": 3060,
      "0x24991": 3061,
      "0x24ead": 3062,
      "0x24ddd": 3063,
      "0x600": 3064,
      "0x6e0": 3065,
      "0x698": 3066,
      "0x633": 3067,
      "0x630": 3068,
      "0x656": 3069,
      "0x62c": 3070,
      "0x637": 3071,
      "0x614": 3072,
      "0x6ec": 3073,
      "0x653": 3074,
      "0x61af": 3075,
      "0x627b": 3076,
      "0x6693": 3077,
      "0x6bd1": 3078,
      "0x6188": 3079,
      "0x6755": 3080,
      "0x6a5e": 3081,
      "0x650d": 3082,
      "0x6409": 3083,
      "0x6581": 3084,
      "0x6686": 3085,
      "##fff": 3086,
      "##ffa": 3087,
      "##ff8": 3088,
      "##ffd": 3089,
      "##ff0": 3090,
      "##ff6": 3091,
      "0x38e3": 3092,
      "0xa1a": 3093,
      "0xaaa": 3094,
      "0xaee": 3095,
      "0xaf3": 3096,
      "0xa4f": 3097,
      "0xa5b": 3098,
      "0xa65": 3099,
      "0xa26": 3100,
      "0xa6d": 3101,
      "0xad3": 3102,
      "0xaf57": 3103,
      "0xa70c": 3104,
      "0xab7a": 3105,
      "0xaae7": 3106,
      "0xa248": 3107,
      "0xad8f": 3108,
      "0xa988": 3109,
      "0xac8b": 3110,
      "0xa900": 3111,
      "0xa956": 3112,
      "0xaff7": 3113,
      "0xa50f": 3114,
      "0xa44a": 3115,
      "0xab32": 3116,
      "0xaafa": 3117,
      "0xad2a": 3118,
      "0xaaaaaaaaa": 3119,
      "0xab2d": 3120,
      "0xa5f4": 3121,
      "0xa614": 3122,
      "0xcf0": 3123,
      "0xcb0": 3124,
      "0xc1a": 3125,
      "0xcee": 3126,
      "0xcab": 3127,
      "0xc21": 3128,
      "0xcf7": 3129,
      "0xc36": 3130,
      "0xc1c": 3131,
      "0xc73": 3132,
      "0xcc3": 3133,
      "0xcd3": 3134,
      "0xc38": 3135,
      "0xc7d": 3136,
      "0xcf51": 3137,
      "0xc96": 3138,
      "0xc74": 3139,
      "0xc6a6": 3140,
      "0xcab1": 3141,
      "0xc929": 3142,
      "0xc27b": 3143,
      "0xcbbb": 3144,
      "0xc76d": 3145,
      "0xcae7": 3146,
      "0xcfc9": 3147,
      "0xc649": 3148,
      "0xc76c": 3149,
      "0xc973": 3150,
      "0xc752": 3151,
      "0xc180": 3152,
      "0xc604": 3153,
      "0xc708": 3154,
      "0xcce7": 3155,
      "0xcfba": 3156,
      "0xcfcb": 3157,
      "0xc15f": 3158,
      "0xccccccccc": 3159,
      "0xc1bc": 3160,
      "0x1400": 3161,
      "0x14f0": 3162,
      "0x14b0": 3163,
      "0x14be": 3164,
      "0x1490": 3165,
      "0x1433": 3166,
      "0x14bc": 3167,
      "0x14d4": 3168,
      "0x14ae": 3169,
      "0x148e": 3170,
      "0x142c": 3171,
      "0x1495": 3172,
      "0x1497": 3173,
      "0x14ac": 3174,
      "0x14a4": 3175,
      "0x14ba": 3176,
      "0x1493": 3177,
      "0x146f": 3178,
      "0x149c": 3179,
      "0x149e": 3180,
      "0x145e": 3181,
      "0x14707": 3182,
      "0x1478f": 3183,
      "0x14c0a": 3184,
      "0x14a04": 3185,
      "0x1423b": 3186,
      "0x14958": 3187,
      "0x14571": 3188,
      "0x14994": 3189,
      "0x14904": 3190,
      "0x146ae": 3191,
      "0x14926": 3192,
      "0x14b4f": 3193,
      "0x14eee": 3194,
      "0x14fe5": 3195,
      "0x14759": 3196,
      "0x14fdb": 3197,
      "0x14631": 3198,
      "0x146e3": 3199,
      "0x14708": 3200,
      "0x14806": 3201,
      "0x14c03": 3202,
      "0x14f32": 3203,
      "0x145cd": 3204,
      "0x1426f": 3205,
      "0x1466b": 3206,
      "0x14a74": 3207,
      "0x14f5f": 3208,
      "0x14eaa": 3209,
      "0x7f0": 3210,
      "0x7000": 3211,
      "0x798": 3212,
      "0x7b8": 3213,
      "0x7ee": 3214,
      "0x717": 3215,
      "0x778": 3216,
      "0x76c": 3217,
      "0x7ffffffff": 3218,
      "0x7363": 3219,
      "0x77cb": 3220,
      "0x7908": 3221,
      "0x7ee5": 3222,
      "0x7ae9": 3223,
      "0x71e6": 3224,
      "0x7a38": 3225,
      "0x7d87": 3226,
      "0x79726": 3227,
      "0x73656": 3228,
      "0x7fcd": 3229,
      "0x763e": 3230,
      "0x75e1": 3231,
      "0xb60": 3232,
      "0xbd8": 3233,
      "0xbc0": 3234,
      "0xbbe": 3235,
      "0xbbc": 3236,
      "0xbaa": 3237,
      "0xbb8": 3238,
      "0xb57": 3239,
      "0xbb3": 3240,
      "0xb6c": 3241,
      "0xbc09": 3242,
      "0xb2f": 3243,
      "0xbaab": 3244,
      "0xbb4b": 3245,
      "0xbabb": 3246,
      "0xbc0a": 3247,
      "0xb507": 3248,
      "0xbcc1": 3249,
      "0xbce8": 3250,
      "0xb188": 3251,
      "0xbb88": 3252,
      "0xb589": 3253,
      "0xb15d": 3254,
      "0xbb99": 3255,
      "0xb641": 3256,
      "0xb102": 3257,
      "0xb762": 3258,
      "0xb249": 3259,
      "0xbb1e": 3260,
      "##644": 3261,
      "##643": 3262,
      "##640": 3263,
      "##642f": 3264,
      "0x2270": 3265,
      "0x22b7": 3266,
      "0x2220": 3267,
      "0x2290": 3268,
      "0x2233": 3269,
      "0x22a0": 3270,
      "0x2292": 3271,
      "0x221e": 3272,
      "0x229d": 3273,
      "0x228e": 3274,
      "0x22b8": 3275,
      "0x222c": 3276,
      "0x2295": 3277,
      "0x22e4": 3278,
      "0x22f6": 3279,
      "0x2244": 3280,
      "0x22a4": 3281,
      "0x224b": 3282,
      "0x221c": 3283,
      "0x2213": 3284,
      "0x22fd": 3285,
      "0x2214": 3286,
      "0x22fc": 3287,
      "0x22e8": 3288,
      "0x2263": 3289,
      "0x2278": 3290,
      "0x226e": 3291,
      "0x22ad": 3292,
      "0x2294": 3293,
      "0x226b": 3294,
      "0x22a7": 3295,
      "0x22bc4": 3296,
      "0x22f51": 3297,
      "0x22f0b": 3298,
      "0x2217a": 3299,
      "0x22107": 3300,
      "0x22ab1": 3301,
      "0x222d6": 3302,
      "0x22132": 3303,
      "0x22707": 3304,
      "0x22984": 3305,
      "0x22343": 3306,
      "0x22929": 3307,
      "0x228e8": 3308,
      "0x22b4b": 3309,
      "0x22ee8": 3310,
      "0x22dc5": 3311,
      "0x222ef": 3312,
      "0x2278f": 3313,
      "0x2260f": 3314,
      "0x22cc8": 3315,
      "0x22e08": 3316,
      "0x22908": 3317,
      "0x22ce1": 3318,
      "0x229d9": 3319,
      "0x2236b": 3320,
      "0x22fe3": 3321,
      "0x2214d": 3322,
      "0x226de": 3323,
      "0x22004": 3324,
      "0x22cc1": 3325,
      "0x22988": 3326,
      "0x22903": 3327,
      "0x22561": 3328,
      "0x22282": 3329,
      "0x22959": 3330,
      "0x22589": 3331,
      "0x22f7f": 3332,
      "0x22694": 3333,
      "0x22222": 3334,
      "0x22ad1": 3335,
      "0x22ea6": 3336,
      "0x22503": 3337,
      "0x22d81": 3338,
      "0x22c03": 3339,
      "0x22762": 3340,
      "0x22d46": 3341,
      "0x2234e": 3342,
      "0x22573": 3343,
      "0x22f42": 3344,
      "0x22a86": 3345,
      "0x22254": 3346,
      "0x22ba2": 3347,
      "0x22b32": 3348,
      "0x22686": 3349,
      "0x22ec4": 3350,
      "0x22738": 3351,
      "0x226cf": 3352,
      "0x22a12": 3353,
      "0x229f1": 3354,
      "0x2212a": 3355,
      "0x22643": 3356,
      "0x1e90": 3357,
      "0x1ed4": 3358,
      "0x1e18": 3359,
      "0x1eee": 3360,
      "0x1e5c": 3361,
      "0x1efb": 3362,
      "0x1e93": 3363,
      "0x1e7e": 3364,
      "0x1ed2": 3365,
      "0x1e9e": 3366,
      "0x1e61": 3367,
      "0x1e3f": 3368,
      "0x1eb1": 3369,
      "0x1e18e": 3370,
      "0x1e1c1": 3371,
      "0x1e60c": 3372,
      "0x1ed8c": 3373,
      "0x1ebf9": 3374,
      "0x1ef6c": 3375,
      "0x1ef73": 3376,
      "0x1e442": 3377,
      "0x1eb7f": 3378,
      "0x1e973": 3379,
      "0x1efb1": 3380,
      "0x1e752": 3381,
      "0x1e15d": 3382,
      "0x1eb19": 3383,
      "0x1e508": 3384,
      "0x1eb75": 3385,
      "0x1e985": 3386,
      "0x1e33c": 3387,
      "0x1ebcf": 3388,
      "0x1edca": 3389,
      "0x1ebd9": 3390,
      "0x1eba0": 3391,
      "0x1e125": 3392,
      "0x1e5a8": 3393,
      "0x1e640": 3394,
      "0x49f0": 3395,
      "0x4940": 3396,
      "0x49a0": 3397,
      "0x4935": 3398,
      "0x4941": 3399,
      "0x4860": 3400,
      "0x4880": 3401,
      "0x48e0": 3402,
      "0x48d0": 3403,
      "0x2360": 3404,
      "0x23b7": 3405,
      "0x2320": 3406,
      "0x2310": 3407,
      "0x2398": 3408,
      "0x23be": 3409,
      "0x2330": 3410,
      "0x23f8": 3411,
      "0x2356": 3412,
      "0x23d0": 3413,
      "0x231e": 3414,
      "0x23b8": 3415,
      "0x2357": 3416,
      "0x2397": 3417,
      "0x23f4": 3418,
      "0x235b": 3419,
      "0x2358": 3420,
      "0x2351": 3421,
      "0x2337": 3422,
      "0x2344": 3423,
      "0x23ac": 3424,
      "0x23fe": 3425,
      "0x235c": 3426,
      "0x23b3": 3427,
      "0x2368": 3428,
      "0x2324": 3429,
      "0x23e8": 3430,
      "0x23ec": 3431,
      "0x2317": 3432,
      "0x2363": 3433,
      "0x23d2": 3434,
      "0x23d5": 3435,
      "0x236b": 3436,
      "0x236a7": 3437,
      "0x2380d": 3438,
      "0x2328f": 3439,
      "0x238e8": 3440,
      "0x23101": 3441,
      "0x23908": 3442,
      "0x2376d": 3443,
      "0x23aaf": 3444,
      "0x2351f": 3445,
      "0x23442": 3446,
      "0x2365e": 3447,
      "0x23d59": 3448,
      "0x239a8": 3449,
      "0x23c0c": 3450,
      "0x2398d": 3451,
      "0x236ae": 3452,
      "0x23765": 3453,
      "0x23d4a": 3454,
      "0x23ce8": 3455,
      "0x23bf4": 3456,
      "0x23b47": 3457,
      "0x2321b": 3458,
      "0x23696": 3459,
      "0x23fb1": 3460,
      "0x23138": 3461,
      "0x23535": 3462,
      "0x2352a": 3463,
      "0x23b07": 3464,
      "0x23402": 3465,
      "0x23bf2": 3466,
      "0x2327d": 3467,
      "0x23f6e": 3468,
      "0x23dc8": 3469,
      "0x2325d": 3470,
      "0x23fda": 3471,
      "0x23bd9": 3472,
      "0x23786": 3473,
      "0x2348b": 3474,
      "0x236e5": 3475,
      "0x23ea9": 3476,
      "0x23ff6": 3477,
      "0x119a": 3478,
      "0x11e0": 3479,
      "0x1198": 3480,
      "0x111a": 3481,
      "0x1123": 3482,
      "0x11f8": 3483,
      "0x1128": 3484,
      "0x119d": 3485,
      "0x118e": 3486,
      "0x117c": 3487,
      "0x114f": 3488,
      "0x1197": 3489,
      "0x11a8": 3490,
      "0x112e": 3491,
      "0x11b9": 3492,
      "0x11fd": 3493,
      "0x1168": 3494,
      "0x1166": 3495,
      "0x11bb": 3496,
      "0x1117": 3497,
      "0x1163": 3498,
      "0x11a5": 3499,
      "0x119e": 3500,
      "0x11d3": 3501,
      "0x116d4": 3502,
      "0x11184": 3503,
      "0x1137b": 3504,
      "0x111da": 3505,
      "0x11132": 3506,
      "0x118e8": 3507,
      "0x1160f": 3508,
      "0x11f07": 3509,
      "0x1123b": 3510,
      "0x11958": 3511,
      "0x115b5": 3512,
      "0x11bd1": 3513,
      "0x11904": 3514,
      "0x11513": 3515,
      "0x11696": 3516,
      "0x11a38": 3517,
      "0x11752": 3518,
      "0x11af9": 3519,
      "0x11a5e": 3520,
      "0x11402": 3521,
      "0x11bc5": 3522,
      "0x1144a": 3523,
      "0x11369": 3524,
      "0x11a4c": 3525,
      "0x112de": 3526,
      "0x11fcd": 3527,
      "0x11249": 3528,
      "0x1178c": 3529,
      "0x11555": 3530,
      "0x11fa8": 3531,
      "0x2580": 3532,
      "0x25cc": 3533,
      "0x25000": 3534,
      "0x2590": 3535,
      "0x251a": 3536,
      "0x25f8": 3537,
      "0x25d4": 3538,
      "0x25aa": 3539,
      "0x25ae": 3540,
      "0x25d0": 3541,
      "0x258e": 3542,
      "0x25b4": 3543,
      "0x25b8": 3544,
      "0x257c": 3545,
      "0x254f": 3546,
      "0x2551": 3547,
      "0x25f7": 3548,
      "0x25a4": 3549,
      "0x25fb": 3550,
      "0x252e": 3551,
      "0x251c": 3552,
      "0x25e8": 3553,
      "0x2515": 3554,
      "0x25f1": 3555,
      "0x259aa": 3556,
      "0x257c8": 3557,
      "0x25f0b": 3558,
      "0x2517a": 3559,
      "0x25132": 3560,
      "0x257e2": 3561,
      "0x25707": 3562,
      "0x25b4b": 3563,
      "0x25bbb": 3564,
      "0x25d89": 3565,
      "0x25cc8": 3566,
      "0x25e08": 3567,
      "0x2590d": 3568,
      "0x25ae7": 3569,
      "0x25ce1": 3570,
      "0x2514d": 3571,
      "0x25c3a": 3572,
      "0x25ea2": 3573,
      "0x259af": 3574,
      "0x259a2": 3575,
      "0x25f8a": 3576,
      "0x25b88": 3577,
      "0x25eee": 3578,
      "0x25513": 3579,
      "0x25f6d": 3580,
      "0x2536e": 3581,
      "0x25af9": 3582,
      "0x25ad1": 3583,
      "0x25a71": 3584,
      "0x256b8": 3585,
      "0x25509": 3586,
      "0x25d81": 3587,
      "0x25e09": 3588,
      "0x25409": 3589,
      "0x25254": 3590,
      "0x25266": 3591,
      "0x259f1": 3592,
      "0x25dfa": 3593,
      "0x25610": 3594,
      "0x8e0": 3595,
      "0x8be": 3596,
      "0x8a0": 3597,
      "0x858": 3598,
      "0x8a8": 3599,
      "0x81c": 3600,
      "0x8e8": 3601,
      "0x817": 3602,
      "0x873": 3603,
      "0x880d": 3604,
      "0x8924": 3605,
      "0x85b2": 3606,
      "0x8f6c": 3607,
      "0x8903": 3608,
      "0x8fe5": 3609,
      "0x87f2": 3610,
      "0x8508": 3611,
      "0x8517": 3612,
      "0x8991": 3613,
      "0x8997": 3614,
      "0x8e5c": 3615,
      "##601": 3616,
      "##603": 3617,
      "##60e": 3618,
      "##00d": 3619,
      "0x2150": 3620,
      "0x21cc": 3621,
      "0x21be": 3622,
      "0x21a0": 3623,
      "0x21bc": 3624,
      "0x21f8": 3625,
      "0x21d4": 3626,
      "0x21aa": 3627,
      "0x2156": 3628,
      "0x21ce": 3629,
      "0x217c": 3630,
      "0x21f3": 3631,
      "0x21f4": 3632,
      "0x2158": 3633,
      "0x21e4": 3634,
      "0x2121": 3635,
      "0x2127": 3636,
      "0x2199": 3637,
      "0x2144": 3638,
      "0x21ac": 3639,
      "0x2165": 3640,
      "0x21d7": 3641,
      "0x21b9": 3642,
      "0x21a3": 3643,
      "0x2126": 3644,
      "0x2193": 3645,
      "0x21a9": 3646,
      "0x21ec": 3647,
      "0x211b": 3648,
      "0x2178": 3649,
      "0x21db": 3650,
      "0x21de": 3651,
      "0x21d3": 3652,
      "0x21cd": 3653,
      "0x213f": 3654,
      "0x212b": 3655,
      "0x21ff9": 3656,
      "0x21381": 3657,
      "0x21107": 3658,
      "0x2128f": 3659,
      "0x218e8": 3660,
      "0x21cc8": 3661,
      "0x2190d": 3662,
      "0x21ce1": 3663,
      "0x21d05": 3664,
      "0x215b5": 3665,
      "0x21f63": 3666,
      "0x21442": 3667,
      "0x214b1": 3668,
      "0x21649": 3669,
      "0x21f0c": 3670,
      "0x219a8": 3671,
      "0x21a03": 3672,
      "0x21561": 3673,
      "0x21b4f": 3674,
      "0x2121b": 3675,
      "0x21275": 3676,
      "0x21f72": 3677,
      "0x212e5": 3678,
      "0x2122a": 3679,
      "0x21ea6": 3680,
      "0x21ff1": 3681,
      "0x21985": 3682,
      "0x2167e": 3683,
      "0x2134e": 3684,
      "0x211d7": 3685,
      "0x219d1": 3686,
      "0x21feb": 3687,
      "0x21a49": 3688,
      "0x2163e": 3689,
      "0x216ca": 3690,
      "0x21d2f": 3691,
      "0x21dfa": 3692,
      "0x215e1": 3693,
      "0x21dd6": 3694,
      "0x21ffd": 3695,
      "0xa829": 3696,
      "0xa849": 3697,
      "0xa8e6": 3698,
      "0xa8f5": 3699,
      "0x136": 3700,
      "0x1380": 3701,
      "0x13b0": 3702,
      "0x1323": 3703,
      "0x13ae": 3704,
      "0x1328": 3705,
      "0x13d0": 3706,
      "0x1319": 3707,
      "0x13ab": 3708,
      "0x13f7": 3709,
      "0x1336": 3710,
      "0x13ac": 3711,
      "0x131f": 3712,
      "0x137e": 3713,
      "0x1348": 3714,
      "0x13c8": 3715,
      "0x1394": 3716,
      "0x13a7": 3717,
      "0x135f": 3718,
      "0x1374": 3719,
      "0x13ec2": 3720,
      "0x131d2": 3721,
      "0x131c1": 3722,
      "0x131ad": 3723,
      "0x13aab": 3724,
      "0x13101": 3725,
      "0x131a9": 3726,
      "0x1336b": 3727,
      "0x1325f": 3728,
      "0x131d6": 3729,
      "0x13926": 3730,
      "0x13f6d": 3731,
      "0x13d73": 3732,
      "0x13fdb": 3733,
      "0x1361d": 3734,
      "0x13334": 3735,
      "0x1367a": 3736,
      "0x1356e": 3737,
      "0x13347": 3738,
      "0x13fa1": 3739,
      "0x13af4": 3740,
      "0x13ff0": 3741,
      "0x13601": 3742,
      "0xfd8": 3743,
      "0xf9a": 3744,
      "0xfb4": 3745,
      "0xf57": 3746,
      "0xfab": 3747,
      "0xf37": 3748,
      "0xf7e": 3749,
      "0xf15": 3750,
      "0xfea0": 3751,
      "0xf94": 3752,
      "0xf6d4": 3753,
      "0xf9b3": 3754,
      "0xf982": 3755,
      "0xf6a6": 3756,
      "0xf1ad": 3757,
      "0xfaaf": 3758,
      "0xf95c": 3759,
      "0xf994": 3760,
      "0xfa35": 3761,
      "0xf25f": 3762,
      "0xfaf1": 3763,
      "0xf9c7": 3764,
      "0xf98e": 3765,
      "0xf765": 3766,
      "0xf282": 3767,
      "0xf152": 3768,
      "0xfeb2": 3769,
      "0xfb99": 3770,
      "0xf956": 3771,
      "0xf671": 3772,
      "0xf999": 3773,
      "0xf7f1": 3774,
      "0xf7da": 3775,
      "0xf225": 3776,
      "0xf9bb": 3777,
      "0xf321": 3778,
      "##d84": 3779,
      "##d83": 3780,
      "0x9f": 3781,
      "0x9b7": 3782,
      "0x9a0": 3783,
      "0x9aa": 3784,
      "0x944": 3785,
      "0x9ac": 3786,
      "0x9fd": 3787,
      "0x9e8": 3788,
      "0x978": 3789,
      "0x948": 3790,
      "0x9c3": 3791,
      "0x9de": 3792,
      "0x97cb": 3793,
      "0x9ce1": 3794,
      "0x9004": 3795,
      "0x9904": 3796,
      "0x9589": 3797,
      "0x9e4a": 3798,
      "0x92e5": 3799,
      "0x954a": 3800,
      "0x9bf0": 3801,
      "0x9b19": 3802,
      "0x9ea7": 3803,
      "0x918a": 3804,
      "0x9b96": 3805,
      "0x9bd5": 3806,
      "0x9ec4": 3807,
      "0x953b": 3808,
      "0x977e": 3809,
      "0x9357": 3810,
      "##701": 3811,
      "0x1230": 3812,
      "0x12bc": 3813,
      "0x12f8": 3814,
      "0x1228": 3815,
      "0x1234": 3816,
      "0x12bf": 3817,
      "0x129d": 3818,
      "0x12f4": 3819,
      "0x1251": 3820,
      "0x122e": 3821,
      "0x12e8": 3822,
      "0x12ec": 3823,
      "0x1273": 3824,
      "0x126c": 3825,
      "0x129b": 3826,
      "0x12de": 3827,
      "0x12d3": 3828,
      "0x12fe2": 3829,
      "0x12348": 3830,
      "0x1250a": 3831,
      "0x12f51": 3832,
      "0x12f36": 3833,
      "0x1217a": 3834,
      "0x122ef": 3835,
      "0x12c0a": 3836,
      "0x12a04": 3837,
      "0x12aaf": 3838,
      "0x1225f": 3839,
      "0x12fcf": 3840,
      "0x12fc9": 3841,
      "0x12785": 3842,
      "0x129c7": 3843,
      "0x129a8": 3844,
      "0x12330": 3845,
      "0x122df": 3846,
      "0x12180": 3847,
      "0x1264b": 3848,
      "0x12641": 3849,
      "0x12d80": 3850,
      "0x129ae": 3851,
      "0x12beb": 3852,
      "0x1276e": 3853,
      "0x121e2": 3854,
      "0x12f32": 3855,
      "0x12dca": 3856,
      "0x12fda": 3857,
      "0x1268f": 3858,
      "0x126f1": 3859,
      "0x126e5": 3860,
      "0x129fa": 3861,
      "0x12df9": 3862,
      "0x127f1": 3863,
      "0x12ace": 3864,
      "0x12163": 3865,
      "0x129d4": 3866,
      "0x12603": 3867,
      "0x1c76": 3868,
      "0x1c8e": 3869,
      "0x1cab": 3870,
      "0x1cd7": 3871,
      "0x1c6d": 3872,
      "0x1c9f": 3873,
      "0x1cf89": 3874,
      "0x1cde": 3875,
      "0x1c4e": 3876,
      "0x1cabb": 3877,
      "0x1c60f": 3878,
      "0x1c1ab": 3879,
      "0x1cd4a": 3880,
      "0x1ce45": 3881,
      "0x1c7f2": 3882,
      "0x1c804": 3883,
      "0x1ca49": 3884,
      "0x1c6f1": 3885,
      "0x1cd2a": 3886,
      "0x1cba8": 3887,
      "0x1c793": 3888,
      "0x401": 3889,
      "0x4068": 3890,
      "0x4016": 3891,
      "0x4071": 3892,
      "0xe40": 3893,
      "0xe30": 3894,
      "0xef8": 3895,
      "0xe18": 3896,
      "0xebf": 3897,
      "0xe1e": 3898,
      "0xeb4": 3899,
      "0xee4": 3900,
      "0xef6": 3901,
      "0xe2e": 3902,
      "0xe54": 3903,
      "0xe68": 3904,
      "0xefc": 3905,
      "0xe15": 3906,
      "0xe6d4": 3907,
      "0xe37d": 3908,
      "0xe51f": 3909,
      "0xe37e": 3910,
      "0xe765": 3911,
      "0xed4a": 3912,
      "0xe1d9": 3913,
      "0xeb4f": 3914,
      "0xe53d": 3915,
      "0xec8b": 3916,
      "0xeb56": 3917,
      "0xe292": 3918,
      "0xeea7": 3919,
      "0xe67e": 3920,
      "0xebc5": 3921,
      "0xed46": 3922,
      "0xefba": 3923,
      "0xe78c": 3924,
      "0xe26a": 3925,
      "0xee32": 3926,
      "0xeff8": 3927,
      "0xe644": 3928,
      "0x1f33": 3929,
      "0x1f76": 3930,
      "0x1fbc": 3931,
      "0x1fd4": 3932,
      "0x1f56": 3933,
      "0x1f18": 3934,
      "0x1f92": 3935,
      "0x1f8e": 3936,
      "0x1f37": 3937,
      "0x1fa8": 3938,
      "0x1fb9": 3939,
      "0x1f26": 3940,
      "0x1f1c": 3941,
      "0x1f13": 3942,
      "0x1fec": 3943,
      "0x1fad": 3944,
      "0x1f94": 3945,
      "0x1f5e": 3946,
      "0x1f29": 3947,
      "0x1f46": 3948,
      "0x1f4e": 3949,
      "0x1f7c8": 3950,
      "0x1f3c": 3951,
      "0x1faab": 3952,
      "0x1f7e2": 3953,
      "0x1f90d": 3954,
      "0x1f9d9": 3955,
      "0x1f95c": 3956,
      "0x1f51f": 3957,
      "0x1f37e": 3958,
      "0x1fb39": 3959,
      "0x1f9c7": 3960,
      "0x1f1e6": 3961,
      "0x1f9d2": 3962,
      "0x1fb88": 3963,
      "0x1feee": 3964,
      "0x1fe45": 3965,
      "0x1f22a": 3966,
      "0x1fad1": 3967,
      "0x1f370": 3968,
      "0x1f102": 3969,
      "0x1f1e2": 3970,
      "0x1f5c4": 3971,
      "0x1f541": 3972,
      "0x1f6da": 3973,
      "0x1f9fa": 3974,
      "0x1fa74": 3975,
      "0x1f320": 3976,
      "0x1fd84": 3977,
      "0x50e0": 3978,
      "0x50ce": 3979,
      "0x5021": 3980,
      "0x50f2": 3981,
      "0x585e": 3982,
      "0x246ea": 3983,
      "0x24667": 3984,
      "0x246f8": 3985,
      "0x246d0": 3986,
      "0x2469d": 3987,
      "0x24669": 3988,
      "0x246b3": 3989,
      "0x2466c": 3990,
      "0x246d5": 3991,
      "0x24661": 3992,
      "0x2465a": 3993,
      "0x24689": 3994,
      "0x24687": 3995,
      "0x246c5": 3996,
      "0x2467b": 3997,
      "0xd76": 3998,
      "0xd23": 3999,
      "0xd37": 4000,
      "0xd1f": 4001,
      "0xd6c": 4002,
      "0xd55": 4003,
      "0xd5e": 4004,
      "0xd6d4": 4005,
      "0xd4c": 4006,
      "0xdb7a": 4007,
      "0xdbf9": 4008,
      "0xd4fa": 4009,
      "0xdfe1": 4010,
      "0xd64f": 4011,
      "0xd501": 4012,
      "0xd959": 4013,
      "0xd759": 4014,
      "0xd6e3": 4015,
      "0xd52a": 4016,
      "0xdf3d": 4017,
      "0xd68f": 4018,
      "0xd15f": 4019,
      "0xd786": 4020,
      "0xde2b": 4021,
      "0x199a": 4022,
      "0x19ae": 4023,
      "0x19f7": 4024,
      "0x19d7": 4025,
      "0x191f": 4026,
      "0x1953": 4027,
      "0x19d5": 4028,
      "0x196e": 4029,
      "0x19a2": 4030,
      "0x19ad": 4031,
      "0x19d3": 4032,
      "0x195e": 4033,
      "0x19add": 4034,
      "0x194e": 4035,
      "0x19a0c": 4036,
      "0x19442": 4037,
      "0x191d9": 4038,
      "0x19f6d": 4039,
      "0x19694": 4040,
      "0x19a2c": 4041,
      "0x196b8": 4042,
      "0x19503": 4043,
      "0x19667": 4044,
      "0x19ffa": 4045,
      "0x1780": 4046,
      "0x17e0": 4047,
      "0x1719": 4048,
      "0x1757": 4049,
      "0x175b": 4050,
      "0x1744": 4051,
      "0x17ac": 4052,
      "0x1793": 4053,
      "0x17bb": 4054,
      "0x176a7": 4055,
      "0x1750a": 4056,
      "0x1700e": 4057,
      "0x175b2": 4058,
      "0x1725f": 4059,
      "0x17ce8": 4060,
      "0x17f7a": 4061,
      "0x17b35": 4062,
      "0x17a71": 4063,
      "0x17f6e": 4064,
      "0x175c4": 4065,
      "0x17fcb": 4066,
      "0x176da": 4067,
      "0x176cf": 4068,
      "0x17a52": 4069,
      "0x17a12": 4070,
      "0x17df9": 4071,
      "0x175a4": 4072,
      "0x176ee": 4073,
      "0x1ac0": 4074,
      "0x1a34": 4075,
      "0x1aa8": 4076,
      "0x1a7e": 4077,
      "0x1a6c": 4078,
      "0x1a52": 4079,
      "0x1ad3": 4080,
      "0x1a5e": 4081,
      "0x1abad": 4082,
      "0x1a7cb": 4083,
      "0x1ad89": 4084,
      "0x1acc8": 4085,
      "0x1a571": 4086,
      "0x1a5b2": 4087,
      "0x1a507": 4088,
      "0x1acc1": 4089,
      "0x1a9a2": 4090,
      "0x1ab47": 4091,
      "0x1a755": 4092,
      "0x1a53d": 4093,
      "0x1aeb2": 4094,
      "0x1abf0": 4095,
      "0x1a292": 4096,
      "0x1a370": 4097,
      "0x1ad88": 4098,
      "0x1a203": 4099,
      "0x1a67a": 4100,
      "0x1a517": 4101,
      "0x1a2de": 4102,
      "0x1a541": 4103,
      "0x1a48b": 4104,
      "0x1a160": 4105,
      "0x1a9b4": 4106,
      "0x1580": 4107,
      "0x15a0": 4108,
      "0x15bf": 4109,
      "0x151e": 4110,
      "0x152c": 4111,
      "0x1519": 4112,
      "0x15ab": 4113,
      "0x1521": 4114,
      "0x1524": 4115,
      "0x1522": 4116,
      "0x159c": 4117,
      "0x15a7": 4118,
      "0x151ad": 4119,
      "0x1500e": 4120,
      "0x1523b": 4121,
      "0x15248": 4122,
      "0x1520c": 4123,
      "0x15a03": 4124,
      "0x151e6": 4125,
      "0x152c6": 4126,
      "0x15979": 4127,
      "0x1522a": 4128,
      "0x151b2": 4129,
      "0x15900": 4130,
      "0x15ff7": 4131,
      "0x1569c": 4132,
      "0x15c3c": 4133,
      "0x155ac": 4134,
      "0x15964": 4135,
      "0x6894": 4136,
      "0x689b": 4137,
      "0x685e": 4138,
      "0x68f1": 4139,
      "0x6831": 4140,
      "##b73": 4141,
      "0xc020": 4142,
      "0xc021": 4143,
      "0xc0a9": 4144,
      "0xc0af": 4145,
      "0xc0a2": 4146,
      "0xc0eb": 4147,
      "0xc0d6": 4148,
      "0xc0c2": 4149,
      "0xc082": 4150,
      "0xc043": 4151,
      "0x4a50": 4152,
      "0x4ae0": 4153,
      "0x4abe": 4154,
      "0x4a90": 4155,
      "0x4a40": 4156,
      "0x4aa0": 4157,
      "0x4a76": 4158,
      "0x4a22": 4159,
      "0x4ae7": 4160,
      "0x707e": 4161,
      "0x988e": 4162,
      "0x983c": 4163,
      "##cc7": 4164,
      "0x6075": 4165,
      "0x60eb": 4166,
      "##20a": 4167,
      "##20d": 4168,
      "0x1698": 4169,
      "0x16b8": 4170,
      "0x16a8": 4171,
      "0x16a4": 4172,
      "0x16a9": 4173,
      "0x16e8": 4174,
      "0x16ec": 4175,
      "0x166d": 4176,
      "0x166c": 4177,
      "0x165e": 4178,
      "0x16982": 4179,
      "0x166f5": 4180,
      "0x16abb": 4181,
      "0x1664f": 4182,
      "0x169d2": 4183,
      "0x16b47": 4184,
      "0x16ea3": 4185,
      "0x16604": 4186,
      "0x16509": 4187,
      "0x1676e": 4188,
      "0x169d1": 4189,
      "0x16581": 4190,
      "0x16262": 4191,
      "0x16d2f": 4192,
      "0x167da": 4193,
      "0x16d19": 4194,
      "0x16580": 4195,
      "0x16656": 4196,
      "0x16fff": 4197,
      "0x1be0": 4198,
      "0x1b2c": 4199,
      "0x1bfe": 4200,
      "0x1be8": 4201,
      "0x1bec": 4202,
      "0x1b6e": 4203,
      "0x1ba1": 4204,
      "0x1ba7": 4205,
      "0x1b38": 4206,
      "0x1b506": 4207,
      "0x1bbad": 4208,
      "0x1b00e": 4209,
      "0x1b1af": 4210,
      "0x1b8e8": 4211,
      "0x1b8ed": 4212,
      "0x1b4fa": 4213,
      "0x1b282": 4214,
      "0x1b21b": 4215,
      "0x1b2df": 4216,
      "0x1bd88": 4217,
      "0x1baa1": 4218,
      "0x1bafa": 4219,
      "0x1b6d3": 4220,
      "0x1b53b": 4221,
      "0x1b2a8": 4222,
      "0x1bd83": 4223,
      "0x1bb73": 4224,
      "0x1d95": 4225,
      "0x1dee": 4226,
      "0x1d19": 4227,
      "0x1d37": 4228,
      "0x1d27": 4229,
      "0x1d65": 4230,
      "0x1dba": 4231,
      "0x1d63": 4232,
      "0x1d6c": 4233,
      "0x1d6e": 4234,
      "0x1d27b": 4235,
      "0x1d60c": 4236,
      "0x1d903": 4237,
      "0x1df8a": 4238,
      "0x1de4a": 4239,
      "0x1df72": 4240,
      "0x1dacd": 4241,
      "0x1deb2": 4242,
      "0x1db75": 4243,
      "0x1dce7": 4244,
      "0x1d1d7": 4245,
      "0x1da28": 4246,
      "0x1d2cc": 4247,
      "0x1d7fd": 4248,
      "0x1d00d": 4249,
      "0x1dcc7": 4250,
      "0x4b00": 4251,
      "0x4b50": 4252,
      "0x4b80": 4253,
      "0x4bc0": 4254,
      "0x4b30": 4255,
      "0x4bd0": 4256,
      "0x2c2": 4257,
      "##0002b": 4258,
      "0x1d81d": 4259,
      "0x1d8db": 4260,
      "0x1d859": 4261,
      "0x1d8e2": 4262,
      "0x809b": 4263,
      "0x80ca": 4264,
      "0x808b": 4265,
      "##be3": 4266,
      "0x4c60": 4267,
      "0x4c80": 4268,
      "0x4c10": 4269,
      "0x4c40": 4270,
      "0x4ca0": 4271,
      "0x4cd0": 4272,
      "0x2718": 4273,
      "0x27b4": 4274,
      "0x27b8": 4275,
      "0x272c": 4276,
      "0x2797": 4277,
      "0x27f4": 4278,
      "0x2794": 4279,
      "0x27de": 4280,
      "0x27bbb": 4281,
      "0x279a5": 4282,
      "0x2790d": 4283,
      "0x2723b": 4284,
      "0x279c7": 4285,
      "0x27d8b": 4286,
      "0x2776c": 4287,
      "0x271d9": 4288,
      "0x27959": 4289,
      "0x27275": 4290,
      "0x27c8b": 4291,
      "0x27a2c": 4292,
      "0x279bd": 4293,
      "0x27806": 4294,
      "0x27e09": 4295,
      "0x27335": 4296,
      "0x27bf2": 4297,
      "0x27996": 4298,
      "0x27dc8": 4299,
      "0x27266": 4300,
      "0x27ba2": 4301,
      "0x27142": 4302,
      "0x2724a": 4303,
      "0x27a33": 4304,
      "0x279f3": 4305,
      "0x2720a": 4306,
      "0x27be3": 4307,
      "0xb833": 4308,
      "0xb8a0": 4309,
      "0xb86c": 4310,
      "0xb835": 4311,
      "##7665": 4312,
      "##762f": 4313,
      "##304": 4314,
      "##30a": 4315,
      "0x64ce": 4316,
      "0x64bf": 4317,
      "0x641d": 4318,
      "0x6461": 4319,
      "0x6455": 4320,
      "0x643a": 4321,
      "0x647b": 4322,
      "0x64657": 4323,
      "0xb410": 4324,
      "0xb4a3": 4325,
      "0xb4b5": 4326,
      "0xb4f1": 4327,
      "0xb48b": 4328,
      "0xb4f2": 4329,
      "0xb462": 4330,
      "##673": 4331,
      "0x2623": 4332,
      "0x2628": 4333,
      "0x261e": 4334,
      "0x262c": 4335,
      "0x26f7": 4336,
      "0x261c": 4337,
      "0x2668": 4338,
      "0x2615": 4339,
      "0x26c09": 4340,
      "0x26c8": 4341,
      "0x269b3": 4342,
      "0x2637d": 4343,
      "0x266f5": 4344,
      "0x26283": 4345,
      "0x26f07": 4346,
      "0x269d9": 4347,
      "0x26fe1": 4348,
      "0x26693": 4349,
      "0x26b7f": 4350,
      "0x261d6": 4351,
      "0x2692c": 4352,
      "0x2636e": 4353,
      "0x2625a": 4354,
      "0x269b2": 4355,
      "0x269bd": 4356,
      "0x2661d": 4357,
      "0x2650d": 4358,
      "0x26ccd": 4359,
      "0x26beb": 4360,
      "0x261a6": 4361,
      "0x2618a": 4362,
      "0x2627d": 4363,
      "0x26999": 4364,
      "0x26f6b": 4365,
      "0x2612a": 4366,
      "0x26df0": 4367,
      "0x261f6": 4368,
      "0x2691d": 4369,
      "0x2660e": 4370,
      "0x2620d": 4371,
      "0x2630a": 4372,
      "0xd8b": 4373,
      "0xd84f": 4374,
      "0xd801": 4375,
      "##238": 4376,
      "0x5cb7": 4377,
      "0x5c4f": 4378,
      "0x5c97": 4379,
      "0x5c4a": 4380,
      "0x128f8": 4381,
      "0x1288e": 4382,
      "0x1287e": 4383,
      "0x128ad": 4384,
      "0x1a837": 4385,
      "0x1a868": 4386,
      "0x1a87f": 4387,
      "0x1a84e": 4388,
      "0x1a811": 4389,
      "##aa9": 4390,
      "0xfffffa3": 4391,
      "0xacc1": 4392,
      "##342": 4393,
      "0xb0cc": 4394,
      "0xb03f": 4395,
      "0xb072": 4396,
      "0xb031": 4397,
      "0xb03e": 4398,
      "0x4e60": 4399,
      "0x4e00": 4400,
      "0x4e50": 4401,
      "0x4ee0": 4402,
      "0x4e90": 4403,
      "0x4d60": 4404,
      "0x4d70": 4405,
      "0x4dc0": 4406,
      "0x4d90": 4407,
      "0x4d7c": 4408,
      "##1d5": 4409,
      "0x110f0": 4410,
      "0x1108e": 4411,
      "0x110fe": 4412,
      "0x11094": 4413,
      "0x1106b": 4414,
      "0x11091": 4415,
      "0x1108b": 4416,
      "0x11082": 4417,
      "0x11085": 4418,
      "0x11088": 4419,
      "##8e39": 4420,
      "##b851f": 4421,
      "##955": 4422,
      "0x9031": 4423,
      "0x90e1": 4424,
      "0x13833": 4425,
      "0x13892": 4426,
      "0x13899": 4427,
      "0x1384b": 4428,
      "0x13873": 4429,
      "0x13863": 4430,
      "0x1381b": 4431,
      "0x138f5": 4432,
      "0x150ea": 4433,
      "0x150ff": 4434,
      "0x15018": 4435,
      "0x15025": 4436,
      "0x15035": 4437,
      "0x150ed": 4438,
      "##97e": 4439,
      "##9727": 4440,
      "0x5497": 4441,
      "0x5413": 4442,
      "0x5415": 4443,
      "0x549f": 4444,
      "0x5449": 4445,
      "0xc8f": 4446,
      "0xc800": 4447,
      "0xc827": 4448,
      "0xc866": 4449,
      "0xc852": 4450,
      "0xc855": 4451,
      "##374": 4452,
      "0x118b0": 4453,
      "0x1186a": 4454,
      "0x11867": 4455,
      "0x118bc": 4456,
      "0x11818": 4457,
      "0x1188e": 4458,
      "0x1184b": 4459,
      "0x1181c": 4460,
      "0x11854": 4461,
      "0x1186f": 4462,
      "0x118a2": 4463,
      "0x118ad": 4464,
      "0x11894": 4465,
      "0x1186b": 4466,
      "0x118a7": 4467,
      "0x11861": 4468,
      "0x1185a": 4469,
      "0x118f1": 4470,
      "0x11839": 4471,
      "0x118d6": 4472,
      "0x11845": 4473,
      "0x1185d": 4474,
      "0x118c1": 4475,
      "0x47f0": 4476,
      "0x47b0": 4477,
      "0x47bd": 4478,
      "0x6c64": 4479,
      "0x6c6a": 4480,
      "0x6c67": 4481,
      "0x6c61": 4482,
      "0x6c3b": 4483,
      "0x8c33": 4484,
      "0x8c21": 4485,
      "0x8c65": 4486,
      "0x8c22": 4487,
      "0x8c48": 4488,
      "0x8c9f": 4489,
      "0x8c16": 4490,
      "0x8cda": 4491,
      "##f747": 4492,
      "##365": 4493,
      "##3616": 4494,
      "##36b6": 4495,
      "0x10892": 4496,
      "0x108ac": 4497,
      "0x108d7": 4498,
      "0x108c3": 4499,
      "0x108b1": 4500,
      "0x10835": 4501,
      "0x10842": 4502,
      "0x247c0": 4503,
      "0x24740": 4504,
      "0x24797": 4505,
      "0x24737": 4506,
      "0x247b9": 4507,
      "0x24778": 4508,
      "0xa0b5": 4509,
      "0x14867": 4510,
      "0x148bc": 4511,
      "0x1481d": 4512,
      "0x14858": 4513,
      "0x148af": 4514,
      "0x14848": 4515,
      "0x148cd": 4516,
      "0x14839": 4517,
      "0x148da": 4518,
      "0x1484d": 4519,
      "0x1485d": 4520,
      "0x1c334": 4521,
      "0x1c331": 4522,
      "0x17897": 4523,
      "0x17844": 4524,
      "0x1783b": 4525,
      "0x178ca": 4526,
      "0x1784d": 4527,
      "##6520": 4528,
      "##6567": 4529,
      "0x198f8": 4530,
      "0x19821": 4531,
      "0x19873": 4532,
      "cmovb": 4533,
      "cmovns": 4534,
      "##a382": 4535,
      "0x5ee0": 4536,
      "0x5e5b": 4537,
      "0x5e36": 4538,
      "0x5ef9": 4539,
      "0x5e8c": 4540,
      "0x5e8f": 4541,
      "0x7428": 4542,
      "0x741d": 4543,
      "0x7454": 4544,
      "0x74c7": 4545,
      "0x7482": 4546,
      "0x7485": 4547,
      "##543": 4548,
      "0xfc6": 4549,
      "0xfc10": 4550,
      "0xfc4b": 4551,
      "0xfc1f": 4552,
      "0xfc45": 4553,
      "0xfc3d": 4554,
      "0x12c6a": 4555,
      "0x12cb8": 4556,
      "0xdba0": 4557,
      "0xdb61": 4558,
      "0xdcd7": 4559,
      "0xdc12": 4560,
      "0x158db": 4561,
      "0x100f3": 4562,
      "0x100f6": 4563,
      "0x10069": 4564,
      "0x100a3": 4565,
      "0x10066": 4566,
      "0x100cd": 4567,
      "0x100c6": 4568,
      "0x14e54": 4569,
      "0x14e68": 4570,
      "0x14e53": 4571,
      "0x25040": 4572,
      "0x250a0": 4573,
      "0x250ce": 4574,
      "0x250b4": 4575,
      "0x250b8": 4576,
      "0x250ab": 4577,
      "0x2505b": 4578,
      "0x25099": 4579,
      "0x250f6": 4580,
      "0x250f7": 4581,
      "0x250dc": 4582,
      "0x250fd": 4583,
      "0x25068": 4584,
      "0x250fc": 4585,
      "0x25066": 4586,
      "0x250ad": 4587,
      "0x250a1": 4588,
      "0x250a7": 4589,
      "0x250d3": 4590,
      "0x250c7": 4591,
      "0x250d1": 4592,
      "0x25071": 4593,
      "0x250f9": 4594,
      "0x25042": 4595,
      "0x25041": 4596,
      "0xe0d8": 4597,
      "0xe0bf": 4598,
      "0xe0a6": 4599,
      "0xe09f": 4600,
      "0xe0d1": 4601,
      "##68b": 4602,
      "##682e": 4603,
      "0x14092": 4604,
      "0x1405b": 4605,
      "0x14065": 4606,
      "0x14014": 4607,
      "0x14093": 4608,
      "0x140a7": 4609,
      "0x1405a": 4610,
      "0x1405d": 4611,
      "0x224ea": 4612,
      "0x22492": 4613,
      "0x2249d": 4614,
      "0x22466": 4615,
      "0x2249b": 4616,
      "0x224df": 4617,
      "0x2242b": 4618,
      "0x22471": 4619,
      "0x2242a": 4620,
      "0x22435": 4621,
      "0x22411": 4622,
      "0x17ca9": 4623,
      "0x17c71": 4624,
      "##fc1": 4625,
      "0x2a6a7": 4626,
      "0x2a37d": 4627,
      "0x2a28f": 4628,
      "0x2a343": 4629,
      "0x2a275": 4630,
      "0x2a36e": 4631,
      "0x2a2df": 4632,
      "0x2a2e8": 4633,
      "0x2a2e5": 4634,
      "0x2a15d": 4635,
      "0x2a33c": 4636,
      "0x2a404": 4637,
      "0x2a26f": 4638,
      "0x2a17c": 4639,
      "0x2a304": 4640,
      "0x2a673": 4641,
      "0x2a342": 4642,
      "0x2a374": 4643,
      "0x130dd": 4644,
      "0x130d0": 4645,
      "0x130dc": 4646,
      "0x13036": 4647,
      "0x130ac": 4648,
      "0x130b9": 4649,
      "0x130bd": 4650,
      "0x130ad": 4651,
      "0x13094": 4652,
      "0x1306b": 4653,
      "0x1307d": 4654,
      "0x1303c": 4655,
      "0x1302a": 4656,
      "0x13084": 4657,
      "0x13042": 4658,
      "0x130e2": 4659,
      "0x120c7": 4660,
      "0x1204d": 4661,
      "0x228d": 4662,
      "0x228b0": 4663,
      "0x228e0": 4664,
      "0x22828": 4665,
      "0x228f4": 4666,
      "0x228f7": 4667,
      "0x228d7": 4668,
      "0x22813": 4669,
      "0x22893": 4670,
      "0x22866": 4671,
      "0x228c8": 4672,
      "0x228a7": 4673,
      "0x22861": 4674,
      "0x22855": 4675,
      "0x228de": 4676,
      "0x228d9": 4677,
      "0x2283b": 4678,
      "0x2283a": 4679,
      "0x22839": 4680,
      "0x228b2": 4681,
      "0x22884": 4682,
      "0x22842": 4683,
      "0x19075": 4684,
      "0x19068": 4685,
      "0x2b53": 4686,
      "0x2b908": 4687,
      "0x2b95c": 4688,
      "0x2b64f": 4689,
      "0x2b9d2": 4690,
      "0x2b979": 4691,
      "0x2b694": 4692,
      "0x2b804": 4693,
      "0x2b9a6": 4694,
      "0x2b6a2": 4695,
      "0x2b66b": 4696,
      "0x2b555": 4697,
      "0x2b701": 4698,
      "0x2b955": 4699,
      "0x2b97e": 4700,
      "0x2b543": 4701,
      "0x2b68b": 4702,
      "0x1121d": 4703,
      "0x112ab": 4704,
      "0x1125b": 4705,
      "0x1122e": 4706,
      "0x1129e": 4707,
      "0x112b5": 4708,
      "##6d6f63": 4709,
      "0x1e0d8": 4710,
      "0x1e04b": 4711,
      "0x1e068": 4712,
      "0x1e0f1": 4713,
      "0x1e089": 4714,
      "0x253ea": 4715,
      "0x25364": 4716,
      "0x25399": 4717,
      "0x253f6": 4718,
      "0x253ac": 4719,
      "0x253a3": 4720,
      "0x253fc": 4721,
      "0x253ec": 4722,
      "0x253d5": 4723,
      "0x253a2": 4724,
      "0x253c6": 4725,
      "0x253f5": 4726,
      "0x253e3": 4727,
      "0x253cf": 4728,
      "0x2538f": 4729,
      "0x1326a": 4730,
      "0x132f8": 4731,
      "0x13219": 4732,
      "0x132a3": 4733,
      "0x132a7": 4734,
      "0x1f090": 4735,
      "0x1f018": 4736,
      "0x1f034": 4737,
      "0x1f0af": 4738,
      "0x1f01b": 4739,
      "0x1f0df": 4740,
      "0x1f07f": 4741,
      "0xf8b0": 4742,
      "0xf898": 4743,
      "0xf89d": 4744,
      "0xf813": 4745,
      "0xf815": 4746,
      "0xf829": 4747,
      "0xf83f": 4748,
      "0xf896": 4749,
      "0xf8b1": 4750,
      "0xf87a": 4751,
      "0xf884": 4752,
      "0x24920": 4753,
      "0x2491a": 4754,
      "0x249d0": 4755,
      "0x249e8": 4756,
      "0xf076": 4757,
      "0xf0ac": 4758,
      "0xf0af": 4759,
      "0xf053": 4760,
      "0xf07d": 4761,
      "0xf089": 4762,
      "0xf0f9": 4763,
      "0xf08d": 4764,
      "0xe8fb": 4765,
      "0xe8fa": 4766,
      "0xe832": 4767,
      "0xe316": 4768,
      "0x170a9": 4769,
      "0xc436": 4770,
      "0xc43f": 4771,
      "0x7f60": 4772,
      "0x7fd4": 4773,
      "0x7f56": 4774,
      "0x7f13": 4775,
      "0xd037": 4776,
      "0xd0ac": 4777,
      "0xd0df": 4778,
      "0xd072": 4779,
      "0xd041": 4780,
      "0x107d": 4781,
      "0x107ce": 4782,
      "0x1071b": 4783,
      "0x10746": 4784,
      "0xcedd": 4785,
      "0xce1c": 4786,
      "0xce54": 4787,
      "0xceb5": 4788,
      "0x23f64": 4789,
      "0x23f70": 4790,
      "0x23f80": 4791,
      "0x23fc0": 4792,
      "0x23fe0": 4793,
      "0x23fd4": 4794,
      "0x23faa": 4795,
      "0x23fae": 4796,
      "0x23fb4": 4797,
      "0x23f51": 4798,
      "0x23f21": 4799,
      "0x23f5c": 4800,
      "0x23f17": 4801,
      "0x23f94": 4802,
      "0x23f5d": 4803,
      "0x230ff": 4804,
      "0x230ae": 4805,
      "0x23058": 4806,
      "0x23099": 4807,
      "0x23044": 4808,
      "0x230a8": 4809,
      "0x2304b": 4810,
      "0x23013": 4811,
      "0x230ba": 4812,
      "0x230bb": 4813,
      "0x2306d": 4814,
      "0x23048": 4815,
      "0x2302f": 4816,
      "0x230d1": 4817,
      "0x23031": 4818,
      "0x23011": 4819,
      "0x23081": 4820,
      "0x23e70": 4821,
      "0x23e20": 4822,
      "0x23e10": 4823,
      "0x23ee0": 4824,
      "0x23e40": 4825,
      "0x23ef8": 4826,
      "0x23ece": 4827,
      "0x23ebf": 4828,
      "0x23e8e": 4829,
      "0x23edc": 4830,
      "0x23e69": 4831,
      "0x23eb3": 4832,
      "0x23ed2": 4833,
      "0x23e5f": 4834,
      "0x23ef9": 4835,
      "0x214ea": 4836,
      "0x214c0": 4837,
      "0x21428": 4838,
      "0x21434": 4839,
      "0x2148e": 4840,
      "0x2147e": 4841,
      "0x21466": 4842,
      "0x21473": 4843,
      "0x214a6": 4844,
      "0x21491": 4845,
      "0x214db": 4846,
      "0x2149b": 4847,
      "0x21412": 4848,
      "0x21439": 4849,
      "0x214cb": 4850,
      "0x15f64": 4851,
      "0x15fe4": 4852,
      "0x15f13": 4853,
      "0x24d60": 4854,
      "0x24d33": 4855,
      "0x24d1a": 4856,
      "0x24d30": 4857,
      "0x24d28": 4858,
      "0x24d57": 4859,
      "0x24d7c": 4860,
      "0x24da8": 4861,
      "0x24d69": 4862,
      "0x24d14": 4863,
      "0x24d68": 4864,
      "0x24d66": 4865,
      "0x24d6d": 4866,
      "0x24d53": 4867,
      "0x24da1": 4868,
      "0x24d6b": 4869,
      "0x24d12": 4870,
      "0x24deb": 4871,
      "0x24d3c": 4872,
      "0x24d3e": 4873,
      "0x24c9a": 4874,
      "0x24cb0": 4875,
      "0x24cbe": 4876,
      "0x24ca0": 4877,
      "0x24cf8": 4878,
      "0x24c18": 4879,
      "0x24c1e": 4880,
      "0x24c8e": 4881,
      "0x24cb4": 4882,
      "0x24cf4": 4883,
      "0x24cf6": 4884,
      "0x24cdc": 4885,
      "0x24ca4": 4886,
      "0x24c65": 4887,
      "0x24cfd": 4888,
      "0x24cbd": 4889,
      "0x24ca9": 4890,
      "0x24c1b": 4891,
      "0x24cd1": 4892,
      "0x24c2a": 4893,
      "0x22e98": 4894,
      "0x22e23": 4895,
      "0x22ef8": 4896,
      "0x22ed4": 4897,
      "0x22e4f": 4898,
      "0x22e13": 4899,
      "0x22e1f": 4900,
      "0x22e17": 4901,
      "0x22e6d": 4902,
      "0x22e6f": 4903,
      "0x22e61": 4904,
      "0x22e52": 4905,
      "0x22e7d": 4906,
      "0x22eb1": 4907,
      "0x22eb2": 4908,
      "0x22e62": 4909,
      "0x1e7ce": 4910,
      "0x1e792": 4911,
      "0x1e795": 4912,
      "0x1e7a8": 4913,
      "0x25b70": 4914,
      "0x25b20": 4915,
      "0x25b9a": 4916,
      "0x25bae": 4917,
      "0x25b95": 4918,
      "0x25b51": 4919,
      "0x25b37": 4920,
      "0x25b5c": 4921,
      "0x25b2e": 4922,
      "0x25b1c": 4923,
      "0x25bba": 4924,
      "0x25bb3": 4925,
      "0x25b24": 4926,
      "0x25b53": 4927,
      "0x25b6b": 4928,
      "0x25b12": 4929,
      "0x25b5a": 4930,
      "0x13480": 4931,
      "0x1341e": 4932,
      "0x13478": 4933,
      "0x1349e": 4934,
      "0x1349b": 4935,
      "0x1347f": 4936,
      "0x134c6": 4937,
      "0x134e6": 4938,
      "0x1347b": 4939,
      "0x131ff": 4940,
      "0x13170": 4941,
      "0x131c0": 4942,
      "0x131e0": 4943,
      "0x13176": 4944,
      "0x13192": 4945,
      "0x1312c": 4946,
      "0x13195": 4947,
      "0x13119": 4948,
      "0x13151": 4949,
      "0x1314b": 4950,
      "0x13126": 4951,
      "0x131ba": 4952,
      "0x1311b": 4953,
      "0x1316f": 4954,
      "0xf464": 4955,
      "0xf4d2": 4956,
      "0xf8e8": 4957,
      "0x1c8ab": 4958,
      "0x1c8b3": 4959,
      "0x1c846": 4960,
      "0xed34": 4961,
      "0xedb8": 4962,
      "0xedfe": 4963,
      "0xedaf": 4964,
      "0xdf02": 4965,
      "0x1b88e": 4966,
      "0x1b897": 4967,
      "0x1b866": 4968,
      "0x1b87d": 4969,
      "0x1b8f1": 4970,
      "0x1b881": 4971,
      "0x59b7": 4972,
      "0x5956": 4973,
      "0x5928": 4974,
      "0x591e": 4975,
      "0x59ee": 4976,
      "0x5968": 4977,
      "0x5360": 4978,
      "0x53ac": 4979,
      "0x53ba": 4980,
      "0x5324": 4981,
      "0x539f": 4982,
      "0x5329": 4983,
      "0x53c6": 4984,
      "0x53c7": 4985,
      "0x22d20": 4986,
      "0x22d10": 4987,
      "0x22d76": 4988,
      "0x22df8": 4989,
      "0x22d5b": 4990,
      "0x22da8": 4991,
      "0x22dac": 4992,
      "0x22d2e": 4993,
      "0x22d68": 4994,
      "0x22d66": 4995,
      "0x22da1": 4996,
      "0x22db5": 4997,
      "0x22ded": 4998,
      "0x220c0": 4999,
      "0x220aa": 5000,
      "0x2204f": 5001,
      "0x22044": 5002,
      "0x22054": 5003,
      "0x22017": 5004,
      "0x2206c": 5005,
      "0x22094": 5006,
      "0x220b5": 5007,
      "0x220f1": 5008,
      "0x2207a": 5009,
      "0x22031": 5010,
      "0x220e1": 5011,
      "0x22085": 5012,
      "0x220cf": 5013,
      "0x23b70": 5014,
      "0x23bf0": 5015,
      "0x23b98": 5016,
      "0x23b40": 5017,
      "0x23b6a": 5018,
      "0x23bf8": 5019,
      "0x23b1d": 5020,
      "0x23bb8": 5021,
      "0x23b58": 5022,
      "0x23b21": 5023,
      "0x23b2d": 5024,
      "0x23bba": 5025,
      "0x23b68": 5026,
      "0x23b1f": 5027,
      "0x23b52": 5028,
      "0x23b16": 5029,
      "0x252ea": 5030,
      "0x25200": 5031,
      "0x252d8": 5032,
      "0x25270": 5033,
      "0x252e0": 5034,
      "0x25290": 5035,
      "0x25240": 5036,
      "0x25230": 5037,
      "0x25256": 5038,
      "0x2527c": 5039,
      "0x25299": 5040,
      "0x252b3": 5041,
      "0x252a6": 5042,
      "0x252a7": 5043,
      "0x252b6": 5044,
      "0x1886": 5045,
      "0xbcd8": 5046,
      "0xbc70": 5047,
      "0xbc28": 5048,
      "0xbc9d": 5049,
      "0xbc8e": 5050,
      "0xbc97": 5051,
      "0xbc44": 5052,
      "0xbc24": 5053,
      "0xbc1b": 5054,
      "0xbc6c": 5055,
      "0xbc59": 5056,
      "0xbc45": 5057,
      "0x17476": 5058,
      "0x1741a": 5059,
      "0x17430": 5060,
      "0x174bc": 5061,
      "0x174e8": 5062,
      "0x17417": 5063,
      "0x174cd": 5064,
      "0x1747a": 5065,
      "0x174e2": 5066,
      "0x168f8": 5067,
      "0x168bf": 5068,
      "0x16897": 5069,
      "0x168a5": 5070,
      "0x168a6": 5071,
      "0x1685e": 5072,
      "0x160ed": 5073,
      "0x29000": 5074,
      "0x291b5": 5075,
      "0x29fcf": 5076,
      "0x29f0c": 5077,
      "0x29bf4": 5078,
      "0x291d6": 5079,
      "0x29f72": 5080,
      "0x291a6": 5081,
      "0x29308": 5082,
      "0x29142": 5083,
      "0x29238": 5084,
      "0x291d5": 5085,
      "0x29fc1": 5086,
      "0x204f0": 5087,
      "0x20453": 5088,
      "0x204ad": 5089,
      "0x204e1": 5090,
      "0x20462": 5091,
      "0x61f3": 5092,
      "0x61f6": 5093,
      "0x61bd": 5094,
      "0x617073": 5095,
      "0x61637": 5096,
      "0xbfaa": 5097,
      "0x1e8b0": 5098,
      "0x1e837": 5099,
      "0x1e8a4": 5100,
      "0x1e869": 5101,
      "0x1e81c": 5102,
      "0x1e89f": 5103,
      "0x1e829": 5104,
      "0x1e859": 5105,
      "0x21850": 5106,
      "0x21870": 5107,
      "0x21890": 5108,
      "0x218bf": 5109,
      "0x2189d": 5110,
      "0x218f3": 5111,
      "0x21837": 5112,
      "0x21827": 5113,
      "0x21893": 5114,
      "0x21863": 5115,
      "0x218d3": 5116,
      "0x2187d": 5117,
      "0x21845": 5118,
      "0x21885": 5119,
      "0x9430": 5120,
      "0x94a5": 5121,
      "0x124b8": 5122,
      "0x12497": 5123,
      "0x124a3": 5124,
      "0x12452": 5125,
      "0x167c1": 5126,
      "0xffffffe8": 5127,
      "0xffffffb6": 5128,
      "0xfffffff5": 5129,
      "0x10550": 5130,
      "0x10590": 5131,
      "0x1059d": 5132,
      "0x1052c": 5133,
      "0x10536": 5134,
      "0x105a3": 5135,
      "0x105d5": 5136,
      "0x1059c": 5137,
      "0x105df": 5138,
      "0x105d6": 5139,
      "0x10c9a": 5140,
      "0x10c1a": 5141,
      "0x10c23": 5142,
      "0x10c26": 5143,
      "0x10c9e": 5144,
      "0x10c47": 5145,
      "0x24060": 5146,
      "0x240d0": 5147,
      "0x2401e": 5148,
      "0x240b4": 5149,
      "0x24019": 5150,
      "0x240f7": 5151,
      "0x240ac": 5152,
      "0x24054": 5153,
      "0x240ba": 5154,
      "0x24038": 5155,
      "0x24012": 5156,
      "0x24096": 5157,
      "0x240b6": 5158,
      "0x2404d": 5159,
      "0x240cb": 5160,
      "0x2403d": 5161,
      "0x240e5": 5162,
      "0x71a0": 5163,
      "0x71bf": 5164,
      "0x719d": 5165,
      "0x7169": 5166,
      "0x7175": 5167,
      "0x7166": 5168,
      "0x716c": 5169,
      "0x716f": 5170,
      "0x22a9a": 5171,
      "0x22a33": 5172,
      "0x22abc": 5173,
      "0x22a28": 5174,
      "0x22a1d": 5175,
      "0x22a37": 5176,
      "0x22a99": 5177,
      "0x22adc": 5178,
      "0x22a2d": 5179,
      "0x22afb": 5180,
      "0x22a68": 5181,
      "0x227a0": 5182,
      "0x2271a": 5183,
      "0x227fe": 5184,
      "0x227b9": 5185,
      "0x227ba": 5186,
      "0x227d2": 5187,
      "0x227d5": 5188,
      "0x2274e": 5189,
      "0x22774": 5190,
      "0x22772": 5191,
      "0x2274c": 5192,
      "0x227b2": 5193,
      "0x22747": 5194,
      "0x1e450": 5195,
      "0x1e4a6": 5196,
      "0x114ee": 5197,
      "0x11421": 5198,
      "0x11415": 5199,
      "0x114a1": 5200,
      "0x11455": 5201,
      "0x114df": 5202,
      "0x114e3": 5203,
      "0x251d8": 5204,
      "0x25190": 5205,
      "0x25176": 5206,
      "0x25126": 5207,
      "0x25114": 5208,
      "0x251bd": 5209,
      "0x2511f": 5210,
      "0x25163": 5211,
      "0x24310": 5212,
      "0x2431d": 5213,
      "0x24357": 5214,
      "0x243f6": 5215,
      "0x243b9": 5216,
      "0x24329": 5217,
      "0x2432f": 5218,
      "0x243cf": 5219,
      "0x6ebe": 5220,
      "0x6e13": 5221,
      "0x6e6f": 5222,
      "0xac9d": 5223,
      "0xac71": 5224,
      "0x2239a": 5225,
      "0x22310": 5226,
      "0x223b0": 5227,
      "0x22395": 5228,
      "0x2237c": 5229,
      "0x223f4": 5230,
      "0x223a8": 5231,
      "0x223c6": 5232,
      "0x223d9": 5233,
      "0x223b1": 5234,
      "0x223d1": 5235,
      "0x223b6": 5236,
      "0x223c4": 5237,
      "0x223e9": 5238,
      "0x22c6a": 5239,
      "0x22cae": 5240,
      "0x22c1d": 5241,
      "0x22c19": 5242,
      "0x22cf4": 5243,
      "0x22c99": 5244,
      "0x22cdc": 5245,
      "0x22c2d": 5246,
      "0x22c12": 5247,
      "0x22cb2": 5248,
      "0x11cb7": 5249,
      "0x11cab": 5250,
      "0x11ca6": 5251,
      "0x11566": 5252,
      "0x254ff": 5253,
      "0x25470": 5254,
      "0x254f0": 5255,
      "0x254c0": 5256,
      "0x254f8": 5257,
      "0x2547f": 5258,
      "0x25438": 5259,
      "0x2547d": 5260,
      "0x25459": 5261,
      "0x25ebc": 5262,
      "0x25e1d": 5263,
      "0x25e37": 5264,
      "0x25ed7": 5265,
      "0x25e75": 5266,
      "0x25e93": 5267,
      "0x25e68": 5268,
      "0x25e66": 5269,
      "0x25ed9": 5270,
      "0x25e72": 5271,
      "0x84af": 5272,
      "0x1646b": 5273,
      "0x208ea": 5274,
      "0x208d8": 5275,
      "0x208d0": 5276,
      "0x20858": 5277,
      "0x20821": 5278,
      "0x2085c": 5279,
      "0x20883": 5280,
      "0x208d3": 5281,
      "0x20846": 5282,
      "0x2088b": 5283,
      "0x24810": 5284,
      "0x248a0": 5285,
      "0x248d4": 5286,
      "0x24828": 5287,
      "0x24818": 5288,
      "0x248b8": 5289,
      "0x24861": 5290,
      "0x62c0": 5291,
      "0x621a": 5292,
      "0x6251": 5293,
      "0x6265": 5294,
      "0x62fd": 5295,
      "0x62b6": 5296,
      "0x2169a": 5297,
      "0x216be": 5298,
      "0x2166a": 5299,
      "0x2161a": 5300,
      "0x21630": 5301,
      "0x21667": 5302,
      "0x21656": 5303,
      "0x21692": 5304,
      "0x216b4": 5305,
      "0x216f3": 5306,
      "0x21629": 5307,
      "0x13957": 5308,
      "0x1f7ea": 5309,
      "0x1f7b7": 5310,
      "0x1f7bc": 5311,
      "0x1f795": 5312,
      "0x1f797": 5313,
      "0x1f7e4": 5314,
      "0x1f7d7": 5315,
      "0x1f7b3": 5316,
      "0x1f7a9": 5317,
      "0x1f773": 5318,
      "0x1f79f": 5319,
      "0x1f791": 5320,
      "0x1f77d": 5321,
      "0x1f749": 5322,
      "0x1f74c": 5323,
      "0x1d38e": 5324,
      "0x1d3b4": 5325,
      "0x1d3ac": 5326,
      "0x1d326": 5327,
      "0x1d3a6": 5328,
      "0x1ea98": 5329,
      "0x1ea26": 5330,
      "0x1ea49": 5331,
      "0x1ead6": 5332,
      "0x2e2e": 5333,
      "0x24480": 5334,
      "0x24410": 5335,
      "0x244c0": 5336,
      "0x244a0": 5337,
      "0x24419": 5338,
      "0x244cd": 5339,
      "0x244d9": 5340,
      "0x244c9": 5341,
      "0x244e6": 5342,
      "0x244c2": 5343,
      "0x6570": 5344,
      "0x6519": 5345,
      "0x655c": 5346,
      "0xbe56": 5347,
      "0xbeb8": 5348,
      "0xbe54": 5349,
      "0xbe53": 5350,
      "0xbe72": 5351,
      "0x229b0": 5352,
      "0x22990": 5353,
      "0x22976": 5354,
      "0x22928": 5355,
      "0x22934": 5356,
      "0x229b4": 5357,
      "0x2291f": 5358,
      "0x229fc": 5359,
      "0x229bb": 5360,
      "0x22917": 5361,
      "0x23c50": 5362,
      "0x23c9a": 5363,
      "0x23ce0": 5364,
      "0x23cd4": 5365,
      "0x23c27": 5366,
      "0x23ca8": 5367,
      "0x23c5c": 5368,
      "0x23c14": 5369,
      "0x23c24": 5370,
      "0x23c5e": 5371,
      "0x113f6": 5372,
      "0x1135c": 5373,
      "0x113e8": 5374,
      "0x11317": 5375,
      "0x113d5": 5376,
      "0x113a6": 5377,
      "0x113c8": 5378,
      "0x11352": 5379,
      "0x113de": 5380,
      "0x113e6": 5381,
      "0x113ed": 5382,
      "0x11311": 5383,
      "0x21500": 5384,
      "0x215f0": 5385,
      "0x2156a": 5386,
      "0x21576": 5387,
      "0x215ae": 5388,
      "0x2151d": 5389,
      "0x21519": 5390,
      "0x21537": 5391,
      "0x215a8": 5392,
      "0x215fb": 5393,
      "0x215a3": 5394,
      "0x21524": 5395,
      "0x215e8": 5396,
      "0x215d6": 5397,
      "0x2160b": 5398,
      "0x19eb9": 5399,
      "0x19e25": 5400,
      "0x19e74": 5401,
      "0x19e77": 5402,
      "0x2008a": 5403,
      "0x24a60": 5404,
      "0x24ac0": 5405,
      "0x24aa0": 5406,
      "0x24abc": 5407,
      "0x24af8": 5408,
      "0x24ad0": 5409,
      "0x24a7c": 5410,
      "0x24a2d": 5411,
      "0x24a54": 5412,
      "0x24a6f": 5413,
      "0x24ad5": 5414,
      "0xa4bf": 5415,
      "0xa4ef": 5416,
      "0x739a": 5417,
      "0x73ae": 5418,
      "0x7329": 5419,
      "0x73c5": 5420,
      "0xba64": 5421,
      "0xbae0": 5422,
      "0xba90": 5423,
      "0xba92": 5424,
      "0xba19": 5425,
      "0xbaf3": 5426,
      "0xba97": 5427,
      "0xbaf6": 5428,
      "0xbafb": 5429,
      "0xba25": 5430,
      "0xba7e": 5431,
      "0x2326a": 5432,
      "0x2321e": 5433,
      "0x23221": 5434,
      "0x232a4": 5435,
      "0x232a7": 5436,
      "0x233bc": 5437,
      "0x233f3": 5438,
      "0x233e4": 5439,
      "0x233af": 5440,
      "0x233d5": 5441,
      "0x1f8ff": 5442,
      "0x1f870": 5443,
      "0x1f8d4": 5444,
      "0x1f8dc": 5445,
      "0x1f869": 5446,
      "0x1f85c": 5447,
      "0x1f8fb": 5448,
      "0x1f8a9": 5449,
      "0x1f8cd": 5450,
      "0x1f8c6": 5451,
      "0x1f846": 5452,
      "0x1f8c9": 5453,
      "0x1f8c4": 5454,
      "0x195e8": 5455,
      "0x195d2": 5456,
      "##c6573": 5457,
      "0x1441e": 5458,
      "0x144d2": 5459,
      "0x14730": 5460,
      "0x14719": 5461,
      "0x147f3": 5462,
      "0x147f6": 5463,
      "0x14ca4": 5464,
      "0x14c15": 5465,
      "0x14ca1": 5466,
      "0x14c9f": 5467,
      "0x14cfa": 5468,
      "0x14443": 5469,
      "0x71a9": 5470,
      "0x71a3": 5471,
      "0x71a6": 5472,
      "0x234ff": 5473,
      "0x23410": 5474,
      "0x2341e": 5475,
      "0x2345b": 5476,
      "0x23469": 5477,
      "0x23425": 5478,
      "0x234e8": 5479,
      "0x234de": 5480,
      "0x23496": 5481,
      "0x23474": 5482,
      "0x23d00": 5483,
      "0x23de0": 5484,
      "0x23d90": 5485,
      "0x23da0": 5486,
      "0x23d1d": 5487,
      "0x23d97": 5488,
      "0x23d5b": 5489,
      "0x23d26": 5490,
      "0x23d14": 5491,
      "0x23da5": 5492,
      "0x23500": 5493,
      "0x235d0": 5494,
      "0x235f3": 5495,
      "0x235ab": 5496,
      "0x2354f": 5497,
      "0x235f6": 5498,
      "0x23544": 5499,
      "0x235fc": 5500,
      "0x2359c": 5501,
      "0x2586a": 5502,
      "0x258bc": 5503,
      "0x25848": 5504,
      "0x25812": 5505,
      "0x258d9": 5506,
      "0x258fa": 5507,
      "0x25859": 5508,
      "0x2584d": 5509,
      "0x1fbbe": 5510,
      "0x1fbd4": 5511,
      "0x1fb36": 5512,
      "0x1fb1f": 5513,
      "0x1fb1b": 5514,
      "##aaaaaa9": 5515,
      "0x1dd50": 5516,
      "0x1ddbe": 5517,
      "0x1dd76": 5518,
      "0x1dd67": 5519,
      "0x1ddf6": 5520,
      "0x1ddf7": 5521,
      "0x1ddec": 5522,
      "0x1dd53": 5523,
      "0x1dd52": 5524,
      "0x18520": 5525,
      "0x18510": 5526,
      "0x18537": 5527,
      "0x20dea": 5528,
      "0x20df0": 5529,
      "0x20d99": 5530,
      "0x20d65": 5531,
      "0x20d93": 5532,
      "0x20d68": 5533,
      "0x20d24": 5534,
      "0x20daf": 5535,
      "0x20d6b": 5536,
      "0x20e00": 5537,
      "0x20eb0": 5538,
      "0x20e1d": 5539,
      "0x20ed7": 5540,
      "0x20e1c": 5541,
      "0x20e53": 5542,
      "0x20e91": 5543,
      "0x20e3b": 5544,
      "0x20e31": 5545,
      "0x6d9d": 5546,
      "0x6d6d6f63": 5547,
      "0xad20": 5548,
      "0xad76": 5549,
      "0xad95": 5550,
      "0xadf3": 5551,
      "0x1432f": 5552,
      "0x14396": 5553,
      "0x143c2": 5554,
      "0x143e9": 5555,
      "0x7650": 5556,
      "0x761e": 5557,
      "0x7651": 5558,
      "0x7636": 5559,
      "0x7ed8": 5560,
      "0x7ee0": 5561,
      "0x7edc": 5562,
      "0x225ff": 5563,
      "0x225cc": 5564,
      "0x225be": 5565,
      "0x22556": 5566,
      "0x22519": 5567,
      "0x225e4": 5568,
      "0x225d7": 5569,
      "0x22524": 5570,
      "0x22594": 5571,
      "0x23860": 5572,
      "0x23810": 5573,
      "0x23867": 5574,
      "0x23873": 5575,
      "0x2389b": 5576,
      "0x2382b": 5577,
      "0x23886": 5578,
      "0x238c2": 5579,
      "0x2384a": 5580,
      "0x11567": 5581,
      "0x257c0": 5582,
      "0x25740": 5583,
      "0x25730": 5584,
      "0x2578e": 5585,
      "0x257ab": 5586,
      "0x25721": 5587,
      "0x2579e": 5588,
      "0x2577f": 5589,
      "0x25777": 5590,
      "0x213cc": 5591,
      "0x21398": 5592,
      "0x213aa": 5593,
      "0x2131e": 5594,
      "0x21321": 5595,
      "0x213a3": 5596,
      "0x213fd": 5597,
      "0x213ec": 5598,
      "0x213d5": 5599,
      "0x21329": 5600,
      "0x213ca": 5601,
      "0x13cf3": 5602,
      "0x13c5b": 5603,
      "0x13c99": 5604,
      "0x13ca3": 5605,
      "0x13c54": 5606,
      "0x13c94": 5607,
      "0x13c9b": 5608,
      "0x12232": 5609,
      "0x1cfce": 5610,
      "0x1cf25": 5611,
      "0x1cfa5": 5612,
      "0x1f6e0": 5613,
      "0x1f6ee": 5614,
      "0x1f6d7": 5615,
      "0xdad4": 5616,
      "0xda69": 5617,
      "0x17a6a": 5618,
      "0x17a76": 5619,
      "0x17a30": 5620,
      "0x17a67": 5621,
      "0x17ab4": 5622,
      "0x17a5b": 5623,
      "0x17a1c": 5624,
      "0x17ad5": 5625,
      "0x16e1d": 5626,
      "0x16e14": 5627,
      "0x16e1f": 5628,
      "0x16e17": 5629,
      "0x16e9f": 5630,
      "##463656": 5631,
      "0x2b764": 5632,
      "0x2b799": 5633,
      "0x2b765": 5634,
      "0x2b725": 5635,
      "0x2b793": 5636,
      "0x2b7d2": 5637,
      "0x2b7a6": 5638,
      "0x2b7c8": 5639,
      "0x2b7d9": 5640,
      "0x2b772": 5641,
      "0x2b4ea": 5642,
      "0x2b4a8": 5643,
      "0x2b483": 5644,
      "0x2b4d9": 5645,
      "0x2b4f1": 5646,
      "0x20646": 5647,
      "0x241b0": 5648,
      "0x241e0": 5649,
      "0x241a0": 5650,
      "0x241d0": 5651,
      "0x241f3": 5652,
      "0x24144": 5653,
      "0x22bf0": 5654,
      "0x22bb7": 5655,
      "0x22bcc": 5656,
      "0x22bf8": 5657,
      "0x22bbf": 5658,
      "0x22b58": 5659,
      "0x22bac": 5660,
      "0x22bd7": 5661,
      "0x22b1f": 5662,
      "0x22b6b": 5663,
      "0x22620": 5664,
      "0x226c0": 5665,
      "0x2262c": 5666,
      "0x2261c": 5667,
      "0x226fc": 5668,
      "0x2262b": 5669,
      "0x1ee66": 5670,
      "0x1ee6d": 5671,
      "0x1eed3": 5672,
      "0x237d8": 5673,
      "0x23720": 5674,
      "0x237ce": 5675,
      "0x23718": 5676,
      "0x2377c": 5677,
      "0x237a5": 5678,
      "0x2379f": 5679,
      "0x23746": 5680,
      "0x25928": 5681,
      "0x25937": 5682,
      "0x25965": 5683,
      "0x2591b": 5684,
      "0x8228": 5685,
      "0x21960": 5686,
      "0x21950": 5687,
      "0x21990": 5688,
      "0x21923": 5689,
      "0x219d4": 5690,
      "0x219d0": 5691,
      "0x21918": 5692,
      "0x219ba": 5693,
      "0x21948": 5694,
      "0x2196b": 5695,
      "0x217d8": 5696,
      "0x21792": 5697,
      "0x21758": 5698,
      "0x217f6": 5699,
      "0x217a3": 5700,
      "0x217ba": 5701,
      "0x21773": 5702,
      "0x21778": 5703,
      "0x21050": 5704,
      "0x21080": 5705,
      "0x210ab": 5706,
      "0x210a4": 5707,
      "0x21017": 5708,
      "0x210df": 5709,
      "0x21012": 5710,
      "0x210c4": 5711,
      "0x21e56": 5712,
      "0x21ef3": 5713,
      "0x21e27": 5714,
      "0x21efe": 5715,
      "0x21e7e": 5716,
      "0x21e73": 5717,
      "0x21e61": 5718,
      "0x21e9b": 5719,
      "0x21ed3": 5720,
      "0x21e39": 5721,
      "0x12e67": 5722,
      "0x12e18": 5723,
      "0x12e65": 5724,
      "0x12efb": 5725,
      "0x12ed5": 5726,
      "0x12e6e": 5727,
      "0x12e9f": 5728,
      "0x12e91": 5729,
      "0x12eb5": 5730,
      "0x12e59": 5731,
      "0x1c067": 5732,
      "0x1c089": 5733,
      "0x1fa64": 5734,
      "0x1fab0": 5735,
      "0x1fa40": 5736,
      "0x1fa97": 5737,
      "0x1fa5b": 5738,
      "0x1fa54": 5739,
      "0x1fa17": 5740,
      "0x1fa6d": 5741,
      "0x19d00": 5742,
      "0x19db7": 5743,
      "0x19de0": 5744,
      "0x19dce": 5745,
      "0x19dac": 5746,
      "0x19d69": 5747,
      "0x19da5": 5748,
      "0x151ff": 5749,
      "0x1519a": 5750,
      "0x151c0": 5751,
      "0x15168": 5752,
      "0x16740": 5753,
      "0x1675c": 5754,
      "0x167a6": 5755,
      "0x167a2": 5756,
      "0x1bb00": 5757,
      "0x1bb18": 5758,
      "0x1bb2d": 5759,
      "0x1b0d1": 5760,
      "0x1b03d": 5761,
      "0xfff": 5762,
      "0xfff0": 5763,
      "0xffbb": 5764,
      "0xffca": 5765,
      "0xffb1": 5766,
      "0xff84": 5767,
      "0xdd02": 5768,
      "0xdd07": 5769,
      "0x270f": 5770,
      "0x270bc": 5771,
      "0x270ce": 5772,
      "0x27058": 5773,
      "0x27065": 5774,
      "0x2706c": 5775,
      "0x270c8": 5776,
      "0x270e6": 5777,
      "0x270e3": 5778,
      "0x2a3af": 5779,
      "0x2a3ad": 5780,
      "0x2a3a7": 5781,
      "0x2a355": 5782,
      "0x2a389": 5783,
      "0x2a3d6": 5784,
      "0x2a3c2": 5785,
      "0x2a387": 5786,
      "0x2a3ef": 5787,
      "0x20233": 5788,
      "0x20240": 5789,
      "0x202fb": 5790,
      "0x202bb": 5791,
      "0x202af": 5792,
      "0x203a0": 5793,
      "0x20376": 5794,
      "0x203ec": 5795,
      "0x203a1": 5796,
      "0x20391": 5797,
      "0x203de": 5798,
      "0x20329": 5799,
      "0x24fb7": 5800,
      "0x24f9a": 5801,
      "0x24f10": 5802,
      "0x24f1e": 5803,
      "0x24fa8": 5804,
      "0x24f2d": 5805,
      "0x24faf": 5806,
      "0x2454f": 5807,
      "0x24e64": 5808,
      "0x24eb7": 5809,
      "0x24e9a": 5810,
      "0x24e40": 5811,
      "0x24e51": 5812,
      "0x24e55": 5813,
      "0x24efa": 5814,
      "0x1ede8": 5815,
      "0x1ed15": 5816,
      "0x1eda2": 5817,
      "0x23a80": 5818,
      "0x23af0": 5819,
      "0x23a9a": 5820,
      "0x23a90": 5821,
      "0x23a1c": 5822,
      "0x23a68": 5823,
      "0x23afc": 5824,
      "0x23190": 5825,
      "0x231a0": 5826,
      "0x231bf": 5827,
      "0x2312c": 5828,
      "0x2315b": 5829,
      "0x23158": 5830,
      "0x2314b": 5831,
      "0x23664": 5832,
      "0x23660": 5833,
      "0x236f0": 5834,
      "0x23620": 5835,
      "0x23633": 5836,
      "0x236f8": 5837,
      "0x2365b": 5838,
      "0x23621": 5839,
      "0x2362e": 5840,
      "0x11a50": 5841,
      "0x11a10": 5842,
      "0x11a34": 5843,
      "0x11a97": 5844,
      "0x11a5b": 5845,
      "0x11a13": 5846,
      "0x11a6c": 5847,
      "0x21d10": 5848,
      "0x21dc0": 5849,
      "0x21d6a": 5850,
      "0x21d34": 5851,
      "0x21d1e": 5852,
      "0x21de4": 5853,
      "0x21d9c": 5854,
      "0x21da7": 5855,
      "0x21d61": 5856,
      "0x21c67": 5857,
      "0x21c34": 5858,
      "0x21c4b": 5859,
      "0x21cbd": 5860,
      "0x21c2f": 5861,
      "0x21cb2": 5862,
      "0x21c45": 5863,
      "0xfa9a": 5864,
      "0xfa30": 5865,
      "0xfabc": 5866,
      "0xfa9d": 5867,
      "0xfa8e": 5868,
      "0xfa2e": 5869,
      "0xfafc": 5870,
      "0x9cdc": 5871,
      "0x9c75": 5872,
      "0x9c26": 5873,
      "0x1c627": 5874,
      "0x1c6dc": 5875,
      "0x1c622": 5876,
      "##fffffff": 5877,
      "0x17eea": 5878,
      "0x17e64": 5879,
      "0x17e58": 5880,
      "0x17e24": 5881,
      "0x17e3b": 5882,
      "0x17e39": 5883,
      "0x1ac80": 5884,
      "0x1ac6a": 5885,
      "0x1acbc": 5886,
      "0x1acbf": 5887,
      "0x1ac69": 5888,
      "0x1ac25": 5889,
      "0x1ac14": 5890,
      "0x1ac6d": 5891,
      "0x1ac1b": 5892,
      "0x1bc23": 5893,
      "0x1bc22": 5894,
      "0x1bca5": 5895,
      "0x2b8f6": 5896,
      "0x2b8bd": 5897,
      "0x2b86c": 5898,
      "0x2b8c8": 5899,
      "0x2b83b": 5900,
      "0x2b8b1": 5901,
      "0x2b83c": 5902,
      "0x2b82a": 5903,
      "0x10abe": 5904,
      "0x10a90": 5905,
      "0x10a34": 5906,
      "0x10a92": 5907,
      "0x10a8e": 5908,
      "0x10a21": 5909,
      "0x10a25": 5910,
      "0x10a68": 5911,
      "0x24b00": 5912,
      "0x24bb7": 5913,
      "0x24bc0": 5914,
      "0x24bb8": 5915,
      "0x24b58": 5916,
      "0x24b36": 5917,
      "0x24b26": 5918,
      "0x24b13": 5919,
      "0xa352": 5920,
      "0xa3d70": 5921,
      "0xbd57": 5922,
      "0xbdf3": 5923,
      "0xbd58": 5924,
      "0xbde4": 5925,
      "0xbdbd": 5926,
      "0x22f00": 5927,
      "0x22fd8": 5928,
      "0x22f92": 5929,
      "0x22f95": 5930,
      "0x22f58": 5931,
      "0x22f26": 5932,
      "0x22f1b": 5933,
      "0x22fa2": 5934,
      "0x1e323": 5935,
      "0x1e3d2": 5936,
      "0x1e3ed": 5937,
      "0x11770": 5938,
      "0x117b7": 5939,
      "0x1179a": 5940,
      "0x117c0": 5941,
      "0x11723": 5942,
      "0x117aa": 5943,
      "0x117a9": 5944,
      "0x1172b": 5945,
      "0x25dff": 5946,
      "0x25d50": 5947,
      "0x25d90": 5948,
      "0x25d34": 5949,
      "0x25d36": 5950,
      "0x25da4": 5951,
      "0x25d13": 5952,
      "0x25d61": 5953,
      "0x21150": 5954,
      "0x211cc": 5955,
      "0x211a0": 5956,
      "0x21128": 5957,
      "0x211bd": 5958,
      "0x2117e": 5959,
      "0xf7f0": 5960,
      "0xf7be": 5961,
      "0xf790": 5962,
      "0xf7d4": 5963,
      "0xf71d": 5964,
      "0xf7b8": 5965,
      "0xf7f6": 5966,
      "0xf7fb": 5967,
      "0x1cdea": 5968,
      "0x1cdae": 5969,
      "0x1cda3": 5970,
      "0xe592": 5971,
      "0xe5ec": 5972,
      "0xe59c": 5973,
      "0xe728": 5974,
      "0xe77c": 5975,
      "0xe736": 5976,
      "0xe77e": 5977,
      "0xe77a": 5978,
      "0x1f210": 5979,
      "0x1f2e0": 5980,
      "0x1f22e": 5981,
      "0x1f225": 5982,
      "0x1f920": 5983,
      "0x1f9be": 5984,
      "0x1f940": 5985,
      "0x1f9b4": 5986,
      "0x1f9b8": 5987,
      "0x1f944": 5988,
      "0x1f9ba": 5989,
      "0x1f963": 5990,
      "0x1790b": 5991,
      "0x17908": 5992,
      "0x1790e": 5993,
      "0x1a42c": 5994,
      "0x1a426": 5995,
      "0x1a41f": 5996,
      "0x1a466": 5997,
      "0x1a4a6": 5998,
      "0x1a43b": 5999,
      "0x16c99": 6000,
      "0x16c1c": 6001,
      "0x16caf": 6002,
      "0x16c46": 6003,
      "0x18492": 6004,
      "0x18497": 6005,
      "0x18461": 6006,
      "0x184cd": 6007,
      "0x5623": 6008,
      "0x56bb": 6009,
      "0x597e": 6010,
      "0x20c9d": 6011,
      "0x20ca8": 6012,
      "0x20c25": 6013,
      "0x20c14": 6014,
      "0x20c7e": 6015,
      "0x20c2f": 6016,
      "0x20c2a": 6017,
      "0x6300": 6018,
      "0x6328": 6019,
      "0x63c7": 6020,
      "0xc36a": 6021,
      "0xc3ac": 6022,
      "0xc3fe": 6023,
      "0xc3d7": 6024,
      "0xc325": 6025,
      "0xc3fd": 6026,
      "0xc3ef": 6027,
      "0x14980": 6028,
      "0x14920": 6029,
      "0x14919": 6030,
      "0x149f7": 6031,
      "0x149b9": 6032,
      "0x149fc": 6033,
      "0x1496d": 6034,
      "0x11d9a": 6035,
      "0x25f80": 6036,
      "0x25f10": 6037,
      "0x25fd4": 6038,
      "0x25fa4": 6039,
      "0x25f13": 6040,
      "0x25f24": 6041,
      "0x25fa1": 6042,
      "0x8d40": 6043,
      "0x8d14": 6044,
      "0x8dad": 6045,
      "##00000000": 6046,
      "0x1c45b": 6047,
      "0x1c4cd": 6048,
      "0x1ce00": 6049,
      "0x1ce56": 6050,
      "0x1ced0": 6051,
      "0x1ce2c": 6052,
      "0x1ce74": 6053,
      "0xe498": 6054,
      "0xe437": 6055,
      "0xe49b": 6056,
      "0xe45f": 6057,
      "0x1f410": 6058,
      "0x1f419": 6059,
      "0x1f45b": 6060,
      "0x1f436": 6061,
      "0x1f426": 6062,
      "0x1f4af": 6063,
      "0x1f4df": 6064,
      "0x1f30a": 6065,
      "0x1f306": 6066,
      "0xd62": 6067,
      "0xd6ea": 6068,
      "0xd637": 6069,
      "0xd61c": 6070,
      "0xd6ba": 6071,
      "0xd6fc": 6072,
      "0xd615": 6073,
      "0x1ad27": 6074,
      "0x1ada8": 6075,
      "0x1ad65": 6076,
      "0x1a0ff": 6077,
      "0x1a0f8": 6078,
      "0x1a02d": 6079,
      "0x15200": 6080,
      "0x152bf": 6081,
      "0x15219": 6082,
      "0x152b9": 6083,
      "0x152fd": 6084,
      "0x15108": 6085,
      "0x16a9d": 6086,
      "0x16ab8": 6087,
      "0x16a51": 6088,
      "0x1d1e0": 6089,
      "0x1d1bc": 6090,
      "0x1d156": 6091,
      "0x1d136": 6092,
      "0x1d12e": 6093,
      "0x1d519": 6094,
      "0x1d5e4": 6095,
      "0x1d5fd": 6096,
      "0x1d5ec": 6097,
      "0xea1b": 6098,
      "0xeac3": 6099,
      "0x26a93": 6100,
      "0x26a1f": 6101,
      "0x26a53": 6102,
      "0x26a48": 6103,
      "0x26a39": 6104,
      "0x26a84": 6105,
      "0x2a06a": 6106,
      "0x2a036": 6107,
      "0x2a05c": 6108,
      "0x1801a": 6109,
      "0x18029": 6110,
      "0x180c4": 6111,
      "0x5f64": 6112,
      "0x5fee": 6113,
      "0x5fa6": 6114,
      "0x205d8": 6115,
      "0x20595": 6116,
      "0x20537": 6117,
      "0x205df": 6118,
      "0x207cc": 6119,
      "0x2078e": 6120,
      "0x2074f": 6121,
      "0x20736": 6122,
      "0x207a4": 6123,
      "0x20778": 6124,
      "0x20000002b": 6125,
      "0x28890": 6126,
      "0x2886d": 6127,
      "0x2889e": 6128,
      "0x2884e": 6129,
      "0x28d70": 6130,
      "0x28dbc": 6131,
      "0x28d56": 6132,
      "0x28dce": 6133,
      "0x28d34": 6134,
      "0x28db3": 6135,
      "0x28070": 6136,
      "0x2801a": 6137,
      "0x2809d": 6138,
      "0x2808e": 6139,
      "0x280f3": 6140,
      "0x280bb": 6141,
      "0x24ceb": 6142,
      "0x24ce8": 6143,
      "0x24cee": 6144,
      "0xcacc": 6145,
      "0xc2d4": 6146,
      "0xc2e4": 6147,
      "0xc760": 6148,
      "0xc79a": 6149,
      "0xc734": 6150,
      "0xc7a8": 6151,
      "0xc748": 6152,
      "0xc791": 6153,
      "0x14f42": 6154,
      "0x7b40": 6155,
      "0x2297f": 6156,
      "0x2297d": 6157,
      "0x1efae": 6158,
      "0x1efa2": 6159,
      "0x1ef5f": 6160,
      "0x1ef96": 6161,
      "0x1ecff": 6162,
      "0x1ec5b": 6163,
      "0x1ec69": 6164,
      "0x1ec13": 6165,
      "0x1ec73": 6166,
      "0x1ec53": 6167,
      "0x1ef4a": 6168,
      "0x1ef47": 6169,
      "0x239ff": 6170,
      "0x23963": 6171,
      "0x11166": 6172,
      "0x25aff": 6173,
      "0x25ac0": 6174,
      "0x25af3": 6175,
      "0x25afe": 6176,
      "0x25a69": 6177,
      "0x25a1b": 6178,
      "0x83c0": 6179,
      "0x8398": 6180,
      "0x83b9": 6181,
      "0x8354": 6182,
      "0x839f": 6183,
      "0x83e6": 6184,
      "0x21faa": 6185,
      "0x21f2c": 6186,
      "0x21f58": 6187,
      "0x21f99": 6188,
      "0x21f17": 6189,
      "0x21f94": 6190,
      "0x21bcc": 6191,
      "0x21bdc": 6192,
      "0x21b68": 6193,
      "0x21b61": 6194,
      "0x2123a": 6195,
      "0x21235": 6196,
      "0x13520": 6197,
      "0x135a3": 6198,
      "0x135e8": 6199,
      "0x1359c": 6200,
      "0x13760": 6201,
      "0x13718": 6202,
      "0x1371e": 6203,
      "0x1374b": 6204,
      "0x137db": 6205,
      "0x137d3": 6206,
      "0xfef": 6207,
      "0xfe8e": 6208,
      "0xfef7": 6209,
      "0xfe75": 6210,
      "0xfe54": 6211,
      "0xfedf": 6212,
      "0x1c567": 6213,
      "0x1c556": 6214,
      "0x1cca4": 6215,
      "0xe652": 6216,
      "0x1fd20": 6217,
      "0x1fdf8": 6218,
      "0x1fdfd": 6219,
      "0x1fd17": 6220,
      "0x1fda6": 6221,
      "0x1fd12": 6222,
      "0x1f530": 6223,
      "0x1f5aa": 6224,
      "0x1f5bf": 6225,
      "0x1f557": 6226,
      "0x1f5d7": 6227,
      "0x1f526": 6228,
      "0x1f805": 6229,
      "0xd7ae": 6230,
      "0xd75b": 6231,
      "0xd744": 6232,
      "0xd7dc": 6233,
      "0xd7d5": 6234,
      "0xd7b5": 6235,
      "0xda6e": 6236,
      "0x19cff": 6237,
      "0x19ca0": 6238,
      "0x19cd0": 6239,
      "0x19c1c": 6240,
      "0x1a72d": 6241,
      "0x1a793": 6242,
      "0x1a7af": 6243,
      "0x1a791": 6244,
      "0x15454": 6245,
      "0x15455": 6246,
      "0x15274": 6247,
      "0x1527d": 6248,
      "0x1527e": 6249,
      "##ccccccd": 6250,
      "0x278be": 6251,
      "0x278fe": 6252,
      "0x27865": 6253,
      "0x27893": 6254,
      "0x278a2": 6255,
      "0x278cd": 6256,
      "0x27e20": 6257,
      "0x27e67": 6258,
      "0x27e58": 6259,
      "0x27e52": 6260,
      "0x27e5e": 6261,
      "0x27e72": 6262,
      "0x260e0": 6263,
      "0x26098": 6264,
      "0x26091": 6265,
      "0x260c4": 6266,
      "0x2600a": 6267,
      "0x1844b": 6268,
      "0x18448": 6269,
      "0x10267": 6270,
      "0x10219": 6271,
      "0x10226": 6272,
      "0x101c0": 6273,
      "0x10167": 6274,
      "0x101d4": 6275,
      "0x101ce": 6276,
      "0x10151": 6277,
      "0x5afd": 6278,
      "0x5576": 6279,
      "0x551d": 6280,
      "0x55ab": 6281,
      "0x20bb7": 6282,
      "0x20b19": 6283,
      "0x20b14": 6284,
      "0x20a8b": 6285,
      "0x20a82": 6286,
      "0x20a8c": 6287,
      "0x28660": 6288,
      "0x28698": 6289,
      "0x286ce": 6290,
      "0x2862c": 6291,
      "0x28669": 6292,
      "0x2470a": 6293,
      "0x24702": 6294,
      "0x24703": 6295,
      "0x2470c": 6296,
      "0x2470e": 6297,
      "0x6690": 6298,
      "0x661a": 6299,
      "0x66f6": 6300,
      "0xae15": 6301,
      "0xae22": 6302,
      "0xae5f": 6303,
      "0xae7a": 6304,
      "0xae5d": 6305,
      "0x14bf8": 6306,
      "0x14b63": 6307,
      "0x14a92": 6308,
      "0x14a2c": 6309,
      "0x14a27": 6310,
      "0x14664": 6311,
      "0x146b0": 6312,
      "0x146b4": 6313,
      "0x14619": 6314,
      "0x146bb": 6315,
      "0x72a7": 6316,
      "0xb250": 6317,
      "0xb2d4": 6318,
      "0xb1b7": 6319,
      "0xb176": 6320,
      "0xb19d": 6321,
      "0xb1fe": 6322,
      "0xb1b3": 6323,
      "0xb510": 6324,
      "0xb55b": 6325,
      "0xb5a4": 6326,
      "0xb7ea": 6327,
      "0xb780": 6328,
      "0xb775": 6329,
      "0xb748": 6330,
      "0xb772": 6331,
      "0xb360": 6332,
      "0xb398": 6333,
      "0xb3d7": 6334,
      "0xb324": 6335,
      "0xb35a": 6336,
      "0x22195": 6337,
      "0x22158": 6338,
      "0x22154": 6339,
      "0x22115": 6340,
      "0x22163": 6341,
      "0x231ca": 6342,
      "0x231c3": 6343,
      "0x119ce": 6344,
      "0x11936": 6345,
      "0x119fe": 6346,
      "0x11913": 6347,
      "0x11915": 6348,
      "0x25cf0": 6349,
      "0x25c10": 6350,
      "0x25cb9": 6351,
      "0x25c17": 6352,
      "0x25c53": 6353,
      "0x8ccb": 6354,
      "0x21af0": 6355,
      "0x21a19": 6356,
      "0x21a21": 6357,
      "0x21afb": 6358,
      "0x21a2e": 6359,
      "0x21e08": 6360,
      "0x13dc0": 6361,
      "0x13d6a": 6362,
      "0x13db9": 6363,
      "0x13dbd": 6364,
      "0x13d63": 6365,
      "0xf6ee": 6366,
      "0xf657": 6367,
      "0xf669": 6368,
      "##70736b6": 6369,
      "0x1267d": 6370,
      "0x1c9d9": 6371,
      "0x1f7cf": 6372,
      "0x1f7c2": 6373,
      "0x1f7c5": 6374,
      "0xd523": 6375,
      "0xd5ee": 6376,
      "0xd544": 6377,
      "0xd5a1": 6378,
      "0x1934e": 6379,
      "0x17b19": 6380,
      "0x17b37": 6381,
      "0x17bac": 6382,
      "0x171ff": 6383,
      "0x17370": 6384,
      "0x173b7": 6385,
      "0x173da": 6386,
      "0x1afdd": 6387,
      "0x1afae": 6388,
      "0x1af1c": 6389,
      "0x1a635": 6390,
      "0x1a63c": 6391,
      "0x15cf6": 6392,
      "0x15e60": 6393,
      "0x15ece": 6394,
      "0x15ed5": 6395,
      "0x15e9c": 6396,
      "0x15ed9": 6397,
      "0x1b180": 6398,
      "0x1b120": 6399,
      "0x1b1f4": 6400,
      "0x1b3ff": 6401,
      "0x1b3c6": 6402,
      "0x1b3eb": 6403,
      "0x1bebe": 6404,
      "0x1be27": 6405,
      "0x1dfbe": 6406,
      "0x1df76": 6407,
      "0x1df1c": 6408,
      "0x1dcfd": 6409,
      "0x1dcbb": 6410,
      "0x1dc6d": 6411,
      "0x1d070": 6412,
      "0x1d063": 6413,
      "0x1d0c3": 6414,
      "0x1d06e": 6415,
      "0x1d046": 6416,
      "0x1d61d": 6417,
      "0x1d613": 6418,
      "0x1de36": 6419,
      "0x1de2e": 6420,
      "0x1ded3": 6421,
      "0x27c9a": 6422,
      "0x27c67": 6423,
      "0x27c58": 6424,
      "0x27c25": 6425,
      "0x27c16": 6426,
      "0x263dd": 6427,
      "0x26319": 6428,
      "0x2632d": 6429,
      "0x263ec": 6430,
      "0x26396": 6431,
      "0x26cbe": 6432,
      "0x26c90": 6433,
      "0x26cd4": 6434,
      "0x26c18": 6435,
      "0x26caf": 6436,
      "0x2b6ce": 6437,
      "0x2b6ee": 6438,
      "0x2b697": 6439,
      "fdivrp": 6440,
      "0x1b780": 6441,
      "0x1b72e": 6442,
      "0x1b786": 6443,
      "0x1b7f2": 6444,
      "0x2b9e4": 6445,
      "0x2b932": 6446,
      "0x2b93c": 6447,
      "0x2b9f5": 6448,
      "0x41ff": 6449,
      "0x18b2b": 6450,
      "0x182bc": 6451,
      "0x182ae": 6452,
      "0x182ce": 6453,
      "0x182bd": 6454,
      "0x187ea": 6455,
      "0x187d2": 6456,
      "0x18e40": 6457,
      "0x18e56": 6458,
      "0x18e36": 6459,
      "0x18e5a": 6460,
      "0x1097c": 6461,
      "0x109f3": 6462,
      "0x10969": 6463,
      "0x1091f": 6464,
      "0x10698": 6465,
      "0x10657": 6466,
      "0x10e40": 6467,
      "0x10e13": 6468,
      "0x10ed2": 6469,
      "0x10efa": 6470,
      "0x52f6": 6471,
      "0x52fb": 6472,
      "0x529e": 6473,
      "0x5df0": 6474,
      "0x5d67": 6475,
      "0x5da6": 6476,
      "0x5d6e": 6477,
      "0x5d4d": 6478,
      "0x20aff": 6479,
      "0x20abe": 6480,
      "0x20af3": 6481,
      "0x20a15": 6482,
      "0x201bf": 6483,
      "0x2012d": 6484,
      "0x2015c": 6485,
      "0x20b7d": 6486,
      "0x20b76": 6487,
      "0x20bef": 6488,
      "0x20be4": 6489,
      "0x20be1": 6490,
      "0x20be7": 6491,
      "0x2856a": 6492,
      "0x285ee": 6493,
      "0x28551": 6494,
      "0x28594": 6495,
      "0x242dd": 6496,
      "0x24250": 6497,
      "0x242f0": 6498,
      "0x242b0": 6499,
      "0x24bd9": 6500,
      "0x6f20": 6501,
      "0x6fa0": 6502,
      "0x6f1b": 6503,
      "0xcfbe": 6504,
      "0xcf5e": 6505,
      "0xcbb0": 6506,
      "0xcbab": 6507,
      "0xcbac": 6508,
      "0xcb6f": 6509,
      "0x7558": 6510,
      "0x7551": 6511,
      "0xb680": 6512,
      "0x2221a": 6513,
      "0x22230": 6514,
      "0x2229d": 6515,
      "0x222a8": 6516,
      "0x2267a": 6517,
      "0x22679": 6518,
      "0x2267c": 6519,
      "0x2267e": 6520,
      "0x22f82": 6521,
      "0x22f85": 6522,
      "0x22f87": 6523,
      "0x22f8e": 6524,
      "0x227ed": 6525,
      "0x227e1": 6526,
      "0x227e9": 6527,
      "0x227e6": 6528,
      "0x22c3c": 6529,
      "0x1e2bf": 6530,
      "0x1e219": 6531,
      "0x11938": 6532,
      "0x1193c": 6533,
      "0x25510": 6534,
      "0x25554": 6535,
      "0x2527e": 6536,
      "0x8a97": 6537,
      "0x8d4f": 6538,
      "0x212aa": 6539,
      "0x13b56": 6540,
      "0x13bab": 6541,
      "0x13b5c": 6542,
      "0x13b6d": 6543,
      "0x134b3": 6544,
      "0xf550": 6545,
      "0xf556": 6546,
      "0xf5f3": 6547,
      "0xf5d9": 6548,
      "0x12f33": 6549,
      "0x12f21": 6550,
      "0x12fa3": 6551,
      "0x12f94": 6552,
      "0x123ea": 6553,
      "0x123b8": 6554,
      "0x12352": 6555,
      "0x123d9": 6556,
      "0x1c997": 6557,
      "0x1c31d": 6558,
      "0x1c39d": 6559,
      "0x1c357": 6560,
      "0x1c32e": 6561,
      "0x1cea4": 6562,
      "0x1cea3": 6563,
      "0xef98": 6564,
      "0xef17": 6565,
      "0xdfb7": 6566,
      "0xdfbe": 6567,
      "0xdfbc": 6568,
      "0xdf5a": 6569,
      "0xdf68": 6570,
      "0xdf69": 6571,
      "0x19b34": 6572,
      "0x19b1d": 6573,
      "0x19b27": 6574,
      "0x19b15": 6575,
      "0x1ae00": 6576,
      "0x1aefd": 6577,
      "0x1aefc": 6578,
      "0x1aed9": 6579,
      "0x15db7": 6580,
      "0x15da3": 6581,
      "0x15dad": 6582,
      "0x15da1": 6583,
      "0x16298": 6584,
      "0x162ac": 6585,
      "0x162a2": 6586,
      "0x162a1": 6587,
      "0x166e5": 6588,
      "0x1df05": 6589,
      "0x27bb8": 6590,
      "0x27bac": 6591,
      "0x27b69": 6592,
      "0x27b52": 6593,
      "0x272a0": 6594,
      "0x272bc": 6595,
      "0x272ac": 6596,
      "0x27291": 6597,
      "0x26298": 6598,
      "0x26292": 6599,
      "0x262ac": 6600,
      "0x262a1": 6601,
      "0xddce": 6602,
      "0xdd73": 6603,
      "0xdd91": 6604,
      "0x1ff52": 6605,
      "0x1ff46": 6606,
      "0x1ffe9": 6607,
      "0x267b4": 6608,
      "0x267a5": 6609,
      "0x267d5": 6610,
      "0x292f0": 6611,
      "0x29268": 6612,
      "0x292d1": 6613,
      "0x29d15": 6614,
      "0x29dad": 6615,
      "0x29d2f": 6616,
      "0x181bf": 6617,
      "0x18137": 6618,
      "0x181bd": 6619,
      "0x18cd8": 6620,
      "0x18c4b": 6621,
      "0x18cf2": 6622,
      "0x10dcc": 6623,
      "0x10d99": 6624,
      "0x10d9e": 6625,
      "0x10bed": 6626,
      "0x109eb": 6627,
      "0x109e2": 6628,
      "0x109e1": 6629,
      "0x57a4": 6630,
      "0x57af": 6631,
      "0x558c": 6632,
      "0x565d": 6633,
      "0x20f34": 6634,
      "0x20f5c": 6635,
      "0x20f54": 6636,
      "0x20aa1": 6637,
      "0x20bfb": 6638,
      "0x20bf2": 6639,
      "0x20bf3": 6640,
      "0x28b97": 6641,
      "0x28bb9": 6642,
      "0x24d8d": 6643,
      "0x24d83": 6644,
      "0x24d8e": 6645,
      "0x24d47": 6646,
      "0x24bfa": 6647,
      "0x24bfd": 6648,
      "0x24bf1": 6649,
      "0x6369726": 6650,
      "0xc5b8": 6651,
      "0xc5f7": 6652,
      "0xc5d3": 6653,
      "0xcc90": 6654,
      "0xcc12": 6655,
      "0xccf1": 6656,
      "0xc61a": 6657,
      "0xc621": 6658,
      "0xc699": 6659,
      "0x14d60": 6660,
      "0x14d98": 6661,
      "0x14d15": 6662,
      "0x145ff": 6663,
      "0x145bc": 6664,
      "0x145bf": 6665,
      "0x14b82": 6666,
      "0x14b87": 6667,
      "0x14b86": 6668,
      "0x14c3f": 6669,
      "0x14c3b": 6670,
      "0x14c39": 6671,
      "0x7335": 6672,
      "0x766b": 6673,
      "0xbb72": 6674,
      "0xbb71": 6675,
      "0xbb79": 6676,
      "0xbaba": 6677,
      "0xbab2": 6678,
      "0xbabd": 6679,
      "0xba87": 6680,
      "0xba8c": 6681,
      "0xba86": 6682,
      "0x229ab": 6683,
      "0x229ac": 6684,
      "0x229a0": 6685,
      "0x224f1": 6686,
      "0x22d2b": 6687,
      "0x229cf": 6688,
      "0x229c4": 6689,
      "0x229c3": 6690,
      "0x22c82": 6691,
      "0x22c87": 6692,
      "0x22c83": 6693,
      "0x23644": 6694,
      "0x23640": 6695,
      "0x2364e": 6696,
      "0x236c2": 6697,
      "0x236cd": 6698,
      "0x236c6": 6699,
      "0x25b7d": 6700,
      "0x25b73": 6701,
      "0x25b7c": 6702,
      "0x25b0b": 6703,
      "0x25b0d": 6704,
      "0x25b0c": 6705,
      "0x25b9f": 6706,
      "0x25b94": 6707,
      "0x25b93": 6708,
      "0x25baf": 6709,
      "0x25ba5": 6710,
      "0x25ba9": 6711,
      "0x2593f": 6712,
      "0x25931": 6713,
      "0x25935": 6714,
      "0x8f23": 6715,
      "0x8fb8": 6716,
      "0x8f99": 6717,
      "0x811d": 6718,
      "0x2133a": 6719,
      "0x215cb": 6720,
      "0x215ca": 6721,
      "0x215c1": 6722,
      "0x2173e": 6723,
      "0x1391c": 6724,
      "0x13917": 6725,
      "0x13948": 6726,
      "0x13380": 6727,
      "0x13328": 6728,
      "0x133d0": 6729,
      "0x13e50": 6730,
      "0x13ef7": 6731,
      "0x13ebb": 6732,
      "0x13c08": 6733,
      "0xf97b": 6734,
      "0xf972": 6735,
      "0xf978": 6736,
      "0xfa4a": 6737,
      "0xfa45": 6738,
      "0xfa43": 6739,
      "0xf5f2": 6740,
      "0x9d69": 6741,
      "0x959b": 6742,
      "0x9e58": 6743,
      "0x9e51": 6744,
      "0x9e77": 6745,
      "0x12775": 6746,
      "0x12670": 6747,
      "0x1266a": 6748,
      "0x12622": 6749,
      "0x12ff8": 6750,
      "0x12ff0": 6751,
      "0x12ffe": 6752,
      "0xec7c": 6753,
      "0xec1c": 6754,
      "0xecbb": 6755,
      "0xe566": 6756,
      "0x1f134": 6757,
      "0x1f1bf": 6758,
      "0x1f157": 6759,
      "0x1fcdf": 6760,
      "0x1fbef": 6761,
      "0x1fbe5": 6762,
      "0x1fbe7": 6763,
      "0x1fb44": 6764,
      "0x1f584": 6765,
      "0x1f6c5": 6766,
      "0x1f6c7": 6767,
      "0x1f6c6": 6768,
      "0xd47c": 6769,
      "0xd416": 6770,
      "0xd459": 6771,
      "0xd276": 6772,
      "0xd2ae": 6773,
      "0xd2b8": 6774,
      "0xd31a": 6775,
      "0xd315": 6776,
      "0xd391": 6777,
      "0xd9a0": 6778,
      "0x19de9": 6779,
      "0x19de3": 6780,
      "0x19de6": 6781,
      "0x17da0": 6782,
      "0x17d13": 6783,
      "0x17d6e": 6784,
      "0x1a284": 6785,
      "0x15ad8": 6786,
      "0x15a33": 6787,
      "0x15a4f": 6788,
      "0x161b8": 6789,
      "0x1614f": 6790,
      "0x1611b": 6791,
      "0x16923": 6792,
      "0x169bf": 6793,
      "0x169ee": 6794,
      "0x16318": 6795,
      "0x163b8": 6796,
      "0x163b9": 6797,
      "0x1bdb0": 6798,
      "0x1bd27": 6799,
      "0x1bd65": 6800,
      "0x27419": 6801,
      "0x27413": 6802,
      "0x2743e": 6803,
      "0x27d9a": 6804,
      "0x27dfb": 6805,
      "0x27db9": 6806,
      "0x27176": 6807,
      "0x271ce": 6808,
      "0x27134": 6809,
      "0x2759a": 6810,
      "0x2751a": 6811,
      "0x2754f": 6812,
      "0x26b10": 6813,
      "0x26b21": 6814,
      "0x26b1f": 6815,
      "fucomip": 6816,
      "0x29c60": 6817,
      "0x29c8a": 6818,
      "0x4527": 6819,
      "0x18f58": 6820,
      "0x18f9b": 6821,
      "0x18de0": 6822,
      "0x18db4": 6823,
      "0x18322": 6824,
      "0x183c3": 6825,
      "0x10350": 6826,
      "0x1039e": 6827,
      "0x10d8a": 6828,
      "0x10d85": 6829,
      "0x10a09": 6830,
      "0x10a07": 6831,
      "0x10b81": 6832,
      "0x10b86": 6833,
      "0x10193": 6834,
      "0x10196": 6835,
      "0x10a2b": 6836,
      "0x10a2a": 6837,
      "0x51cc": 6838,
      "0x540f": 6839,
      "0x540a": 6840,
      "0x534f": 6841,
      "0x534a": 6842,
      "0x20634": 6843,
      "0x206e8": 6844,
      "0x20aba": 6845,
      "0x20ab6": 6846,
      "0x2058a": 6847,
      "0x20582": 6848,
      "0x20f68": 6849,
      "0x20f61": 6850,
      "0x20ac4": 6851,
      "0x20aca": 6852,
      "0x20e84": 6853,
      "0x20e8c": 6854,
      "0x20c3b": 6855,
      "0x20c3e": 6856,
      "0x20adf": 6857,
      "0x20ad3": 6858,
      "0x28340": 6859,
      "0x28318": 6860,
      "0x28e99": 6861,
      "0x28e7a": 6862,
      "0x28fb2": 6863,
      "0x28fb9": 6864,
      "0x28d75": 6865,
      "0x28d79": 6866,
      "0x28548": 6867,
      "0x28549": 6868,
      "0x24be1": 6869,
      "0x24bee": 6870,
      "0x6b2b": 6871,
      "0x6700": 6872,
      "0x6243": 6873,
      "0x624c": 6874,
      "0xaf20": 6875,
      "0xafe0": 6876,
      "0xaae0": 6877,
      "0xaabc": 6878,
      "0xa218": 6879,
      "0xa257": 6880,
      "0xa286": 6881,
      "0xcd1e": 6882,
      "0xcd1f": 6883,
      "0xcdd8": 6884,
      "0xcdd1": 6885,
      "0xcf48": 6886,
      "0xcf4d": 6887,
      "0xcd78": 6888,
      "0xcd77": 6889,
      "0xcc7b": 6890,
      "0xcc7a": 6891,
      "0x14270": 6892,
      "0x142bd": 6893,
      "0x14769": 6894,
      "0x14763": 6895,
      "0x14d02": 6896,
      "0x14d06": 6897,
      "0x14bf3": 6898,
      "0x14bfe": 6899,
      "0x147c4": 6900,
      "0x147c5": 6901,
      "0x14ab9": 6902,
      "0x14ab3": 6903,
      "0x14b3f": 6904,
      "0x14b31": 6905,
      "0x14bb2": 6906,
      "0x14bb5": 6907,
      "0x1473b": 6908,
      "0x1473a": 6909,
      "0x14789": 6910,
      "0x14783": 6911,
      "0x77d7": 6912,
      "0x7726": 6913,
      "0xb28d": 6914,
      "0xb286": 6915,
      "0xbacf": 6916,
      "0xbac5": 6917,
      "0x22bed": 6918,
      "0x226aa": 6919,
      "0x226a1": 6920,
      "0x221aa": 6921,
      "0x221a3": 6922,
      "0x22b42": 6923,
      "0x22b45": 6924,
      "0x22fbb": 6925,
      "0x22fb5": 6926,
      "0x22b93": 6927,
      "0x22b9e": 6928,
      "0x22a9f": 6929,
      "0x22a94": 6930,
      "0x22a55": 6931,
      "0x22a59": 6932,
      "0x1e930": 6933,
      "0x1e913": 6934,
      "0x1e8e2": 6935,
      "0x1e8ec": 6936,
      "0x1e4ba": 6937,
      "0x1e4b3": 6938,
      "0x1e172": 6939,
      "0x1e177": 6940,
      "0x1edeb": 6941,
      "0x1ede7": 6942,
      "0x23005": 6943,
      "0x2300c": 6944,
      "0x23a0b": 6945,
      "0x23a01": 6946,
      "0x2323d": 6947,
      "0x23231": 6948,
      "0x23eeb": 6949,
      "0x23ee4": 6950,
      "0x23f31": 6951,
      "0x23f3e": 6952,
      "0x234fb": 6953,
      "0x234f4": 6954,
      "0x23f7b": 6955,
      "0x23f77": 6956,
      "0x23d74": 6957,
      "0x23d72": 6958,
      "0x236d1": 6959,
      "0x236d6": 6960,
      "0x236f2": 6961,
      "0x236f9": 6962,
      "0x11b28": 6963,
      "0x11b97": 6964,
      "0x11680": 6965,
      "0x116bd": 6966,
      "0x11e12": 6967,
      "0x11e3b": 6968,
      "0x1180f": 6969,
      "0x1180a": 6970,
      "0x11331": 6971,
      "0x11339": 6972,
      "0x11a0d": 6973,
      "0x11a07": 6974,
      "0x1130c": 6975,
      "0x11306": 6976,
      "0x112c8": 6977,
      "0x112c3": 6978,
      "0x11e87": 6979,
      "0x11e8c": 6980,
      "0x1194a": 6981,
      "0x1194c": 6982,
      "0x25f04": 6983,
      "0x25f01": 6984,
      "0x25bc7": 6985,
      "0x25bc6": 6986,
      "0x25284": 6987,
      "0x25288": 6988,
      "0x252c8": 6989,
      "0x252cd": 6990,
      "0x25f38": 6991,
      "0x25f3c": 6992,
      "0x25f47": 6993,
      "0x25f4e": 6994,
      "0x25e42": 6995,
      "0x25e49": 6996,
      "0x25b3a": 6997,
      "0x25b3c": 6998,
      "0x25eca": 6999,
      "0x25ec5": 7000,
      "0x25784": 7001,
      "0x2578a": 7002,
      "0x8756": 7003,
      "0x87ba": 7004,
      "0x848f": 7005,
      "0x21d83": 7006,
      "0x21d8e": 7007,
      "0x212cb": 7008,
      "0x212c4": 7009,
      "0x21dcb": 7010,
      "0x21dc1": 7011,
      "0x21baf": 7012,
      "0x21ba7": 7013,
      "0x21c82": 7014,
      "0x21c8d": 7015,
      "0x13b72": 7016,
      "0x13b77": 7017,
      "0x13d4d": 7018,
      "0x13d4c": 7019,
      "0x138eb": 7020,
      "0x138e6": 7021,
      "0x1321f": 7022,
      "0x1321c": 7023,
      "0x1327f": 7024,
      "0x1327e": 7025,
      "0x136c9": 7026,
      "0x136c3": 7027,
      "0x13382": 7028,
      "0x1338c": 7029,
      "0xf133": 7030,
      "0xf169": 7031,
      "0xf009": 7032,
      "0xf006": 7033,
      "0xfaa8": 7034,
      "0xfaa9": 7035,
      "0xfce5": 7036,
      "0xfcec": 7037,
      "0xfac8": 7038,
      "0xfac9": 7039,
      "0xf68a": 7040,
      "0xf68d": 7041,
      "0x9176": 7042,
      "0x911d": 7043,
      "0x12bff": 7044,
      "0x12b50": 7045,
      "0x122c0": 7046,
      "0x122f6": 7047,
      "0x12eef": 7048,
      "0x12eec": 7049,
      "0x1ca10": 7050,
      "0x1ca37": 7051,
      "0x1c2dd": 7052,
      "0x1c269": 7053,
      "0x1c120": 7054,
      "0x1c165": 7055,
      "0x1ca08": 7056,
      "0x1ca06": 7057,
      "0x1cb8d": 7058,
      "0x1cb85": 7059,
      "0x1c7e1": 7060,
      "0x1c7e7": 7061,
      "0xe121": 7062,
      "0xe154": 7063,
      "0x1fe7e": 7064,
      "0x1fe9f": 7065,
      "0x1f5bd": 7066,
      "0x1f5b3": 7067,
      "0x1fa42": 7068,
      "0x1fa45": 7069,
      "0x1fba1": 7070,
      "0x1fba9": 7071,
      "0x1fbd6": 7072,
      "0x1fbde": 7073,
      "0x1f7e9": 7074,
      "0x1f7e7": 7075,
      "0x1f73f": 7076,
      "0x1f73b": 7077,
      "0x1f78a": 7078,
      "0x1f787": 7079,
      "0x585861": 7080,
      "0xdcef": 7081,
      "0xdce3": 7082,
      "0x19f90": 7083,
      "0x19f2e": 7084,
      "0x194cc": 7085,
      "0x19452": 7086,
      "0x199b7": 7087,
      "0x19934": 7088,
      "0x19c07": 7089,
      "0x19c0e": 7090,
      "0x19aa4": 7091,
      "0x19aa7": 7092,
      "0x19931": 7093,
      "0x19935": 7094,
      "0x199ca": 7095,
      "0x199c9": 7096,
      "0x1799d": 7097,
      "0x179fe": 7098,
      "0x17a0f": 7099,
      "0x17a0e": 7100,
      "0x17a85": 7101,
      "0x17a87": 7102,
      "0x1aa57": 7103,
      "0x1aa5c": 7104,
      "0x1a619": 7105,
      "0x1a7cd": 7106,
      "0x1a7c7": 7107,
      "0x1a66c": 7108,
      "0x1a66e": 7109,
      "0x1ac3b": 7110,
      "0x1ac39": 7111,
      "0x1ac81": 7112,
      "0x1ac87": 7113,
      "0x15bd4": 7114,
      "0x15b61": 7115,
      "0x1531d": 7116,
      "0x15358": 7117,
      "0x156ff": 7118,
      "0x156bf": 7119,
      "0x15268": 7120,
      "0x1526d": 7121,
      "0x16fb0": 7122,
      "0x16f13": 7123,
      "0x16907": 7124,
      "0x16906": 7125,
      "0x16ab2": 7126,
      "0x16ab5": 7127,
      "0x1b419": 7128,
      "0x1b429": 7129,
      "0x1ba4f": 7130,
      "0x1ba6d": 7131,
      "0x1b550": 7132,
      "0x1b54f": 7133,
      "0x1dbbe": 7134,
      "0x1db54": 7135,
      "0x1d4a3": 7136,
      "0x1d461": 7137,
      "0x27f50": 7138,
      "0x27f23": 7139,
      "0x273d0": 7140,
      "0x2732e": 7141,
      "0x27e49": 7142,
      "0x27e43": 7143,
      "0x26f1b": 7144,
      "0x26f91": 7145,
      "0x268ab": 7146,
      "0x268ba": 7147,
      "0x265ab": 7148,
      "0x2652e": 7149,
      "0x2614a": 7150,
      "0x26143": 7151,
      "0x26243": 7152,
      "0x26246": 7153,
      "##56e6567": 7154,
      "##369682e": 7155,
      "cmovge": 7156,
      "##a3d70b": 7157,
      "##a3d70a3d70b": 7158,
      "0x2a2ff": 7159,
      "0x2a2ee": 7160,
      "0x2a278": 7161,
      "0x2a27e": 7162,
      "0x2b537": 7163,
      "0x2b55c": 7164,
      "0x63617073": 7165,
      "0x636170736b6": 7166,
      "##46e6520": 7167,
      "0xea0d": 7168,
      "0x1dd07": 7169,
      "0x264fe": 7170,
      "0x29a1c": 7171,
      "0x2907d": 7172,
      "0x295ba": 7173,
      "0x29e13": 7174,
      "0x29f1e": 7175,
      "0x4cc0": 7176,
      "0x4e03": 7177,
      "0x4d44": 7178,
      "0x18f02": 7179,
      "0x18206": 7180,
      "0x18e0e": 7181,
      "0x1840a": 7182,
      "0x18f8b": 7183,
      "0x18d45": 7184,
      "0x18ee7": 7185,
      "0x18f4c": 7186,
      "0x18e41": 7187,
      "0x1869f": 7188,
      "0x18e87": 7189,
      "0x18178": 7190,
      "0x1863b": 7191,
      "0x1822b": 7192,
      "0x18483": 7193,
      "0x18c8c": 7194,
      "0x184ef": 7195,
      "0x10801": 7196,
      "0x10106": 7197,
      "0x10c04": 7198,
      "0x106aa": 7199,
      "0x109dc": 7200,
      "0x1057d": 7201,
      "0x10515": 7202,
      "0x104b3": 7203,
      "0x10546": 7204,
      "0x1066c": 7205,
      "0x106d2": 7206,
      "0x5648": 7207,
      "0x5008": 7208,
      "0x5d8e": 7209,
      "0x5e0a": 7210,
      "0x5234": 7211,
      "0x51eb851f": 7212,
      "0x5b49": 7213,
      "0x5361": 7214,
      "0x5a48": 7215,
      "0x20f05": 7216,
      "0x20204": 7217,
      "0x20c0d": 7218,
      "0x20306": 7219,
      "0x20bc8": 7220,
      "0x20d4d": 7221,
      "0x208e4": 7222,
      "0x20eeb": 7223,
      "0x204fd": 7224,
      "0x20215": 7225,
      "0x20a43": 7226,
      "0x2065d": 7227,
      "0x20a3a": 7228,
      "0x20bda": 7229,
      "0x20ecb": 7230,
      "0x20639": 7231,
      "0x206eb": 7232,
      "0x20c8f": 7233,
      "0x2052f": 7234,
      "0x205f1": 7235,
      "0x28001": 7236,
      "0x286ab": 7237,
      "0x28309": 7238,
      "0x28bc7": 7239,
      "0x289d3": 7240,
      "0x28b8f": 7241,
      "0x28572": 7242,
      "0x284bd": 7243,
      "0x2868d": 7244,
      "0x2866f": 7245,
      "0x28559": 7246,
      "0x24ffe": 7247,
      "0x24cc4": 7248,
      "0x249a0": 7249,
      "0x24c01": 7250,
      "0x24f8f": 7251,
      "0x24aaa": 7252,
      "0x24569": 7253,
      "0x24aeb": 7254,
      "0x24d06": 7255,
      "0x2418c": 7256,
      "0x2434a": 7257,
      "0x248e5": 7258,
      "0x2457f": 7259,
      "0x24214": 7260,
      "0x24f62": 7261,
      "0x24a82": 7262,
      "0x24dc7": 7263,
      "0x242db": 7264,
      "0x24b9e": 7265,
      "0x24938": 7266,
      "0x241f2": 7267,
      "0x2417f": 7268,
      "0x600c": 7269,
      "0x698c": 7270,
      "0x6336": 7271,
      "0x630e": 7272,
      "0x6563": 7273,
      "0x62c1": 7274,
      "0x6373": 7275,
      "0x614e": 7276,
      "0x6ec5": 7277,
      "0x653a": 7278,
      "0x38e38e39": 7279,
      "0xa1a3": 7280,
      "0xaaae": 7281,
      "0xaeed": 7282,
      "0xaf3e": 7283,
      "0xa4fe": 7284,
      "0xa65c": 7285,
      "0xa268": 7286,
      "0xa6d5": 7287,
      "0xad3c": 7288,
      "0xaaaaaaaaaaaaaaa9": 7289,
      "0xcf0f": 7290,
      "0xcb02": 7291,
      "0xc1aa": 7292,
      "0xcee9": 7293,
      "0xcab6": 7294,
      "0xc21c": 7295,
      "0xcf77": 7296,
      "0xc36d": 7297,
      "0xc1c9": 7298,
      "0xc73e": 7299,
      "0xcc32": 7300,
      "0xcd39": 7301,
      "0xc386": 7302,
      "0xc7d1": 7303,
      "0xc962": 7304,
      "0xc749": 7305,
      "0xcccccccccccccccd": 7306,
      "0x14002": 7307,
      "0x14f04": 7308,
      "0x14b03": 7309,
      "0x14be4": 7310,
      "0x14906": 7311,
      "0x14338": 7312,
      "0x14bcd": 7313,
      "0x14d48": 7314,
      "0x14ae5": 7315,
      "0x148e6": 7316,
      "0x142c2": 7317,
      "0x1495e": 7318,
      "0x14974": 7319,
      "0x14ac5": 7320,
      "0x14a46": 7321,
      "0x14baf": 7322,
      "0x1493b": 7323,
      "0x146fa": 7324,
      "0x149cd": 7325,
      "0x149e3": 7326,
      "0x145ef": 7327,
      "0x7f09": 7328,
      "0x7000a382": 7329,
      "0x7983": 7330,
      "0x7b81": 7331,
      "0x7ee4": 7332,
      "0x7172": 7333,
      "0x7787": 7334,
      "0x7fffffffffffffff": 7335,
      "0x7363762f": 7336,
      "0x79726f747": 7337,
      "0x736569727": 7338,
      "0xb602": 7339,
      "0xbd8a": 7340,
      "0xbc08": 7341,
      "0xbbe5": 7342,
      "0xbbc6": 7343,
      "0xbaa8": 7344,
      "0xbb86": 7345,
      "0xb577": 7346,
      "0xbb3a": 7347,
      "0xb6c9": 7348,
      "0xb2f9": 7349,
      "0x2270b": 7350,
      "0x22b76": 7351,
      "0x22201": 7352,
      "0x2290e": 7353,
      "0x22333": 7354,
      "0x22a0f": 7355,
      "0x22921": 7356,
      "0x221e4": 7357,
      "0x229da": 7358,
      "0x228e9": 7359,
      "0x22b85": 7360,
      "0x222c5": 7361,
      "0x2295a": 7362,
      "0x22e47": 7363,
      "0x22f66": 7364,
      "0x22445": 7365,
      "0x22a42": 7366,
      "0x224b6": 7367,
      "0x221c3": 7368,
      "0x22135": 7369,
      "0x22fd3": 7370,
      "0x22143": 7371,
      "0x22fca": 7372,
      "0x22e8d": 7373,
      "0x22632": 7374,
      "0x22788": 7375,
      "0x226ed": 7376,
      "0x22ade": 7377,
      "0x22947": 7378,
      "0x226b5": 7379,
      "0x22a7b": 7380,
      "0x1e909": 7381,
      "0x1ed41": 7382,
      "0x1e187": 7383,
      "0x1eee2": 7384,
      "0x1e5cf": 7385,
      "0x1efb3": 7386,
      "0x1e93a": 7387,
      "0x1e7e9": 7388,
      "0x1ed2b": 7389,
      "0x1e9ed": 7390,
      "0x1e611": 7391,
      "0x1e3f1": 7392,
      "0x1eb11": 7393,
      "0x2360d": 7394,
      "0x23b78": 7395,
      "0x23202": 7396,
      "0x2310d": 7397,
      "0x2398f": 7398,
      "0x23be6": 7399,
      "0x23301": 7400,
      "0x23f83": 7401,
      "0x2356c": 7402,
      "0x23d08": 7403,
      "0x231e9": 7404,
      "0x23b8b": 7405,
      "0x2357e": 7406,
      "0x23977": 7407,
      "0x23f4a": 7408,
      "0x235b6": 7409,
      "0x2358d": 7410,
      "0x2351c": 7411,
      "0x2337a": 7412,
      "0x2344c": 7413,
      "0x23acb": 7414,
      "0x23fed": 7415,
      "0x235c5": 7416,
      "0x23b31": 7417,
      "0x23687": 7418,
      "0x2324e": 7419,
      "0x23e84": 7420,
      "0x23ec7": 7421,
      "0x23177": 7422,
      "0x2363c": 7423,
      "0x23d29": 7424,
      "0x23d5e": 7425,
      "0x236b6": 7426,
      "0x119ad": 7427,
      "0x11e0d": 7428,
      "0x11981": 7429,
      "0x111a2": 7430,
      "0x1123d": 7431,
      "0x11f81": 7432,
      "0x1128d": 7433,
      "0x119df": 7434,
      "0x118ef": 7435,
      "0x117c3": 7436,
      "0x114f5": 7437,
      "0x11975": 7438,
      "0x11a8c": 7439,
      "0x112e2": 7440,
      "0x11b91": 7441,
      "0x11fd2": 7442,
      "0x1168a": 7443,
      "0x11662": 7444,
      "0x11bb5": 7445,
      "0x11179": 7446,
      "0x11638": 7447,
      "0x11a55": 7448,
      "0x119e9": 7449,
      "0x11d3b": 7450,
      "0x25808": 7451,
      "0x25cc6": 7452,
      "0x25902": 7453,
      "0x251a4": 7454,
      "0x25f87": 7455,
      "0x25d43": 7456,
      "0x25aa7": 7457,
      "0x25aed": 7458,
      "0x25d04": 7459,
      "0x258e7": 7460,
      "0x25b45": 7461,
      "0x25b89": 7462,
      "0x257cd": 7463,
      "0x254f2": 7464,
      "0x25512": 7465,
      "0x25f78": 7466,
      "0x25a41": 7467,
      "0x25fb6": 7468,
      "0x252e1": 7469,
      "0x251cf": 7470,
      "0x25e83": 7471,
      "0x25159": 7472,
      "0x25f16": 7473,
      "0x8be1": 7474,
      "0x81c8": 7475,
      "0x8e89": 7476,
      "0x817d": 7477,
      "0x873a": 7478,
      "0x2150e": 7479,
      "0x21cc3": 7480,
      "0x21be7": 7481,
      "0x21a0e": 7482,
      "0x21bc1": 7483,
      "0x21f84": 7484,
      "0x21d4b": 7485,
      "0x21aad": 7486,
      "0x2156d": 7487,
      "0x21cec": 7488,
      "0x217c9": 7489,
      "0x21f37": 7490,
      "0x21f4d": 7491,
      "0x21584": 7492,
      "0x21e44": 7493,
      "0x21211": 7494,
      "0x21279": 7495,
      "0x2199e": 7496,
      "0x21448": 7497,
      "0x21ac9": 7498,
      "0x21654": 7499,
      "0x21d78": 7500,
      "0x21b9c": 7501,
      "0x21a3e": 7502,
      "0x2126b": 7503,
      "0x2193d": 7504,
      "0x21a91": 7505,
      "0x21ec8": 7506,
      "0x211b6": 7507,
      "0x21783": 7508,
      "0x21db2": 7509,
      "0x21def": 7510,
      "0x21d3a": 7511,
      "0x21cd6": 7512,
      "0x213f2": 7513,
      "0x212b6": 7514,
      "0x13803": 7515,
      "0x13b05": 7516,
      "0x1323e": 7517,
      "0x13ae8": 7518,
      "0x13284": 7519,
      "0x13d09": 7520,
      "0x1319b": 7521,
      "0x13ab9": 7522,
      "0x13f71": 7523,
      "0x1336c": 7524,
      "0x13aca": 7525,
      "0x131fa": 7526,
      "0x137eb": 7527,
      "0x13486": 7528,
      "0x13c8d": 7529,
      "0x1394d": 7530,
      "0x13a7d": 7531,
      "0x135fa": 7532,
      "0x1374c": 7533,
      "0xfd82": 7534,
      "0xf9a7": 7535,
      "0xfb4a": 7536,
      "0xf57b": 7537,
      "0xfabd": 7538,
      "0xf375": 7539,
      "0xf7e5": 7540,
      "0xf155": 7541,
      "0xf941": 7542,
      "0x9b7b": 7543,
      "0x9a02": 7544,
      "0x9aa2": 7545,
      "0x944b": 7546,
      "0x9ac7": 7547,
      "0x9fde": 7548,
      "0x9e8a": 7549,
      "0x9784": 7550,
      "0x948a": 7551,
      "0x9c35": 7552,
      "0x9deb": 7553,
      "0x12302": 7554,
      "0x12bc3": 7555,
      "0x12f82": 7556,
      "0x12289": 7557,
      "0x1234f": 7558,
      "0x12bf6": 7559,
      "0x129db": 7560,
      "0x12f45": 7561,
      "0x12516": 7562,
      "0x122e3": 7563,
      "0x12e8f": 7564,
      "0x12ecd": 7565,
      "0x12735": 7566,
      "0x126c2": 7567,
      "0x129b5": 7568,
      "0x12de1": 7569,
      "0x12d32": 7570,
      "0x1c76b": 7571,
      "0x1c8ec": 7572,
      "0x1cab5": 7573,
      "0x1cd7a": 7574,
      "0x1c6d9": 7575,
      "0x1c9f2": 7576,
      "0x1cde7": 7577,
      "0x1c4e9": 7578,
      "0xe40f": 7579,
      "0xe30f": 7580,
      "0xef8e": 7581,
      "0xe18f": 7582,
      "0xebf5": 7583,
      "0xe1e8": 7584,
      "0xeb41": 7585,
      "0xee4e": 7586,
      "0xef61": 7587,
      "0xe2e7": 7588,
      "0xe549": 7589,
      "0xe688": 7590,
      "0xefc4": 7591,
      "0xe15a": 7592,
      "0x1f33e": 7593,
      "0x1f769": 7594,
      "0x1fbce": 7595,
      "0x1fd42": 7596,
      "0x1f568": 7597,
      "0x1f189": 7598,
      "0x1f927": 7599,
      "0x1f8e1": 7600,
      "0x1f37f": 7601,
      "0x1fa83": 7602,
      "0x1fb9f": 7603,
      "0x1f26d": 7604,
      "0x1f1c2": 7605,
      "0x1f139": 7606,
      "0x1fec6": 7607,
      "0x1fad9": 7608,
      "0x1f943": 7609,
      "0x1f5e7": 7610,
      "0x1f296": 7611,
      "0x1f462": 7612,
      "0x1f4e6": 7613,
      "0x1f3cb": 7614,
      "0xd761": 7615,
      "0xd23c": 7616,
      "0xd378": 7617,
      "0xd1f1": 7618,
      "0xd6c1": 7619,
      "0xd55d": 7620,
      "0xd5e9": 7621,
      "0xd4c2": 7622,
      "0x199a3": 7623,
      "0x19ae6": 7624,
      "0x19f7e": 7625,
      "0x19d79": 7626,
      "0x191f9": 7627,
      "0x19531": 7628,
      "0x19d5f": 7629,
      "0x196ef": 7630,
      "0x19a2a": 7631,
      "0x19ad3": 7632,
      "0x19d35": 7633,
      "0x195e6": 7634,
      "0x194e2": 7635,
      "0x1780c": 7636,
      "0x17e05": 7637,
      "0x17193": 7638,
      "0x17579": 7639,
      "0x175b3": 7640,
      "0x17444": 7641,
      "0x17acf": 7642,
      "0x17931": 7643,
      "0x17bb6": 7644,
      "0x1ac0e": 7645,
      "0x1a341": 7646,
      "0x1aa84": 7647,
      "0x1a7e6": 7648,
      "0x1a6c3": 7649,
      "0x1a52b": 7650,
      "0x1ad3e": 7651,
      "0x1a5e5": 7652,
      "0x1580b": 7653,
      "0x15a08": 7654,
      "0x15bfa": 7655,
      "0x151e3": 7656,
      "0x152ca": 7657,
      "0x1519e": 7658,
      "0x15ab2": 7659,
      "0x15213": 7660,
      "0x15241": 7661,
      "0x15229": 7662,
      "0x159c5": 7663,
      "0x15a7f": 7664,
      "0x16986": 7665,
      "0x16b83": 7666,
      "0x16a8a": 7667,
      "0x16a4d": 7668,
      "0x16a9c": 7669,
      "0x16e8b": 7670,
      "0x16ecf": 7671,
      "0x166db": 7672,
      "0x166c6": 7673,
      "0x165eb": 7674,
      "0x1be0f": 7675,
      "0x1b2c4": 7676,
      "0x1bfe9": 7677,
      "0x1be82": 7678,
      "0x1bec1": 7679,
      "0x1b6e2": 7680,
      "0x1ba11": 7681,
      "0x1ba7a": 7682,
      "0x1b387": 7683,
      "0x1d954": 7684,
      "0x1deef": 7685,
      "0x1d194": 7686,
      "0x1d379": 7687,
      "0x1d273": 7688,
      "0x1d653": 7689,
      "0x1dba6": 7690,
      "0x1d63d": 7691,
      "0x1d6c4": 7692,
      "0x1d6e1": 7693,
      "0x2718b": 7694,
      "0x27b43": 7695,
      "0x27b8c": 7696,
      "0x272cb": 7697,
      "0x2797d": 7698,
      "0x27f41": 7699,
      "0x2794a": 7700,
      "0x27de2": 7701,
      "##7665642f": 7702,
      "0x64657463656": 7703,
      "0x26235": 7704,
      "0x2628c": 7705,
      "0x261ef": 7706,
      "0x262c9": 7707,
      "0x26f7d": 7708,
      "0x261cb": 7709,
      "0x26684": 7710,
      "0x2615e": 7711,
      "0x26c89": 7712,
      "0xfffffa3c": 7713,
      "##36162": 7714,
      "0x2b53e": 7715,
      "0x6170735e": 7716,
      "0x61637365": 7717,
      "0xa3d70a3d70a3d70b": 7718,
      "0x636972656e6567": 7719,
      "0x636170736b636162": 7720,
      "0x7000a38200000000": 7721,
      "0x7363762f7665642f": 7722,
      "0x79726f747369682e": 7723,
      "0x73656972746e6520": 7724,
      "0x64657463656c6573": 7725
    }
  }
}