{"version":"1.0","truncation":null,"padding":null,"added_tokens":[{"id":0,"special":true,"content":"[PAD]","single_word":false,"lstrip":false,"rstrip":false,"normalized":false},{"id":1,"special":true,"content":"[UNK]","single_word":false,"lstrip":false,"rstrip":false,"normalized":false},{"id":2,"special":true,"content":"[CLS]","single_word":false,"lstrip":false,"rstrip":false,"normalized":false},{"id":3,"special":true,"content":"[SEP]","single_word":false,"lstrip":false,"rstrip":false,"normalized":false},{"id":4,"special":true,"content":"[MASK]","single_word":false,"lstrip":false,"rstrip":false,"normalized":false},{"id":5,"special":true,"content":"[EOI]","single_word":false,"lstrip":false,"rstrip":false,"normalized":false},{"id":6,"special":true,"content":"[LOOK]","single_word":false,"lstrip":false,"rstrip":false,"normalized":false}],"normalizer":{"type":"BertNormalizer","clean_text":true,"handle_chinese_chars":true,"strip_accents":null,"lowercase":true},"pre_tokenizer":{"type":"BertPreTokenizer"},"post_processor":{"type":"TemplateProcessing","single":[{"SpecialToken":{"id":"[CLS]","type_id":0}},{"Sequence":{"id":"A","type_id":0}},{"SpecialToken":{"id":"[SEP]","type_id":0}}],"pair":[{"SpecialToken":{"id":"[CLS]","type_id":0}},{"Sequence":{"id":"A","type_id":0}},{"SpecialToken":{"id":"[SEP]","type_id":0}},{"Sequence":{"id":"B","type_id":1}},{"SpecialToken":{"id":"[SEP]","type_id":1}}],"special_tokens":{"[CLS]":{"id":"[CLS]","ids":[2],"tokens":["[CLS]"]},"[SEP]":{"id":"[SEP]","ids":[3],"tokens":["[SEP]"]}}},"decoder":{"type":"WordPiece","prefix":"##","cleanup":true},"model":{"type":"WordPiece","unk_token":"[UNK]","continuing_subword_prefix":"##","max_input_chars_per_word":100,"vocab":{"[PAD]":0,"[UNK]":1,"[CLS]":2,"[SEP]":3,"[MASK]":4,"[EOI]":5,"[LOOK]":6,"*":7,"+":8,",":9,"-":10,"0":11,"1":12,"2":13,"3":14,"4":15,"5":16,"6":17,"7":18,"8":19,"9":20,":":21,"[":22,"]":23,"a":24,"b":25,"c":26,"d":27,"e":28,"f":29,"g":30,"h":31,"i":32,"j":33,"k":34,"l":35,"m":36,"n":37,"o":38,"p":39,"q":40,"r":41,"s":42,"t":43,"u":44,"v":45,"w":46,"x":47,"y":48,"z":49,"##x":50,"##8":51,"##f":52,"##4":53,"##c":54,"##5":55,"##a":56,"##3":57,"##2":58,"##1":59,"##d":60,"##7":61,"##e":62,"##9":63,"##b":64,"##6":65,"##0":66,"##n":67,"##i":68,"##p":69,"##m":70,"##o":71,"##v":72,"##l":73,"##u":74,"##w":75,"##r":76,"##s":77,"##y":78,"##t":79,"##q":80,"##h":81,"##g":82,"##z":83,"##k":84,"0x":85,"eo":86,"eoi":87,"##ov":88,"mov":89,"##ax":90,"pt":91,"ptr":92,"##or":93,"0x6":94,"##ord":95,"##word":96,"0x4":97,"lo":98,"##ok":99,"look":100,"rax":101,"eax":102,"ri":103,"rip":104,"rb":105,"rbp":106,"dword":107,"0xa":108,"qword":109,"0x7":110,"rd":111,"0x5":112,"0x3":113,"ca":114,"##ll":115,"call":116,"0x8":117,"0xb":118,"ed":119,"0x64":120,"rdx":121,"0x9":122,"##si":123,"##te":124,"by":125,"byte":126,"rdi":127,"##ea":128,"edx":129,"##ff":130,"0x65":131,"0x1":132,"lea":133,"0xb4":134,"##cx":135,"esi":136,"edi":137,"0x5a":138,"0xa0":139,"##zx":140,"movzx":141,"0x59":142,"0x40":143,"##20":144,"0x4b":145,"al":146,"pu":147,"##sh":148,"push":149,"##64":150,"rcx":151,"##mp":152,"0x43":153,"rs":154,"rsp":155,"0x6f":156,"##nd":157,"rsi":158,"##dd":159,"0x41":160,"0x6e":161,"0x70":162,"0x42":163,"0x4c":164,"0xaa":165,"0x2":166,"movs":167,"movsx":168,"0x37":169,"cmp":170,"0x96":171,"end":172,"##br":173,"endbr":174,"endbr64":175,"0xa1":176,"rbx":177,"0x83":178,"##op":179,"0xc":180,"0x82":181,"0x78":182,"0x4a":183,"0x66":184,"ecx":185,"0x49":186,"0x5b":187,"su":188,"sub":189,"0x38":190,"0x77":191,"r1":192,"##00":193,"0x36":194,"add":195,"je":196,"##ne":197,"te":198,"##st":199,"test":200,"##40":201,"##50":202,"jne":203,"##ffff":204,"##ee":205,"0x3c":206,"0x6d":207,"0x28":208,"##c0":209,"##60":210,"##f0":211,"0x84":212,"##et":213,"movsxd":214,"0x67":215,"0x60":216,"0x45":217,"0x7a":218,"0x63":219,"ret":220,"0x10":221,"##da":222,"##10":223,"0x3f":224,"0xba":225,"0x6c":226,"0x18":227,"0x20":228,"0xae":229,"0xa4":230,"##ul":231,"im":232,"imul":233,"0x75":234,"0xb5":235,"0x79":236,"0x3b":237,"##68":238,"##30":239,"jmp":240,"0x7b":241,"nop":242,"0x5c":243,"0x47":244,"##2d":245,"0xbb":246,"##f9":247,"0x48":248,"##ab":249,"##e0":250,"##5d":251,"0x81":252,"##23":253,"##a3":254,"##18":255,"##70":256,"##1d":257,"0x46":258,"##9d":259,"0x76":260,"and":261,"eb":262,"ebx":263,"0xa3":264,"##96":265,"##a0":266,"##58":267,"##fe":268,"##16":269,"##bd":270,"##ce":271,"##88":272,"##36":273,"##48":274,"##90":275,"##44":276,"0x6b":277,"##31":278,"##28":279,"##d1":280,"0xffff":281,"##f2":282,"##f8":283,"##7d":284,"##3d":285,"0x39":286,"##75":287,"##5b":288,"##af":289,"##46":290,"##c3":291,"##ba":292,"##11":293,"##2f":294,"##27":295,"##2a":296,"0x5d":297,"##25":298,"0x647":299,"##f5":300,"0x80":301,"##33":302,"0x3ee":303,"pop":304,"##13":305,"##26":306,"##2c":307,"##9e":308,"##7a":309,"##76":310,"##df":311,"##38":312,"0x30":313,"0x3eef":314,"##a9":315,"##a5":316,"##b2":317,"##f1":318,"##dc":319,"##fd":320,"##a4":321,"##b9":322,"##6c":323,"##0d":324,"##e9":325,"##4d":326,"##49":327,"##dq":328,"cdq":329,"##eb":330,"##81":331,"##ed":332,"##3b":333,"##17":334,"##f4":335,"##e6":336,"##3a":337,"##89":338,"0x3700":339,"##56":340,"##f6":341,"##d0":342,"##5e":343,"##29":344,"##8c":345,"##73":346,"##b6":347,"cdqe":348,"##12":349,"0x14":350,"0x50":351,"##d5":352,"##8e":353,"##42":354,"##86":355,"##bb":356,"##e7":357,"##ve":358,"leave":359,"##c9":360,"##c6":361,"0x99":362,"##22":363,"##63":364,"0x35":365,"##d8":366,"##1e":367,"##d6":368,"##ae":369,"##15":370,"##53":371,"##4f":372,"##7c":373,"##0e":374,"##9b":375,"0x3620":376,"##84":377,"##a6":378,"##e4":379,"##aa":380,"0x74":381,"0xffffff":382,"##8b":383,"0x24":384,"##35":385,"r8":386,"##65":387,"##14":388,"##5f":389,"##24":390,"##19":391,"##c8":392,"##9f":393,"##c4":394,"##87":395,"fs":396,"##93":397,"##55":398,"##9a":399,"##97":400,"##1c":401,"##9c":402,"##c7":403,"##82":404,"##57":405,"##0f":406,"##1b":407,"##b4":408,"0x36e0":409,"0x3760":410,"##f3":411,"##5c":412,"##59":413,"##fa":414,"##d4":415,"##6a":416,"##fb":417,"##7b":418,"##8f":419,"0x430":420,"##41":421,"##d7":422,"##3e":423,"##77":424,"##ca":425,"##67":426,"##32":427,"##74":428,"##62":429,"0x90":430,"##e2":431,"##98":432,"##c2":433,"##e3":434,"##640":435,"r12":436,"##cf":437,"##0b":438,"##72":439,"##09":440,"0x97":441,"##cb":442,"##c5":443,"##be":444,"0x37f0":445,"0x3640":446,"##1a":447,"##4b":448,"##1f":449,"##b1":450,"##3f":451,"##4a":452,"##66":453,"0x9f":454,"##05":455,"##07":456,"##6f":457,"0x98":458,"##e1":459,"0xc4":460,"0x68":461,"##a8":462,"##a1":463,"##92":464,"##0a":465,"##6d":466,"##b8":467,"##4c":468,"##83":469,"##b5":470,"##ec":471,"##ad":472,"##39":473,"##a2":474,"##ac":475,"##f7":476,"##a7":477,"##61":478,"##d3":479,"##51":480,"##d9":481,"##21":482,"##91":483,"##52":484,"##02":485,"0xb8":486,"##b3":487,"0x3e":488,"##85":489,"##cc":490,"0x8e":491,"xor":492,"##4e":493,"0x54":494,"##db":495,"0x13":496,"##94":497,"##bf":498,"##78":499,"0x69":500,"##2e":501,"0xaf":502,"##69":503,"##c1":504,"0x420":505,"##8a":506,"##b0":507,"0xb50":508,"##99":509,"##5d0":510,"##80":511,"or":512,"##40a":513,"##7e":514,"##37":515,"0x35d0":516,"0x3670":517,"0x34":518,"0x6a":519,"##cd":520,"0x8c":521,"##04":522,"##3c":523,"##e5":524,"##54":525,"##6b":526,"0xb4a3":527,"0xa2":528,"jl":529,"##03":530,"##01":531,"##06":532,"##fa3":533,"##34":534,"0x44":535,"##7f":536,"0x540a":537,"##2b":538,"0xfffffa3":539,"0xfffffffe":540,"0xfffffff5":541,"0xfffffa3c":542,"0x1a":543,"##0c":544,"0x61":545,"##47":546,"0x86":547,"##71":548,"r8d":549,"##6e":550,"0xac":551,"0xa09e":552,"0x58":553,"0x3d":554,"0x94":555,"0x62":556,"##bc":557,"##d2":558,"##43":559,"##b7":560,"##45":561,"0x3910":562,"0xa8":563,"##5a":564,"r10d":565,"0x646c":566,"0x64c0":567,"0x64ab":568,"0x6423":569,"0x6488":570,"0x8b":571,"r11d":572,"##95":573,"0x5e":574,"##ef":575,"0x92":576,"0xb0":577,"0x1c":578,"0x87":579,"sh":580,"0x73":581,"0xd":582,"##79":583,"0xa50":584,"0x6584":585,"0x7c":586,"##8d":587,"##e8":588,"##fc":589,"0x3830":590,"0x71":591,"0x85":592,"0x88":593,"##08":594,"0x4f":595,"0x4e":596,"0xa5":597,"0x3570":598,"jg":599,"0x8f":600,"0x34f0":601,"shl":602,"0xb4ab":603,"0xb4ba":604,"0xb4c2":605,"0x5ae9":606,"0x450":607,"0x95":608,"0xad":609,"0x627":610,"0x7f":611,"0x15":612,"word":613,"0x6548":614,"0xb9":615,"0x3820":616,"0xb4df":617,"0xb4ec":618,"0x6ff":619,"r9d":620,"0x9a":621,"0x6536":622,"0x434":623,"0x5c0":624,"0x9c":625,"0xb4f7":626,"0x64dc":627,"0x6ee1":628,"0x6568":629,"0x64ea":630,"0x650a":631,"0xaa10":632,"0xa130":633,"0xa125":634,"0xa119":635,"0x3720":636,"0x6dd":637,"0x11":638,"0x17":639,"jle":640,"0x16":641,"0xb456":642,"r12d":643,"r15d":644,"r13d":645,"r14d":646,"0xa28":647,"0x66aa":648,"0x9617":649,"0x38f0":650,"0xb468":651,"0xb47b":652,"0xb46d":653,"0x3920":654,"0x63f9":655,"0xb48b":656,"0xb503":657,"0xb4d6":658,"0xb52a":659,"0x6478":660,"0x6472":661,"0x653b":662,"0x6464":663,"0x6400":664,"0x64f9":665,"0x649d":666,"0x6496":667,"0x64fe":668,"0x64ce":669,"0x6444":670,"0x6431":671,"0x645b":672,"0x642a":673,"0x6438":674,"0x64b2":675,"0x64f1":676,"0x64a4":677,"0x64b9":678,"0x6481":679,"0x64f4":680,"0x645e":681,"0x64d5":682,"0x6415":683,"0x644f":684,"0x640e":685,"0x6455":686,"0x641c":687,"0x64c7":688,"0x646a":689,"0x648f":690,"0x643e":691,"0x64e3":692,"0x644a":693,"0x6407":694,"0x6540":695,"0x6518":696,"0x651d":697,"0x6531":698,"0x6546":699,"0x6527":700,"0x652c":701,"0x650d":702,"0x654d":703,"0x6512":704,"0x6522":705,"0x6503":706,"0xb4c0":707,"0xb4da":708,"0xb49d":709,"0xb416":710,"0xb4f8":711,"0xb42f":712,"0xb47a":713,"0xb4a9":714,"0xb4eb":715,"0xb481":716,"0xb4c9":717,"0xb47c":718,"0xb493":719,"0xb4b4":720,"0xb45c":721,"0xb462":722,"0xb4cb":723,"0x63dd":724,"0x63f2":725,"0x63eb":726,"0x63d6":727,"0x63e4":728,"0xb518":729,"0xb51d":730,"0xb536":731,"0xb529":732,"0xb51e":733,"0xb535":734,"0xb514":735,"0xa3da":736,"0x3940":737,"0x647b":738,"0xb504":739,"0xb910":740,"0x9e":741,"0xa02a":742,"0x5acd":743,"0xa0f2":744,"0x3860":745,"0xc3":746,"0x3ff":747,"0x8d":748,"0x3840":749,"0x5c0f":750,"0x8a":751,"0xae20":752,"0x72":753,"0xa077":754,"0xa075":755,"0xa051":756,"0xa068":757,"0xa063":758,"0xadd":759,"0xa0fe":760,"0xa0d1":761,"0x97f9":762,"0xa0a6":763,"0xa098":764,"0x3800":765,"0x5988":766,"0x59af":767,"0x59ba":768,"0x5942":769,"0xa0bd":770,"0xa0af":771,"0xa0d5":772,"0xa08e":773,"0xa0c6":774,"0xa07c":775,"0xa057":776,"0xa0f3":777,"0xa0b5":778,"0x59d1":779,"0x59e6":780,"0xa118":781,"0xa124":782,"0x5a10":783,"0x5a68":784,"0x5aab":785,"0x5a96":786,"0x5aa0":787,"0x5a48":788,"0x5a7d":789,"0x5a25":790,"0x5a33":791,"0x5a2c":792,"0x5aa5":793,"0x5ab2":794,"0x5a17":795,"0x5a3a":796,"0x5a56":797,"0x5a5e":798,"0x5a8c":799,"0x5a63":800,"0x5a1e":801,"0x5a4f":802,"0x5a9b":803,"0x5a87":804,"0x5a82":805,"0x5a59":806,"0x5a41":807,"0x5a77":808,"0x5a72":809,"0x5a09":810,"0x5a6f":811,"0x5aad":812,"0x5a91":813,"0x5a02":814,"0xa0ff":815,"0xa0da":816,"0xa05d":817,"0xa011":818,"0xa076":819,"0xa0a4":820,"0xa0e6":821,"0xa086":822,"0xa0bb":823,"0xa0e7":824,"0xa0c4":825,"0x59dd":826,"0x5950":827,"0x59c0":828,"0x59e0":829,"0x59a3":830,"0x599d":831,"0x5996":832,"0x59c3":833,"0x597a":834,"0x59a9":835,"0x596c":836,"0x5949":837,"0x5981":838,"0x59ed":839,"0x593b":840,"0x59f4":841,"0x595e":842,"0x5973":843,"0x59c9":844,"0x5965":845,"0x5957":846,"0x59b4":847,"0x59fb":848,"0x598f":849,"0x59d7":850,"0x59cf":851,"0xa131":852,"0xa113":853,"0xa10f":854,"0xa50b":855,"0xab":856,"0xa9":857,"0x3a":858,"0x9687":859,"0x6ece":860,"0x6ed4":861,"0xaa8e":862,"0x4c3d":863,"0xaf5":864,"0x27":865,"0xaa66":866,"0x820":867,"0x3730":868,"0x7e":869,"0x12":870,"0x65f3":871,"0x6eba":872,"0x4c89":873,"##44f":874,"##de":875,"0x65bd":876,"0x5b58":877,"0x4d":878,"0x458":879,"##401":880,"0xaf2":881,"0x6a0":882,"0x9ff":883,"0x4bc0":884,"##3fc":885,"0xaa8c":886,"0x6eb6":887,"0x4c30":888,"0x6ed7":889,"0x38a0":890,"0x6efa":891,"0xaa68":892,"0x6f74":893,"0x6f00":894,"0x6f53":895,"0x6f0c":896,"0xaaa1":897,"0xaabf":898,"0x4bb9":899,"0x4bb6":900,"0x4ba2":901,"0x3930":902,"##5b0":903,"0x6f32":904,"0x9663":905,"0x6f20":906,"0x6f40":907,"0x6f60":908,"0x6f2d":909,"0x6f23":910,"0x6f58":911,"0x6f75":912,"0x6f5b":913,"0x6f46":914,"0x6f26":915,"0x6f76":916,"0x6f49":917,"0x6f3a":918,"0x6f35":919,"0x6f14":920,"0x6f0f":921,"0x6f6a":922,"0x6f1a":923,"0x6f07":924,"0x6f4c":925,"0x6eee":926,"0x6eda":927,"0x6ec3":928,"0x6efd":929,"0x6ee9":930,"0x6ef4":931,"0x6ee6":932,"0x6ebb":933,"0x6ec8":934,"0x6ebe":935,"0xaa40":936,"0xaa16":937,"0xaa42":938,"0xaa65":939,"0xaa1c":940,"0xaa1a":941,"0xaa83":942,"0x711":943,"0x468":944,"0x4c42":945,"0x8690":946,"0x4bfd":947,"0x4b8e":948,"0x4c04":949,"0x969c":950,"0xce":951,"0x4c33":952,"0x4c38":953,"0x4bea":954,"0x4b9d":955,"0x4b96":956,"0x4bd1":957,"0x4baf":958,"0x4bc3":959,"0x4bdf":960,"0x4ba5":961,"0x4bf6":962,"0x4bbb":963,"0x4bd8":964,"0x4b9a":965,"0x4bca":966,"0x4be2":967,"0x4bc5":968,"0x4bb1":969,"0x4bac":970,"0x4ba7":971,"0x4b91":972,"0x4b8a":973,"0x4be5":974,"0x4bef":975,"0x4c2d":976,"0x4c18":977,"0x4c13":978,"0x4c26":979,"0x4c0e":980,"0x4c0b":981,"0x4c1f":982,"0xc44f":983,"0xc401":984,"0xc3fc":985,"0x7523":986,"0x7529":987,"0x7522":988,"0xc423":989,"0xc428":990,"0xc432":991,"0xc3da":992,"0x91":993,"js":994,"0x8282":995,"0x922f":996,"0x641b":997,"0x96ba":998,"0x9660":999,"0x9689":1000,"0xdd":1001,"0x6420":1002,"0x64da":1003,"0x642d":1004,"0x64bd":1005,"0x6428":1006,"0x6446":1007,"0x6433":1008,"0x64a5":1009,"0x64ae":1010,"0x6453":1011,"0x648b":1012,"0x6465":1013,"0x645f":1014,"0x649f":1015,"0x649a":1016,"0x6497":1017,"0x6459":1018,"0x6462":1019,"0x64cf":1020,"0x64c5":1021,"0x644b":1022,"0x641f":1023,"0x64b1":1024,"0x643f":1025,"0x6492":1026,"0x64b8":1027,"0x6439":1028,"0x64d9":1029,"0x6485":1030,"0x644e":1031,"0x64db":1032,"0x643c":1033,"0x963d":1034,"0x9611":1035,"0x963b":1036,"0x9615":1037,"0x960b":1038,"0x9661":1039,"0x967e":1040,"0x647f":1041,"0x6474":1042,"0x6471":1043,"0x6479":1044,"##aaaa":1045,"0xba00":1046,"0xaf6":1047,"0x664":1048,"0x9f9":1049,"0x8794":1050,"0x626":1051,"0xb3":1052,"0xadc":1053,"0x448":1054,"0x3520":1055,"0xbd":1056,"0x35a0":1057,"0xa20":1058,"0x6c0":1059,"0xa29":1060,"0x89":1061,"0x840":1062,"0xdc":1063,"0xbe":1064,"0x6d17":1065,"##5d8":1066,"0xa96":1067,"0x746":1068,"0x970":1069,"0x9f8":1070,"0x35b0":1071,"0x850":1072,"0x65ea":1073,"0x65d6":1074,"0x5858":1075,"0xaf1":1076,"0x759a":1077,"0x9fe":1078,"0x65a6":1079,"0x627c":1080,"##12b":1081,"0x21":1082,"0xb4ca":1083,"0x2c":1084,"0x460":1085,"0x51":1086,"0xf":1087,"0xaa2f":1088,"##878":1089,"movab":1090,"movabs":1091,"0xb2":1092,"0x38d0":1093,"0x76df":1094,"0xb878":1095,"0xb49c":1096,"0x620":1097,"0x95c":1098,"0xaddd":1099,"0xaa01":1100,"0x8302":1101,"0xa6":1102,"0x400":1103,"0x38b0":1104,"0x7010":1105,"sa":1106,"0xd1":1107,"sar":1108,"0x625":1109,"0xa7":1110,"0x736":1111,"0x3d0":1112,"0x912b":1113,"0x6588":1114,"r13":1115,"0x710":1116,"0x93":1117,"0x7d":1118,"0x5da":1119,"0x6575":1120,"0x7867":1121,"r14":1122,"r15":1123,"0x9ff3":1124,"0x662e":1125,"0xa5b":1126,"0x3850":1127,"0x1d":1128,"jge":1129,"0x5f":1130,"ax":1131,"0x69d":1132,"0x6713":1133,"0xa40":1134,"0x7058":1135,"0x3680":1136,"set":1137,"0x3650":1138,"setne":1139,"0xd0":1140,"0x83e9":1141,"0x8243":1142,"0x76c2":1143,"##ce9":1144,"0xaf50":1145,"0x99e":1146,"0x4c44":1147,"0x3d1":1148,"0xb7":1149,"0x3980":1150,"0x4a64":1151,"0x9f6":1152,"0x9a0":1153,"0x82c3":1154,"0x65f1":1155,"0x794e":1156,"0x6aff":1157,"0x4986":1158,"0x77a8":1159,"0x6d99":1160,"bl":1161,"0x5b56":1162,"0x35f0":1163,"jn":1164,"0xd5":1165,"0x9b":1166,"jns":1167,"0x858":1168,"0x6613":1169,"0xa30":1170,"0x7694":1171,"0x748":1172,"0x49d9":1173,"0x6620":1174,"0x6616":1175,"0x660e":1176,"0x990":1177,"0x3970":1178,"0x976":1179,"0x6544":1180,"0x6bf9":1181,"0xaea":1182,"0x428":1183,"0x454":1184,"0x760":1185,"0xaf8":1186,"0xe":1187,"##23b":1188,"0x3900":1189,"0x3f0":1190,"0xb86":1191,"0x65a9":1192,"##iv":1193,"0xaf0":1194,"0xad1":1195,"0x464":1196,"##245":1197,"0x49d0":1198,"0x7076":1199,"dl":1200,"0x77b9":1201,"##ed3":1202,"0xc5d8":1203,"0x4a20":1204,"0x4a00":1205,"0x4a40":1206,"0x4a50":1207,"0x4a23":1208,"0x4a1d":1209,"0x4a16":1210,"0x4a28":1211,"0x4a3d":1212,"0x4a33":1213,"0x4a2c":1214,"0x4a49":1215,"0x4a3a":1216,"0x4a53":1217,"0x4a0f":1218,"0x4a05":1219,"0x4a0a":1220,"0x4a45":1221,"0x49dd":1222,"0x49ee":1223,"0x49f8":1224,"0x49eb":1225,"0x49e6":1226,"0x49d5":1227,"0x49d8":1228,"0x49f3":1229,"0x49d4":1230,"0x49fb":1231,"0x49e1":1232,"0xce25":1233,"0xce3a":1234,"0x8272":1235,"0x825b":1236,"0x8286":1237,"0x827f":1238,"id":1239,"0x4568":1240,"idiv":1241,"0x9673":1242,"0xc9":1243,"0x8270":1244,"0x8258":1245,"0x8275":1246,"0x827a":1247,"0x826c":1248,"0x824d":1249,"0x8262":1250,"0x8266":1251,"0x8269":1252,"0x8254":1253,"0x77da":1254,"0xaef0":1255,"0x9714":1256,"0x9706":1257,"0x6fdf":1258,"0x37c0":1259,"0x834a":1260,"0x69e":1261,"0x9e9":1262,"0x77df":1263,"0xbad0":1264,"0x81c6":1265,"0x40d6":1266,"0xa2f":1267,"0x65dd":1268,"0x65a0":1269,"0x65ce":1270,"0x6590":1271,"0x65dc":1272,"0x65b9":1273,"0x6589":1274,"0x658c":1275,"0x65b6":1276,"0x65c9":1277,"0x65ae":1278,"0x65c4":1279,"0x6593":1280,"0x659c":1281,"0x65e1":1282,"0x65a2":1283,"0x65d3":1284,"0x65b3":1285,"0x65c1":1286,"0xa344":1287,"0xda":1288,"0x7090":1289,"0x70a6":1290,"0x706a":1291,"0x7067":1292,"0x7085":1293,"0x707e":1294,"0x401c":1295,"0x78af":1296,"0x655e":1297,"0x77c0":1298,"0x9f91":1299,"0x416b":1300,"0x830f":1301,"0x8301":1302,"0x77bd":1303,"0x77ce":1304,"0x77d1":1305,"0x77b2":1306,"0x77eb":1307,"0x77d5":1308,"0x77e7":1309,"0x77e4":1310,"0x77c7":1311,"0x77d7":1312,"0x77cb":1313,"0x996":1314,"0x9f85":1315,"0xa27":1316,"0x4048":1317,"0x41f8":1318,"0xb88":1319,"0x4036":1320,"0x5aee":1321,"0x5af8":1322,"0x5af5":1323,"0x5af1":1324,"0x5aed":1325,"0x40c0":1326,"0x40ab":1327,"0x40ae":1328,"0x4053":1329,"0x404f":1330,"0x4097":1331,"0x406a":1332,"0x40ca":1333,"0x40c5":1334,"0x43be":1335,"0x5b18":1336,"0x5b46":1337,"0x5b33":1338,"0x5b13":1339,"0x5b26":1340,"0x5b38":1341,"0x5b3b":1342,"0x5b29":1343,"0x5b42":1344,"0x5b22":1345,"0x5b1e":1346,"0x5b4f":1347,"0x5b0e":1348,"0x5b1b":1349,"0x5b41":1350,"0x5b0b":1351,"0x5b05":1352,"0x5b07":1353,"0x5b2e":1354,"0x5b01":1355,"0x9763":1356,"0x4010":1357,"0x4026":1358,"0x4024":1359,"0xa2a":1360,"0x8ee":1361,"0x6fed":1362,"0x41dc":1363,"0x700d":1364,"0xbb30":1365,"0x419d":1366,"0x41b2":1367,"0x4187":1368,"0x417b":1369,"0x416f":1370,"0x130":1371,"0x131":1372,"0x424d":1373,"0x425f":1374,"0xa32c":1375,"0x8f8":1376,"0x41fd":1377,"0x41f6":1378,"0x41cc":1379,"0x4108":1380,"0x422a":1381,"0x4219":1382,"0x4237":1383,"0x42b7":1384,"0x4279":1385,"0x4202":1386,"0x4148":1387,"0x4139":1388,"0xa175":1389,"0xa1b4":1390,"0x9fd":1391,"0x4388":1392,"0x434b":1393,"0x42ee":1394,"0x42f9":1395,"0x4288":1396,"0x428c":1397,"0x429f":1398,"0x42e3":1399,"0x4358":1400,"0x4390":1401,"0x4375":1402,"0x4335":1403,"0x4319":1404,"0x43a1":1405,"0x432e":1406,"0x41a4":1407,"0x42c0":1408,"0x42f2":1409,"0x423e":1410,"0x6d4f":1411,"0x74a6":1412,"0x430a":1413,"0x4302":1414,"0xf0":1415,"0x4064":1416,"0x40dd":1417,"0x40ee":1418,"0x402d":1419,"0x40a3":1420,"0x4058":1421,"0x40ce":1422,"0x4090":1423,"0x4031":1424,"0x40f2":1425,"0x403d":1426,"0x4075":1427,"0x402a":1428,"0x409e":1429,"0x407a":1430,"0x4038":1431,"0x40b2":1432,"0x40fd":1433,"0x40b9":1434,"0x40e9":1435,"0x4081":1436,"0x4017":1437,"0x4089":1438,"0x40f6":1439,"0x408c":1440,"0x4042":1441,"0x4086":1442,"0x4015":1443,"0x407c":1444,"0x40e4":1445,"0x405f":1446,"0x4093":1447,"0x409c":1448,"0x40fa":1449,"0x4067":1450,"0x40e2":1451,"0x4009":1452,"0x40be":1453,"0x4005":1454,"0x40a8":1455,"0x404c":1456,"0x40b5":1457,"0x40d9":1458,"0x4021":1459,"0x400c":1460,"0x4071":1461,"0x406e":1462,"0x40d2":1463,"0x4045":1464,"0x405a":1465,"0x4320":1466,"0x4360":1467,"0x4316":1468,"0x4336":1469,"0x4344":1470,"0x4328":1471,"0x437d":1472,"0x433d":1473,"0x4311":1474,"0x432f":1475,"0x4327":1476,"0x430d":1477,"0x4312":1478,"0x438e":1479,"0x4386":1480,"0x4315":1481,"0x430e":1482,"0x4384":1483,"0x43a6":1484,"0x438b":1485,"0x435f":1486,"0x439c":1487,"0x4359":1488,"0x437b":1489,"0x4377":1490,"0x4367":1491,"0x4374":1492,"0x431a":1493,"0x434a":1494,"0x4366":1495,"0x4392":1496,"0x436d":1497,"0x4383":1498,"0x43ad":1499,"0x4351":1500,"0x4321":1501,"0x4352":1502,"0x438a":1503,"0x4399":1504,"0x433c":1505,"0x436e":1506,"0x4343":1507,"0x4379":1508,"0x41ea":1509,"0x4164":1510,"0x41ee":1511,"0x41c0":1512,"0x4160":1513,"0x412d":1514,"0x411d":1515,"0x4196":1516,"0x4116":1517,"0x41bd":1518,"0x41ce":1519,"0x4144":1520,"0x4128":1521,"0x417d":1522,"0x413d":1523,"0x415b":1524,"0x412f":1525,"0x4176":1526,"0x41a9":1527,"0x41f1":1528,"0x41b9":1529,"0x410d":1530,"0x4156":1531,"0x4112":1532,"0x41e7":1533,"0x41d8":1534,"0x41ae":1535,"0x414f":1536,"0x418b":1537,"0x4124":1538,"0x41c4":1539,"0x41c7":1540,"0x4182":1541,"0x41e3":1542,"0x4172":1543,"0x414b":1544,"0x4192":1545,"0x41a2":1546,"0x41d3":1547,"0x4121":1548,"0x4199":1549,"0x4154":1550,"0x4101":1551,"0x4106":1552,"0x4134":1553,"0x4220":1554,"0x4268":1555,"0x422d":1556,"0x42ab":1557,"0x42a3":1558,"0x4216":1559,"0x4248":1560,"0x427d":1561,"0x4275":1562,"0x425b":1563,"0x42af":1564,"0x4246":1565,"0x42ba":1566,"0x4225":1567,"0x42f5":1568,"0x4233":1569,"0x42df":1570,"0x42dc":1571,"0x42fd":1572,"0x426c":1573,"0x42eb":1574,"0x423a":1575,"0x42d0":1576,"0x4212":1577,"0x42e7":1578,"0x42d8":1579,"0x421e":1580,"0x429b":1581,"0x4284":1582,"0x42c8":1583,"0x42c4":1584,"0x4293":1585,"0x4255":1586,"0x4297":1587,"0x42d4":1588,"0x4241":1589,"0x4262":1590,"0x426f":1591,"0x42a7":1592,"0x4252":1593,"0x42b3":1594,"0x42cc":1595,"r11":1596,"r10":1597,"0x4305":1598,"0x4301":1599,"0x4309":1600,"0x4306":1601,"0x420f":1602,"0x4205":1603,"0x420b":1604,"0x9609":1605,"0x623":1606,"0x4c50":1607,"0x4c7d":1608,"0x4c7a":1609,"0x4c73":1610,"0x4c5f":1611,"0x4c57":1612,"0x4c6b":1613,"0x3540":1614,"0x99d":1615,"0x5c78":1616,"0x927":1617,"0xffffffff":1618,"0x8f9":1619,"0x495d":1620,"0xae40":1621,"0x900":1622,"0x9997":1623,"0x8f6":1624,"0x6606":1625,"0x4c70":1626,"0x4c48":1627,"0x4c75":1628,"0x4c84":1629,"0x4c5c":1630,"0x4c4b":1631,"0x4c66":1632,"0x4c61":1633,"0x4c69":1634,"0x4c54":1635,"0x4c7f":1636,"##1b7":1637,"shr":1638,"0xaa18":1639,"0xaa1d":1640,"0xaa09":1641,"0xaa06":1642,"0xa3ed":1643,"0x749":1644,"0x5e0":1645,"0x6a5":1646,"0x720":1647,"0x5dd":1648,"0x138":1649,"0x37e0":1650,"0x3550":1651,"0x5e20":1652,"0x70c9":1653,"0x7097":1654,"0x4553":1655,"0x9992":1656,"0x6a0b":1657,"0xa9b":1658,"0xa42d":1659,"0x7aed":1660,"0x107d":1661,"0x3790":1662,"0x4732":1663,"0x8377":1664,"0x7788":1665,"0x7ad4":1666,"0x87d":1667,"0x65fc":1668,"0x78e4":1669,"0x76e7":1670,"0x3dd":1671,"0x65f2":1672,"0x8223":1673,"0x7363":1674,"0x8358":1675,"0x78dc":1676,"0x78e1":1677,"0x78d2":1678,"0x81be":1679,"0x8363":1680,"0x8372":1681,"0x836d":1682,"0x8383":1683,"0xa53":1684,"##642f":1685,"0x8212":1686,"0x7926":1687,"##2f76":1688,"##762f76":1689,"##65642f":1690,"0x585861":1691,"0x7363762f76":1692,"0x7363762f7665642f":1693,"0x66ae":1694,"0x837c":1695,"0x835f":1696,"0x8355":1697,"0x8366":1698,"0x836f":1699,"0x8351":1700,"0x8369":1701,"0x837f":1702,"0x6cab":1703,"0x9f58":1704,"0x8b9":1705,"0x84c6":1706,"0x78bd":1707,"0x78ce":1708,"0x78ba":1709,"0x78b6":1710,"0x78c8":1711,"0x78c4":1712,"0x78d4":1713,"0x78d7":1714,"0x78cb":1715,"0x78e8":1716,"0x8204":1717,"0x9fb":1718,"0x6573":1719,"0x6572":1720,"0xa19f":1721,"0x7723":1722,"0x6c25":1723,"##aaaaaaaa":1724,"0x8f0":1725,"0x6608":1726,"0x6210":1727,"0x701c":1728,"0x500":1729,"0x3d4":1730,"0xb4a0":1731,"0xb4bd":1732,"0xb4af":1733,"0xb4a4":1734,"0xb4a8":1735,"0xb4a1":1736,"0xb4b8":1737,"0xb4b3":1738,"0xaa27":1739,"0x69c":1740,"0xb23b":1741,"0xaa05":1742,"0x7a2b":1743,"##d85":1744,"0x5b6d":1745,"0x751c":1746,"0x74f4":1747,"0x768":1748,"0xa0ce":1749,"0xaa22":1750,"0x3b09":1751,"0xa503":1752,"0x3a6":1753,"0x1ce9":1754,"0xaa0d":1755,"0xaa14":1756,"0xaa1f":1757,"0xa1ab":1758,"0xa190":1759,"0xa1a4":1760,"0xa186":1761,"0xa17c":1762,"0xa19a":1763,"0xa197":1764,"0xa183":1765,"0xa18d":1766,"0x6389":1767,"0xba05":1768,"0x3a3":1769,"0x864":1770,"0xb2a":1771,"0x4b30":1772,"0x6749":1773,"0x6795":1774,"0x673c":1775,"cm":1776,"0x738":1777,"0x956":1778,"0x6747":1779,"cmov":1780,"0x6d9d":1781,"0x6da5":1782,"0x6df1":1783,"0x6de9":1784,"0x6dcf":1785,"0x6dd2":1786,"0x8a0":1787,"0x8b6":1788,"0x9e36":1789,"0x856":1790,"0xb1":1791,"0x5d1":1792,"0x8bd":1793,"0x5cfa":1794,"0x475d":1795,"xm":1796,"0x7a5f":1797,"xmm":1798,"0xbc":1799,"0x2d":1800,"0x37d0":1801,"0x6df9":1802,"0x7af2":1803,"0xc5":1804,"0x5cae":1805,"0xdb":1806,"0x8ea":1807,"0x85b":1808,"0x6eb0":1809,"0x4afb":1810,"0x6cda":1811,"0x36f0":1812,"0x712":1813,"0x449":1814,"0x750":1815,"0x66da":1816,"0x66d5":1817,"0x66cb":1818,"0x446":1819,"0x37b0":1820,"0x3890":1821,"0x95cb":1822,"0x7b0b":1823,"0x623f":1824,"0x92d":1825,"0x5d2d":1826,"0x9d":1827,"0x6e9b":1828,"0x6e5a":1829,"0x864d":1830,"0x90e":1831,"0x7711":1832,"0x6c75":1833,"0x3990":1834,"0x468e":1835,"0x45e4":1836,"0xbbb8":1837,"0x9744":1838,"0xaf36":1839,"0x709e":1840,"##11a":1841,"0xbb16":1842,"0x76c0":1843,"##fac":1844,"0x6a9":1845,"0x8f2":1846,"0x8468":1847,"0x95ab":1848,"0x8395":1849,"0x7803":1850,"##f5c":1851,"##1e2":1852,"0xa9b0":1853,"0x7036":1854,"0x36c0":1855,"0x727":1856,"0x70c0":1857,"0x7088":1858,"0x70c3":1859,"0x70a9":1860,"0x70a4":1861,"0x705e":1862,"0x7073":1863,"0x70bb":1864,"0x70ae":1865,"0x70c8":1866,"0x707b":1867,"0x70b1":1868,"0x70a1":1869,"0x70b8":1870,"0x7061":1871,"0x7071":1872,"0x7095":1873,"0x708d":1874,"0xa8f9":1875,"0xa8fe":1876,"0x996a":1877,"0x96ca":1878,"0x6c4c":1879,"0xa329":1880,"0x6a81":1881,"0xa289":1882,"0xa96f":1883,"0x8c0":1884,"0x9aa":1885,"0x8d85":1886,"0x9a3":1887,"0x65cf":1888,"0x66af":1889,"0x66b2":1890,"0x66dc":1891,"0x66d0":1892,"0x66c6":1893,"0x66c8":1894,"0x66b8":1895,"0x66db":1896,"0x66bf":1897,"0x4996":1898,"0x49a0":1899,"0x499b":1900,"0x4992":1901,"0x49c1":1902,"0x79cd":1903,"0x8db2":1904,"0xb2a4":1905,"0x6a6":1906,"0x87c":1907,"0x65c3":1908,"0x135":1909,"0x83bd":1910,"0x6737":1911,"0x6734":1912,"0x664f":1913,"0xa29b":1914,"0xd9":1915,"0x65e0":1916,"0x65ed":1917,"0x659b":1918,"0x6636":1919,"0x94f9":1920,"0x65f5":1921,"0x65c6":1922,"0x65d8":1923,"0x65fa":1924,"0x65e3":1925,"0x65cc":1926,"0x65db":1927,"0x96c8":1928,"0x662d":1929,"0x661d":1930,"0x6628":1931,"0x6625":1932,"0x660b":1933,"0x6609":1934,"0x6603":1935,"0x94f4":1936,"0x29":1937,"0x82f8":1938,"0x4ff":1939,"0x700f":1940,"0x8389":1941,"0x83e2":1942,"0x5c40":1943,"0x5c30":1944,"0x5c2d":1945,"0x5c1d":1946,"0x5c13":1947,"0x5c17":1948,"0x5c3a":1949,"0x5c35":1950,"0x5c14":1951,"0x5c24":1952,"0x5c41":1953,"0x5c3f":1954,"0x5c2b":1955,"##652":1956,"0x6ac8":1957,"0x6ff6":1958,"0xa96d":1959,"0x9e9f":1960,"0x726":1961,"0x6fe7":1962,"0x6fe4":1963,"0x6fe3":1964,"0x7000":1965,"0x700e":1966,"0x7005":1967,"0x7008":1968,"0x83ab":1969,"0x83a9":1970,"0x83b6":1971,"0x839b":1972,"0x83a6":1973,"0x839f":1974,"0x838f":1975,"0x8398":1976,"0x83b8":1977,"0x83a2":1978,"0x83b3":1979,"0x83c1":1980,"0x83b0":1981,"0x828c":1982,"0x759e":1983,"0x6ff3":1984,"0x6ff9":1985,"0x95cd":1986,"0xac3":1987,"0x82af":1988,"0x829e":1989,"0x82a5":1990,"0x82b9":1991,"0x82b6":1992,"0x829b":1993,"0x82c7":1994,"0x8298":1995,"0x82be":1996,"0x82b1":1997,"0x82a8":1998,"0x82a1":1999,"0x8292":2000,"0x82ac":2001,"0x82bc":2002,"0x7705":2003,"0x7915":2004,"0x8ff":2005,"0x8eb":2006,"0x780d":2007,"0x76d3":2008,"0x8039":2009,"0x8504":2010,"0x9f6e":2011,"0x6af":2012,"0x8bb":2013,"0x654f":2014,"0xaa47":2015,"0x9073":2016,"0x6bd":2017,"0x800":2018,"0x6558":2019,"0x6574":2020,"0x136":2021,"0x78ee":2022,"0x785d":2023,"0x7821":2024,"0x77f1":2025,"0x630a":2026,"0x3f44":2027,"0x7947":2028,"0x62f":2029,"0x3df":2030,"0xaa49":2031,"0x82c5":2032,"0x7800":2033,"0x7823":2034,"0x7816":2035,"0x7828":2036,"0x7811":2037,"0x782c":2038,"0x78fd":2039,"0x78f4":2040,"0x781e":2041,"0x7814":2042,"0x781b":2043,"0x78fa":2044,"0x780a":2045,"0x7806":2046,"0x77fd":2047,"0x77f7":2048,"0x7900":2049,"0x7910":2050,"0x7918":2051,"0x791d":2052,"0x7922":2053,"0x790e":2054,"0x791b":2055,"0x790b":2056,"0x7907":2057,"0x7904":2058,"0x81c8":2059,"##2c1":2060,"0x9f73":2061,"0x9f82":2062,"0x6a59":2063,"0x956a":2064,"0x728":2065,"0xa01b":2066,"0x6e76":2067,"0x36b0":2068,"0x602d":2069,"0x3a5":2070,"0x9f5c":2071,"0x655b":2072,"0x65a5":2073,"0x6549":2074,"0x6565":2075,"0x656a":2076,"0x656d":2077,"0x654c":2078,"0x6552":2079,"0x772d":2080,"0x6dfa":2081,"0x9f64":2082,"0x9f60":2083,"0x9f5d":2084,"0x9f7d":2085,"0x9f7a":2086,"0x9568":2087,"0x9f6b":2088,"0x6ea":2089,"0x85d8":2090,"0x7a69":2091,"##3e8":2092,"0x69f":2093,"0x5ab4":2094,"0x83f8":2095,"0x4706":2096,"0x72d":2097,"0xb89":2098,"0x964":2099,"0x8496":2100,"0x84a0":2101,"0x846c":2102,"0x8482":2103,"0x848a":2104,"0x6718":2105,"0x6748":2106,"0x6746":2107,"0x6717":2108,"0x6724":2109,"0x671b":2110,"0x6741":2111,"0x6732":2112,"0x6721":2113,"0x672b":2114,"0xa41d":2115,"##679":2116,"0x984":2117,"0x45f6":2118,"0x45e8":2119,"0x6c44":2120,"##e3c":2121,"0xa20a":2122,"0x4602":2123,"0x13b":2124,"0x676e":2125,"0xae37":2126,"0xa422":2127,"0x3b2c":2128,"0x7678":2129,"0xaea0":2130,"0xa2fd":2131,"0x7f9":2132,"0x7e7":2133,"0x8fe":2134,"0x23":2135,"0x57":2136,"0x5cab":2137,"0x5c90":2138,"0x5c7d":2139,"0x5c89":2140,"0x5c86":2141,"0x5c7c":2142,"0x5ca6":2143,"0x5c97":2144,"0x5c9c":2145,"0x5ca1":2146,"0x5cad":2147,"0x5cac":2148,"0x5c99":2149,"0x5c80":2150,"0x3560":2151,"0x9838":2152,"0x90e8":2153,"ja":2154,"0x3a4":2155,"0x948":2156,"0xb4e2":2157,"0x37a0":2158,"0x6bc9":2159,"0x91c":2160,"0x12f":2161,"0x3ceb":2162,"0x674d":2163,"0x5cd3":2164,"0x467a":2165,"##24b":2166,"0xb40f":2167,"##da7":2168,"0xae57":2169,"0x713":2170,"0x923":2171,"0xc652":2172,"0xc679":2173,"0x49b2":2174,"0x49b9":2175,"0x498e":2176,"0x49c6":2177,"0x49ae":2178,"0x498b":2179,"0x49cb":2180,"0x49a7":2181,"0x498a":2182,"0x49bc":2183,"0x4578":2184,"0x6bc1":2185,"0xc526":2186,"0x712e":2187,"0x4e6":2188,"0x7ff":2189,"0x7f0":2190,"0x719":2191,"0x95d":2192,"0xb4fe":2193,"0x4b23":2194,"0x4b36":2195,"0x4b33":2196,"0x4b26":2197,"0x4b0d":2198,"0x4b3b":2199,"0x4b17":2200,"0x4b29":2201,"0x4b12":2202,"0x4b15":2203,"0x4b1f":2204,"0x4b05":2205,"0x4b0a":2206,"0x4b02":2207,"0x4a7f":2208,"0xba17":2209,"0xaedc":2210,"0xc4f8":2211,"0xaf20":2212,"0x1120":2213,"0xb4f0":2214,"0xb4dc":2215,"0xb4e9":2216,"0xb4d8":2217,"0xb4e4":2218,"0xb4d4":2219,"0xb4cf":2220,"0xb4d2":2221,"0xaa3d":2222,"0xba37":2223,"0x3510":2224,"0x8e96":2225,"0x8e8a":2226,"0x6642":2227,"0xb18":2228,"0xaa39":2229,"0x6623":2230,"0x6611":2231,"0x6633":2232,"0x6626":2233,"0x663a":2234,"0x6629":2235,"0x6619":2236,"0x4589":2237,"0xba20":2238,"0xba80":2239,"0x5dc6":2240,"0xb3e0":2241,"0xb7f2":2242,"0xb6":2243,"0xaa63":2244,"0x459b":2245,"0x45a8":2246,"0xbabc":2247,"##180":2248,"0x9fdb":2249,"0xa9f":2250,"0x7ea":2251,"0xaa44":2252,"0xaa55":2253,"0xaa41":2254,"0xaa51":2255,"0xaa4e":2256,"0xaa37":2257,"0xaa34":2258,"0x7ad8":2259,"0x7b20":2260,"0x7b2e":2261,"0x6bdd":2262,"0x3490":2263,"0x61d":2264,"0x5bb4":2265,"0x5ba7":2266,"0x45a3":2267,"0x4570":2268,"0x4590":2269,"0x457d":2270,"0x459e":2271,"0x456c":2272,"0x4582":2273,"0x4574":2274,"0x456d":2275,"0x45ad":2276,"0x4594":2277,"0x7a05":2278,"0x6cf6":2279,"0xb3f0":2280,"0xad11":2281,"0x840a":2282,"0x6e64":2283,"0x6e67":2284,"0x6e61":2285,"0x6e78":2286,"0x6e6b":2287,"0x6e71":2288,"0x6e6e":2289,"0x5b88":2290,"0x5b76":2291,"0x5b73":2292,"0x5b8e":2293,"0x5b9b":2294,"0x5b8b":2295,"0x5b9f":2296,"0x5b93":2297,"0x5b7b":2298,"0x5b98":2299,"0x5b85":2300,"0x5b78":2301,"0x5b7e":2302,"0x770f":2303,"0x6df8":2304,"0x6dc3":2305,"0x6df5":2306,"0x6d9e":2307,"0x6da9":2308,"0x6ded":2309,"0x6db6":2310,"0x6dbb":2311,"0x6dc6":2312,"0x6dfb":2313,"0x6de2":2314,"0x6dcb":2315,"0x6db1":2316,"0x6da1":2317,"0x6dad":2318,"0x6dbf":2319,"0x6de5":2320,"0x3f50":2321,"0x75af":2322,"0x75c3":2323,"0x75b2":2324,"0x75c6":2325,"0x75cd":2326,"0x4736":2327,"0x4745":2328,"0xbb69":2329,"0x6dda":2330,"0x6dde":2331,"0x6dd6":2332,"0x8402":2333,"0x7f8":2334,"0x87a":2335,"0x6563":2336,"cmovl":2337,"0x45f9":2338,"0x45fe":2339,"0x45f1":2340,"0x45ec":2341,"0xaf24":2342,"0xaf2c":2343,"0xaf19":2344,"0x4604":2345,"0x3ed":2346,"0x7028":2347,"0x2f":2348,"0x3bb3":2349,"0xbb70":2350,"0x52":2351,"0x925":2352,"0xaf5a":2353,"0xaf57":2354,"0x85c":2355,"0x9d1":2356,"0x96b7":2357,"0x6d12":2358,"0x6d0a":2359,"0x67bb":2360,"0x6cfc":2361,"0xaf9":2362,"0x73d":2363,"0x7f6":2364,"0x14d":2365,"0x6e34":2366,"0x84e5":2367,"0xbaf0":2368,"0xbaf9":2369,"0xbafd":2370,"0xbaf4":2371,"0xbaf6":2372,"0xbafa":2373,"0xbb00":2374,"0xbb96":2375,"0xbb7d":2376,"0xbb75":2377,"0xbb81":2378,"0xbb0f":2379,"0xbb7b":2380,"0xbb8f":2381,"0xbb74":2382,"0xbb98":2383,"0xbb09":2384,"0xbb91":2385,"0xbb78":2386,"0xbb8a":2387,"0xbb04":2388,"0xbb0c":2389,"0xaf89":2390,"0x85d":2391,"0x8f3":2392,"##38a":2393,"0xb85c":2394,"0x842d":2395,"0xae6e":2396,"0xbb36":2397,"0xbb3a":2398,"0xbb4f":2399,"0xbb3e":2400,"0xbb4a":2401,"0xbb52":2402,"0xbb37":2403,"0xbb34":2404,"0xbb47":2405,"0xbb43":2406,"0x56":2407,"0x2000":2408,"0xb11a":2409,"0x9622":2410,"0x6d16":2411,"0x6d15":2412,"0x6d07":2413,"0x6d01":2414,"0x6d0c":2415,"0x6cdd":2416,"0x6cf9":2417,"0x6ce0":2418,"0x6cf2":2419,"0x6ce6":2420,"0x6cef":2421,"0x6ce8":2422,"0xb0ee":2423,"0xb0f9":2424,"0x128":2425,"0xa4c6":2426,"0x8e84":2427,"0xaf10":2428,"0xaf1d":2429,"0xaf16":2430,"0xaf2f":2431,"0xaf29":2432,"0xaf14":2433,"0xaf1a":2434,"0x8ba":2435,"0xb28":2436,"0x479a":2437,"0x1b":2438,"0x70d1":2439,"0x70d8":2440,"0x70f3":2441,"0x84d5":2442,"0xaf72":2443,"0xaf54":2444,"0xaf5e":2445,"0xaf56":2446,"0xaf6f":2447,"0xaf6a":2448,"0xaf63":2449,"0xaf67":2450,"0x9d15":2451,"0x6245":2452,"0x624b":2453,"0x9ce9":2454,"0x3c7f":2455,"0x8133":2456,"0x625b":2457,"0x624d":2458,"0x6242":2459,"0x627a":2460,"0x6271":2461,"0x6277":2462,"0x627b":2463,"0x9cf4":2464,"0x626f":2465,"0x626c":2466,"0x6261":2467,"0x6266":2468,"0x6254":2469,"0x6257":2470,"0x625e":2471,"0x990c":2472,"0x496a":2473,"0x4961":2474,"0x3cd2":2475,"0x8a0e":2476,"0x69b":2477,"0x3dc":2478,"0x8fb":2479,"0xa3e2":2480,"0x8089":2481,"0x7710":2482,"0x7a00":2483,"0x76f1":2484,"0x76fb":2485,"0x76a2":2486,"0xa3b3":2487,"0x743e":2488,"0xa28f":2489,"0xa295":2490,"0xaff":2491,"0x150":2492,"0x76a5":2493,"0x769c":2494,"0x7698":2495,"0x7699":2496,"##1e8":2497,"0xadc1":2498,"0x619":2499,"0x810":2500,"0x7894":2501,"0x7796":2502,"0x3fd8":2503,"0x3f9f":2504,"0x3fd3":2505,"0x46d0":2506,"0x46d3":2507,"0x76da":2508,"0x76e2":2509,"0x76cc":2510,"0x34a0":2511,"0x9275":2512,"0x3ff1":2513,"0x3ff6":2514,"0xafd":2515,"0x55":2516,"0x7018":2517,"0x702a":2518,"0x7022":2519,"0x7015":2520,"0x7014":2521,"0x701f":2522,"0xc4b":2523,"0x7888":2524,"0x788c":2525,"0x7880":2526,"xmm0":2527,"0x9aa8":2528,"0x8a9":2529,"0x94c":2530,"0x823b":2531,"0x84b1":2532,"0x84cc":2533,"0x67a5":2534,"0x67aa":2535,"0x3fbd":2536,"0x3f5c":2537,"0x6c60":2538,"0x6c76":2539,"0x6c56":2540,"0x6c6a":2541,"0x6c74":2542,"0xa464":2543,"0xa45d":2544,"0xa4a3":2545,"0xa431":2546,"0xa449":2547,"0xa455":2548,"0xa43e":2549,"0xa467":2550,"0x8e90":2551,"0xa520":2552,"0x6c01":2553,"0x5e3c":2554,"0x97d":2555,"0x97a":2556,"0x6579":2557,"0x773f":2558,"0x6bfe":2559,"0x6bfd":2560,"##ebe":2561,"0x6c0a":2562,"0x6c07":2563,"0x8589":2564,"0x4ed":2565,"0xad0":2566,"0x715":2567,"0x926":2568,"0x8311":2569,"0x830a":2570,"0x776e":2571,"0x7745":2572,"0x6c31":2573,"0x6c38":2574,"0x6c3f":2575,"0x6c47":2576,"0x7b41":2577,"0x81ee":2578,"0x81d1":2579,"0x81f7":2580,"0x628":2581,"0x73b":2582,"0x7da7":2583,"0x8f7":2584,"0x657d":2585,"0x657a":2586,"0x6581":2587,"0x6587":2588,"0x658f":2589,"0x658d":2590,"0x4aaf":2591,"0x3f60":2592,"0x3f75":2593,"0x3f81":2594,"0x3f7c":2595,"0x4741":2596,"0x68d7":2597,"##d34":2598,"0x8ec3":2599,"0x9490":2600,"0xa538":2601,"0xa402":2602,"0xa25":2603,"0xa55":2604,"0x8c9":2605,"0x857":2606,"0x9685":2607,"0x8388":2608,"0x832f":2609,"0x83c9":2610,"0x83d3":2611,"0x828b":2612,"0x77a0":2613,"0x3c90":2614,"0x3ca4":2615,"0x3cae":2616,"0x3c83":2617,"0x3cb3":2618,"0x3c8d":2619,"0x7a31":2620,"0x7a1b":2621,"0x796c":2622,"0x796f":2623,"0xa311":2624,"0x8f6a":2625,"0xadf":2626,"0x853":2627,"0xb1d":2628,"0x43af":2629,"0x8320":2630,"0x8323":2631,"0x8316":2632,"0x8327":2633,"0x8313":2634,"0x83f1":2635,"0x83fd":2636,"0x830d":2637,"0x83ed":2638,"0x83f4":2639,"0x831b":2640,"0x83fa":2641,"0x8306":2642,"0x8231":2643,"0x823d":2644,"0x822a":2645,"0x8235":2646,"0x7736":2647,"0x7733":2648,"0x3fa2":2649,"0x81ff":2650,"0x81da":2651,"0x81e0":2652,"0x81ce":2653,"0x81c3":2654,"0x81f1":2655,"0x81e4":2656,"0x81fb":2657,"0x81ca":2658,"0x81c2":2659,"0x81de":2660,"0x9fae":2661,"0x8202":2662,"0x820d":2663,"0x8209":2664,"0x8407":2665,"0x840e":2666,"0x4fe":2667,"0xaee":2668,"0xa26":2669,"0x764":2670,"0x8ab":2671,"0x918":2672,"0x9fac":2673,"0x6e46":2674,"0x3660":2675,"0x7a63":2676,"0x79dd":2677,"0x79d1":2678,"0x79d9":2679,"0x7952":2680,"0x7b86":2681,"0x4727":2682,"##14b":2683,"0x711e":2684,"0x6ac":2685,"0x70f5":2686,"0x3c58":2687,"0x3c44":2688,"0x3c21":2689,"0x45df":2690,"0x45dc":2691,"0x45c7":2692,"0x3fdd":2693,"0x3fab":2694,"0x3f96":2695,"0x3fce":2696,"0x3f48":2697,"0x3f7a":2698,"0x3f49":2699,"0x3f89":2700,"0x3fe7":2701,"0x3fd6":2702,"0x3f84":2703,"0x3fc8":2704,"0x3f93":2705,"0x3f55":2706,"0x3f9a":2707,"0x3fe3":2708,"0x3fc5":2709,"0x3f6f":2710,"0x3f6d":2711,"0x3fb8":2712,"0x3f4c":2713,"0x3fb5":2714,"0x3fec":2715,"0x3fa7":2716,"0x3f52":2717,"0x3f4e":2718,"0x3f69":2719,"0x3fc1":2720,"0x3fb0":2721,"0x3f54":2722,"0x3f7f":2723,"0x3fef":2724,"0x3f8d":2725,"0xba1a":2726,"0xae9d":2727,"0x4722":2728,"0xbb2d":2729,"0xbb4b":2730,"##1b1":2731,"0x3fff":2732,"0x3ffa":2733,"0x710d":2734,"0xa2c":2735,"0x7e6":2736,"0x516":2737,"0x8c4":2738,"0xb38a":2739,"0x6556":2740,"0x6559":2741,"0x13d":2742,"0x12c":2743,"0x4b59":2744,"0x78ed":2745,"0x4aee":2746,"0x77f0":2747,"0x84fa":2748,"0x7992":2749,"0x9fc9":2750,"0x9f98":2751,"0x6a61":2752,"0x13a":2753,"0xa002":2754,"0x59c4":2755,"0x6e8f":2756,"0x8294":2757,"0x7876":2758,"0x7842":2759,"0x787b":2760,"0x7872":2761,"0x786f":2762,"0x7885":2763,"0x7878":2764,"0x786b":2765,"0x7764":2766,"0x7760":2767,"0x7728":2768,"0x772f":2769,"0x7727":2770,"0x7749":2771,"0x7756":2772,"0x7753":2773,"0x779a":2774,"0x775c":2775,"0x778f":2776,"0x7767":2777,"0x7772":2778,"0x77a2":2779,"0x772b":2780,"0x7743":2781,"0x8470":2782,"0x8488":2783,"0x847d":2784,"0x84df":2785,"0x84a9":2786,"0x84a4":2787,"0x84b6":2788,"0x84e7":2789,"0x84d8":2790,"0x849b":2791,"0x84e4":2792,"0x8474":2793,"0x846d":2794,"0x84b8":2795,"0x84ec":2796,"0x84ac":2797,"0x8478":2798,"0x84d2":2799,"0x7a0e":2800,"0xae11":2801,"0x795d":2802,"0x7956":2803,"0x7973":2804,"0x795f":2805,"0x7959":2806,"0x7967":2807,"0x7962":2808,"##d47":2809,"0x9fdd":2810,"0x9538":2811,"0x9fe5":2812,"0x9fe9":2813,"0x9fd3":2814,"0x948e":2815,"0x94c1":2816,"0xd3":2817,"0x9a5":2818,"0x59e3":2819,"0xaaaaaaaaaa":2820,"0x8419":2821,"0x7a16":2822,"0xae70":2823,"0xae6b":2824,"0x76b6":2825,"0x76bb":2826,"0x76ac":2827,"0x76b3":2828,"0x35c0":2829,"0xffffffbf":2830,"0x9fda":2831,"0x9fa0":2832,"0x9fce":2833,"0x9fa4":2834,"0x9fc6":2835,"##aaaaa9":2836,"0x9f9b":2837,"0x9fe2":2838,"0xaaaaaaaaaaaaaaa9":2839,"##e85":2840,"0x61b7":2841,"0x4f2":2842,"0x7ed":2843,"0x6521":2844,"0x1e85":2845,"0xa010":2846,"0xa00b":2847,"0xa007":2848,"0x6c52":2849,"0x4763":2850,"0x479f":2851,"0x9fc3":2852,"0xa2ce":2853,"0x9ff8":2854,"0x9fff":2855,"0x9fbc":2856,"0x9fb5":2857,"0x4f3":2858,"0x144":2859,"0x146":2860,"0x133":2861,"0x155":2862,"0x5ac3":2863,"0x5abb":2864,"0x5ac8":2865,"0x5abe":2866,"0x4b7a":2867,"0x4b84":2868,"0xa1e9":2869,"0xa1fa":2870,"0x8426":2871,"0x7a51":2872,"0x80c2":2873,"0xa216":2874,"0xa21e":2875,"0xa20f":2876,"0xa539":2877,"0xa26a":2878,"0x5ff":2879,"0x89d":2880,"0x7a1d":2881,"0x7a44":2882,"0x7a3d":2883,"0x7a11":2884,"0x7a49":2885,"0x7a3a":2886,"0x7a09":2887,"0x7a4c":2888,"0x7a37":2889,"0x79ed":2890,"0x79d5":2891,"0x79e7":2892,"0x79fb":2893,"0x79e2":2894,"0x79d2":2895,"0x79ef":2896,"0x7b5d":2897,"0x7b46":2898,"0x7b89":2899,"0x7b73":2900,"0x7b8e":2901,"0x7b69":2902,"0xa363":2903,"##ce5":2904,"0x808b":2905,"0x80bc":2906,"0x3530":2907,"0xa309":2908,"0x690":2909,"0x733":2910,"0xa120":2911,"0xa128":2912,"0xa14c":2913,"0x4a90":2914,"0xa473":2915,"0x3b47":2916,"0x765c":2917,"0xa318":2918,"0xa33b":2919,"##d62":2920,"0xa2dd":2921,"0xa22d":2922,"0xa225":2923,"0xa219":2924,"0xa54d":2925,"0x9db2":2926,"0xb893":2927,"0x688":2928,"0x684":2929,"0xa40a":2930,"0x729":2931,"0x6402":2932,"0x4c46":2933,"0xa1f0":2934,"0xa110":2935,"0xa116":2936,"0xa1fd":2937,"0xa1f7":2938,"0xa12b":2939,"0x841d":2940,"0x675f":2941,"0x6755":2942,"0x6759":2943,"0x6762":2944,"0x6751":2945,"0x674e":2946,"0x7abc":2947,"0x63f0":2948,"0xa418":2949,"0xa411":2950,"0x3b18":2951,"0x3b11":2952,"0x3bb9":2953,"0x3b0d":2954,"0x3b86":2955,"0x3b0e":2956,"0x3b1b":2957,"0x3bd2":2958,"0xa3ff":2959,"0xa320":2960,"0xa3ce":2961,"0xa3f5":2962,"0xa3df":2963,"0xa3eb":2964,"0xa3d0":2965,"0xa3d8":2966,"0xa3c8":2967,"0xa3e5":2968,"0xa3fc":2969,"0xdd38":2970,"0xa204":2971,"0xa202":2972,"0xa405":2973,"0xa40e":2974,"0x3d1f":2975,"0x3d1a":2976,"0xa304":2977,"0xa30c":2978,"0xb6a5":2979,"0x8a94":2980,"0xa7d":2981,"0xa6c":2982,"0x7e9":2983,"0xb1b7":2984,"0x6e4a":2985,"0x67c0":2986,"0x67b6":2987,"0x67c6":2988,"0x679f":2989,"0x679a":2990,"0x67c7":2991,"0x67c5":2992,"0x67b1":2993,"0x67ac":2994,"0xba6c":2995,"0xba91":2996,"0xae30":2997,"0x47f9":2998,"0x4616":2999,"0x4619":3000,"0x469f":3001,"0x469c":3002,"0xb502":3003,"0x468a":3004,"0x68c":3005,"0x6aa":3006,"0x148":3007,"0x6fc4":3008,"0x4984":3009,"0x4965":3010,"0x4974":3011,"0x4962":3012,"0x496f":3013,"0x4983":3014,"0x4985":3015,"0x497e":3016,"0x4979":3017,"0x455b":3018,"0x45b2":3019,"0x4557":3020,"0x4566":3021,"0x7ac7":3022,"0x7aa1":3023,"0xae44":3024,"0x818e":3025,"0x8070":3026,"0x8076":3027,"0x804d":3028,"0x803f":3029,"0x80a2":3030,"##7b8":3031,"##7be":3032,"0xa2a0":3033,"0x68e":3034,"0x868":3035,"0x870":3036,"0x9a6":3037,"0x4b5d":3038,"0x4b73":3039,"0x6e94":3040,"0x702c":3041,"0x7a88":3042,"0x75df":3043,"0x5cff":3044,"0x5d20":3045,"0x5d16":3046,"0x5d2a":3047,"0x5d25":3048,"0x5d2c":3049,"0x5d0f":3050,"0x5d0a":3051,"0x5d04":3052,"0x5d2b":3053,"0xb89d":3054,"0x34e0":3055,"0x5d11":3056,"0x5d1b":3057,"0x6fbc":3058,"0x6e48":3059,"0x6e31":3060,"0x6e2a":3061,"0x6e3b":3062,"0x6e41":3063,"0x6e3e":3064,"0x6e37":3065,"0x3690":3066,"0x6dae":3067,"0x6da8":3068,"0x84cf":3069,"0x6c2f":3070,"0x75d0":3071,"0x5cba":3072,"0x5cb2":3073,"0x5cb6":3074,"0x5cc4":3075,"0x5cc7":3076,"0x5cbe":3077,"0x5cb3":3078,"ne":3079,"0x617":3080,"0xb00":3081,"0x4b7d":3082,"0x4b82":3083,"0x4b3f":3084,"0x6fc8":3085,"0x6fc1":3086,"0x70ab":3087,"0x70d6":3088,"0xba7d":3089,"0xbae7":3090,"0xaef8":3091,"0xaec5":3092,"0x7bc9":3093,"0x7613":3094,"##f86":3095,"0xc4ae":3096,"0xb8ac":3097,"0x7607":3098,"neg":3099,"0x910":3100,"0x982":3101,"0x15b0":3102,"0x4560":3103,"0x4558":3104,"0x4565":3105,"0x4567":3106,"0x7a70":3107,"0x7a57":3108,"0x7a74":3109,"0xae8c":3110,"0xaeb1":3111,"0xb864":3112,"0xb860":3113,"0x9e68":3114,"0x9e55":3115,"0x9e82":3116,"0x7467":3117,"0xb861":3118,"0xb86e":3119,"0xb86b":3120,"0x9e99":3121,"0x69cc":3122,"0x92d2":3123,"0x6ab":3124,"0x725":3125,"0x8c3":3126,"0x64f6":3127,"0x9ce5":3128,"0x4000":3129,"0x7031":3130,"0xca":3131,"0x4aab":3132,"0x4aa3":3133,"0x4a96":3134,"0x4aa0":3135,"0x4a9e":3136,"0x4aa5":3137,"0x4a8c":3138,"0x4a84":3139,"0x4a93":3140,"0x4a82":3141,"0x4aa8":3142,"0x4a99":3143,"0xba10":3144,"0xba0d":3145,"0xba04":3146,"0xba08":3147,"0xae02":3148,"0x7b30":3149,"0x7b3f":3150,"0x7b34":3151,"0x4664":3152,"0x5d74":3153,"0x5dbf":3154,"##22e":3155,"0x6ffd":3156,"0x7108":3157,"0x5e03":3158,"0x518":3159,"0x92c1":3160,"0x6fc0":3161,"0x6fe6":3162,"0x6fd5":3163,"0x6fe2":3164,"0x6fd9":3165,"0x6fcc":3166,"0x6fdb":3167,"0x7064":3168,"0x70ee":3169,"0x7060":3170,"0x70f9":3171,"0x705d":3172,"0x70a3":3173,"0x7070":3174,"0x70fe":3175,"0x70bd":3176,"0x70ce":3177,"0x703d":3178,"0x70af":3179,"0x7046":3180,"0x702f":3181,"0x7026":3182,"0x70df":3183,"0x70b2":3184,"0x70b9":3185,"0x70eb":3186,"0x7017":3187,"0x7012":3188,"0x70e7":3189,"0x704f":3190,"0x709f":3191,"0x7093":3192,"0x709a":3193,"0x70c7":3194,"0x7082":3195,"0x7057":3196,"0x70fb":3197,"0x7074":3198,"0x70e2":3199,"0x7098":3200,"0x70c2":3201,"0x700b":3202,"0x704a":3203,"0x7039":3204,"0x7021":3205,"0x7052":3206,"0x70bf":3207,"0x708a":3208,"0x7003":3209,"0x7006":3210,"0x7034":3211,"0x7043":3212,"0x70b7":3213,"0x7079":3214,"0xc0":3215,"0x77d8":3216,"0x8438":3217,"0x8463":3218,"0x67d1":3219,"0x7af0":3220,"0x7af9":3221,"0x7af6":3222,"0xba30":3223,"0xba2d":3224,"0xba28":3225,"0xba25":3226,"0xba24":3227,"0x7b00":3228,"0x7b13":3229,"0x7b15":3230,"0x7b0e":3231,"0x7b04":3232,"0x7b08":3233,"0x4738":3234,"0x6b90":3235,"0x6b6c":3236,"0x6b81":3237,"0x6b8d":3238,"0x5d9d":3239,"0x5dbd":3240,"0x5d31":3241,"0x5d3d":3242,"0x5dba":3243,"0x5d4d":3244,"0x5d49":3245,"0x5d53":3246,"0x5d35":3247,"0x5d9f":3248,"0x5d93":3249,"0x5d55":3250,"0x5d9a":3251,"0x5d97":3252,"0x5d41":3253,"0x5d32":3254,"0x5db5":3255,"0x5d39":3256,"0x5db3":3257,"0x5db0":3258,"0x5d45":3259,"0x7127":3260,"0x6ff8":3261,"0x6ff5":3262,"0x6ff1":3263,"0x8a50":3264,"0x8a7d":3265,"0x8a2c":3266,"0x8a63":3267,"0x7114":3268,"0x711a":3269,"0x7111":3270,"0x7119":3271,"0xa6d7":3272,"0x7103":3273,"0x5da4":3274,"0x5dad":3275,"0x5da7":3276,"0x5da9":3277,"0x726c":3278,"0x8ab9":3279,"0xa6c6":3280,"0xd8":3281,"0xaf4":3282,"0xaf7":3283,"0x7f1":3284,"0x3d34":3285,"0x8e9":3286,"0x911":3287,"0x9667":3288,"0xc97":3289,"0x45c1":3290,"0x7ac1":3291,"0xba40":3292,"0xba48":3293,"0xba44":3294,"0xba4b":3295,"0xba4e":3296,"0xba45":3297,"0x7b3a":3298,"0x483e":3299,"0x46d5":3300,"0x4654":3301,"0x46b7":3302,"0x68a4":3303,"0x3d2d":3304,"0xdbd":3305,"0xaf07":3306,"0x733f":3307,"0x600":3308,"0x9ebe":3309,"0x15d":3310,"0x6ed1":3311,"0x6e7a":3312,"0x6e81":3313,"0x6e89":3314,"0x6e8c":3315,"0x6ec6":3316,"0x6eca":3317,"0x6ed9":3318,"0x6e85":3319,"0x6ebf":3320,"0x6e99":3321,"0x6ede":3322,"0xaa5e":3323,"0xaa57":3324,"0xaa61":3325,"0x66fe":3326,"0x45b7":3327,"0x7aea":3328,"0x7aff":3329,"0x7a90":3330,"0x7af8":3331,"0x7a7d":3332,"0x7a5b":3333,"0x7a9e":3334,"0x7a76":3335,"0x7ab2":3336,"0x7a81":3337,"0x7a8c":3338,"0x7aa6":3339,"0x7a93":3340,"0x7a5c":3341,"0x7afb":3342,"0x7aca":3343,"0x7a67":3344,"0x7a98":3345,"0x7acf":3346,"0x7ae1":3347,"0x7aa8":3348,"0x7aad":3349,"0x7acc":3350,"0x7ae5":3351,"0x7ab7":3352,"0x7ade":3353,"0x10ab":3354,"0xbaa0":3355,"0xbaa5":3356,"0xbab2":3357,"0xbaa4":3358,"0xbaaa":3359,"0xbab5":3360,"0xbaad":3361,"0xae2d":3362,"0xae28":3363,"0xae25":3364,"0xae24":3365,"0x7ba3":3366,"0x7b1d":3367,"0x7b96":3368,"0x7b58":3369,"0x7b90":3370,"0x7b7d":3371,"0x7baf":3372,"0x7b11":3373,"0x7b25":3374,"0x7b33":3375,"0x7b9e":3376,"0x7b7a":3377,"0x7bb9":3378,"0x7b6c":3379,"0x7b4d":3380,"0x7b35":3381,"0x7b14":3382,"0x7b19":3383,"0x7b82":3384,"0x7b0f":3385,"0x7bb4":3386,"0x7b3e":3387,"0x7b62":3388,"0x7bc2":3389,"0x7b4a":3390,"0x7b05":3391,"0x7ba8":3392,"0x7bb5":3393,"0x7bac":3394,"0x7b52":3395,"0x7b02":3396,"0x7b94":3397,"0x7b99":3398,"0x7b54":3399,"0x7b2b":3400,"0x7b71":3401,"0x7b5a":3402,"0xbbab":3403,"0xbbb4":3404,"0x4812":3405,"0x4805":3406,"0x7627":3407,"0x69a3":3408,"0x9e31":3409,"0xadd3":3410,"0xadd0":3411,"0xadc5":3412,"0xadc9":3413,"0xadc6":3414,"0x927b":3415,"0xa90":3416,"0x8b2":3417,"0x930":3418,"0x45ba":3419,"0x45d0":3420,"0x45b6":3421,"0x45d6":3422,"0x45d4":3423,"0xbadd":3424,"0xbae0":3425,"0xbad8":3426,"0xbad4":3427,"0xae50":3428,"0xae48":3429,"0xae4d":3430,"0xae45":3431,"0x7547":3432,"0x4718":3433,"0x4711":3434,"0x472c":3435,"0x471f":3436,"0x470a":3437,"0xbb9d":3438,"0xbba4":3439,"0xbb9f":3440,"0xbb9a":3441,"0xbba8":3442,"0x467d":3443,"0x4627":3444,"0x46a9":3445,"0x4612":3446,"0x4622":3447,"0x461e":3448,"0x46c8":3449,"0x46c4":3450,"0x4698":3451,"0x46cb":3452,"0x46a2":3453,"0x46a7":3454,"0x4695":3455,"0x3e8":3456,"0x8518":3457,"0xa98b":3458,"0x4683":3459,"0x4687":3460,"0x4680":3461,"0xb268":3462,"0xb287":3463,"0x33":3464,"0x8fd":3465,"0x12a":3466,"0xae64":3467,"0xae60":3468,"0xae68":3469,"0xae65":3470,"0x349":3471,"0xbf":3472,"0x936":3473,"0x928":3474,"0x7993":3475,"##32e":3476,"##2e5":3477,"0x62d":3478,"0x149":3479,"0xaec0":3480,"0xaefd":3481,"0xaef4":3482,"0xaed5":3483,"0xaec4":3484,"0xaeca":3485,"0xaecd":3486,"0xaed2":3487,"0xaf00":3488,"0x7ee":3489,"0x71d":3490,"0x74d":3491,"0x70cc":3492,"0x665a":3493,"##104":3494,"0x3f00":3495,"0x75f1":3496,"0x75d5":3497,"0x75ec":3498,"0x8043":3499,"0x3ef3":3500,"0x7199":3501,"0x4e7":3502,"0x740":3503,"0x8f4":3504,"0x6631":3505,"0x3b27":3506,"0x48a7":3507,"0x7466":3508,"0x855":3509,"0x8c2":3510,"0x9ed3":3511,"0x412c":3512,"0x6d91":3513,"0x4828":3514,"0x4883":3515,"0x4629":3516,"0x80ae":3517,"0x8087":3518,"##bb0":3519,"0x7370":3520,"0x1150":3521,"0x7f5":3522,"0x9a4":3523,"0x3cda":3524,"0x3cbf":3525,"0x4857":3526,"0x48db":3527,"0x4632":3528,"##f27":3529,"##e7f":3530,"0x9916":3531,"##1c2":3532,"0x3d3e":3533,"0x4646":3534,"0x86c":3535,"0xb485":3536,"0x3c78":3537,"0x63bd":3538,"0xa369":3539,"0x6b59":3540,"0x8068":3541,"0x99b6":3542,"0x99c9":3543,"0x999f":3544,"0x99c2":3545,"0x99b3":3546,"0x99cc":3547,"0x98ea":3548,"0xa96e":3549,"0x8ed":3550,"0x919":3551,"0x65fb":3552,"0x1180":3553,"0x4189":3554,"0x4152":3555,"0x416e":3556,"0x84ed":3557,"0x75ba":3558,"0x75fd":3559,"0x75a4":3560,"0x75e9":3561,"0x75e6":3562,"0x75f6":3563,"0x75fa":3564,"0x75a8":3565,"0x75b5":3566,"0x75db":3567,"0x75bf":3568,"0x4631":3569,"0x4673":3570,"0x4657":3571,"0x7616":3572,"0x8050":3573,"0x807a":3574,"0x8081":3575,"0x805e":3576,"0x808c":3577,"0x8084":3578,"0x809f":3579,"0x8055":3580,"0x8098":3581,"0x80b1":3582,"0x804a":3583,"0x80a7":3584,"0x8061":3585,"0x8091":3586,"0x806b":3587,"0x805a":3588,"0x8095":3589,"0x991d":3590,"0x98f2":3591,"0x7604":3592,"0x760c":3593,"0x6ae":3594,"0x4ee":3595,"0x3ea":3596,"0x98c":3597,"0x6e18":3598,"0x615":3599,"0x44d":3600,"0x72f":3601,"0x72c":3602,"0x3a0":3603,"0x158":3604,"0x5922":3605,"0x6e00":3606,"0x6e28":3607,"0x6e13":3608,"0x6e07":3609,"0x6e03":3610,"0x6dff":3611,"0x6b75":3612,"0x6b78":3613,"0xabc3":3614,"0x62f6":3615,"0x618":3616,"0x612":3617,"0x44b":3618,"0x888":3619,"0x8fa":3620,"0x60ff":3621,"0x60d1":3622,"0x6b9a":3623,"##b69":3624,"0x72a":3625,"0x3d6":3626,"0x4a55":3627,"0x3f36":3628,"0x7452":3629,"0x9a30":3630,"0x72b":3631,"0x8c6":3632,"0x859":3633,"0xbd0":3634,"0x3c71":3635,"0x3f27":3636,"0x3f2e":3637,"0xa4cb":3638,"##f97":3639,"0x48ad":3640,"0x48cc":3641,"0x48b7":3642,"0x1398":3643,"0x4459":3644,"0x3f0e":3645,"xmm1":3646,"0x91cd":3647,"0xd62":3648,"0xb7a":3649,"0x666c":3650,"0x6677":3651,"0x3c10":3652,"0x3c63":3653,"0x3c06":3654,"0x3bff":3655,"0x3b46":3656,"0x3ba5":3657,"0x3b99":3658,"0x46b8":3659,"##b97":3660,"0x99a7":3661,"0x7479":3662,"0xacdd":3663,"0x69d0":3664,"0x6a97":3665,"0x5ffc":3666,"cl":3667,"0x4f6":3668,"0x3da":3669,"0x917":3670,"##64b":3671,"0x665d":3672,"0x66a9":3673,"0x6695":3674,"0x4904":3675,"0x5bc2":3676,"0xa4a5":3677,"0x3b6b":3678,"0x48e1":3679,"0x48e8":3680,"0x8113":3681,"0x8124":3682,"##3b3":3683,"0x693":3684,"0xafe":3685,"0x718":3686,"0x889":3687,"0xbca":3688,"0xbd47":3689,"0xb487":3690,"0xb48f":3691,"0xc3e8":3692,"0x3cff":3693,"0x3cee":3694,"0x3cf0":3695,"0x3cf9":3696,"0x3ce0":3697,"0x3cba":3698,"0x3c9e":3699,"0x3cf1":3700,"0x3ce6":3701,"0x3c86":3702,"0x3caa":3703,"0x3cc4":3704,"0x3c93":3705,"0x3cc7":3706,"0x3cf3":3707,"0x3c98":3708,"0x3ce3":3709,"0x3ce1":3710,"0x3cec":3711,"0x3cac":3712,"0x3cd9":3713,"0x3ccc":3714,"0x3ce8":3715,"0x47a5":3716,"0x46e4":3717,"0x46be":3718,"##d78":3719,"0x3d48":3720,"0x3d46":3721,"0x3d27":3722,"0x3d3b":3723,"0x3d22":3724,"0xdbb0":3725,"0xdb97":3726,"0xd3b3":3727,"0x1590":3728,"0xc3ea":3729,"0xc3f2":3730,"0xabed":3731,"0xbd93":3732,"0xdc8e":3733,"0x3d05":3734,"0x3d07":3735,"0x3d0e":3736,"0x3d09":3737,"0x3d15":3738,"0x3d41":3739,"0x3d47":3740,"0xbcdd":3741,"0xbcf8":3742,"0xdbf1":3743,"0xdbd6":3744,"0xbd03":3745,"0xbcac":3746,"0x4f0":3747,"0xaf3":3748,"0x3e0":3749,"0x916":3750,"0x913":3751,"0x15b":3752,"0xc8f":3753,"0xc66":3754,"0x6caa":3755,"0x7659":3756,"0x6bbe":3757,"##dc2":3758,"##972":3759,"0x97c0":3760,"0xb501":3761,"0x869c":3762,"0xd8b":3763,"0x8da":3764,"0x8e0":3765,"0x886":3766,"0xb4f9":3767,"0xb4f2":3768,"0xb4fc":3769,"0x6650":3770,"0x665c":3771,"0x45c2":3772,"0x3b7a":3773,"##fbc":3774,"##3e1":3775,"0x62c":3776,"0x4f4":3777,"0x4e4":3778,"0xac9":3779,"0x3af":3780,"0xb7b8":3781,"0x950":3782,"0x986":3783,"0x65ff":3784,"0x65f8":3785,"0x65f7":3786,"0x139":3787,"0xc1":3788,"0xcaf":3789,"0x665b":3790,"0x663f":3791,"0x663c":3792,"0x6cce":3793,"0x6cc4":3794,"0x6cb3":3795,"0x6cb7":3796,"0xa444":3797,"0x14a0":3798,"0x6648":3799,"0x664b":3800,"0x840c":3801,"0xb7a6":3802,"0xac2":3803,"0x8af":3804,"0x89c":3805,"0xb19":3806,"0x9a9":3807,"0xaa5c":3808,"0xaa67":3809,"0x5bb5":3810,"0x6ca0":3811,"0xb537":3812,"0xa527":3813,"0x69f3":3814,"0x610":3815,"0x616":3816,"0x3e9":3817,"0x3eb":3818,"0x958":3819,"0x92f":3820,"0x973":3821,"0x25":3822,"0xcf":3823,"0xc23":3824,"0x5b64":3825,"0x5bc0":3826,"0x5b60":3827,"0x5b5d":3828,"0x5ba4":3829,"0x5b5c":3830,"0x5ba1":3831,"0x5bad":3832,"0x5bbf":3833,"0x5bc1":3834,"0x5bb0":3835,"0x5b6b":3836,"0x6cc7":3837,"0x6cb0":3838,"0x7544":3839,"0xb5ff":3840,"0x475f":3841,"0xa3a1":3842,"0xfffffff8":3843,"0xffffffc7":3844,"0x68d0":3845,"0xaf22":3846,"0xaf0c":3847,"0xafd8":3848,"0x698":3849,"0x7eb":3850,"0x3ed3":3851,"0xb13":3852,"0xb245":3853,"0xb1c2":3854,"0x15e":3855,"0x4b66":3856,"0x36d0":3857,"0x6d97":3858,"0xb5f5":3859,"0x98d8":3860,"##ecc":3861,"0x8fb4":3862,"0xad1b":3863,"0xb186":3864,"0x3ed8":3865,"0x73dc":3866,"0xb198":3867,"0x6a7":3868,"0x71a":3869,"0x515":3870,"0x3ae":3871,"0xbed3":3872,"0xb2c1":3873,"0xbf27":3874,"0xbe7f":3875,"0xbdc2":3876,"0x975":3877,"0x83c3":3878,"0x83d8":3879,"0x3c50":3880,"0x3c5d":3881,"0x3c7d":3882,"0x3c3d":3883,"0x3c11":3884,"0x3c2f":3885,"0x3c13":3886,"0x3c3b":3887,"0x3c17":3888,"0x3c29":3889,"0x3c12":3890,"0x3c1e":3891,"0x3c7c":3892,"0x3c35":3893,"0x3c24":3894,"0x3c55":3895,"0x3c6a":3896,"0x3c77":3897,"0x3c74":3898,"0x3c09":3899,"0x3c4b":3900,"0x3c3f":3901,"0x3c7e":3902,"0x3c0c":3903,"0x6787":3904,"0x6361":3905,"0xb541":3906,"0xb539":3907,"0xb5f7":3908,"0x3bea":3909,"0x3be0":3910,"0x3ba0":3911,"0x3bf2":3912,"0x3bf8":3913,"0x3b75":3914,"0x3bb2":3915,"0x3b4d":3916,"0x3b81":3917,"0x3bed":3918,"0x3bd0":3919,"0x3b73":3920,"0x3bb6":3921,"0x3b8e":3922,"0x3baa":3923,"0x3b8b":3924,"0x3b65":3925,"0x3b5f":3926,"0x3bc4":3927,"0x3b93":3928,"0x3b57":3929,"0x3bb4":3930,"0x3bd4":3931,"0x3bca":3932,"0x3bbe":3933,"0x3bad":3934,"0x3bac":3935,"0x3ba7":3936,"0x3bd9":3937,"0x3be5":3938,"0x3b54":3939,"0x3b71":3940,"0x3b5a":3941,"0x47ff":3942,"0x4864":3943,"0x4850":3944,"0x482d":3945,"0x4831":3946,"0x4825":3947,"0x487a":3948,"0x4838":3949,"0x486c":3950,"0x483b":3951,"0x4817":3952,"0x481e":3953,"0x485f":3954,"0x480f":3955,"0x4877":3956,"0x484a":3957,"0x4802":3958,"0x4869":3959,"0x480c":3960,"0x4871":3961,"0x4843":3962,"0x485a":3963,"##233":3964,"0x46f2":3965,"0x98ce":3966,"0xc4c0":3967,"0xc4b6":3968,"##d37":3969,"0x61bd":3970,"0xacfe":3971,"0xacd3":3972,"0x3a26":3973,"0xdd68":3974,"0xbdbd":3975,"0xbd76":3976,"0xbdb9":3977,"0xbd97":3978,"0xdcbd":3979,"0xdc82":3980,"0xdca8":3981,"0xdc71":3982,"0xdcfc":3983,"0xbe40":3984,"0xbe5d":3985,"0xbe8c":3986,"0xbe59":3987,"0xb270":3988,"0x620d":3989,"0x9903":3990,"0xb1a9":3991,"0x7f01":3992,"0xb183":3993,"0xc4b8":3994,"0xb1d4":3995,"0x636170":3996,"0x61e2":3997,"0x61e8":3998,"0x3ecc":3999,"0x129":4000,"0x6e51":4001,"0xc1e2":4002,"0x6da3":4003,"0x3f33":4004,"0x3f12":4005,"0x3f22":4006,"0x3f19":4007,"0x3f1c":4008,"0x3f1f":4009,"0x6c64":4010,"0x6ca3":4011,"0x6c9d":4012,"0x6c96":4013,"0x6c58":4014,"0x6c7d":4015,"0x6ca9":4016,"0x6c89":4017,"0x6c5e":4018,"0x6c8c":4019,"0x6c8f":4020,"0x6c72":4021,"0x6ca8":4022,"0x6c83":4023,"0x6c61":4024,"0x6c78":4025,"0x6c6b":4026,"0x4749":4027,"0x4756":4028,"0x46f9":4029,"0x3ee4":4030,"0x3ee1":4031,"0x3eeb":4032,"##421":4033,"0x99dd":4034,"0x99f0":4035,"0x9930":4036,"0x99f9":4037,"0x99ab":4038,"0x99a3":4039,"0x9996":4040,"0x99bd":4041,"0x99ba":4042,"0x99f5":4043,"0x99ae":4044,"0x999b":4045,"0x999a":4046,"0x99c5":4047,"0x9939":4048,"0x99fc":4049,"##9b5":4050,"0x2420":4051,"0x98f9":4052,"0x9811":4053,"0x3ec0":4054,"0x3ef0":4055,"0x3e1d":4056,"0x3efe":4057,"0x3ed1":4058,"0x3ef8":4059,"0x3ec6":4060,"0x61dd":4061,"0x61ee":4062,"0x61da":4063,"0x61c3":4064,"0x61f1":4065,"0x61f4":4066,"0x61c9":4067,"0x61c6":4068,"0x61fb":4069,"0x739b":4070,"0xd972":4071,"0xd9b5":4072,"0xad35":4073,"0xad3e":4074,"0xabc5":4075,"0x6208":4076,"0x620f":4077,"0x6205":4078,"0x6202":4079,"0x620e":4080,"0x99e8":4081,"0x99e1":4082,"0x99eb":4083,"0x9a08":4084,"0x9a04":4085,"0x9a01":4086,"0x990d":4087,"0x3f04":4088,"0x3f07":4089,"0xad12":4090,"0xda82":4091,"0x99d5":4092,"0x99d1":4093,"0x99d9":4094,"0xd9ba":4095,"0xd987":4096,"0x984b":4097,"0x61d7":4098,"0x61d0":4099,"0x3ede":4100,"0xad08":4101,"0xc1e0":4102,"0xc232":4103,"0x4ea":4104,"0x4e9":4105,"0x896":4106,"0xc2":4107,"0x7895":4108,"0x4ac0":4109,"0x4ac3":4110,"0x4ab2":4111,"0x4ac9":4112,"0x4ab4":4113,"0x4ad3":4114,"0x847b":4115,"0x60ea":4116,"0x60dd":4117,"0x60da":4118,"0x60e0":4119,"0x60f2":4120,"0x60f5":4121,"0x60e9":4122,"0x60e6":4123,"0x60d7":4124,"0x60ec":4125,"0x60db":4126,"0x60ef":4127,"0x6356":4128,"0xa460":4129,"0xa470":4130,"0xa458":4131,"0xa436":4132,"0xa490":4133,"0xa446":4134,"0xa46c":4135,"0xa43a":4136,"0xa442":4137,"0xa486":4138,"0xa47c":4139,"0xa48b":4140,"0xa435":4141,"0xa49f":4142,"0xa497":4143,"0xa49c":4144,"0xa441":4145,"0xa432":4146,"0xa474":4147,"0xa483":4148,"0xa451":4149,"0xa44e":4150,"0xa494":4151,"0xa478":4152,"0x4768":4153,"0x47bd":4154,"0x47af":4155,"0x4776":4156,"0x4786":4157,"0x4797":4158,"0x47b4":4159,"0x476a":4160,"0x477b":4161,"0x47c2":4162,"0x4766":4163,"0x47a8":4164,"0x4794":4165,"0x4778":4166,"0x47c1":4167,"0x4780":4168,"0x4771":4169,"0x47bc":4170,"0x47b7":4171,"0x478d":4172,"0x815d":4173,"0x8144":4174,"0x812c":4175,"0x8147":4176,"0xa3ac":4177,"0x6b76":4178,"0x6b84":4179,"0x6b87":4180,"0x6b7b":4181,"0x6b72":4182,"0x6b85":4183,"0x6b8a":4184,"0x99da":4185,"0x8ec7":4186,"0x8efa":4187,"0x73f5":4188,"0xd104":4189,"0x8f31":4190,"0xadee":4191,"0x6ddc":4192,"0xaddf":4193,"0xd1da":4194,"0xd127":4195,"0xd1bb":4196,"0xd115":4197,"0xd0f1":4198,"0xd0e3":4199,"0x99e9":4200,"0x8ee3":4201,"0x8eeb":4202,"0x8f04":4203,"0x8f2e":4204,"0x2925":4205,"0x8f39":4206,"0xabb":4207,"0x73e8":4208,"0x73e1":4209,"0x5f8":4210,"0x8b5":4211,"0x8ed3":4212,"0x160":4213,"0x7840":4214,"0x7844":4215,"0x785e":4216,"0x784c":4217,"0x7839":4218,"0x783c":4219,"0x6348":4220,"0x6caf":4221,"0x6cbb":4222,"0x6cc9":4223,"0x6cbe":4224,"0x7936":4225,"0x797e":4226,"0x983d":4227,"0x1327":4228,"0x8f8a":4229,"0x8f80":4230,"0x6aac":4231,"0xb13c":4232,"0xabd":4233,"0x73a":4234,"0x8d6":4235,"0x82d1":4236,"0x6dee":4237,"0x6dab":4238,"0x6da0":4239,"0x6dbd":4240,"0x6dba":4241,"0x6de6":4242,"0x6df6":4243,"0x6dc4":4244,"0x6dc7":4245,"0x6de3":4246,"0x6db8":4247,"0x6db5":4248,"0x6dec":4249,"0x6dcc":4250,"0x6dc1":4251,"0x631d":4252,"0xae7d":4253,"0xae7a":4254,"0xae86":4255,"0xae97":4256,"0xa4d3":4257,"0x6b34":4258,"##ec1":4259,"0x69f1":4260,"0x6dd9":4261,"0xabaf":4262,"0xabeb":4263,"0x7dc3":4264,"0xaea5":4265,"0x138c":4266,"cmovs":4267,"0x7e77":4268,"0x715c":4269,"0x4fe6":4270,"0x622e":4271,"0x4f1":4272,"0x89e":4273,"0x865":4274,"0x9d37":4275,"0x6220":4276,"0x6223":4277,"0x6218":4278,"0x622c":4279,"0x6229":4280,"0x6215":4281,"0x6214":4282,"0x621c":4283,"0x6233":4284,"0x982e":4285,"0x8f1":4286,"0x9603":4287,"0x78a3":4288,"0x4ade":4289,"0x66c1":4290,"0x5be8":4291,"0x36a0":4292,"0x6791":4293,"0xa4d9":4294,"0xa4e8":4295,"##2d5":4296,"0x76a7":4297,"0x137e":4298,"0xaf48":4299,"0xa508":4300,"0xa50f":4301,"0xa518":4302,"0x722c":4303,"0x1312":4304,"0x136a":4305,"0x1367":4306,"0x1339":4307,"0x9281":4308,"jae":4309,"0x62a":4310,"0x140":4311,"0x12d":4312,"0x4b40":4313,"0x4b10":4314,"0x4b16":4315,"0x4b13":4316,"0x4b3a":4317,"0x4b35":4318,"0x4b24":4319,"0x4b1b":4320,"0x4b32":4321,"0x4b09":4322,"0x4b51":4323,"0x4b21":4324,"0x4b4e":4325,"0x4b04":4326,"0x4b54":4327,"0x4b2b":4328,"0x4b47":4329,"0xa1d8":4330,"0xa1d3":4331,"0x4af8":4332,"0x4af5":4333,"0x4afd":4334,"0x4ae7":4335,"0x4ae4":4336,"0x4af3":4337,"0x6683":4338,"0xaec9":4339,"0xae72":4340,"0xae7f":4341,"0xbbce":4342,"0x76c7":4343,"0x76ca":4344,"0x95aa":4345,"0xa788":4346,"0x12fc":4347,"0x95db":4348,"0xaf9b":4349,"0xaee5":4350,"0xa7d3":4351,"0x97be":4352,"0x704d":4353,"0x703a":4354,"0x7056":4355,"0x7042":4356,"0x7053":4357,"0x70ca":4358,"0x70cb":4359,"0x704b":4360,"0x703c":4361,"0x7047":4362,"0x7045":4363,"0x8330":4364,"0x82e5":4365,"0x7832":4366,"0x6310":4367,"0x6331":4368,"0x635b":4369,"0x6313":4370,"0x6326":4371,"0x632c":4372,"0x630d":4373,"0x6329":4374,"0x6322":4375,"0x6353":4376,"0x6341":4377,"0x633e":4378,"0x631a":4379,"0x634b":4380,"0x631f":4381,"0x6305":4382,"0x6351":4383,"0x6302":4384,"0x634e":4385,"0x6337":4386,"0x6334":4387,"0x6308":4388,"0x6c20":4389,"0x6c18":4390,"0x6c11":4391,"0x6c1b":4392,"0x7982":4393,"0x97e6":4394,"0x97e8":4395,"##4ac":4396,"0x869a":4397,"0x9519":4398,"0xa91e":4399,"0x820f":4400,"0x6c0c":4401,"0x8507":4402,"0x62fc":4403,"0x97aa":4404,"0xa909":4405,"0x681":4406,"0x697":4407,"0xa56":4408,"0x8ca":4409,"0x981":4410,"0xaa2c":4411,"0x82ee":4412,"0x82f3":4413,"0x3c14":4414,"0x6c2c":4415,"0xa4d4":4416,"0x47bf":4417,"##88b":4418,"0x34c0":4419,"0x9a39":4420,"0x7286":4421,"0x6008":4422,"0xfe":4423,"0x938":4424,"0x65b2":4425,"0x65bb":4426,"0x65aa":4427,"0x659f":4428,"0x65a1":4429,"0x65b8":4430,"0x65ac":4431,"0x65a7":4432,"0x65b0":4433,"0x6630":4434,"0x662f":4435,"0x7ad9":4436,"0x793d":4437,"##247":4438,"##5cc":4439,"##7b1":4440,"0x134c":4441,"0x3dbd":4442,"0x9593":4443,"0xfc6":4444,"0xa2f7":4445,"0x87c7":4446,"0x144b":4447,"0x9504":4448,"0xfef":4449,"0x44ac":4450,"0x7f4":4451,"0x8ce":4452,"0x8dc":4453,"0x949":4454,"0x83dd":4455,"0x83d1":4456,"0x833a":4457,"0x833e":4458,"0x83cc":4459,"0x821d":4460,"0x8216":4461,"0x82df":4462,"0x82e9":4463,"0x82e7":4464,"0x82c9":4465,"0x82d4":4466,"0x82d7":4467,"0x82e2":4468,"0x8221":4469,"0x82db":4470,"0x82cd":4471,"0x6d83":4472,"0x6d39":4473,"0x842f":4474,"0x842e":4475,"0x3b42":4476,"0x76f8":4477,"0x6b95":4478,"0x9956":4479,"##4fc":4480,"0x74a3":4481,"0x7496":4482,"0x749e":4483,"0x7476":4484,"0x74a5":4485,"0x74a4":4486,"0x7473":4487,"0x747c":4488,"0x747f":4489,"##fa1":4490,"0x9055":4491,"0x5413":4492,"0x69ee":4493,"0x69fe":4494,"0x69f8":4495,"0x8c48":4496,"0x3de9":4497,"0x3de4":4498,"0x4e38":4499,"0x12ea":4500,"0x6a08":4501,"0x6a0a":4502,"0x6a03":4503,"0x6a01":4504,"0x6a09":4505,"0x746f":4506,"0x746c":4507,"0x746b":4508,"0x69d8":4509,"0x69d4":4510,"0x69d1":4511,"0x69de":4512,"0x69db":4513,"0x748c":4514,"0x7481":4515,"0x748e":4516,"0x7489":4517,"0x7486":4518,"0x69e4":4519,"0x69e1":4520,"0x69eb":4521,"0x69e6":4522,"0x749c":4523,"0x7493":4524,"0x7499":4525,"0x3ddf":4526,"0x8b6e":4527,"0x69fb":4528,"0x9586":4529,"0xa58":4530,"0xa92":4531,"0x5ea":4532,"0x88e":4533,"0x8ae":4534,"0x8b4":4535,"0x989":4536,"0xa045":4537,"0xa163":4538,"0x3880":4539,"0x7721":4540,"0x84ee":4541,"0xae32":4542,"0x75ce":4543,"0x75a9":4544,"0x75b9":4545,"0x75f4":4546,"0x75a6":4547,"0x75c8":4548,"0x759f":4549,"0x75b4":4550,"0x75cf":4551,"0x75be":4552,"0x75a2":4553,"0x75ac":4554,"0x75bc":4555,"0x79f9":4556,"0xbb28":4557,"0x8129":4558,"0x81bc":4559,"0x6bcc":4560,"##865":4561,"##145":4562,"0x6804":4563,"0x8e86":4564,"0x1310":4565,"0x6900":4566,"0xaf40":4567,"0xaf74":4568,"0xaded":4569,"0xaf81":4570,"0xaf02":4571,"0x1303":4572,"0x1306":4573,"0x1315":4574,"0x729f":4575,"0x1391":4576,"0xa92e":4577,"0x7fb":4578,"0x517":4579,"0x931":4580,"0x987":4581,"0x656b":4582,"0x6571":4583,"0xa023":4584,"0xa041":4585,"0xa032":4586,"0xa01f":4587,"0xa04a":4588,"0xa02e":4589,"0x5931":4590,"0x5927":4591,"0x5935":4592,"0x7858":4593,"0x7836":4594,"0x7853":4595,"0x789f":4596,"0x784a":4597,"0x784e":4598,"0x782e":4599,"0x7847":4600,"0x7786":4601,"0x7782":4602,"0x777b":4603,"0x7774":4604,"##f09":4605,"0x848c":4606,"0x8492":4607,"0x8494":4608,"0x63d0":4609,"0x63c9":4610,"0x63c2":4611,"0x63c5":4612,"0x63cc":4613,"0x63c1":4614,"0x7931":4615,"0x7928":4616,"0x7938":4617,"0x7942":4618,"0x798b":4619,"0x792e":4620,"0x8195":4621,"0x6bbf":4622,"##53f":4623,"0x6ad4":4624,"0x942a":4625,"0x9a73":4626,"0x1130":4627,"0x3a10":4628,"0x6c0f":4629,"0xa294":4630,"0x8505":4631,"0x8506":4632,"0x131f":4633,"0x6acc":4634,"0x9a69":4635,"0x6174":4636,"0x611a":4637,"0x4eb":4638,"0x348":4639,"0x8dd":4640,"0x8df":4641,"0x8e6":4642,"0x8d7":4643,"0x8a7":4644,"0x64df":4645,"0xa030":4646,"0xa036":4647,"0xa03a":4648,"0xa0d7":4649,"0xa04b":4650,"0xa0e5":4651,"0x2f8":4652,"0x96dc":4653,"0x5b57":4654,"0x7a53":4655,"0xbabe":4656,"0x4895":4657,"0xa373":4658,"0xa387":4659,"0x6bb5":4660,"##8f7":4661,"0xa2c0":4662,"0xa2bd":4663,"0xa2eb":4664,"0xa2e4":4665,"0x8b75":4666,"0x8b87":4667,"0xa50d":4668,"0x8519":4669,"0x9ad0":4670,"0x9fef":4671,"0x9feb":4672,"0xa2a4":4673,"0x8b9f":4674,"0x8b95":4675,"0x8bdf":4676,"0x8bdc":4677,"0x1351":4678,"0x8bbf":4679,"0x1289":4680,"0xa254":4681,"0xa2cb":4682,"0x4e98":4683,"0xad5":4684,"0xa2d5":4685,"0x730":4686,"0x5e6":4687,"0x88c":4688,"0x920":4689,"0x5ad0":4690,"0x5ad8":4691,"0x5ad6":4692,"0x5ad7":4693,"0xa0d2":4694,"0x592a":4695,"0x5926":4696,"0x592e":4697,"0x6e0b":4698,"0xa105":4699,"0xa107":4700,"0x3c67":4701,"0x7a6a":4702,"0x7a6b":4703,"0xa48e":4704,"0xa41a":4705,"0xa4cd":4706,"0x79f1":4707,"0x79f7":4708,"0xa37d":4709,"0xa35b":4710,"0xa37a":4711,"0xa38c":4712,"0xa3b6":4713,"0xa3c6":4714,"0xa38f":4715,"0xa34b":4716,"0xa352":4717,"##4d0":4718,"0xa546":4719,"0x8f9a":4720,"0xa535":4721,"0xa552":4722,"0xa68":4723,"0xa23b":4724,"0xa245":4725,"0xa233":4726,"0xa247":4727,"0x8f5":4728,"0x89b":4729,"0x90f":4730,"0x12e":4731,"0xa0f8":4732,"0xa0d6":4733,"0xa0ec":4734,"0xa0d3":4735,"0xa0de":4736,"0x2d1":4737,"0xa1da":4738,"0xa168":4739,"0xa1e0":4740,"0xa170":4741,"0xa1c3":4742,"0xa1b9":4743,"0xa1d0":4744,"0xa1e7":4745,"0xa10e":4746,"0xa1c7":4747,"0xa15c":4748,"0xa1ca":4749,"0xa152":4750,"0xa137":4751,"0xa1cd":4752,"0xa154":4753,"0xa16b":4754,"0xa101":4755,"0xa1bc":4756,"0x4980":4757,"0x843f":4758,"0x8434":4759,"0x6790":4760,"0x677d":4761,"0x6789":4762,"0x6773":4763,"0x6785":4764,"0x6778":4765,"0x677f":4766,"0x678d":4767,"0xba39":4768,"0xa4f9":4769,"0xa4ab":4770,"0xa427":4771,"0xa42a":4772,"0xa49e":4773,"0xa47a":4774,"0xa4df":4775,"0xa438":4776,"0xa44d":4777,"0xa481":4778,"0xa43b":4779,"0xa4e6":4780,"0xa489":4781,"0xa4f6":4782,"0xa453":4783,"0xa49b":4784,"0xa487":4785,"0xa46a":4786,"0xa498":4787,"0xa44b":4788,"0xa4a1":4789,"0xa4b5":4790,"0xa4ad":4791,"0xa491":4792,"0xa4bf":4793,"0xa47e":4794,"0xa434":4795,"0xa471":4796,"0xa4bc":4797,"0xa4ef":4798,"0xa4fc":4799,"0x3b1d":4800,"0x3b36":4801,"0x3b48":4802,"0x3b33":4803,"0x3b38":4804,"0x3b49":4805,"0x3b24":4806,"0x3b3f":4807,"0x7691":4808,"0xa358":4809,"0xa3af":4810,"0xa3a9":4811,"0xa3b9":4812,"0xa384":4813,"0xa3a6":4814,"0xa39f":4815,"0xa3c4":4816,"0xa355":4817,"0xa397":4818,"0xa341":4819,"0xa3bf":4820,"0xa380":4821,"0xa36b":4822,"0xa3bc":4823,"0xa343":4824,"0xa395":4825,"0x6b2d":4826,"##f51":4827,"0x9035":4828,"0x906a":4829,"0x903f":4830,"0x1340":4831,"0x1358":4832,"0xa268":4833,"0xa290":4834,"0xa25b":4835,"0xa2e9":4836,"0xa24d":4837,"0xa2b6":4838,"0xa242":4839,"0xa2e7":4840,"0xaca5":4841,"0xa501":4842,"0xa53d":4843,"0xa511":4844,"0xa51a":4845,"0xa282":4846,"0xa28d":4847,"0xdd25":4848,"0xdd2c":4849,"0xdd19":4850,"0xa29f":4851,"0xa292":4852,"0x736b":4853,"0x8588":4854,"0xa2f1":4855,"0xa278":4856,"0xa27f":4857,"0xa274":4858,"0xa271":4859,"0xa276":4860,"0xa2ac":4861,"0xa2a2":4862,"0xa2ae":4863,"0xa2a6":4864,"0x7684":4865,"0x135c":4866,"0xa25e":4867,"0xa551":4868,"0xa2c7":4869,"0xc979":4870,"0x717":4871,"0x3ab":4872,"0x860":4873,"0x91d":4874,"0x935":4875,"0x120":4876,"0x4b64":4877,"0x4b6c":4878,"0x4b67":4879,"0x3770":4880,"0x96c3":4881,"0x84ff":4882,"0x845f":4883,"0x84f3":4884,"0xba19":4885,"0xaede":4886,"0x3b4a":4887,"0x4775":4888,"0xbbbd":4889,"0xbbc6":4890,"0xbbc8":4891,"0xbbcc":4892,"0xbbcd":4893,"0x819b":4894,"0x8191":4895,"0x816e":4896,"##fec":4897,"0x6b07":4898,"##1b5":4899,"0xb8a4":4900,"0xb8a7":4901,"0x1364":4902,"0x6952":4903,"0x5e3a":4904,"0x9270":4905,"0x7f73":4906,"0x138f":4907,"0x1382":4908,"0x3a38":4909,"0x3a31":4910,"0x3a36":4911,"0x1354":4912,"0x6bd8":4913,"0x6bdb":4914,"0x9234":4915,"0xc4b5":4916,"0x6a8":4917,"0x7f7":4918,"0x8fac":4919,"0xbf86":4920,"0xbfbc":4921,"0xbfa1":4922,"0x159":4923,"0x9604":4924,"0x771a":4925,"0x3cf2":4926,"0x84ea":4927,"0x84f6":4928,"0x84d6":4929,"0x84fb":4930,"0x84e2":4931,"0x84d3":4932,"0x84db":4933,"0x84ef":4934,"0x84de":4935,"0x7520":4936,"0x5cea":4937,"0x5cdd":4938,"0x5cee":4939,"0x5cf2":4940,"0x5cf5":4941,"0x5cd8":4942,"0x5ce4":4943,"0x5ce2":4944,"0x5cec":4945,"##2db":4946,"0x6b23":4947,"0x6b28":4948,"0x6b11":4949,"0x6b33":4950,"0x6b17":4951,"0x6b1e":4952,"0x6b0e":4953,"0x6b14":4954,"0x6b19":4955,"0x6b32":4956,"0x6b0b":4957,"0x6b21":4958,"0x6b04":4959,"0x6b03":4960,"0x6b2b":4961,"0x8037":4962,"##122":4963,"0x99c3":4964,"0x68df":4965,"0x68dc":4966,"0x7149":4967,"0x8511":4968,"0x8f7d":4969,"0x8f76":4970,"0x8fa9":4971,"0x9a7d":4972,"0x3a70":4973,"0x3a58":4974,"0x3a75":4975,"0x3a2c":4976,"0x8502":4977,"0x850e":4978,"0x8f85":4979,"0x8f8e":4980,"0x8f91":4981,"0x8f9d":4982,"0x8f96":4983,"0x8f6e":4984,"0x720f":4985,"0x3a62":4986,"0x3a6e":4987,"0x3a6b":4988,"0x3a66":4989,"0x3a3d":4990,"0x8b69":4991,"0x3a5c":4992,"0x3a53":4993,"0x3a51":4994,"0x3a4c":4995,"0x3a41":4996,"0x3a47":4997,"0x8f71":4998,"0x8f79":4999,"0x8fa2":5000,"0x3e4":5001,"0x85e":5002,"0x8ec1":5003,"0x132e":5004,"0x4b50":5005,"0x4b44":5006,"0x4b56":5007,"0x4b42":5008,"0x4b53":5009,"0x4b4c":5010,"0x4c8e":5011,"0x4c8d":5012,"0xc93":5013,"0xc5cc":5014,"0xc53f":5015,"0x4af9":5016,"0x4ace":5017,"0x4ad1":5018,"0x4af2":5019,"0x4a7d":5020,"0x4a76":5021,"0x4ae9":5022,"0x4ac6":5023,"0x4ad6":5024,"0x4a5f":5025,"0x4a5c":5026,"0x4ae2":5027,"0x4acb":5028,"0x4a6f":5029,"0x4adb":5030,"0x4a69":5031,"0x4abc":5032,"0x8450":5033,"0x8416":5034,"0x8448":5035,"0x8444":5036,"0x845b":5037,"0x842c":5038,"0x849e":5039,"0x8476":5040,"0x8456":5041,"0x8473":5042,"0x8412":5043,"0x8422":5044,"0x841e":5045,"0x8453":5046,"0x8493":5047,"0x849c":5048,"0x848f":5049,"0x844c":5050,"0x8485":5051,"0x8469":5052,"0x843c":5053,"0x108b":5054,"0xba50":5055,"0xba5d":5056,"0xba18":5057,"0xbabd":5058,"0xba88":5059,"0xbaba":5060,"0xba38":5061,"0xbae6":5062,"0xba12":5063,"0xba63":5064,"0xba15":5065,"0xba35":5066,"0xba5f":5067,"0xba7b":5068,"0xba77":5069,"0xba32":5070,"0xba74":5071,"0xbae2":5072,"0xba66":5073,"0xba6f":5074,"0xba85":5075,"0xba69":5076,"0xba7e":5077,"0xbab7":5078,"0xba5a":5079,"0xba79":5080,"0xae59":5081,"0xae09":5082,"0xae0c":5083,"0x794b":5084,"0x4731":5085,"0x4746":5086,"0x472e":5087,"0xbb20":5088,"0xbb64":5089,"0xbb23":5090,"0xbb1d":5091,"0xbb58":5092,"0xbb5b":5093,"0xbb11":5094,"0xbb5e":5095,"0xbb14":5096,"0xbb62":5097,"0xbb1a":5098,"0xbb61":5099,"0xbb21":5100,"0xbb54":5101,"0x8176":5102,"0x81a8":5103,"0x465d":5104,"0x46af":5105,"0x7624":5106,"0x39eb":5107,"0x39e4":5108,"0x5dfc":5109,"0xb896":5110,"0xb87d":5111,"0xb8ae":5112,"0xb87c":5113,"0xb8ad":5114,"0x8eda":5115,"0x8efe":5116,"0x8ebd":5117,"0x8edf":5118,"0x8ef1":5119,"0x8eb9":5120,"0x8ef6":5121,"0x8eca":5122,"0x8ecf":5123,"0x1300":5124,"0x1360":5125,"0x1318":5126,"0x1388":5127,"0x1336":5128,"0x1331":5129,"0x133d":5130,"0x132a":5131,"0x1349":5132,"0x1322":5133,"0x1374":5134,"0x134e":5135,"0x1371":5136,"0x1345":5137,"0x1379":5138,"0x34df":5139,"0x34e6":5140,"0x8b60":5141,"0x7130":5142,"0x71f9":5143,"0x71fe":5144,"0x8f20":5145,"0x8f1d":5146,"0x8f16":5147,"0x8f11":5148,"0x8f3b":5149,"0xad5b":5150,"0x8a29":5151,"0xb888":5152,"0xb88f":5153,"0xb884":5154,"0xb88d":5155,"0xb880":5156,"0x8ee7":5157,"0x8eee":5158,"0x130a":5159,"0x130d":5160,"0x131c":5161,"0x900f":5162,"0x900a":5163,"0x7203":5164,"0x1386":5165,"0x8f07":5166,"0x8f0e":5167,"0xc546":5168,"0x8ead":5169,"0x8f25":5170,"0x8f2a":5171,"0x8eb4":5172,"0x8eb1":5173,"0xb89b":5174,"0x8fe7":5175,"0x8f37":5176,"0x8ed7":5177,"0x4f9":5178,"0xa9d":5179,"0x7c8":5180,"0x8a3":5181,"0x8d1":5182,"0x89a":5183,"0x915":5184,"0x6ee0":5185,"0x6e58":5186,"0x70d0":5187,"0x9690":5188,"0x9631":5189,"0xc2e5":5190,"0xc2db":5191,"0x779e":5192,"0x7ae0":5193,"0x7adc":5194,"0x7aeb":5195,"0x7ae4":5196,"0xae39":5197,"0x7b40":5198,"0x7b23":5199,"0x7b2a":5200,"0x7b38":5201,"0x7b17":5202,"0x7b1c":5203,"0x7b1a":5204,"0x46eb":5205,"0x467e":5206,"0x5dea":5207,"0x5d64":5208,"0x5dce":5209,"0x5d88":5210,"0x5df8":5211,"0x5d7d":5212,"0x5d5b":5213,"0x5ded":5214,"0x5df4":5215,"0x5de6":5216,"0x5d8c":5217,"0x5d5f":5218,"0x5dfa":5219,"0x5d7b":5220,"0x5d8f":5221,"0x5dca":5222,"0x5d62":5223,"0x5de2":5224,"0x5d83":5225,"0x5d91":5226,"0x5d78":5227,"0x9868":5228,"0x9822":5229,"0x980c":5230,"0x8cd7":5231,"0x4460":5232,"0x447c":5233,"0x3dc3":5234,"0x3dec":5235,"0x5e36":5236,"0x5e2f":5237,"0x5e27":5238,"0x5e33":5239,"0x5e13":5240,"0x5e3b":5241,"0x5e17":5242,"0x5e29":5243,"0x5e1e":5244,"0x5e24":5245,"0x5e1b":5246,"0xdb69":5247,"0x460a":5248,"0x9a0c":5249,"0xdac1":5250,"0x5e0f":5251,"0x5e07":5252,"0x5e0b":5253,"0x5dd8":5254,"0x5dd5":5255,"0x5dd2":5256,"0x5dde":5257,"0x5ddb":5258,"0x3dd8":5259,"0x3dd3":5260,"0x3dd1":5261,"0x4498":5262,"0x449c":5263,"0x7504":5264,"0x3dfa":5265,"0x3df1":5266,"0x3df7":5267,"0x7f9f":5268,"0x713c":5269,"0x3dcf":5270,"0x3dc9":5271,"0x74d8":5272,"0xc2dd":5273,"no":5274,"0x696":5275,"0x4640":5276,"0x735":5277,"0x34d0":5278,"0x8b8":5279,"0xb64b":5280,"0x93a":5281,"0x6e16":5282,"0x6ebd":5283,"0x6e25":5284,"0x6e1e":5285,"0x6e0f":5286,"0x6ee2":5287,"0x6eb7":5288,"0x3780":5289,"0x9638":5290,"0x6672":5291,"0x6661":5292,"0x7700":5293,"0x6d3f":5294,"0xaedd":5295,"0xae00":5296,"0xaeda":5297,"0xae58":5298,"0xae13":5299,"0xae9e":5300,"0xae38":5301,"0xae89":5302,"0xae12":5303,"0xae9b":5304,"0xae35":5305,"0xae55":5306,"0xae8f":5307,"0xaed7":5308,"0xae83":5309,"0xae52":5310,"0xae94":5311,"0xae99":5312,"0x755e":5313,"0xb594":5314,"0x473d":5315,"0x474d":5316,"0x475e":5317,"0x4704":5318,"0x46ff":5319,"0x46dd":5320,"0x46da":5321,"0x4610":5322,"0x4668":5323,"0x4630":5324,"0x462d":5325,"0x46e0":5326,"0x46f5":5327,"0x4638":5328,"0x46e7":5329,"0x46d8":5330,"0x46c2":5331,"0x4652":5332,"0x46b3":5333,"0x463c":5334,"0x466b":5335,"0x46bc":5336,"0x46fc":5337,"0x76ae":5338,"0x7428":5339,"0x7413":5340,"##8b5":5341,"##adb":5342,"##d3c":5343,"##db7":5344,"0xaf31":5345,"0xaf3d":5346,"0xaf3a":5347,"0xaf7b":5348,"0x445d":5349,"0x4475":5350,"0x44a5":5351,"0x8b8e":5352,"0x7129":5353,"0xadf2":5354,"0xadf8":5355,"0xade9":5356,"0xade2":5357,"0xade1":5358,"0xade5":5359,"0x7e8b":5360,"0x448f":5361,"0x4483":5362,"0x448b":5363,"0x4486":5364,"0x4480":5365,"0x460e":5366,"0x7107":5367,"0xaea8":5368,"0xaf84":5369,"0xaf82":5370,"0xaf06":5371,"0x4643":5372,"0x464b":5373,"0xdb5e":5374,"0x85be":5375,"0x4492":5376,"0x4497":5377,"0x446f":5378,"0x446c":5379,"0x4465":5380,"0x4469":5381,"0x6ea5":5382,"0x6ea2":5383,"0x6ea9":5384,"0x9646":5385,"0xa9f3":5386,"0xadf4":5387,"0xadfb":5388,"0xaf43":5389,"0xaf41":5390,"0xaf78":5391,"0xaf7e":5392,"0x71d7":5393,"0x3a09":5394,"0x3d6e":5395,"0xaf34":5396,"not":5397,"0x712b":5398,"0x71e2":5399,"0x71e8":5400,"0x7421":5401,"0x890":5402,"0xb2f":5403,"0xb15":5404,"0x6e44":5405,"0x83ee":5406,"0x6690":5407,"0x667d":5408,"0x66a4":5409,"0x668e":5410,"0x6687":5411,"0x6693":5412,"0x669c":5413,"0x6698":5414,"0x66a1":5415,"0x668a":5416,"0x6680":5417,"0x770d":5418,"0x770c":5419,"0x8446":5420,"0x8413":5421,"0x8429":5422,"0x8442":5423,"0x6750":5424,"0x6760":5425,"0x6768":5426,"0x676c":5427,"0x675e":5428,"0x6763":5429,"0x6765":5430,"0x6757":5431,"0x6774":5432,"0x677e":5433,"0x6771":5434,"0x675a":5435,"0x6779":5436,"0x47c8":5437,"##e05":5438,"0x81a0":5439,"0x8188":5440,"0x8131":5441,"0x8138":5442,"0x816c":5443,"0x8149":5444,"0x8156":5445,"0x8173":5446,"0x8122":5447,"0x8163":5448,"0x8119":5449,"0x8193":5450,"0x8182":5451,"0x817b":5452,"0x813e":5453,"0x8198":5454,"0x811f":5455,"0x81b5":5456,"0x81ac":5457,"0x81a7":5458,"0x8151":5459,"0x814e":5460,"0x8169":5461,"0x76e0":5462,"0x76a3":5463,"0x769d":5464,"0x7696":5465,"0x76ce":5466,"0x76d1":5467,"0x76a9":5468,"0x76fd":5469,"0x76ed":5470,"0x76f6":5471,"0x76d8":5472,"0x76c8":5473,"0x76f3":5474,"0x76db":5475,"0x767e":5476,"0x6bed":5477,"0x6bf6":5478,"0x5048":5479,"0x5021":5480,"0x502e":5481,"0x502b":5482,"0x97ce":5483,"0x97fd":5484,"0x973b":5485,"0x97f3":5486,"0x9741":5487,"0x9818":5488,"0x9806":5489,"0x8c25":5490,"0x613d":5491,"0xa85e":5492,"0xd16":5493,"0x7118":5494,"0x7144":5495,"0x71f2":5496,"0x7125":5497,"0x71f5":5498,"0x7133":5499,"0x71eb":5500,"0x71fb":5501,"0x1170":5502,"0x7214":5503,"0x7219":5504,"0x7112":5505,"0x711b":5506,"0xb2f9":5507,"0x720c":5508,"0x7207":5509,"0x7200":5510,"0x7687":5511,"0x768e":5512,"0x7689":5513,"0x7122":5514,"0x9847":5515,"0x713f":5516,"0x7137":5517,"0x14d7":5518,"0x97d8":5519,"0x8c2b":5520,"0x8b5a":5521,"0x440":5522,"0x9f0":5523,"0x4921":5524,"0x488a":5525,"##c3f":5526,"0x3500":5527,"##f7f":5528,"0xac4f":5529,"0x7383":5530,"0x629":5531,"0x723":5532,"0x731":5533,"0x510":5534,"0x31":5535,"0x3a9":5536,"0x8d0":5537,"0x8e4":5538,"0xb33":5539,"0x9ba":5540,"0x157":5541,"0xc8":5542,"0x3c08":5543,"0x6d73":5544,"0x6d59":5545,"0x3b9d":5546,"0x3b3e":5547,"##1bc":5548,"0x9730":5549,"0x972d":5550,"0x9718":5551,"0x973d":5552,"0x9733":5553,"0x9713":5554,"0x9726":5555,"0x9738":5556,"0x971f":5557,"##a8a":5558,"0xac10":5559,"##b79":5560,"0x85a2":5561,"0x1160":5562,"0x7e90":5563,"0xadc7":5564,"0x970e":5565,"0x970b":5566,"0x87d3":5567,"0x8b9a":5568,"0x444":5569,"0x4f7f":5570,"0xac6":5571,"0x7e5":5572,"0x95b":5573,"0x4920":5574,"0x4915":5575,"0x3870":5576,"0x3c18":5577,"0x3c1d":5578,"0x3c36":5579,"0x3c31":5580,"0x3c27":5581,"0x3c2a":5582,"0x3c56":5583,"0x3c19":5584,"0x3c1c":5585,"0x3c3e":5586,"0x3c39":5587,"0x3c51":5588,"0x3c4e":5589,"0x3c47":5590,"0x6d89":5591,"0x3bb5":5592,"0x47ea":5593,"0x47d5":5594,"0x47cf":5595,"0x47db":5596,"##e08":5597,"0x6ba3":5598,"0x5059":5599,"0x7423":5600,"0x68d5":5601,"0xdc3f":5602,"0x4f18":5603,"0x7275":5604,"0x3aeb":5605,"0xdd1c":5606,"0xdd39":5607,"0x95c5":5608,"0x500c":5609,"0x5007":5610,"0xb116":5611,"0x8ea7":5612,"0x4ffd":5613,"0x4ff6":5614,"0x95d2":5615,"0xd3f2":5616,"0x611":5617,"0x682":5618,"0x72e5":5619,"0x5ee":5620,"0x5fe":5621,"0x5e9":5622,"0x5f6":5623,"0x876":5624,"0x897":5625,"0xb1b1":5626,"0x64f0":5627,"0x64e0":5628,"0x64fd":5629,"0x64e4":5630,"0x64f3":5631,"0x64e1":5632,"0x944":5633,"0x95d0":5634,"0x6510":5635,"0x652d":5636,"0x6523":5637,"0x6516":5638,"0x652f":5639,"0x6526":5640,"0x6542":5641,"0x6519":5642,"0x651c":5643,"0x6541":5644,"0x6532":5645,"0x6505":5646,"0x6502":5647,"0x6537":5648,"0x653c":5649,"0x6543":5650,"movsd":5651,"0xc88b":5652,"0xc865":5653,"0x78ff":5654,"0x4913":5655,"0x490f":5656,"0x4909":5657,"0x4901":5658,"0x67e0":5659,"0x3b17":5660,"0x47c3":5661,"0x48c0":5662,"0x48bd":5663,"0x48ce":5664,"0x48f2":5665,"0x48f5":5666,"0x48eb":5667,"0x48d6":5668,"0x48c7":5669,"0x48b4":5670,"0x48ca":5671,"0x48b1":5672,"0x48f7":5673,"0x48d3":5674,"0x48e5":5675,"0x48fc":5676,"0x5030":5677,"0x503d":5678,"0x503a":5679,"0x5042":5680,"0x501e":5681,"0x5035":5682,"0x5014":5683,"0x5024":5684,"0x501a":5685,"0x504c":5686,"0x6835":5687,"##ecd":5688,"##a2b":5689,"0x62be":5690,"0x8730":5691,"0x95ac":5692,"0x72ec":5693,"0xb213":5694,"0xc918":5695,"0xc946":5696,"0x500f":5697,"0x5002":5698,"0x5000":5699,"0x8562":5700,"0xb1ff":5701,"0x4ff3":5702,"0x4ff0":5703,"0xb1df":5704,"0x4fec":5705,"0x13a1":5706,"0xc974":5707,"0x9363":5708,"0x62d8":5709,"0x89cb":5710,"0xb151":5711,"0x687":5712,"0x6adb":5713,"0x744":5714,"0x7cb":5715,"0x5f1":5716,"0x883":5717,"0xb32e":5718,"0x93b":5719,"0x95f":5720,"0x2ff":5721,"movss":5722,"0x6d64":5723,"0x6d5e":5724,"0x6067":5725,"0x10a0":5726,"0x4764":5727,"0x47a3":5728,"0x4789":5729,"0x478c":5730,"0x477c":5731,"0x4767":5732,"0x4792":5733,"0x4783":5734,"0x476b":5735,"0x476e":5736,"0x4743":5737,"0x4795":5738,"##162":5739,"0x6b02":5740,"0x745c":5741,"##e2e":5742,"0x68ce":5743,"0x6aee":5744,"0x8b0b":5745,"0x737a":5746,"0x7377":5747,"0xad64":5748,"0x8a27":5749,"0xa9ff":5750,"0x6af4":5751,"0x6afc":5752,"0x6af1":5753,"0x7ea7":5754,"0x7e6b":5755,"0x1467":5756,"0x7e9c":5757,"0x6ae2":5758,"0x72b7":5759,"0xad59":5760,"0xb333":5761,"0x7e5a":5762,"##736":5763,"0x6a3":5764,"0x614b":5765,"0x6145":5766,"0x716":5767,"0x7d0":5768,"0x5f3":5769,"0x3e6":5770,"0x3e3":5771,"0x89f":5772,"0x87be":5773,"0xb1bc":5774,"0x933":5775,"0x9db7":5776,"0x83eb":5777,"0x4950":5778,"0x6040":5779,"0x6031":5780,"0x604d":5781,"0x6056":5782,"0x6053":5783,"0x6035":5784,"0x605f":5785,"0x6059":5786,"0x6032":5787,"0x6039":5788,"0x6061":5789,"0x6047":5790,"0x6c2d":5791,"0x6c46":5792,"0x6c3e":5793,"0x6c1f":5794,"0x6c39":5795,"0x6c34":5796,"0x6c2b":5797,"0xae82":5798,"0xae78":5799,"0x7924":5800,"0x7995":5801,"##36162":5802,"0x6bff":5803,"0x6be0":5804,"0x6bf2":5805,"0x6be6":5806,"0x6bc4":5807,"0x6bc7":5808,"0x6bca":5809,"0x6be3":5810,"0x6bbc":5811,"0x6be8":5812,"0x6bfc":5813,"##b636162":5814,"0x995f":5815,"0x9954":5816,"0x74ae":5817,"0x74b7":5818,"##9ad":5819,"0x907a":5820,"0xb8bd":5821,"0x6ad0":5822,"0x8c26":5823,"0x6164":5824,"0x6140":5825,"0x61ab":5826,"0x61a3":5827,"0x6136":5828,"0x6148":5829,"0x6190":5830,"0x6131":5831,"0x615b":5832,"0x612f":5833,"0x6126":5834,"0x612c":5835,"0x619e":5836,"0x61a9":5837,"0x614d":5838,"0x6129":5839,"0x6142":5840,"0x86d7":5841,"0x87a0":5842,"0x87bb":5843,"0x87b4":5844,"0x8799":5845,"0x73da":5846,"0x7375":5847,"0xadec":5848,"0x7fdf":5849,"0x7f3a":5850,"0xadc8":5851,"0x99e7":5852,"0x749f":5853,"0x7386":5854,"0x856f":5855,"0x7274":5856,"0x8c09":5857,"0x6afa":5858,"0x6bd1":5859,"0xa9f7":5860,"0x85cf":5861,"0x6194":5862,"0x6192":5863,"0x6199":5864,"0x764c":5865,"0x6acd":5866,"0x8c41":5867,"0x6ae8":5868,"0x6152":5869,"0x6157":5870,"0x6184":5871,"0x618a":5872,"0x6124":5873,"0x6121":5874,"0x6161":5875,"0x636170736":5876,"0x636170736b636162":5877,"0x53":5878,"0xb77":5879,"0xbe05":5880,"0x988":5881,"0x2ce":5882,"0x96a9":5883,"0x778e":5884,"0x3cab":5885,"0x3cbd":5886,"0x3cbb":5887,"0x3c84":5888,"0x3c9f":5889,"0x3c87":5890,"0x3c97":5891,"0x3c9c":5892,"0x3cb5":5893,"0x3f3b":5894,"##237":5895,"0x9064":5896,"0x9050":5897,"0x905d":5898,"0x9059":5899,"0x906f":5900,"##6fc":5901,"0x3e5d":5902,"0x6a73":5903,"0x859b":5904,"0xbd7d":5905,"0xbd49":5906,"0xbe33":5907,"0x9567":5908,"0x72d2":5909,"0x72d0":5910,"0x69b4":5911,"0x73a1":5912,"0x8a7e":5913,"0x44e":5914,"0xada":5915,"0xa75":5916,"0xa57":5917,"0xad78":5918,"0x34b":5919,"0x86d":5920,"0x13e":5921,"##20d":5922,"0x3740":5923,"0x79aa":5924,"0x4658":5925,"0x4675":5926,"0x462f":5927,"0x46a4":5928,"0x4656":5929,"0x4653":5930,"0x4665":5931,"0x465f":5932,"0x465c":5933,"0x466a":5934,"0x463e":5935,"0x4667":5936,"0x4662":5937,"0x4672":5938,"0x466d":5939,"0x4639":5940,"0xa389":5941,"##3d5":5942,"0x14cd":5943,"0x9081":5944,"0x685e":5945,"0x6837":5946,"0x6933":5947,"0x695a":5948,"0x8c7d":5949,"0x8c8b":5950,"0x8bc4":5951,"0x8bcb":5952,"0x73ce":5953,"0xd237":5954,"0xd20d":5955,"0x4f68":5956,"0x4f76":5957,"0x7fa9":5958,"0x72f9":5959,"0x7465":5960,"0xa618":5961,"0x7369":5962,"0xb78e":5963,"0x9a0a":5964,"0x464c":5965,"0x4641":5966,"0x4649":5967,"0x69ca":5968,"0x7f92":5969,"0x7f6b":5970,"0x8c92":5971,"0xd331":5972,"0x7f5a":5973,"0x8c66":5974,"0xa9c":5975,"0x714b":5976,"0x875":5977,"0x8e7":5978,"0x8c7":5979,"0x95b0":5980,"0x96cc":5981,"0x66fc":5982,"0x67dd":5983,"0x67e9":5984,"0x67e6":5985,"0x67d5":5986,"0x67d6":5987,"0x67d9":5988,"0x6706":5989,"0x79ba":5990,"##a4e":5991,"##8bf":5992,"0x97da":5993,"0x6830":5994,"0x682d":5995,"0x6828":5996,"0x6856":5997,"0x68d8":5998,"0x6859":5999,"0x68d4":6000,"0x6851":6001,"0x3e60":6002,"0x6946":6003,"0x694d":6004,"0x6955":6005,"0x8b36":6006,"0x9213":6007,"0x73f0":6008,"0x73ed":6009,"0x7373":6010,"0x73c4":6011,"0x73c7":6012,"0x73cc":6013,"0x85c9":6014,"0x8ae7":6015,"0x7270":6016,"0x72c3":6017,"0x72b5":6018,"0x12c0":6019,"0x8982":6020,"0xa713":6021,"0xb7ed":6022,"0x8586":6023,"0x7380":6024,"0x85b5":6025,"0x85b2":6026,"0x7278":6027,"0x7271":6028,"0x727b":6029,"0x7284":6030,"0x7281":6031,"0x72de":6032,"0x73b8":6033,"0x73bf":6034,"0x73b1":6035,"0x8574":6036,"0x857b":6037,"0x4f39":6038,"0x684a":6039,"0x6843":6040,"0x68e8":6041,"0x68e5":6042,"0x930e":6043,"0x72f4":6044,"0x72f1":6045,"0x72c8":6046,"0x72cb":6047,"0x72bc":6048,"0x693f":6049,"0x8af7":6050,"0x681a":6051,"0x8b47":6052,"0x6821":6053,"0x44ef":6054,"se":6055,"0x4e3c":6056,"0x4f51":6057,"0xa89":6058,"0x7dc":6059,"0x7fd":6060,"0xbf9":6061,"0x98e":6062,"0xaab6":6063,"0x9626":6064,"0x967a":6065,"0x963a":6066,"0x9614":6067,"0x969f":6068,"0x9652":6069,"0x967f":6070,"0x9608":6071,"0xcfec":6072,"0x6d14":6073,"0x79df":6074,"0x79b8":6075,"##2d6":6076,"0x4890":6077,"0x48d1":6078,"0x4897":6079,"0x489c":6080,"0x48d4":6081,"0x48c2":6082,"0x48c5":6083,"0x48a1":6084,"0x48b5":6085,"0x48d9":6086,"0x48b3":6087,"0x48bc":6088,"##fb3":6089,"##d7f":6090,"0x9029":6091,"0x904a":6092,"0x691d":6093,"0x6916":6094,"0x6931":6095,"0x692c":6096,"0x6929":6097,"0x6924":6098,"0x86f0":6099,"0xac1e":6100,"0x7392":6101,"0x4e40":6102,"0x4e44":6103,"0x4e3d":6104,"0x4e73":6105,"0x4e55":6106,"0x4e5c":6107,"0xd09e":6108,"0xb7f5":6109,"0xb7eb":6110,"0x87df":6111,"0xac32":6112,"0x13b8":6113,"0x13b4":6114,"0x13bb":6115,"0x4e65":6116,"0x4e62":6117,"0x4e6e":6118,"0x4e6b":6119,"0x7ff9":6120,"0x7197":6121,"0xaf9e":6122,"0x4ed2":6123,"0x89db":6124,"0xb00a":6125,"0x4e78":6126,"0x4e7c":6127,"0x72a6":6128,"0x15b6":6129,"0x4f4e":6130,"0x4e47":6131,"0x4e4e":6132,"0x3af3":6133,"0xcaf5":6134,"0xcafa":6135,"0xac21":6136,"0xcfa4":6137,"sete":6138,"0x4fd":6139,"0xa60":6140,"0x71c":6141,"0x5f9":6142,"0x5fd":6143,"0x34e":6144,"0x8b79":6145,"0xbf09":6146,"0x9bb":6147,"0xaa20":6148,"0xaa15":6149,"0xaa0e":6150,"0x2e":6151,"0x2f7":6152,"0x2f97":6153,"0x96ee":6154,"0x9610":6155,"0x9630":6156,"0x962d":6157,"0x96ce":6158,"0x96a4":6159,"0x96e9":6160,"0x96e6":6161,"0x96d5":6162,"0x96c9":6163,"0x9684":6164,"0x968b":6165,"0x9635":6166,"0x965f":6167,"0x96c4":6168,"0x9655":6169,"0x961b":6170,"0x96f3":6171,"0x96fa":6172,"0x9677":6173,"0x9674":6174,"0x96e3":6175,"0x96be":6176,"0x9666":6177,"0x9692":6178,"0x966d":6179,"0x96c1":6180,"0x96b0":6181,"0x9699":6182,"0x960c":6183,"0x965a":6184,"0x78da":6185,"0x493b":6186,"0x6df2":6187,"0x6d1a":6188,"0x6dcd":6189,"0x4533":6190,"0x6cf5":6191,"0x79ab":6192,"0x7970":6193,"0x7949":6194,"0x7901":6195,"0x796e":6196,"0x79de":6197,"0x3bda":6198,"0x3b10":6199,"0x3b58":6200,"0x3bbd":6201,"0x3b88":6202,"0x3b5b":6203,"0x3bc3":6204,"0x3bba":6205,"0x3b76":6206,"0x3bf1":6207,"0x3be9":6208,"0x3beb":6209,"0x3b29":6210,"0x3bd5":6211,"0x3bc6":6212,"0x3b4f":6213,"0x3be4":6214,"0x3bf3":6215,"0x3b6a":6216,"0x3b67":6217,"0x3b62":6218,"0x3b0b":6219,"0x3b1a":6220,"0x3b1f":6221,"0x3b6f":6222,"0x3be1":6223,"0x3b21":6224,"0x3b52":6225,"0x3b4e":6226,"0x3b80":6227,"0x3b7e":6228,"0x3bcd":6229,"0x3b03":6230,"0x3b79":6231,"0x3b08":6232,"0x47c7":6233,"##9e9":6234,"0x301e":6235,"0x14b7":6236,"0x3523":6237,"##d69":6238,"0x7470":6239,"##7b5":6240,"0x9033":6241,"##1a7":6242,"0x34ca":6243,"0x8c23":6244,"0x8ca3":6245,"0x8c70":6246,"0x8c9d":6247,"0x8c58":6248,"0x8ca4":6249,"0x8c29":6250,"0x8c73":6251,"0x8c15":6252,"0x8c53":6253,"0x8c84":6254,"0x8c5f":6255,"0x8c1c":6256,"0xac28":6257,"0xac46":6258,"0xac17":6259,"0x8bf0":6260,"0x8bfe":6261,"0x8bba":6262,"0x8be9":6263,"0x8be4":6264,"0x8b8b":6265,"0x8bf7":6266,"0x8b71":6267,"0xde08":6268,"0x8516":6269,"0x9ae7":6270,"0x6dd3":6271,"0xa9f8":6272,"0x3af0":6273,"0x3af9":6274,"0xddda":6275,"0xdd0e":6276,"0xdd32":6277,"0xbdef":6278,"0xbedd":6279,"0xbe13":6280,"0xbefd":6281,"0xbecf":6282,"0x9708":6283,"0x9701":6284,"0x21ee":6285,"0x8b92":6286,"0x8b6d":6287,"0x8bd2":6288,"0x8bd9":6289,"0x8c04":6290,"0x8c01":6291,"0x8c0e":6292,"0x726a":6293,"0xac3f":6294,"0xac35":6295,"0xac3a":6296,"0x8bb4":6297,"0x8bb7":6298,"0x9648":6299,"0x964f":6300,"0x9641":6301,"0xa9fb":6302,"0x2fe0":6303,"0x2fb2":6304,"0x2fc5":6305,"0x85df":6306,"0x8bad":6307,"0x8ba6":6308,"0x8fb1":6309,"0x8c98":6310,"0x8c95":6311,"0x9182":6312,"0x8c4e":6313,"0x8c4b":6314,"0x4f2f":6315,"0x4f2a":6316,"0x4f34":6317,"0x8c3a":6318,"0x8c33":6319,"0x349c":6320,"0x3491":6321,"0xbfc7":6322,"0x855c":6323,"0x8c2e":6324,"0x8c6d":6325,"0x3afc":6326,"0xac2b":6327,"0x973f":6328,"0x973e":6329,"0x3aef":6330,"0x8ca2":6331,"0x3483":6332,"0x2f8c":6333,"0x12ef":6334,"0x8b80":6335,"0x2ffb":6336,"0x34b7":6337,"0x8c78":6338,"0xbf99":6339,"0x34e5":6340,"0x2f7e":6341,"0x33d5":6342,"0x32d6":6343,"0xb76":6344,"0x946":6345,"0x914":6346,"0x923b":6347,"0x6e30":6348,"0x6e23":6349,"0x6e3d":6350,"0x6e17":6351,"0x6e19":6352,"0x6e1c":6353,"0x6e1f":6354,"0x6e0a":6355,"0x6e2b":6356,"0x37db":6357,"0xca3":6358,"0xca0":6359,"0xcf6":6360,"0xcf86":6361,"0xcf97":6362,"0xc9e9":6363,"0x4918":6364,"0x491d":6365,"0x4912":6366,"0x490b":6367,"0x38da":6368,"0x38c6":6369,"0x38ec":6370,"0x48f9":6371,"0x48fe":6372,"0x48f4":6373,"0x48e6":6374,"0x48f6":6375,"0x48e4":6376,"0x4865":6377,"0x48ef":6378,"0x9030":6379,"0x9023":6380,"0x9016":6381,"0x9036":6382,"0x903d":6383,"0x9025":6384,"0x904d":6385,"0x903b":6386,"0x9019":6387,"0x901c":6388,"0x9057":6389,"0x9067":6390,"0x9021":6391,"0x9071":6392,"0x9043":6393,"0x341b":6394,"0x44bb":6395,"0x86f1":6396,"0x7c56":6397,"0x8550":6398,"0x85a0":6399,"0x85af":6400,"0x85a4":6401,"0x855f":6402,"0x85a8":6403,"0x854c":6404,"0x4f60":6405,"0x4f2d":6406,"0x4f58":6407,"0x4f36":6408,"0x4f48":6409,"0x4f5b":6410,"0x4f73":6411,"0x1190":6412,"0xd05c":6413,"0x858a":6414,"0x8581":6415,"0x858e":6416,"0xc958":6417,"0xc936":6418,"0xc948":6419,"0xc95e":6420,"0x9004":6421,"0x9002":6422,"0x9006":6423,"0x8567":6424,"0x8569":6425,"0x856b":6426,"0x85bc":6427,"0x85ba":6428,"0x8ffa":6429,"0x8ffd":6430,"0x8ff7":6431,"0x8ff0":6432,"0x8008":6433,"0x8feb":6434,"0x91cb":6435,"0x85cc":6436,"0x85c2":6437,"0x85d4":6438,"0x85d6":6439,"0x857e":6440,"0x4f24":6441,"0x4f3c":6442,"0xca18":6443,"0x33e7":6444,"0x33c1":6445,"0x8555":6446,"0x8598":6447,"0x8595":6448,"0x4f65":6449,"0x4f6d":6450,"0x4f42":6451,"0xcfa9":6452,"0x4f1e":6453,"0xca32":6454,"0xca0e":6455,"0xcf65":6456,"0x7ce":6457,"0x7d1":6458,"0x71b7":6459,"0x71b5":6460,"0x884":6461,"0x877":6462,"0x866":6463,"0xb27":6464,"0x934":6465,"0x4948":6466,"##f2e":6467,"0x80da":6468,"0x7432":6469,"##3f7":6470,"##cc1":6471,"0x698b":6472,"0x71bd":6473,"0x8544":6474,"0x1520":6475,"0x6a0f":6476,"0x9274":6477,"0x3d4e":6478,"0xac0":6479,"0xa81":6480,"0xa5f":6481,"0xab69":6482,"0x7e0":6483,"0x9b9":6484,"0x977":6485,"0x91b1":6486,"0x1f":6487,"0x11d":6488,"0x6e6f":6489,"0x66b0":6490,"0x66e8":6491,"0x495c":6492,"0x67cf":6493,"0x6780":6494,"0x7569":6495,"0x14eb":6496,"##4f3":6497,"##24c":6498,"0x68f4":6499,"##4cd":6500,"0x9264":6501,"0x925d":6502,"0x9249":6503,"0x11a9":6504,"0x721b":6505,"0xaf12":6506,"0x927a":6507,"0x9253":6508,"0x926e":6509,"0x918b":6510,"0x155c":6511,"0x7256":6512,"0x9172":6513,"0x7183":6514,"0x7178":6515,"0x6a85":6516,"0x442":6517,"0xace":6518,"0xa98":6519,"0x71b1":6520,"0x9245":6521,"0x924c":6522,"0x70ea":6523,"0x70f0":6524,"0x70e4":6525,"0x70d4":6526,"0x70db":6527,"0x70e8":6528,"0x6665":6529,"0x6662":6530,"0x6669":6531,"0x5bee":6532,"0x5bfe":6533,"0x5bce":6534,"0x5bd1":6535,"0x5bf1":6536,"0x5bdc":6537,"0x5bc6":6538,"0x5bc7":6539,"0x5bfa":6540,"0x5bd7":6541,"0x5bca":6542,"0x5bf7":6543,"0x5bfc":6544,"0x6716":6545,"0x6725":6546,"0x670d":6547,"0x6722":6548,"0x671c":6549,"0x671a":6550,"0x670a":6551,"0x6702":6552,"0x6703":6553,"0xa42f":6554,"0x757a":6555,"0x7632":6556,"0xa372":6557,"0x6b24":6558,"0x80ba":6559,"0x809b":6560,"##124":6561,"0x9990":6562,"0x35e0":6563,"##d4b":6564,"0x9f5b":6565,"0x3e36":6566,"0x13c0":6567,"0x9268":6568,"0x9242":6569,"0x924f":6570,"0x71c0":6571,"0x719d":6572,"0x719e":6573,"0x71a5":6574,"0x5c08":6575,"0x5c05":6576,"0x5c0d":6577,"0x5c0e":6578,"0xabf7":6579,"0xa99a":6580,"0x664d":6581,"0x93ce":6582,"0x9272":6583,"0x9279":6584,"0x69fa":6585,"0x13b1":6586,"0x7e7f":6587,"0x923f":6588,"0x9233":6589,"0x9237":6590,"0x7f85":6591,"0x925f":6592,"0x9259":6593,"0x9256":6594,"0x9262":6595,"0x926b":6596,"0x149b":6597,"0x71a8":6598,"0x71a1":6599,"0xa89c":6600,"0xb76e":6601,"##697":6602,"##sd":6603,"0x6640":6604,"0xaba":6605,"0xa7b5":6606,"0x7fe":6607,"0x74fc":6608,"0x513":6609,"0x862":6610,"0xb8c":6611,"0x940":6612,"0x9f1":6613,"0x9122":6614,"0x144f":6615,"0x4a10":6616,"0x4a18":6617,"0x4a70":6618,"0x4a48":6619,"0x4a31":6620,"0x4a13":6621,"0x4a4d":6622,"0x4a73":6623,"0x4a24":6624,"0x4a41":6625,"0x4a0b":6626,"0x4a1f":6627,"0x4a66":6628,"0x4a6d":6629,"0x4a61":6630,"0x4a52":6631,"0x4a2e":6632,"0x4a06":6633,"0x4a2b":6634,"0x4a5a":6635,"0x66a3":6636,"0x66a0":6637,"0x6658":6638,"0x663d":6639,"0x6689":6640,"0x668c":6641,"0x6635":6642,"0x6655":6643,"0x6697":6644,"0x66a8":6645,"0x6692":6646,"0x6639":6647,"0x6699":6648,"0x49ff":6649,"0x49e5":6650,"0x63697":6651,"0x7513":6652,"0x7524":6653,"0x798d":6654,"0x46ab":6655,"0x46b5":6656,"0x6b97":6657,"0x80e7":6658,"0x8015":6659,"0x80e4":6660,"0x80f3":6661,"##2656":6662,"##e656":6663,"0x14a4":6664,"0x1453":6665,"0x50ff":6666,"0x74f9":6667,"0x74bd":6668,"0x74c8":6669,"0x3e85":6670,"0xafaf":6671,"0xafc8":6672,"0xb507":6673,"0x8716":6674,"0x852d":6675,"0x8525":6676,"0x7fbb":6677,"0x91f8":6678,"0x6649":6679,"0xb360":6680,"0xa7ec":6681,"0x750e":6682,"0x7509":6683,"0x750b":6684,"0x6a92":6685,"0xaff1":6686,"0x8104":6687,"0x853f":6688,"0x853c":6689,"0x3eb5":6690,"0x9497":6691,"0xb777":6692,"0x636972656":6693,"##e6567":6694,"0x636972656e6567":6695,"0xab9":6696,"0x87b8":6697,"0x87b1":6698,"0xb96":6699,"0x123":6700,"0x26":6701,"0x49bd":6702,"0x49af":6703,"0x49a5":6704,"0x49dc":6705,"0x498c":6706,"0x49b6":6707,"0x49d6":6708,"0x49aa":6709,"0x49c8":6710,"0x49c4":6711,"0x49cf":6712,"0x49cc":6713,"0x4994":6714,"0x4613":6715,"0x46ed":6716,"0x7630":6717,"0x7623":6718,"0x7628":6719,"0x7615":6720,"0x761c":6721,"0x763e":6722,"0x7651":6723,"0x7654":6724,"0x762b":6725,"0x6b88":6726,"0x6b7a":6727,"0x6bb9":6728,"0x6b5e":6729,"0x6bb6":6730,"0x6baa":6731,"0x6bb1":6732,"0x6b61":6733,"0x904c":6734,"0x3e58":6735,"0x3e44":6736,"0x13ab":6737,"0x13a9":6738,"0x13a4":6739,"0x139c":6740,"0x6ac6":6741,"0x3d9c":6742,"0x87e0":6743,"0x87c9":6744,"0x879c":6745,"0x8798":6746,"0x85e6":6747,"0x1140":6748,"0xa7ee":6749,"0xa7f6":6750,"0x87d5":6751,"0x87d7":6752,"0x87de":6753,"0x87d9":6754,"0x87d0":6755,"0x87c4":6756,"0x87c2":6757,"0x87cd":6758,"0x87a4":6759,"0x87aa":6760,"0x87a7":6761,"0x87ae":6762,"0xaffb":6763,"0x7645":6764,"0x13ae":6765,"0x9a5a":6766,"0xb002":6767,"0xafe2":6768,"0x1609":6769,"0x93ac":6770,"0x877e":6771,"##6d6":6772,"0x44f3":6773,"0xa9e":6774,"0xac4":6775,"0xa97":6776,"0x7ecd":6777,"0x73f7":6778,"0x5f0":6779,"0x5f5":6780,"0x5eb":6781,"0x8cf":6782,"0xb29":6783,"0xb0e":6784,"0x9b6":6785,"0x6570":6786,"0xaa78":6787,"0xaa80":6788,"0x3cfe":6789,"0x3cf6":6790,"0x3cfa":6791,"0x3cf7":6792,"0x6d44":6793,"0x6d6d6":6794,"0x607d":6795,"0x7a3e":6796,"0x3f58":6797,"0x3f53":6798,"0x3f59":6799,"0x3f41":6800,"0x3f4b":6801,"0x3f5a":6802,"##7073":6803,"0x46bb":6804,"0x46d6":6805,"0x46ae":6806,"0x46c5":6807,"0x46b1":6808,"0x46e1":6809,"0x46cc":6810,"0x46db":6811,"0x46c1":6812,"0x7677":6813,"##365":6814,"0x6b18":6815,"0x8013":6816,"##f63":6817,"0x14c8":6818,"0x14e8":6819,"##d8f":6820,"##e41":6821,"0x74ea":6822,"0x74ee":6823,"0x742d":6824,"0x7425":6825,"0x74e7":6826,"0x741a":6827,"0x74e1":6828,"0x7437":6829,"0x743c":6830,"0x13cb":6831,"##37365":6832,"0x617073":6833,"0x86bd":6834,"0x3d24":6835,"0x8b77":6836,"0x73e0":6837,"0x73fe":6838,"0x73f1":6839,"0x73e4":6840,"0x851e":6841,"0x450e":6842,"0x7f7c":6843,"0x7ec0":6844,"0x7ec3":6845,"0x7e8c":6846,"0x7ec8":6847,"0x7e83":6848,"0xdc58":6849,"0xd1a4":6850,"0xd19b":6851,"0xd1b5":6852,"0x3d08":6853,"0x3d02":6854,"0x3d0b":6855,"0x3d12":6856,"0x3d17":6857,"0xda1f":6858,"0xd955":6859,"0x7e7c":6860,"0x7e7b":6861,"0x7eae":6862,"0x7ea0":6863,"0x7f82":6864,"0x7f89":6865,"0x150c":6866,"0x7ed2":6867,"0x7ed7":6868,"0x7ed9":6869,"0x7e92":6870,"0x7e99":6871,"0x74de":6872,"0x740c":6873,"0x7405":6874,"0x8afd":6875,"0x61637365":6876,"0x7ebc":6877,"0x7eb5":6878,"0x63617073":6879,"0x8f14":6880,"0x7f79":6881,"0x6d6d6f63":6882,"0x6170735e":6883,"0xa5d":6884,"0xab6":6885,"0x7dd":6886,"0x7da":6887,"0x7c4":6888,"0x893":6889,"0x9ee":6890,"0x974":6891,"0x127":6892,"0xb463":6893,"0x4c05":6894,"0xaa36":6895,"0x4946":6896,"0x4925":6897,"0x492c":6898,"0x495a":6899,"0x3630":6900,"##10f":6901,"0x7565":6902,"0x755c":6903,"0x756f":6904,"0x7561":6905,"0x7622":6906,"0x14a8":6907,"0x505e":6908,"0x507f":6909,"0x9949":6910,"0x9974":6911,"0x998d":6912,"0x98d3":6913,"0x8e26":6914,"0x8e73":6915,"0x44dd":6916,"0x44c3":6917,"0x44e9":6918,"0x7f58":6919,"0x7fa6":6920,"0x7f35":6921,"0x159d":6922,"0x1531":6923,"0x15a4":6924,"0x159a":6925,"0xa9c8":6926,"0x12e1":6927,"0x746d":6928,"0x515d":6929,"0x996c":6930,"0x9962":6931,"0x9a37":6932,"0x7f97":6933,"cmovle":6934,"0x7f6e":6935,"0x7f66":6936,"0x4ed8":6937,"0x4ede":6938,"0x7f1b":6939,"0x98cc":6940,"0x4f03":6941,"0x4f12":6942,"0xb8c7":6943,"0x69ad":6944,"0x44cd":6945,"0xaca":6946,"0x7df":6947,"0x7c9":6948,"0x7c6":6949,"0x7d6":6950,"0x3d5":6951,"0x892":6952,"0xb30":6953,"0xb8bf":6954,"0x9bd":6955,"0x2d0":6956,"0x83f0":6957,"0x83f3":6958,"0x83fb":6959,"0x83f7":6960,"0x83ef":6961,"0xc10f":6962,"0x66dd":6963,"0x495b":6964,"0xaebd":6965,"0x7b66":6966,"0x47f0":6967,"0x47f3":6968,"0x47e3":6969,"0x47cb":6970,"0x47e1":6971,"0x47e5":6972,"0x14c0":6973,"##1a1":6974,"0x8e9d":6975,"0x8e8e":6976,"0x8e8b":6977,"0x6975":6978,"0x6a2d":6979,"0x44c0":6980,"0x44ed":6981,"0x44c7":6982,"0x44e2":6983,"0xacaf":6984,"0x4ef0":6985,"0x4efd":6986,"0x4ef7":6987,"0xa5fd":6988,"0xad98":6989,"0x1544":6990,"0xadd6":6991,"0x9130":6992,"0x9133":6993,"0x8405":6994,"0xc996":6995,"0xc98b":6996,"0x8f6b":6997,"0x8ea5":6998,"0x8ea0":6999,"0x8fbc":7000,"0xaffc":7001,"0x4edb":7002,"0x7e66":7003,"0x148c":7004,"0xca88":7005,"0x8e92":7006,"0x8f4f":7007,"0x4ee8":7008,"0x4ee5":7009,"0x4eeb":7010,"0x44d3":7011,"0x44d9":7012,"0x44db":7013,"0x44bf":7014,"0x4f05":7015,"0x8d6a":7016,"0x6978":7017,"0x2d14":7018,"0xd16c":7019,"0xa579":7020,"0xaca7":7021,"0x44fc":7022,"0xa63":7023,"0xa9a":7024,"0x5180":7025,"0x3d8":7026,"0x8aa":7027,"0x9d6":7028,"0x9a7":7029,"0x9a8a":7030,"0xb4f4":7031,"0xaa93":7032,"0xaa6e":7033,"0x4a9f":7034,"0x4500":7035,"0x4518":7036,"0x451d":7037,"0x4513":7038,"0x4529":7039,"0x4515":7040,"0x4524":7041,"0x4521":7042,"0x452e":7043,"0x4800":7044,"0x4818":7045,"0x480d":7046,"0x481b":7047,"0x480a":7048,"##f55":7049,"0x5081":7050,"0x9805":7051,"0x13c4":7052,"0x6aab":7053,"0x6aa3":7054,"##545":7055,"0x44fe":7056,"0x44f5":7057,"0xac50":7058,"0x8722":7059,"0x8714":7060,"0x4505":7061,"0x4502":7062,"0x4507":7063,"0x9aa5":7064,"0x9a8e":7065,"0x9a82":7066,"0x12b8":7067,"0xd060":7068,"0xd098":7069,"0x9a91":7070,"0x5179":7071,"0x920a":7072,"0x85e4":7073,"0xa9a2":7074,"0xa74":7075,"0x7d5":7076,"0x7c7":7077,"0x550":7078,"0x560":7079,"0x55d":7080,"0x523":7081,"0x55e":7082,"0x529":7083,"0x8ad":7084,"0x8b0":7085,"0xb2c":7086,"0xb0b":7087,"0x94d":7088,"0x97c":7089,"0x126":7090,"0xaaab":7091,"0xaa9d":7092,"0xaa7d":7093,"0xaa75":7094,"0xaa33":7095,"0xaa3b":7096,"0xaa84":7097,"0xaaa6":7098,"0xaa9a":7099,"0xaa3f":7100,"0xaaa2":7101,"0x67c8":7102,"0x793b":7103,"0x8038":7104,"##ed6":7105,"0x14f0":7106,"0x145a":7107,"0x50e0":7108,"0x50b1":7109,"##947":7110,"0x8523":7111,"0x8875":7112,"0x95a6":7113,"0x151d":7114,"0x1596":7115,"0x15a0":7116,"0x15af":7117,"0x15a9":7118,"0x15ac":7119,"0x9a7a":7120,"0x7290":7121,"0xa9a9":7122,"0x12dd":7123,"0xa623":7124,"0x7603":7125,"0x8f67":7126,"0x7f8c":7127,"0x13d5":7128,"0x9a5c":7129,"0x1555":7130,"0x1587":7131,"0x8883":7132,"0x515a":7133,"0x1594":7134,"0x1599":7135,"0x8ad3":7136,"0x3d78":7137,"0x8a4e":7138,"0x90d":7139,"0x95e":7140,"0x9a2b":7141,"0x1545":7142,"0x4be3":7143,"0x4a36":7144,"0x494d":7145,"0x4957":7146,"0x4966":7147,"0x494c":7148,"0x4954":7149,"0x3855":7150,"0x77ff":7151,"0x6d2a":7152,"0x6d8b":7153,"0x6d3e":7154,"0x28f2":7155,"0x635e":7156,"0xae5f":7157,"0xae61":7158,"0xa4be":7159,"0xa4ac":7160,"0xa4b3":7161,"0xa4c1":7162,"0xa4b7":7163,"0xbb5":7164,"0x81ad":7165,"0x6b4d":7166,"0x6b74":7167,"0x8011":7168,"0x80d3":7169,"0x1450":7170,"0x145d":7171,"0x14a5":7172,"0x14ad":7173,"0x14b0":7174,"##222":7175,"0x9820":7176,"0x8ef2":7177,"##2e8":7178,"0x86e7":7179,"0xac16":7180,"0x7358":7181,"0x735b":7182,"0x851d":7183,"0x8546":7184,"0x8529":7185,"0x8521":7186,"0x88dc":7187,"0x8fc0":7188,"0x8fda":7189,"0x8fdf":7190,"0x8fb9":7191,"0x8fc8":7192,"0x8fc4":7193,"0x8fcd":7194,"0x15da":7195,"0x9a23":7196,"0x9a18":7197,"0x9a11":7198,"0x9a26":7199,"0x9a1c":7200,"0x736a":7201,"0x5f68":7202,"0xa53e":7203,"0x8a02":7204,"0x8a09":7205,"0xac3c":7206,"0x8fe1":7207,"0x23ed":7208,"0x12f6":7209,"0x85cb":7210,"0x8fb8":7211,"0x8532":7212,"0x8539":7213,"0x1552":7214,"0x15de":7215,"0x3350":7216,"0x8fd4":7217,"0x8fd7":7218,"0x86c4":7219,"0x916b":7220,"0x89c2":7221,"0x15e7":7222,"0x5f87":7223,"0x89e2":7224,"0x7f41":7225,"0x89b0":7226,"0x7355":7227,"0x6295":7228,"0x86db":7229,"0xa9cd":7230,"0xac47":7231,"jb":7232,"0x6a4":7233,"0x4f8":7234,"0xa88":7235,"0x511":7236,"0x5104":7237,"0x88b":7238,"0x85f":7239,"0x9f2":7240,"0x92c":7241,"0x65d0":7242,"0x15d0":7243,"0x13fc":7244,"0xa04c":7245,"0x4295":7246,"0xaa64":7247,"0xaa50":7248,"0xaa69":7249,"0x238a":7250,"0x6d30":7251,"0x6d23":7252,"0x6d27":7253,"0x6d33":7254,"0x6d76":7255,"0x6d4d":7256,"0x6d81":7257,"0x6d8e":7258,"0x6d65":7259,"0x6d5f":7260,"0x6d1c":7261,"0x6d1b":7262,"0x6d7b":7263,"0x6d67":7264,"0x6d1f":7265,"0x6d4a":7266,"0x6d85":7267,"0x6d3c":7268,"0x6d79":7269,"0x3f3d":7270,"0x4758":7271,"0x472f":7272,"0x766f":7273,"0x1430":7274,"0x14c4":7275,"0x14c5":7276,"0x5065":7277,"0x506a":7278,"0x5074":7279,"0x506f":7280,"##1b8":7281,"##d74":7282,"0x68ae":7283,"##cde":7284,"0xac25":7285,"0x9223":7286,"0xb08e":7287,"0x73ab":7288,"0x15ea":7289,"0x15f2":7290,"0x5118":7291,"0x511d":7292,"0x512c":7293,"0x8b67":7294,"0x8bb5":7295,"0x14d0":7296,"0x85dc":7297,"0x7293":7298,"0x15d4":7299,"0x15d7":7300,"0x15d6":7301,"0x9135":7302,"0x15ef":7303,"0x15e3":7304,"0xabdf":7305,"0xabd5":7306,"0x62a9":7307,"0x4f91":7308,"0x510e":7309,"0x6879":7310,"0x13e3":7311,"0xa5f3":7312,"0x62e8":7313,"0x4e0":7314,"0x4d0":7315,"0xad8":7316,"0x7c3":7317,"0x520":7318,"0x527":7319,"0x5e7":7320,"0x887":7321,"0x9ea":7322,"0x93d":7323,"0x9b5":7324,"0x152":7325,"0x12b":7326,"0x42c3":7327,"0xaae7":7328,"0x66f5":7329,"0x66e5":7330,"0x67d0":7331,"0x635f":7332,"0x753a":7333,"0x7594":7334,"0x7664":7335,"0x7673":7336,"0x802f":7337,"0x14ee":7338,"0x14e0":7339,"0x1496":7340,"0x1425":7341,"0x14e4":7342,"0x14e5":7343,"##632":7344,"##d41":7345,"0x90fd":7346,"##e2b":7347,"0x97f2":7348,"0x9842":7349,"0x9837":7350,"##395":7351,"0x3e2a":7352,"0x3efd":7353,"0x3ef4":7354,"0x3efb":7355,"0x3ef7":7356,"0x62ea":7357,"0x62f0":7358,"0x62e0":7359,"0x62a3":7360,"0x6288":7361,"0x62af":7362,"0x629e":7363,"0x62b2":7364,"0x62e6":7365,"0xa81d":7366,"0x8b55":7367,"0x9246":7368,"0x8792":7369,"0x7350":7370,"0x7324":7371,"0x7c2c":7372,"0x1540":7373,"0x1570":7374,"0xb94f":7375,"0x72a3":7376,"0x9128":7377,"0xa66c":7378,"0x3f0c":7379,"0x3f03":7380,"0x3f09":7381,"0x3f06":7382,"0x927e":7383,"0x7381":7384,"0x92d4":7385,"0x92d3":7386,"0x62f3":7387,"0x728d":7388,"0x128e":7389,"0x97d0":7390,"0x628f":7391,"0x6284":7392,"0x628c":7393,"0x6281":7394,"0x6280":7395,"0x7299":7396,"0x910e":7397,"0x7255":7398,"0x12a9":7399,"0x62de":7400,"0x62db":7401,"0x1493":7402,"0x62c4":7403,"0x62cc":7404,"0x62ca":7405,"0x1291":7406,"0x62a1":7407,"0x90fa":7408,"0x90f7":7409,"0x89a2":7410,"0x6298":7411,"0x7fd5":7412,"0x5fd8":7413,"0x892b":7414,"0xa639":7415,"cv":7416,"0xa64b":7417,"0xad69":7418,"0x568":7419,"0x51d":7420,"0x5f2":7421,"0x575":7422,"0x5f4":7423,"0x3a7":7424,"0x86a":7425,"0x885":7426,"0xb38":7427,"0x9da":7428,"0x1401":7429,"0x13e8":7430,"0xb435":7431,"0x4018":7432,"0x4c31":7433,"0x4c28":7434,"0x4c0d":7435,"0x4c17":7436,"0x4c12":7437,"0x4c1c":7438,"0x4c32":7439,"0x4c09":7440,"0x4c0a":7441,"0x4c21":7442,"0x4c2b":7443,"0x2f9":7444,"0xc6e":7445,"0x7834":7446,"0xa4f2":7447,"0xa4ba":7448,"0xa4c7":7449,"0xa482":7450,"0xa46f":7451,"0xa480":7452,"0xa46e":7453,"0xa45a":7454,"0x7536":7455,"0x7531":7456,"0x7546":7457,"0x7511":7458,"0x7527":7459,"0x7533":7460,"0x7519":7461,"0x751b":7462,"0x753e":7463,"0x751a":7464,"0x7539":7465,"0x7521":7466,"0x752e":7467,"0x753c":7468,"0x7545":7469,"0x4750":7470,"0x472d":7471,"0x470d":7472,"0x473a":7473,"0x4709":7474,"0x474b":7475,"0x4702":7476,"0x473c":7477,"0x4734":7478,"0x8127":7479,"0x813a":7480,"0x8153":7481,"0x8141":7482,"0x811a":7483,"0x814c":7484,"0x8121":7485,"0x46fb":7486,"0x765d":7487,"0x80dd":7488,"0x80f8":7489,"0x80fa":7490,"0x80e1":7491,"0x80ec":7492,"##b21":7493,"0x141b":7494,"##42e":7495,"0x74ff":7496,"0x7464":7497,"0x74c0":7498,"0x74ab":7499,"0x74f8":7500,"0x7475":7501,"0x74a9":7502,"0x74b2":7503,"0x74c6":7504,"0x74aa":7505,"0x74c7":7506,"0x74b4":7507,"0x74b1":7508,"0x747e":7509,"##8b8":7510,"##f32":7511,"##5c1":7512,"0x90c2":7513,"0x9740":7514,"0x680a":7515,"##b8d":7516,"##834":7517,"0xb873":7518,"0x3e6c":7519,"0x13f9":7520,"0x69dd":7521,"0x69da":7522,"0x69c3":7523,"0x69bb":7524,"0x69c9":7525,"0x69c6":7526,"0x86f8":7527,"0x8698":7528,"0x86b8":7529,"0x3d56":7530,"0x92ed":7531,"0x92e6":7532,"0x921e":7533,"0x7368":7534,"0x7cd0":7535,"0x717a":7536,"0x88a2":7537,"0xa53a":7538,"0x95c0":7539,"0x95e9":7540,"0x95ed":7541,"0x7f10":7542,"0x7f44":7543,"0x7f4d":7544,"0x7f49":7545,"0x154d":7546,"0x154a":7547,"0xb946":7548,"0xb95e":7549,"0x7240":7550,"0x72af":7551,"0x724d":7552,"0xabe7":7553,"0x7e64":7554,"0xa665":7555,"0xd177":7556,"0x9331":7557,"0x5f20":7558,"0x5f23":7559,"0x5f48":7560,"0x5f28":7561,"0x5f35":7562,"0x69e3":7563,"0xb885":7564,"0x130b":7565,"0x1319":7566,"0xa534":7567,"0x69cd":7568,"0x7506":7569,"0x6a9c":7570,"0x7f08":7571,"0x7f07":7572,"0x7f0b":7573,"0x95d6":7574,"0x69be":7575,"0x1509":7576,"0x810c":7577,"0x8101":7578,"0x8107":7579,"0xafd4":7580,"0x9267":7581,"0x7642":7582,"0x516f":7583,"0x5165":7584,"0x516a":7585,"0x5162":7586,"0x5161":7587,"0x12cc":7588,"0x12c5":7589,"0x9a57":7590,"0x68cd":7591,"0x5188":7592,"0x518a":7593,"0x5183":7594,"0x5189":7595,"0x7f14":7596,"0x7f19":7597,"0x6001":7598,"0x9284":7599,"0x7f52":7600,"0x3ea9":7601,"0x3da4":7602,"0x8866":7603,"0x9a99":7604,"0x3eb3":7605,"0xabb4":7606,"0x8ae2":7607,"0x5174":7608,"0xd16e":7609,"0x440b":7610,"0x95b6":7611,"0x5f19":7612,"0x716d":7613,"0x5f3f":7614,"0x5f32":7615,"0xb96f":7616,"cvt":7617,"0x5f2b":7618,"0x5f42":7619,"0xc6e8":7620,"0x68f7":7621,"0x68b5":7622,"0x6a2b":7623,"0x68b8":7624,"0xacb":7625,"0xa6fc":7626,"0x744f":7627,"0x7395":7628,"0x3d85":7629,"0x3d3c":7630,"0x3d7f":7631,"0x8cb":7632,"0x8a8a":7633,"0x8cc1":7634,"0x9eb":7635,"0x914b":7636,"0x9421":7637,"0x6e57":7638,"0x6e32":7639,"0x2b":7640,"0x2da":7641,"0x3750":7642,"0x966f":7643,"0x9602":7644,"0x9601":7645,"0x84b4":7646,"0x84a8":7647,"0x67fe":7648,"0x67f2":7649,"0x67f8":7650,"0x67f5":7651,"0x67eb":7652,"0x67fb":7653,"0x45ff":7654,"0x45ee":7655,"0x45eb":7656,"0x45d5":7657,"0x45c6":7658,"0x45f3":7659,"0x45ca":7660,"0x45cf":7661,"0x45cb":7662,"0x45e1":7663,"0x45e5":7664,"0x45d2":7665,"0x45fc":7666,"0x7a17":7667,"0x7a3c":7668,"0x3b2b":7669,"0x4725":7670,"0x4717":7671,"0x47ae":7672,"0x4715":7673,"0x471c":7674,"0x470f":7675,"0x4861":7676,"0x7618":7677,"0x6b4c":7678,"0x6b39":7679,"0x6b47":7680,"##284":7681,"##7d7":7682,"0x149d":7683,"0x14b8":7684,"0x14b5":7685,"0x7420":7686,"0x7410":7687,"0x7448":7688,"0x7426":7689,"0x7419":7690,"0x7457":7691,"0x7454":7692,"0x745a":7693,"##7bc":7694,"##8fc":7695,"0x90b5":7696,"##c54":7697,"0x9858":7698,"0x9836":7699,"0x9833":7700,"0x9809":7701,"0x68ea":7702,"0x68c0":7703,"0x6868":7704,"0x68bd":7705,"0x68c3":7706,"0x68ba":7707,"0x6811":7708,"0x68f1":7709,"0x687c":7710,"0x68fa":7711,"0x683e":7712,"0x6808":7713,"0x3e10":7714,"0x3e2d":7715,"0x3e16":7716,"0x3e2f":7717,"0x3e33":7718,"0x3e13":7719,"0x3e42":7720,"0x3e24":7721,"0x3e55":7722,"0x3e1b":7723,"0x3e52":7724,"0x1344":7725,"0x13cf":7726,"0x134a":7727,"0x6964":7728,"0x6910":7729,"0x6988":7730,"0x693d":7731,"0x69b9":7732,"0x693a":7733,"0x6a10":7734,"0x6a16":7735,"0x6a25":7736,"0x6a13":7737,"0x6a2c":7738,"0x6a22":7739,"0x6a19":7740,"0x6a1c":7741,"0x8cf1":7742,"0x8cf4":7743,"0x8cd6":7744,"0x3d7d":7745,"0x3d75":7746,"0x3d2a":7747,"0x3d26":7748,"0x3db2":7749,"0x3d3a":7750,"0x3d32":7751,"0x3d98":7752,"0x3db5":7753,"0x9488":7754,"0x94af":7755,"0x8b40":7756,"0x8bee":7757,"0x8b10":7758,"0x8b68":7759,"0x8b30":7760,"0x8bce":7761,"0x8bf8":7762,"0x8b33":7763,"0x8b13":7764,"0x8b3b":7765,"0x8b17":7766,"0x8be7":7767,"0x8b7c":7768,"0x8bc7":7769,"0x8b82":7770,"0x8b0f":7771,"0x8b1b":7772,"0x8b5c":7773,"0x8b59":7774,"0x8be2":7775,"0x8bc2":7776,"0x8b7f":7777,"0x9260":7778,"0x73ff":7779,"0x7360":7780,"0x731d":7781,"0x7327":7782,"0x7349":7783,"0x735e":7784,"0x7329":7785,"0x7353":7786,"0x739f":7787,"0xdb21":7788,"0xd284":7789,"0x71e0":7790,"0x7190":7791,"0x71c9":7792,"0x71c6":7793,"0xa550":7794,"0xa570":7795,"0x95bd":7796,"0x95ce":7797,"0x95f4":7798,"0x9573":7799,"0x95ae":7800,"0x95c4":7801,"0xadbb":7802,"0x157d":7803,"0x1517":7804,"0x151e":7805,"0x15c8":7806,"0xb98b":7807,"0x8d46":7808,"0x8d63":7809,"0x7296":7810,"0x721f":7811,"0xa997":7812,"0x9164":7813,"0x9156":7814,"0xaf61":7815,"0x898e":7816,"0xdc26":7817,"0x7462":7818,"0x4608":7819,"0x4605":7820,"0xa675":7821,"0xd15a":7822,"0x736f":7823,"0x7366":7824,"0xda90":7825,"0xda25":7826,"0xda67":7827,"0xda4c":7828,"0xda4e":7829,"0x8b9c":7830,"0x69c1":7831,"0x69c7":7832,"0x69cb":7833,"0x738f":7834,"0x738c":7835,"0x7385":7836,"0x8b61":7837,"0x8b66":7838,"0x8bd5":7839,"0xdb36":7840,"0xdb3b":7841,"0x7263":7842,"0x8bbc":7843,"0x3dfc":7844,"0x72dc":7845,"0x72d9":7846,"0x9845":7847,"0x95d1":7848,"0x73d8":7849,"0x73d5":7850,"0x8ba2":7851,"0x8ba7":7852,"0x8bae":7853,"0x69bf":7854,"0x69bc":7855,"0x69b7":7856,"0x1503":7857,"0xafd3":7858,"0x9188":7859,"0x12cf":7860,"0xd364":7861,"0x6904":7862,"0x690d":7863,"0x6906":7864,"0x688c":7865,"0x6882":7866,"0x688e":7867,"0x6889":7868,"0x6841":7869,"0x68cf":7870,"0x68c5":7871,"0x68cb":7872,"0x1485":7873,"0x148a":7874,"0x1482":7875,"0x8683":7876,"0xdbdb":7877,"0x8b22":7878,"0x8b29":7879,"0x3495":7880,"0x71d2":7881,"0x7409":7882,"0x1580":7883,"0x72ac":7884,"0x72a5":7885,"0x3da2":7886,"0x9174":7887,"0x7182":7888,"0x3e02":7889,"0x3e09":7890,"0x8da5":7891,"0x8e03":7892,"0x8e0d":7893,"0x986e":7894,"0x92f7":7895,"0x6985":7896,"0x698d":7897,"0x8b52":7898,"0x73a8":7899,"0x6814":7900,"0x697e":7901,"0xa569":7902,"0x8cad":7903,"0x981c":7904,"0x9819":7905,"0x8ced":7906,"0xa58d":7907,"0xa587":7908,"0x8b4e":7909,"0x348c":7910,"0x2f87":7911,"0x7303":7912,"0x730d":7913,"0xa683":7914,"0xa689":7915,"0x3e4b":7916,"0x696e":7917,"0x7314":7918,"0x7317":7919,"0x1578":7920,"0x1574":7921,"0x95b2":7922,"0x6872":7923,"0x95fc":7924,"0x95f7":7925,"0x3e3f":7926,"0x3e39":7927,"0x3d87":7928,"0x8b04":7929,"0x95e2":7930,"0x2f90":7931,"0xff":7932,"0x7c0":7933,"0x7180":7934,"0x742e":7935,"0x528":7936,"0x55b":7937,"0x525":7938,"0x526":7939,"0x553":7940,"0x54b":7941,"0x881":7942,"0xb26":7943,"0xb1a7":7944,"0x9ae":7945,"0xc89":7946,"0x66e7":7947,"0x4936":7948,"0x4931":7949,"0x492f":7950,"0x493e":7951,"0x4943":7952,"0x3675":7953,"0x4830":7954,"0x481d":7955,"0x4832":7956,"0x4837":7957,"0x483c":7958,"0x482b":7959,"0x8096":7960,"0x8090":7961,"0x80a9":7962,"0x8073":7963,"0x8042":7964,"0x8093":7965,"0x8082":7966,"0x8057":7967,"0x805c":7968,"0x807b":7969,"0x8062":7970,"0x80ac":7971,"0x8069":7972,"0x8054":7973,"0x8047":7974,"0x5068":7975,"0x50ab":7976,"0x507c":7977,"0x5077":7978,"0x9946":7979,"0x9927":7980,"0x993a":7981,"0x9937":7982,"0x9947":7983,"0x742c":7984,"0x907d":7985,"0x907f":7986,"0x98f0":7987,"0x98f4":7988,"0x98d6":7989,"##d95":7990,"0xafbb":7991,"##803":7992,"0x6a64":7993,"0x6a5d":7994,"0x6a70":7995,"0x6a96":7996,"0x6a48":7997,"0x6a9e":7998,"0x6a76":7999,"0x6aa9":8000,"0x6a89":8001,"0x6a8c":8002,"0x6a86":8003,"0x8ca5":8004,"0x86f6":8005,"0xacc0":8006,"0xacb9":8007,"0xac84":8008,"0x8b1d":8009,"0x8b16":8010,"0x8b44":8011,"0x8b31":8012,"0x8b3d":8013,"0x8b11":8014,"0x8b0e":8015,"0x4fc0":8016,"0x4fda":8017,"0xadfe":8018,"0x1100":8019,"0x8d0d":8020,"0x8d89":8021,"0x8d93":8022,"0x8de1":8023,"0x8add":8024,"0x8ada":8025,"0x8af2":8026,"0xabcb":8027,"0x7e75":8028,"0x7eca":8029,"0x893a":8030,"0xaf0e":8031,"0x6a5e":8032,"0xb1b9":8033,"0x6a98":8034,"0x6a93":8035,"0x6a9b":8036,"0x727f":8037,"0x6a6e":8038,"0x6a6b":8039,"0x8006":8040,"0xad05":8041,"0x6aaa":8042,"0x6aa1":8043,"0x8b24":8044,"0x8b2e":8045,"0x8b2b":8046,"0x12ae":8047,"0xafe8":8048,"0x889c":8049,"0xac9f":8050,"0xac95":8051,"0x6a78":8052,"0x6a7f":8053,"0x6a7e":8054,"0x4ea8":8055,"0x4eae":8056,"0x896e":8057,"0x8dcb":8058,"0x8ae8":8059,"0x8aef":8060,"0x9879":8061,"0x8dd7":8062,"0x8dde":8063,"0x6a80":8064,"0x7c83":8065,"0xc833":8066,"0xa75a":8067,"0xb0e4":8068,"0x7d67":8069,"cq":8070,"0x4dd":8071,"0x4d5":8072,"0xa86":8073,"0xada7":8074,"0x7f3":8075,"0x7f27":8076,"0x7f2e":8077,"0x8e7f":8078,"0x8e2e":8079,"0xb8e":8080,"0x922e":8081,"0x988b":8082,"0x98f7":8083,"0x98b5":8084,"0x91a7":8085,"0x91a1":8086,"0x98fc":8087,"0x11e":8088,"0x70fc":8089,"0xcab":8090,"0xc7c":8091,"0xc9a":8092,"0xcf55":8093,"0x824":8094,"0x7807":8095,"0x4aba":8096,"0x4ad0":8097,"0x4aa6":8098,"0x4ad7":8099,"0x4ac5":8100,"0x4aac":8101,"0x4ab7":8102,"0x6675":8103,"0x4958":8104,"0x4944":8105,"0x4953":8106,"0x4941":8107,"0x494b":8108,"0x77f5":8109,"0x7757":8110,"0x67ba":8111,"0xae88":8112,"0xae90":8113,"0xae73":8114,"0xae63":8115,"0xae9a":8116,"0xaeb3":8117,"0xae69":8118,"0xae80":8119,"0xa419":8120,"0x7564":8121,"0x7570":8122,"0x75dc":8123,"0x7517":8124,"0x754f":8125,"0x7559":8126,"0x7567":8127,"0x754b":8128,"0x754c":8129,"0x7552":8130,"0x7571":8131,"0x47dd":8132,"0x47e0":8133,"0x47f2":8134,"0x47ed":8135,"0x47e7":8136,"0x47c9":8137,"0x47d8":8138,"0x4844":8139,"0x4849":8140,"0x485c":8141,"0x4859":8142,"0x484b":8143,"0x4852":8144,"0x4847":8145,"0x762d":8146,"0x76c5":8147,"0x6b6a":8148,"##311":8149,"0x1411":8150,"0x5096":8151,"0x5090":8152,"0x99ea":8153,"0x9900":8154,"0x9950":8155,"0x99ee":8156,"0x995d":8157,"0x99f8":8158,"0x993d":8159,"0x99af":8160,"0x9911":8161,"0x9933":8162,"0x992c":8163,"0x99f1":8164,"0x99a4":8165,"0x99b9":8166,"0x99f6":8167,"0x9942":8168,"0x9986":8169,"0x9924":8170,"0x999c":8171,"0x997b":8172,"0x9998":8173,"0x99cf":8174,"0x99be":8175,"0x991a":8176,"0x99a8":8177,"0x9983":8178,"0x9921":8179,"0x994e":8180,"0x997e":8181,"0x9971":8182,"0x995a":8183,"0x9995":8184,"0x9088":8185,"0x9840":8186,"0x9848":8187,"0x98ba":8188,"0x989e":8189,"0x98b2":8190,"0x980d":8191,"0x98ed":8192,"0x98ae":8193,"0x984f":8194,"0x987c":8195,"0x980e":8196,"0x98a6":8197,"0x985f":8198,"0x9824":8199,"0x98a8":8200,"0x98a1":8201,"0x980a":8202,"0x98db":8203,"0x9854":8204,"0x98de":8205,"0x8e40":8206,"0x8e70":8207,"0x8ece":8208,"0x8e31":8209,"0x8ed1":8210,"0x8ef5":8211,"0x8e13":8212,"0x8e76":8213,"0x8e38":8214,"0x8efd":8215,"0x8e6c":8216,"0x8e4d":8217,"0x8e3b":8218,"0x8e17":8219,"0x8e89":8220,"0x8e29":8221,"0x8e8c":8222,"0x8e55":8223,"0x8e5c":8224,"0x8e59":8225,"0x8ec2":8226,"0x8e1a":8227,"0x8e1f":8228,"0x8e52":8229,"0xac9d":8230,"0xacaa":8231,"0xac8b":8232,"0xacc8":8233,"0xacb4":8234,"0x9228":8235,"0xb010":8236,"0x871a":8237,"0x73b2":8238,"0x73c1":8239,"0x857d":8240,"0x85eb":8241,"0x4ec0":8242,"0x4ec3":8243,"0x4eb9":8244,"0x4ec6":8245,"0x4ecb":8246,"0x8f40":8247,"0x8f5d":8248,"0x8f23":8249,"0x8f18":8250,"0x8f44":8251,"0x8f5b":8252,"0xad9f":8253,"0xadb3":8254,"0x7f20":8255,"0x7f40":8256,"0x7f60":8257,"0x7f18":8258,"0x7f5b":8259,"0x7f38":8260,"0x7f3b":8261,"0x7f77":8262,"0x155e":8263,"0x8d21":8264,"0xabc0":8265,"0xabab":8266,"0xabc6":8267,"0x3a1d":8268,"0x3a11":8269,"0x3a15":8270,"0x3a1b":8271,"0xaf52":8272,"0x12bb":8273,"0x12b1":8274,"0x12b0":8275,"0x91af":8276,"0x91a5":8277,"0x89f0":8278,"0x89a9":8279,"0x89f6":8280,"0x89b6":8281,"0x89bb":8282,"0x89c9":8283,"0xb2e7":8284,"0xa7c0":8285,"0x9310":8286,"0x932f":8287,"0xd046":8288,"0xd01f":8289,"0xd034":8290,"0x99e5":8291,"0x99e2":8292,"0x9907":8293,"0x990e":8294,"0x990b":8295,"0xaeac":8296,"0xaea9":8297,"0x9969":8298,"0x8ee8":8299,"0x8ee0":8300,"0x99df":8301,"0x99d4":8302,"0x99db":8303,"0x8f01":8304,"0x8f0d":8305,"0x8f09":8306,"0x8a0c":8307,"0x8ea2":8308,"0x8eae":8309,"0x8eab":8310,"0x8f27":8311,"0x8ebf":8312,"0x8eb5":8313,"0x8eb3":8314,"0x8ebb":8315,"0x984c":8316,"0x7f9d":8317,"0x91c1":8318,"0x7f0e":8319,"0x7f86":8320,"0x73d2":8321,"0x7f67":8322,"0x8f34":8323,"0x89d3":8324,"0x89d6":8325,"0x89d0":8326,"0x9821":8327,"0x982b":8328,"0xcaae":8329,"0x7f15":8330,"0x8e98":8331,"0x8e9f":8332,"0x8e9c":8333,"0x8e91":8334,"0xbfd1":8335,"0x8f4a":8336,"0x8f47":8337,"0x7f55":8338,"0x8ed9":8339,"0x8ed6":8340,"0x9191":8341,"0x98c4":8342,"0x98c1":8343,"0x98c9":8344,"0x3a0d":8345,"0x3a0e":8346,"0x6932":8347,"0x8899":8348,"0xac98":8349,"0xac92":8350,"0x9863":8351,"0x9869":8352,"0x9866":8353,"0x6980":8354,"0x975f":8355,"0x4ea2":8356,"0xabb1":8357,"0xabbb":8358,"0x89e1":8359,"0x89e9":8360,"0x8f1e":8361,"0x8f1b":8362,"0x9812":8363,"0x7f47":8364,"0x7f4e":8365,"0x9895":8366,"0x989a":8367,"0x9892":8368,"0x7fb3":8369,"0x7fb7":8370,"0x9317":8371,"0x987f":8372,"0x9872":8373,"0x4eb4":8374,"0x4eb1":8375,"0x4eb6":8376,"0x8e65":8377,"0x8e61":8378,"0x8f53":8379,"0x8f56":8380,"0x89b3":8381,"0x12e8":8382,"0x8604":8383,"0x7f71":8384,"0x7c80":8385,"0x735a":8386,"0xb2f1":8387,"0x8e4a":8388,"0x8e43":8389,"0x876b":8390,"0x89f3":8391,"0x89fb":8392,"0x988f":8393,"0x9884":8394,"0xada4":8395,"0xadac":8396,"0x8e7b":8397,"0x98e8":8398,"0x98e5":8399,"0x7d19":8400,"0x9345":8401,"0xa81c":8402,"0x8621":8403,"0xa74c":8404,"0xa88d":8405,"0x12bc":8406,"0xacb1":8407,"cqo":8408,"0x7f3f":8409,"0xcab8":8410,"0xc9a8":8411,"0x7245":8412,"0x724b":8413,"0x71c2":8414,"0x7222":8415,"0x5145":8416,"0x5122":8417,"0x878":8418,"0x8fa3":8419,"0xbee":8420,"0xb3b":8421,"0x9dd":8422,"0x9ed":8423,"0x9180":8424,"0x91b5":8425,"0x91b8":8426,"0x1ea":8427,"0x1f0":8428,"0x1f1":8429,"0x1a6":8430,"0x1e8":8431,"0x1f2e":8432,"0xa0ae":8433,"0x70ff":8434,"0x4c02":8435,"0xaa8a":8436,"0xaacd":8437,"0x2d5":8438,"0x4a78":8439,"0x6664":8440,"0x66ba":8441,"0x66df":8442,"0x66fd":8443,"0x66b4":8444,"0x666a":8445,"0x66d7":8446,"0x6667":8447,"0x66ec":8448,"0x66bc":8449,"0x66d2":8450,"0x66b7":8451,"0x49ea":8452,"0x779b":8453,"0x6731":8454,"0x6727":8455,"0x67b2":8456,"0x673a":8457,"0x678c":8458,"0x6742":8459,"0x679b":8460,"0x6784":8461,"0x67b8":8462,"0x67ad":8463,"0x67a2":8464,"0x67a7":8465,"0x67bf":8466,"0x672e":8467,"0x678a":8468,"0x67b0":8469,"0x6745":8470,"0x63c3":8471,"0x6c12":8472,"0xa42b":8473,"0x75fc":8474,"0x6b35":8475,"0x14ff":8476,"0x1420":8477,"0x1416":8478,"0x14fa":8479,"0x50c6":8480,"0x50ca":8481,"0x50c1":8482,"0x50bc":8483,"0x50b7":8484,"##243":8485,"0x902e":8486,"##72b":8487,"0x97fe":8488,"0x977d":8489,"0x97b9":8490,"0x9781":8491,"0x978f":8492,"0x1320":8493,"0x1370":8494,"##695":8495,"0x6ae0":8496,"0x866a":8497,"0x9417":8498,"0x94c7":8499,"0xa826":8500,"0xa809":8501,"0x8b1e":8502,"0x73cb":8503,"0x71dd":8504,"0x7110":8505,"0x7170":8506,"0x7175":8507,"0x714f":8508,"0x8802":8509,"0x9ac9":8510,"0x9c18":8511,"0x8dff":8512,"0x8df0":8513,"0x8dbd":8514,"0x8dce":8515,"0x8d90":8516,"0x8db9":8517,"0x8de9":8518,"0x8d81":8519,"0x8d73":8520,"0x8d86":8521,"0x8d9b":8522,"0x8de4":8523,"0x8db4":8524,"0x8d98":8525,"0x8db1":8526,"0x7248":8527,"0x7227":8528,"0x7225":8529,"0x7242":8530,"0xab49":8531,"0x9150":8532,"0x9158":8533,"0x91bd":8534,"0x917d":8535,"0x9146":8536,"0x91c3":8537,"0x912f":8538,"0x919e":8539,"0x9176":8540,"0x9149":8541,"0x9142":8542,"0x91bb":8543,"0x91c6":8544,"0x91aa":8545,"0x8958":8546,"0x8989":8547,"0x5140":8548,"0x5136":8549,"0x5131":8550,"0x5127":8551,"0x5149":8552,"0xa6b3":8553,"0xa736":8554,"0x7105":8555,"0x7102":8556,"0x9374":8557,"0xa9b1":8558,"0x92d7":8559,"0x9aac":8560,"0x726b":8561,"0x800d":8562,"0x8fec":8563,"0x91cc":8564,"0x7ffc":8565,"0x7198":8566,"0x128d":8567,"0x97df":8568,"0x97d3":8569,"0x97d7":8570,"0x7155":8571,"0x7152":8572,"0x7157":8573,"0x918e":8574,"0x6ac1":8575,"0x868a":8576,"0x868d":8577,"0x725a":8578,"0x7253":8579,"0x12a6":8580,"0x936d":8581,"0x9366":8582,"0x7eee":8583,"0x71d5":8584,"0x919c":8585,"0x919a":8586,"0x9193":8587,"0x9197":8588,"0x9179":8589,"0x7187":8590,"0x9163":8591,"0x9169":8592,"0x9166":8593,"0x913f":8594,"0x9137":8595,"0x913b":8596,"0x8daa":8597,"0x8da2":8598,"0x8dad":8599,"0x8e0b":8600,"0x8e06":8601,"0x8d6f":8602,"0x8d6e":8603,"0x865c":8604,"0x12d4":8605,"0x9383":8606,"0x8dc8":8607,"0x8dc4":8608,"0x8dd3":8609,"0x8df4":8610,"0x8dfa":8611,"0x8df7":8612,"0x8d72":8613,"0x8d77":8614,"0x8d7e":8615,"0x7172":8616,"0x935f":8617,"0x9355":8618,"0x120e":8619,"0x915f":8620,"0x915c":8621,"0x9153":8622,"0x723d":8623,"0x7236":8624,"0x5109":8625,"0x7cb7":8626,"0x93bb":8627,"0x7166":8628,"0x71cf":8629,"0x71cc":8630,"0x914c":8631,"0x9347":8632,"0x513b":8633,"0x9404":8634,"0x9d6f":8635,"0x97cf":8636,"0x5113":8637,"0xc7c5":8638,"0x1f06":8639,"0x1f1a":8640,"mul":8641,"##7e0":8642,"0x6a2":8643,"0x4da":8644,"0xab4":8645,"0x7fec":8646,"0x570":8647,"0x588":8648,"0x581":8649,"0x586":8650,"0x565":8651,"0x587":8652,"0x358":8653,"0x87e":8654,"0x8652":8655,"0x86fc":8656,"0x872b":8657,"0x8695":8658,"0xb07":8659,"0xb94":8660,"0xb834":8661,"0x92a":8662,"0x94b":8663,"0x9ef":8664,"0x4ba4":8665,"0x4bc9":8666,"0x4bc6":8667,"0x4baa":8668,"0x4b9f":8669,"0x4bb4":8670,"0x4bcf":8671,"0x4bbe":8672,"0x4bad":8673,"0x4bd9":8674,"0x4bdb":8675,"0x4b99":8676,"0x4bd2":8677,"0x4bde":8678,"0xc7e0":8679,"0x49fd":8680,"0x49ed":8681,"0x49f4":8682,"0x49fa":8683,"0x7793":8684,"0x3600":8685,"0x63ab":8686,"0x6c13":8687,"0xae5c":8688,"0xaefa":8689,"0x75f9":8690,"0x75f8":8691,"0x7535":8692,"0x7600":8693,"0x7610":8694,"0x765b":8695,"0x7639":8696,"0x763c":8697,"0x765a":8698,"0xa3d2":8699,"0x6bc0":8700,"0x6b68":8701,"0x6b5d":8702,"0x6b9e":8703,"0x6b65":8704,"0x6ba1":8705,"0x6b6e":8706,"##7a1":8707,"0x14b9":8708,"0x509e":8709,"0x5089":8710,"0x5086":8711,"0x509c":8712,"0x5085":8713,"0x508d":8714,"0x99fe":8715,"0x74ac":8716,"0x9011":8717,"0x902a":8718,"0x9014":8719,"0x90c1":8720,"0x13dd":8721,"0x13ed":8722,"0x1393":8723,"0x699e":8724,"0xafee":8725,"0x6ace":8726,"0x6ac3":8727,"0x6ad5":8728,"0x6ac9":8729,"0x6ad6":8730,"0x86ff":8731,"0x86ab":8732,"0x86a0":8733,"0x86ce":8734,"0x86a4":8735,"0x86bb":8736,"0x86ae":8737,"0x86f3":8738,"0x86e2":8739,"0x86b1":8740,"0x86b5":8741,"0x8694":8742,"0x86e5":8743,"0xa833":8744,"0xa849":8745,"0xa807":8746,"0xb0c2":8747,"0x8720":8748,"0x871d":8749,"0x8731":8750,"0x8728":8751,"0x8726":8752,"0x7cf0":8753,"0xa553":8754,"0x8fab":8755,"0x8fe0":8756,"0x8fce":8757,"0x8fa4":8758,"0x8fbb":8759,"0x8f7b":8760,"0x8fca":8761,"0x8f74":8762,"0x8fc2":8763,"0x8fc5":8764,"0x6279":8765,"0x1530":8766,"0xb925":8767,"0x9a60":8768,"0x9a2d":8769,"0x9a5d":8770,"0x9a70":8771,"0x9a16":8772,"0x9a46":8773,"0x9a2a":8774,"0x9a25":8775,"0x9a13":8776,"0x9a9e":8777,"0x9a76":8778,"0x9a22":8779,"0x9a87":8780,"0x9a1b":8781,"0x9a7b":8782,"0x11a0":8783,"0x11f8":8784,"0x9ef5":8785,"0x9ef1":8786,"0xa98c":8787,"0x12b4":8788,"0x12b3":8789,"0x2cd9":8790,"0xb2ce":8791,"0xb2e4":8792,"0xb2b8":8793,"0x9a0f":8794,"0x9a05":8795,"0x9a02":8796,"0x7609":8797,"0x8f8f":8798,"0x8f87":8799,"0x8f9c":8800,"0x8f92":8801,"0x8f99":8802,"0x9003":8803,"0x9007":8804,"0x9000":8805,"0x8f6f":8806,"0x8f63":8807,"0x6a54":8808,"0x6a57":8809,"0xb2a2":8810,"0x9aaa":8811,"0x9aa2":8812,"0x9a3f":8813,"0x9a34":8814,"0x9a3c":8815,"0x8ff3":8816,"0x8ff6":8817,"0x8fef":8818,"0x8fe4":8819,"0x12fa":8820,"0x8fbf":8821,"0x8fb0":8822,"0x8f78":8823,"0xaeed":8824,"0x7e63":8825,"0x13d8":8826,"0x13a8":8827,"0x9a56":8828,"0x146b":8829,"0x688b":8830,"0xa7d2":8831,"0x68c7":8832,"0x870f":8833,"0x870c":8834,"0x870a":8835,"0x8703":8836,"0x8701":8837,"0x8706":8838,"0x9a65":8839,"0x6178":8840,"0xb004":8841,"0x6ab4":8842,"0x6ab1":8843,"0x6ab7":8844,"0x6abe":8845,"0x6ab0":8846,"0x8fd8":8847,"0x8fd5":8848,"0x8fdb":8849,"0xbf76":8850,"0x936f":8851,"0x149c":8852,"0x9a4f":8853,"0x9a43":8854,"0x9a4b":8855,"0x86c8":8856,"0x86c1":8857,"0x86cb":8858,"0x8fa8":8859,"0x8fa1":8860,"0x9a9b":8861,"0x1299":8862,"0x1407":8863,"0x9f0e":8864,"0x8834":8865,"0x93b8":8866,"0x86de":8867,"0x9f15":8868,"0x9a7f":8869,"0x6a4a":8870,"0x92cf":8871,"0x152e":8872,"0x86a7":8873,"0x2da6":8874,"0xb26d":8875,"0x878a":8876,"0x3580":8877,"0x9efc":8878,"0x686":8879,"0x6a4e":8880,"0x6947":8881,"0xa73":8882,"0xab0":8883,"0x7cc1":8884,"0x5f7":8885,"0x5ebe":8886,"0x5f86":8887,"0x5fbc":8888,"0x5ec1":8889,"0x5f09":8890,"0x5ecd":8891,"0x5fb3":8892,"0x5ed6":8893,"0x8a6":8894,"0x880":8895,"0x8d34":8896,"0x8d3c":8897,"0xb09":8898,"0xb95":8899,"0xb7b1":8900,"0xb7d7":8901,"0x9c0":8902,"0x9c3":8903,"0x9dc":8904,"0x97b1":8905,"0x97bc":8906,"0x113":8907,"0x153":8908,"0x40e0":8909,"0x41a6":8910,"0x6e7d":8911,"0x4c8f":8912,"0xaae0":8913,"0xaad1":8914,"0xaacb":8915,"0xc00":8916,"0x7837":8917,"0x777a":8918,"0x7722":8919,"0x773e":8920,"0x60a3":8921,"0x6096":8922,"0x60af":8923,"0x60c3":8924,"0x609e":8925,"0x60a5":8926,"0x60fd":8927,"0x6089":8928,"0x608c":8929,"0x60c9":8930,"0x60c6":8931,"0x609b":8932,"0x6084":8933,"0x6087":8934,"0x60b4":8935,"0x60fa":8936,"0x608f":8937,"0x60cb":8938,"0x60be":8939,"0x60b1":8940,"0x60a1":8941,"0x60ac":8942,"0x60f7":8943,"0x60c1":8944,"0x6099":8945,"0x602b":8946,"0x60b7":8947,"0x7a07":8948,"0x63e2":8949,"0x6c16":8950,"0x6c19":8951,"0xae81":8952,"0xa4f4":8953,"0xa4a6":8954,"0xa4e2":8955,"0xa4b8":8956,"0x7994":8957,"0x7676":8958,"ebp":8959,"##16c":8960,"0x6b64":8961,"0x6b40":8962,"0x6b9d":8963,"0x6ba0":8964,"0x6b36":8965,"0x6b31":8966,"0x6b27":8967,"0x6b2a":8968,"0x6ba9":8969,"0x6b22":8970,"0x6bae":8971,"0x6b4f":8972,"0x6ba6":8973,"0x6b5c":8974,"0x6b3e":8975,"0x6b98":8976,"0x6b1f":8977,"0x6b4a":8978,"0x6b66":8979,"0x6b92":8980,"0x6bac":8981,"0x6b52":8982,"0x6bb0":8983,"0x6b3c":8984,"0x142a":8985,"0x143a":8986,"##197":8987,"##c87":8988,"##934":8989,"##d71":8990,"##e37":8991,"##cfc":8992,"0x9788":8993,"0x9748":8994,"0x9775":8995,"0x97c3":8996,"0x974d":8997,"0x9749":8998,"0x978c":8999,"0x97c9":9000,"0x979b":9001,"0x9797":9002,"0x97b4":9003,"0x97e1":9004,"0x9792":9005,"##1fc":9006,"0x68bb":9007,"0xb8f9":9008,"0xb8ab":9009,"0xb846":9010,"##780":9011,"0x6940":9012,"0x6968":9013,"0x6930":9014,"0x692d":9015,"0x6923":9016,"0x6926":9017,"0x69a9":9018,"0x69fd":9019,"0x69a4":9020,"0x698e":9021,"0x6986":9022,"0x691e":9023,"0x694f":9024,"0x697c":9025,"0x6935":9026,"0x6914":9027,"0x691b":9028,"0x695c":9029,"0x6959":9030,"0x6998":9031,"0x694a":9032,"0x6995":9033,"0x6a88":9034,"0x6a7d":9035,"0x6a5b":9036,"0x6a46":9037,"0x6a7a":9038,"0x6a6c":9039,"0x6a15":9040,"0x6a1b":9041,"0x6a8f":9042,"0x6a77":9043,"0x6a1f":9044,"0x8cdd":9045,"0x8cda":9046,"0x8cce":9047,"0x8c36":9048,"0x8ca9":9049,"0x8cb2":9050,"0x8cb9":9051,"0x8cae":9052,"0x8caa":9053,"0x8cc4":9054,"0x8ccb":9055,"0x8cd3":9056,"0x5ef0":9057,"0x5e88":9058,"0x5ed1":9059,"0x5efd":9060,"0x5e8b":9061,"0x5ec7":9062,"0x5ef3":9063,"0x5efa":9064,"0x5e83":9065,"0x5e80":9066,"0xb02f":9067,"0xb03b":9068,"0xa50e":9069,"0x7cf9":9070,"0x7cc6":9071,"0x7ccb":9072,"0xa5a0":9073,"0x1525":9074,"0xb913":9075,"0x9a7c":9076,"0x8d00":9077,"0x8d16":9078,"0x8d44":9079,"0x8d28":9080,"0x8d25":9081,"0x8d38":9082,"0x8d3f":9083,"0x8d2e":9084,"0x7e38":9085,"0x12e6":9086,"0x6a0c":9087,"0x6a05":9088,"0x6a02":9089,"0x7dec":9090,"0x5fea":9091,"0x5fc0":9092,"0x5fab":9093,"0x5f58":9094,"0x5fce":9095,"0x5fd1":9096,"0x5faf":9097,"0x5f7a":9098,"0x5fdf":9099,"0x5fdc":9100,"0x5fb9":9101,"0x5f4d":9102,"0x5fb6":9103,"0x5fc4":9104,"0x5fc7":9105,"0x5f74":9106,"0x976e":9107,"0x9769":9108,"0x9766":9109,"0x69e8":9110,"0x6a5f":9111,"0x6a51":9112,"0x8c08":9113,"0x6a62":9114,"0x6a69":9115,"0x8000":9116,"0xa9fc":9117,"0x14d9":9118,"0x97a8":9119,"0x97a5":9120,"0x97a2":9121,"0x97ad":9122,"0x12c4":9123,"0x155a":9124,"0x5ff4":9125,"0x5ff7":9126,"0x690a":9127,"0x617e":9128,"0x617b":9129,"0x8c3c":9130,"0x8887":9131,"0x3d67":9132,"0x6108":9133,"0x6105":9134,"0x6102":9135,"0x610e":9136,"0x610b":9137,"0x6983":9138,"0x6a71":9139,"0x9754":9140,"0x975c":9141,"0x9757":9142,"0x5f84":9143,"0x5f80":9144,"0x6971":9145,"0x8ce2":9146,"0x8ce6":9147,"0x5eaf":9148,"0x5eac":9149,"0x5ea5":9150,"0x5e6f":9151,"0x88c4":9152,"0x8d12":9153,"0x8d1e":9154,"0x8d19":9155,"0x696c":9156,"0x6962":9157,"0x8d0a":9158,"0x8d07":9159,"0x6115":9160,"0x6113":9161,"0x6111":9162,"0x5ee8":9163,"0x5ee1":9164,"0x5eeb":9165,"0x5fe2":9166,"0x5fed":9167,"0x5fe6":9168,"0x5e95":9169,"0x5e9a":9170,"0x5e92":9171,"0x5f6a":9172,"0x5f62":9173,"0x5f67":9174,"0x7cbe":9175,"0x7d05":9176,"0x875c":9177,"0x5fd6":9178,"0x9778":9179,"0x9771":9180,"0x1238":9181,"0x5f03":9182,"0x5f0e":9183,"0x5f5f":9184,"0x5eb4":9185,"0x5eb7":9186,"0x8cfc":9187,"0x8cf7":9188,"0x9745":9189,"0x5e79":9190,"0x8cbc":9191,"0xb8e7":9192,"0x6a21":9193,"0xb943":9194,"0x5f71":9195,"0xd7":9196,"0x689":9197,"0x4fb":9198,"0x4fb3":9199,"0xac7":9200,"0xa9ad":9201,"0xad4b":9202,"0x7d4":9203,"0x7e2e":9204,"0x52a":9205,"0x5e4":9206,"0x514b":9207,"0x5e41":9208,"0x39d":9209,"0x3124":9210,"0x316c":9211,"0x3197":9212,"0x8a5":9213,"0x8d5":9214,"0x894":9215,"0x9e0":9216,"0x9df":9217,"0x9e7":9218,"0x91e":9219,"0x9f32":9220,"0x122":9221,"0x15f":9222,"0xb448":9223,"0xb444":9224,"0xb43d":9225,"0xb45b":9226,"0xb43a":9227,"0xb453":9228,"0xb441":9229,"0xb44c":9230,"0xb439":9231,"0xb451":9232,"0x6eb4":9233,"0x4cb1":9234,"0xaae5":9235,"0x2cc":9236,"0x2d85":9237,"0x2da7":9238,"0x2d47":9239,"0x2d3c":9240,"0x2d69":9241,"0x2d4b":9242,"0x2d8f":9243,"0x2d74":9244,"0x2cde":9245,"0x2c87":9246,"0x2cfc":9247,"0x787d":9248,"0x7871":9249,"0x362d":9250,"0x3629":9251,"0x369c":9252,"0x36a2":9253,"0x3671":9254,"0x454f":9255,"0x4539":9256,"0x453c":9257,"0x3f42":9258,"0x7543":9259,"0x797c":9260,"0x7bad":9261,"0x8128":9262,"0x39e0":9263,"0x80aa":9264,"0x80cc":9265,"0x80e8":9266,"0x1431":9267,"0x142f":9268,"0x14fd":9269,"0x147e":9270,"0x5080":9271,"##221":9272,"0x3590":9273,"0x9031":9274,"0x9038":9275,"0x68f0":9276,"0x68fd":9277,"0x68f6":9278,"0x68db":9279,"0x132d":9280,"0x13e0":9281,"0x13bd":9282,"0x13f2":9283,"0x135b":9284,"0x13af":9285,"0x134d":9286,"0x1353":9287,"0x139a":9288,"0x1377":9289,"0x94a0":9290,"0x94df":9291,"0x5e40":9292,"0x5e48":9293,"0x5e44":9294,"0x5e5b":9295,"0x5e55":9296,"0x5e59":9297,"0x922d":9298,"0x92f8":9299,"0x92e2":9300,"0x7c22":9301,"0x7c7c":9302,"0x8517":9303,"0x8840":9304,"0x885d":9305,"0x88bd":9306,"0x889e":9307,"0x8838":9308,"0x88a5":9309,"0x88e6":9310,"0x8856":9311,"0x88b6":9312,"0x88ae":9313,"0x887c":9314,"0x88aa":9315,"0x88d9":9316,"0x8852":9317,"0x88d2":9318,"0x4fb6":9319,"0x15bd":9320,"0x15c3":9321,"0x1527":9322,"0xa9c0":9323,"0xa99e":9324,"0xa9b6":9325,"0xa9bb":9326,"0xa9a6":9327,"0xa99f":9328,"0x7edd":9329,"0x7e9d":9330,"0x7e96":9331,"0x7ebd":9332,"0x7e3d":9333,"0x7ec4":9334,"0x7ec7":9335,"0x7ecf":9336,"0x12da":9337,"0x12ab":9338,"0x8931":9339,"0x8938":9340,"0x8942":9341,"0x895f":9342,"0x894a":9343,"0x8951":9344,"0x2ca0":9345,"0x2cf2":9346,"0x2c25":9347,"0x2cc7":9348,"0x2cd3":9349,"0x9340":9350,"0x9358":9351,"0x933d":9352,"0x9325":9353,"0x932c":9354,"0x9349":9355,"0x937c":9356,"0x9377":9357,"0x934c":9358,"0x7d20":9359,"0x7d26":9360,"0x1304":9361,"0x1385":9362,"0xa9b8":9363,"0x8648":9364,"0x2d50":9365,"0x2d68":9366,"0x2d5d":9367,"0x2d88":9368,"0x2d31":9369,"0x2d75":9370,"0x2d25":9371,"0x2d33":9372,"0x2d3a":9373,"0x2d89":9374,"0x2d8e":9375,"0x2d9b":9376,"0x2d9a":9377,"0x2d2b":9378,"0x7503":9379,"0x92db":9380,"0x1359":9381,"0x1361":9382,"0x13b6":9383,"0x12fd":9384,"0x7eaf":9385,"0x7ea4":9386,"0x7eaa":9387,"0x7649":9388,"0x7e6e":9389,"0x13d2":9390,"0x13d9":9391,"0x7ed6":9392,"0x146f":9393,"0x1333":9394,"0x133e":9395,"0x6905":9396,"0x6901":9397,"0x68e3":9398,"0x68e7":9399,"0x9108":9400,"0x9304":9401,"0x9301":9402,"0x9309":9403,"0x12ad":9404,"0x7ee2":9405,"0x7ee0":9406,"0x888a":9407,"0x8880":9408,"0x8894":9409,"0x8891":9410,"0x8862":9411,"0x886e":9412,"0x8869":9413,"0x92f5":9414,"0x92f1":9415,"0x92fd":9416,"0x7eb6":9417,"0x515c":9418,"0x5155":9419,"0x5152":9420,"0x1295":9421,"0x8965":9422,"0x896a":9423,"0x8962":9424,"0x140c":9425,"0x12d3":9426,"0x9382":9427,"0x9381":9428,"0x88e8":9429,"0x88e1":9430,"0x88e7":9431,"0x931e":9432,"0x931b":9433,"0x5e6a":9434,"0x5e62":9435,"0x5e66":9436,"0x88c8":9437,"0x88c9":9438,"0x88cb":9439,"0x2d1c":9440,"0x2d1a":9441,"0x3ab8":9442,"0x9351":9443,"0x8a38":9444,"0x3170":9445,"0x319d":9446,"0x3128":9447,"0xac6e":9448,"0x8978":9449,"0x8971":9450,"0x897b":9451,"0x883c":9452,"0x8839":9453,"0x9334":9454,"0x9339":9455,"0x2cec":9456,"0x2ced":9457,"0x2ceb":9458,"0x4fd2":9459,"0x8847":9460,"0x884b":9461,"0xa983":9462,"0x893f":9463,"0x2d04":9464,"0x2d0e":9465,"0x88b1":9466,"0x7c33":9467,"0x885a":9468,"0x2d5c":9469,"0x8a6a":9470,"0x4fbe":9471,"0x5e4c":9472,"0x8945":9473,"0x2ccd":9474,"0xa70":9475,"0xa6a":9476,"0xa77":9477,"0xa62":9478,"0x7e4":9479,"0x519":9480,"0x51b":9481,"0x54a":9482,"0x3a8":9483,"0x874":9484,"0x8632":9485,"0x9f4":9486,"0x9c6":9487,"0x9e41":9488,"0x110":9489,"0x15c1":9490,"0x4030":9491,"0x43d4":9492,"0x6f9d":9493,"0x6fa0":9494,"0x6e45":9495,"0xaaba":9496,"0xaadc":9497,"0xaae6":9498,"0xaad5":9499,"0xaa86":9500,"0xaac9":9501,"0xaac5":9502,"0xaabe":9503,"0x2bb":9504,"0x8386":9505,"0x78fb":9506,"0x6ccb":9507,"0xa4ce":9508,"0xa417":9509,"0xa412":9510,"0xa424":9511,"0xa41b":9512,"0xa4d2":9513,"0x3bd1":9514,"0x7b50":9515,"0x7b70":9516,"0x7b49":9517,"0x7b9b":9518,"0x7b5f":9519,"0x7b9f":9520,"0x7b93":9521,"0x7b97":9522,"0x7b59":9523,"0x7b78":9524,"0x7b7f":9525,"0x7b45":9526,"0xa3ea":9527,"0xa3ee":9528,"0xa3fd":9529,"0xa3e6":9530,"0xa3e7":9531,"0xa319":9532,"0xa3fb":9533,"0xa3f7":9534,"0x8041":9535,"0x14b2":9536,"0x1473":9537,"0x147c":9538,"0x1477":9539,"0x1432":9540,"0x5026":9541,"0x9080":9542,"##e21":9543,"##cf7":9544,"##b80":9545,"0x3ece":9546,"0x8e12":9547,"0x13c9":9548,"0x13c7":9549,"0x8636":9550,"0x8613":9551,"0x863a":9552,"0x8629":9553,"0x8624":9554,"0x861a":9555,"0x3d90":9556,"0x9218":9557,"0x921a":9558,"0x877d":9559,"0x878b":9560,"0x7cd5":9561,"0x85e0":9562,"0x85f8":9563,"0x85f4":9564,"0x88e9":9565,"0x884d":9566,"0x7fcf":9567,"0x15c0":9568,"0x155d":9569,"0x15fe":9570,"0x1528":9571,"0x15f8":9572,"0x15f4":9573,"0x1514":9574,"0x1519":9575,"0x151b":9576,"0x9c20":9577,"0xa9e0":9578,"0x12f8":9579,"0x12af":9580,"0x12ed":9581,"0x91ea":9582,"0x91f5":9583,"0x91f1":9584,"0x8910":9585,"0x7db2":9586,"0xa40f":9587,"0xa407":9588,"0xa40b":9589,"0xa9bc":9590,"0x9a38":9591,"0x9a33":9592,"0x12f5":9593,"0x12f1":9594,"0x14d8":9595,"0x14d5":9596,"0x14d2":9597,"0x150f":9598,"0x1506":9599,"0x13dc":9600,"0x12c7":9601,"0x12cb":9602,"0x146c":9603,"0x1557":9604,"0x12a1":9605,"0x1582":9606,"0x1586":9607,"0x15b4":9608,"0x15ba":9609,"0x15b1":9610,"0x3ae8":9611,"0x3ae3":9612,"0x1604":9613,"0x1602":9614,"0x1601":9615,"0x9201":9616,"0x860e":9617,"0x860b":9618,"0x91d1":9619,"0x85e5":9620,"0x85e1":9621,"0xa9d2":9622,"0x8905":9623,"0x8909":9624,"0x4409":9625,"0x9143":9626,"0xb271":9627,"0xaba9":9628,"0x862e":9629,"0xa97e":9630,"0x9bde":9631,"0x85fa":9632,"0x9f21":9633,"0x15fb":9634,"0xe0":9635,"0xad6":9636,"0xabe":9637,"0x7ce9":9638,"0x7cf7":9639,"0x56c":9640,"0x3e7":9641,"0x3aa":9642,"0x3e2e":9643,"0x8a8":9644,"0x8679":9645,"0xb04":9646,"0xb311":9647,"0x6416":9648,"0x9ab":9649,"0x9af":9650,"0x9b8":9651,"0x9bb0":9652,"0x91fc":9653,"0x11c":9654,"0x4040":9655,"0x4b5b":9656,"0x43ee":9657,"0x43f2":9658,"0x43eb":9659,"0x43e1":9660,"0x6f4d":9661,"0x41dd":9662,"0x6eb1":9663,"0x4c3e":9664,"0x2a":9665,"0x244":9666,"0x83ea":9667,"0x83c0":9668,"0x83a3":9669,"0x8390":9670,"0x8381":9671,"0x83d0":9672,"0x83aa":9673,"0x838b":9674,"0x839c":9675,"0x83e3":9676,"0x83b5":9677,"0x837e":9678,"0x83e8":9679,"0x83de":9680,"0x82cf":9681,"0x7851":9682,"0x6602":9683,"0x7791":9684,"0x7734":9685,"0x6d68":9686,"0x7a82":9687,"0x7a85":9688,"0x3f16":9689,"0x3f13":9690,"0x3f2c":9691,"0x3f1e":9692,"0x3f24":9693,"0x3f1b":9694,"0x3f21":9695,"0x3f43":9696,"0x7589":9697,"0x7556":9698,"0x758c":9699,"0x7587":9700,"0x7572":9701,"0x3b31":9702,"0x3b13":9703,"0x5c42":9704,"0x7660":9705,"0x7668":9706,"0x7658":9707,"0x7675":9708,"0x76fa":9709,"0x7661":9710,"0x6bda":9711,"0x6bc6":9712,"0x6bc5":9713,"0x6bcd":9714,"##f57":9715,"0x14bd":9716,"0x14f5":9717,"0x1474":9718,"0x14e1":9719,"0x992f":9720,"##4f7":9721,"0x74ce":9722,"##fa8":9723,"##fad":9724,"0x90f0":9725,"0x90ed":9726,"0x90f4":9727,"0x90e6":9728,"0x9f18":9729,"0x98c0":9730,"0x9876":9731,"0x98df":9732,"0x98e6":9733,"0x98ad":9734,"##999":9735,"0x4410":9736,"0x44ba":9737,"0x867d":9738,"0x8676":9739,"0x8673":9740,"0x8667":9741,"0x8662":9742,"0xa8f3":9743,"0x9211":9744,"0x9226":9745,"0x9215":9746,"0xb090":9747,"0x87a3":9748,"0x87c6":9749,"0x8784":9750,"0x7cfe":9751,"0x7c90":9752,"0x7caf":9753,"0x8520":9754,"0xa52f":9755,"0xa5f5":9756,"0xa529":9757,"0x7fcd":9758,"0x9eff":9759,"0x8ac7":9760,"0xa99d":9761,"0xa990":9762,"0x3a8e":9763,"0x7e36":9764,"0x1258":9765,"0x91ff":9766,"0x91dd":9767,"0x91ee":9768,"0x91e0":9769,"0x9118":9770,"0x912a":9771,"0x9125":9772,"0x9129":9773,"0x91e7":9774,"0x89bd":9775,"0x8926":9776,"0x7d2d":9777,"0x7d23":9778,"0x7d0d":9779,"0x7d2b":9780,"0x9b81":9781,"0x9b5c":9782,"0x9b59":9783,"0x9b77":9784,"0x9b72":9785,"0xa9b3":9786,"0x90ec":9787,"0x87c8":9788,"0x87c1":9789,"0x6bd4":9790,"0x6bdc":9791,"0x87a8":9792,"0x87ad":9793,"0x7f69":9794,"0x868f":9795,"0x8687":9796,"0x868e":9797,"0x8680":9798,"0x9105":9799,"0x910a":9800,"0x9101":9801,"0x9114":9802,"0x9111":9803,"0x911e":9804,"0x911b":9805,"0x3eaf":9806,"0x3eab":9807,"0x44b3":9808,"0x44b0":9809,"0x9a94":9810,"0x865f":9811,"0x8655":9812,"0x8651":9813,"0x8659":9814,"0xa563":9815,"0x920e":9816,"0x91d5":9817,"0x91d2":9818,"0x91d9":9819,"0x89a8":9820,"0x9f02":9821,"0x9f07":9822,"0x3a98":9823,"0x3a9f":9824,"0x9ba1":9825,"0x9bad":9826,"0x9ba9":9827,"0x4449":9828,"0x4446":9829,"0x8761":9830,"0x8766":9831,"0x9443":9832,"0x7cb0":9833,"0x7d08":9834,"0x13ef":9835,"0x9bbf":9836,"0x9bb7":9837,"0x7ce2":9838,"0x7d12":9839,"0x866f":9840,"0x866d":9841,"0x8666":9842,"0x1f44":9843,"0x9b6f":9844,"0xa5de":9845,"0x7df3":9846,"0xb0bc":9847,"0x94d3":9848,"0x90d7":9849,"0x9b51":9850,"0xb38e":9851,"0x91e4":9852,"0xa621":9853,"0x51be":9854,"0x2449":9855,"div":9856,"jbe":9857,"px":9858,"##2sd":9859,"##sd2":9860,"##tsd2":9861,"0x4d1":9862,"0x4401":9863,"0xa84":9864,"0xa65":9865,"0xad47":9866,"0xad7f":9867,"0xad41":9868,"0xab8d":9869,"0xac54":9870,"0x7f2":9871,"0x71e":9872,"0x7fa":9873,"0x7ca":9874,"0x7f5c":9875,"0x7d71":9876,"0x74f7":9877,"0x57d":9878,"0x556":9879,"0x57c":9880,"0x584":9881,"0x58b":9882,"0x567":9883,"0x566":9884,"0x5803":9885,"0x3ebe":9886,"0x8a4":9887,"0x867":9888,"0x88d":9889,"0x88f7":9890,"0x88b5":9891,"0x8e2b":9892,"0x8e37":9893,"0x8e21":9894,"0xbfe":9895,"0xbc3":9896,"0xbd62":9897,"0xb233":9898,"0x9c8":9899,"0x957":9900,"0x9b4":9901,"0x9d9":9902,"0x9124":9903,"##si2sd":9904,"0x6555":9905,"0x6598":9906,"0x65b1":9907,"0x654e":9908,"0x656e":9909,"0x118":9910,"0x125":9911,"0xb497":9912,"0x409d":9913,"0x402f":9914,"0x40a4":9915,"0x4056":9916,"0x405e":9917,"0x40b6":9918,"0x40bb":9919,"0x4065":9920,"0x4059":9921,"0x40d4":9922,"0x408f":9923,"0x4074":9924,"0x4062":9925,"0x40cf":9926,"0x40b1":9927,"0x406f":9928,"0x4092":9929,"0x4085":9930,"0x408a":9931,"0x407e":9932,"0x4079":9933,"0x43da":9934,"0x43f9":9935,"0x43ce":9936,"0x43d1":9937,"0x43c3":9938,"0x43f6":9939,"0x43d7":9940,"0x43ca":9941,"0x43c5":9942,"0x43e5":9943,"0x43e8":9944,"0x43fc":9945,"0x43de":9946,"0x6f22":9947,"0x6fb5":9948,"0x6e3f":9949,"0x4270":9950,"0x42a9":9951,"0x4c64":9952,"0x4ca0":9953,"0x4caf":9954,"0x4c4d":9955,"0x4c8c":9956,"0x4c9b":9957,"0x4caa":9958,"0x4c82":9959,"0x4c98":9960,"0x4ca7":9961,"0x4c91":9962,"0x4cb0":9963,"0x4c6e":9964,"0x4c43":9965,"0x4c5a":9966,"0xc29":9967,"0x7848":9968,"0x7890":9969,"0x7875":9970,"0x78f5":9971,"0x7838":9972,"0x7856":9973,"0x7884":9974,"0x7893":9975,"0x786a":9976,"0x7866":9977,"0x786d":9978,"0x7861":9979,"0x785a":9980,"0x7879":9981,"0x4945":9982,"0x38c0":9983,"0x3cce":9984,"0x3c76":9985,"0x3cd0":9986,"0x3cc9":9987,"0x3cc6":9988,"0x3cd8":9989,"0x3c6e":9990,"##c0c":9991,"0x84da":9992,"0x84ce":9993,"0x84bb":9994,"0x84c7":9995,"0x84e1":9996,"0x84bf":9997,"0x7a50":9998,"0x7a6c":9999,"0x7a1f":10000,"0x63a6":10001,"0xae22":10002,"0xaeb5":10003,"0xa4f0":10004,"0xa4e0":10005,"0xa4fe":10006,"0xa4dc":10007,"0xa4d8":10008,"0xa4e4":10009,"0xa4fa":10010,"0xa4f7":10011,"0x7568":10012,"0x752d":10013,"0x7518":10014,"0x7548":10015,"0x752f":10016,"0x7526":10017,"0x7538":10018,"0x7563":10019,"0x751e":10020,"0x7515":10021,"0x7553":10022,"0x7532":10023,"0x754a":10024,"0x7592":10025,"0x756d":10026,"0x7551":10027,"0x7578":10028,"0x7580":10029,"0x757e":10030,"0x79bd":10031,"0x79e8":10032,"0x3b2a":10033,"##688":10034,"##2d8":10035,"0xbba3":10036,"0xbba5":10037,"0xbb4e":10038,"0xbb7f":10039,"0x81bd":10040,"##1db":10041,"0x4623":10042,"0x4626":10043,"0x467c":10044,"0x4697":10045,"0x461b":10046,"0x4677":10047,"0x4621":10048,"0x4691":10049,"0x4694":10050,"0x4699":10051,"0x7670":10052,"0x7631":10053,"0x763d":10054,"0x7633":10055,"0x763a":10056,"0x7655":10057,"0x7667":10058,"0x761f":10059,"0x762e":10060,"0x7669":10061,"##8888":10062,"##3d2":10063,"0x80ff":10064,"0x80f0":10065,"0x802d":10066,"0x80bd":10067,"0x80ce":10068,"0x8027":10069,"0x80e9":10070,"0x80d5":10071,"0x80c9":10072,"0x8022":10073,"0x80d8":10074,"0x8024":10075,"0x8019":10076,"0x801b":10077,"0x80b3":10078,"##263":10079,"##81b":10080,"0x143e":10081,"0x50a0":10082,"0x507e":10083,"##bbe":10084,"0x9960":10085,"0x9970":10086,"0x9989":10087,"0x9953":10088,"0x994f":10089,"0x997c":10090,"0x995c":10091,"0x9977":10092,"0x994b":10093,"0x994c":10094,"0x9980":10095,"##7cc":10096,"0x7440":10097,"0x7450":10098,"0x7460":10099,"0x74f0":10100,"0x7488":10101,"0x74b9":10102,"0x7456":10103,"0x7459":10104,"0x74cb":10105,"0x74c1":10106,"##141":10107,"0x90d1":10108,"0x90df":10109,"0x90b2":10110,"0x90dc":10111,"0x90b9":10112,"0x90eb":10113,"0x90b6":10114,"0x90c8":10115,"0x90c5":10116,"0x90be":10117,"0x90cd":10118,"0x97ea":10119,"0x98b9":10120,"0x3e64":10121,"0x3e50":10122,"0x3e68":10123,"0x3ebd":10124,"0x3e88":10125,"0x3e7d":10126,"0x3e3d":10127,"0x3e9e":10128,"0x3e7a":10129,"0x3e76":10130,"0x3e5e":10131,"0x3e73":10132,"0x3e8e":10133,"0x3e53":10134,"0x3e8b":10135,"0x3e5f":10136,"0x3ec2":10137,"0x3e8a":10138,"0x3e80":10139,"0x8e64":10140,"0x8e50":10141,"0x8e30":10142,"0x8e5b":10143,"0x8e5e":10144,"0x8e19":10145,"0x8e1c":10146,"0x8e3e":10147,"0x8e83":10148,"0x8e85":10149,"0xaf68":10150,"##547":10151,"0x4431":10152,"0x4428":10153,"0x4425":10154,"0x4438":10155,"0x44b9":10156,"0x443b":10157,"0x4417":10158,"0x4412":10159,"0x441e":10160,"0x4435":10161,"0x4419":10162,"0x443e":10163,"0x4451":10164,"0x4454":10165,"0x86be":10166,"0xacf9":10167,"0x3d64":10168,"0x3d5d":10169,"0x3d6c":10170,"0x3d89":10171,"0x3d42":10172,"0x3d93":10173,"0x3d9a":10174,"0x3db8":10175,"0x945d":10176,"0x9473":10177,"0x9453":10178,"0xa85d":10179,"0xa82c":10180,"0xa853":10181,"0x8ba0":10182,"0x8b32":10183,"0x8b39":10184,"0x8744":10185,"0x873d":10186,"0x8733":10187,"0x8738":10188,"0x8729":10189,"0x871b":10190,"0xdc0c":10191,"0xd1db":10192,"0xd3d2":10193,"0xd263":10194,"0xd81b":10195,"0xdbbe":10196,"0xd7cc":10197,"0xa50c":10198,"0xa505":10199,"0xa502":10200,"0x7c9d":10201,"0x7c3d":10202,"0x7ca9":10203,"0x7c29":10204,"0x7c8e":10205,"0x8560":10206,"0x852a":10207,"0x88f0":10208,"0x88fe":10209,"0x88df":10210,"0x88d0":10211,"0x88d8":10212,"0x88d3":10213,"0x4e87":10214,"0xa540":10215,"0xa51d":10216,"0xa525":10217,"0xa52c":10218,"0xa512":10219,"0xa515":10220,"0xa541":10221,"0xa51f":10222,"0xa521":10223,"0x9529":10224,"0xad70":10225,"0xad36":10226,"0xad3d":10227,"0xad3a":10228,"0xad92":10229,"0x7fee":10230,"0x7f30":10231,"0x7f2d":10232,"0x7f23":10233,"0x7fa4":10234,"0x7fb9":10235,"0x7fae":10236,"0x7fc8":10237,"0x7fca":10238,"0x7fc1":10239,"0x9aa3":10240,"0x9a9d":10241,"0x9aa4":10242,"0x9a86":10243,"0x9a63":10244,"0x9a84":10245,"0x9aa6":10246,"0x9a77":10247,"0x9a74":10248,"0x8aff":10249,"0x8a60":10250,"0xabfe":10251,"0xab12":10252,"0xab72":10253,"0xa9f0":10254,"0x3a00":10255,"0x3ac5":10256,"0x7efe":10257,"0x7e44":10258,"0x7e7d":10259,"0x7edf":10260,"0x7ef1":10261,"0x7e49":10262,"0x7ef4":10263,"0x7e35":10264,"0x7e55":10265,"0x7e5c":10266,"0x7efb":10267,"0x7ef7":10268,"0x4688":10269,"0x4685":10270,"0xbde8":10271,"0x8918":10272,"0x7463":10273,"0x7d18":10274,"0x9b60":10275,"0x9b68":10276,"0x9b9d":10277,"0x9bce":10278,"0x9bc3":10279,"0x9bba":10280,"0x9b7a":10281,"0x9b6c":10282,"0x9b4d":10283,"0x9b8e":10284,"0x9b86":10285,"0x9bc6":10286,"0x9bcb":10287,"0x9b7e":10288,"0x748f":10289,"0x7484":10290,"0x7480":10291,"0xdaa5":10292,"0xda0f":10293,"0xdabe":10294,"0x9965":10295,"0x9967":10296,"0x7495":10297,"0x749a":10298,"0x7492":10299,"0xa53f":10300,"0xa53c":10301,"0x8b9b":10302,"0x3d4c":10303,"0x3d45":10304,"0x3d4a":10305,"0xbca6":10306,"0xdb20":10307,"0xdb13":10308,"0xdb05":10309,"0x7502":10310,"0x7507":10311,"0x90ef":10312,"0x90e3":10313,"0x9aa1":10314,"0x9a3d":10315,"0x9a3e":10316,"0x800a":10317,"0x8003":10318,"0x7f94":10319,"0x7ff1":10320,"0x7ff7":10321,"0x7ffe":10322,"0x7f8b":10323,"0x7f63":10324,"0x8102":10325,"0x810e":10326,"0x810b":10327,"0xafd0":10328,"0xad0f":10329,"0x764e":10330,"0x7e69":10331,"0x9a5f":10332,"0x9a55":10333,"0x7edb":10334,"0x1463":10335,"0x148f":10336,"0x9a6a":10337,"0x9a6d":10338,"0x9a67":10339,"0x9102":10340,"0x9109":10341,"0x9106":10342,"0xd8c3":10343,"0xd821":10344,"0x7f1f":10345,"0x911f":10346,"0x911c":10347,"0x9115":10348,"0x9112":10349,"0x9119":10350,"0x7ee8":10351,"0x7ee4":10352,"0x7eed":10353,"0x7eeb":10354,"0x74d3":10355,"0x7f54":10356,"0x9a45":10357,"0x9a41":10358,"0x9a4d":10359,"0x9a49":10360,"0x3ea4":10361,"0x3ea3":10362,"0x3eae":10363,"0x3ea0":10364,"0x44b5":10365,"0x44b1":10366,"0x44b7":10367,"0x3d61":10368,"0x3dab":10369,"0x3e98":10370,"0x3e9f":10371,"0x3e9c":10372,"0x3e92":10373,"0x3e91":10374,"0x3e99":10375,"0x3e9b":10376,"0x3eb8":10377,"0x3ebb":10378,"0x4e92":10379,"0xc2b4":10380,"0x88e4":10381,"0x7fbf":10382,"0x7fb0":10383,"0x8e6e":10384,"0x8e6b":10385,"0xad51":10386,"0x90f3":10387,"0x3e4c":10388,"0x3e41":10389,"0x3e47":10390,"0x7c87":10391,"0x8b8d":10392,"0x93a6":10393,"0x8904":10394,"0x8901":10395,"0x4404":10396,"0x8e45":10397,"0x9ba4":10398,"0x444c":10399,"0x4442":10400,"0xac62":10401,"0x944b":10402,"0x7444":10403,"0x744d":10404,"0x7447":10405,"0x7449":10406,"0x3e6f":10407,"0x3e65":10408,"0x3e62":10409,"0x3e67":10410,"0x8752":10411,"0x8759":10412,"0x8e7e":10413,"0x8e79":10414,"0x7fd3":10415,"0x9bb4":10416,"0x9461":10417,"0x9466":10418,"0x7cef":10419,"0x9b98":10420,"0x9b95":10421,"0x9b92":10422,"0x4422":10423,"0x442e":10424,"0x442b":10425,"0x7fe5":10426,"0x7fe3":10427,"0x9b63":10428,"0xab6e":10429,"0x7c45":10430,"0x7c98":10431,"0x7c95":10432,"0x3d54":10433,"0x9a71":10434,"0x7c79":10435,"0x90d4":10436,"0x4e0b":10437,"0x9b54":10438,"0x3a79":10439,"cvttsd2":10440,"cvtsi2sd":10441,"0x55b9":10442,"mulsd":10443,"0xb079":10444,"0xd7f5":10445,"0x39d0":10446,"0x7e4e":10447,"0x874b":10448,"0x56c9":10449,"0x3e78":10450,"0x9b8a":10451,"divsd":10452,"pxor":10453,"0x7f2a":10454,"0x7fa2":10455,"0x7ca2":10456,"0x88de":10457,"0xbc35":10458,"cvttsd2si":10459,"##ss":10460,"0x4f5":10461,"0x4d8":10462,"0x4fa3":10463,"0x4f97":10464,"0x4fbc":10465,"0x4fad":10466,"0xa5e":10467,"0xac8":10468,"0xa93":10469,"0xafb":10470,"0xa7e":10471,"0xafac":10472,"0xad62":10473,"0xab79":10474,"0xafb3":10475,"0xa947":10476,"0xab80":10477,"0xafa8":10478,"0x564b":10479,"0x396":10480,"0x8f5c":10481,"0xbdd":10482,"0xbf0":10483,"0xb1a1":10484,"0xb221":10485,"0xbf57":10486,"0x9d0":10487,"0x942":10488,"0x9d8":10489,"0x94a":10490,"0x11b":10491,"0xb47d":10492,"0xb475":10493,"0xb489":10494,"0xb4aa":10495,"0xb482":10496,"0xb478":10497,"0xb46b":10498,"0xb471":10499,"0xa03b":10500,"0x4013":10501,"0x402c":10502,"0x400b":10503,"0x401f":10504,"0x402e":10505,"0x4004":10506,"0x4001":10507,"0x6fa3":10508,"0x6f96":10509,"0x6f6c":10510,"0x6f8c":10511,"0x6f84":10512,"0x6faa":10513,"0x6f87":10514,"0x6f8f":10515,"0x6fa8":10516,"0x6f99":10517,"0x6f80":10518,"0x6e68":10519,"0x6e97":10520,"0x6e66":10521,"0x6e8d":10522,"0x4243":10523,"0x4cc1":10524,"0xaa6c":10525,"0xaa97":10526,"0x2ba":10527,"0x2b8d":10528,"0x2688":10529,"0x96ea":10530,"0x96d1":10531,"0x96fd":10532,"0x96f6":10533,"0x96d8":10534,"0x96e2":10535,"0x96db":10536,"0x96e5":10537,"0x96ef":10538,"0xa1dd":10539,"0xa1ce":10540,"0xa17d":10541,"0xa1ba":10542,"0xa176":10543,"0xa1a9":10544,"0xa16c":10545,"0xa173":10546,"0xa1ae":10547,"0xa1a6":10548,"0xa165":10549,"0xa1c8":10550,"0xa198":10551,"0xa1cb":10552,"0xa191":10553,"0xa1b3":10554,"0xa185":10555,"0xa1c1":10556,"0xa18a":10557,"0xa180":10558,"0x838":10559,"0xc9d":10560,"0xc88":10561,"0xc90":10562,"0xc28":10563,"0xcb2":10564,"0xc9c":10565,"0xcf51":10566,"0xc7a1":10567,"0x826b":10568,"0x4927":10569,"0x492a":10570,"0x491e":10571,"0x491b":10572,"0x4939":10573,"0x492e":10574,"0x4937":10575,"0x4934":10576,"0x4947":10577,"0x77c8":10578,"##002":10579,"0x3c60":10580,"0x3c0e":10581,"0x3c65":10582,"0x3c04":10583,"0x3c5a":10584,"0x84bd":10585,"0x84c9":10586,"0x84aa":10587,"0x84c5":10588,"0x84ad":10589,"0x84a2":10590,"0x84c1":10591,"0x84b7":10592,"0x4550":10593,"0x4546":10594,"0x454d":10595,"0x4549":10596,"0x453f":10597,"0x4551":10598,"0x4552":10599,"0x7a27":10600,"0x7a2a":10601,"0x7a38":10602,"0x7a3b":10603,"0x7a22":10604,"0x7a34":10605,"0x7ad2":10606,"0x7a43":10607,"0x7a45":10608,"0x63bb":10609,"0x10f0":10610,"0x3fee":10611,"0x3fc0":10612,"0x3fe0":10613,"0x3faf":10614,"0x3fdc":10615,"0x3feb":10616,"0x3fd0":10617,"0x3fe4":10618,"0x3faa":10619,"0x3fc4":10620,"0x3fc7":10621,"0x3fb4":10622,"0x3fcc":10623,"0x3fbc":10624,"0x3fb7":10625,"0x6cf8":10626,"0x6cd5":10627,"0x6c98":10628,"0xaeff":10629,"0xae18":10630,"0xae27":10631,"0xae2a":10632,"0xaedf":10633,"0xae3a":10634,"0xaed6":10635,"0xae15":10636,"0xae0e":10637,"0xae1b":10638,"0xae41":10639,"0xaec2":10640,"0xaecf":10641,"0xae1f":10642,"0xae4a":10643,"0xaed3":10644,"0xae51":10645,"0xaed9":10646,"0xaecc":10647,"0xae4e":10648,"0xae04":10649,"0xae54":10650,"0xae06":10651,"0xae47":10652,"0xae5a":10653,"0xb532":10654,"0xb583":10655,"0x79c4":10656,"0x79cb":10657,"0x3ba3":10658,"0x3b44":10659,"0x3bf5":10660,"0x3b3a":10661,"0x3b9b":10662,"0x3b35":10663,"0x3b32":10664,"0x3b91":10665,"0x3b94":10666,"0x3b8a":10667,"0x3b3c":10668,"0x3bfc":10669,"0x47ab":10670,"0x47b9":10671,"0x47b6":10672,"0x47c5":10673,"0x47b0":10674,"0xbbe7":10675,"0x4823":10676,"0x4870":10677,"0x4888":10678,"0x487d":10679,"0x4826":10680,"0x489e":10681,"0x4876":10682,"0x4889":10683,"0x488c":10684,"0x4886":10685,"0x489b":10686,"0x487b":10687,"0x486b":10688,"0x486e":10689,"0x4879":10690,"##3d3":10691,"0x80e6":10692,"##0d9":10693,"##0d6":10694,"0x14ce":10695,"0x1448":10696,"0x1455":10697,"0x1437":10698,"0x1434":10699,"0x5057":10700,"0x504e":10701,"0x5054":10702,"##63e":10703,"##5cf":10704,"0x90a5":10705,"0x909b":10706,"0x90aa":10707,"0x909f":10708,"0x9097":10709,"0x9742":10710,"0x9f30":10711,"0xb803":10712,"0x3e12":10713,"0x3e14":10714,"0x3e1c":10715,"0x3e1a":10716,"0xafa3":10717,"0xaf46":10718,"0xaf33":10719,"0xaf7a":10720,"0xafaa":10721,"0xafc2":10722,"0x8c2f":10723,"0x86ee":10724,"0xac68":10725,"0xace0":10726,"0xacce":10727,"0xac75":10728,"0xacf6":10729,"0xac5e":10730,"0xac73":10731,"0xacd6":10732,"0xac57":10733,"0x3df9":10734,"0x3d9d":10735,"0x3dfe":10736,"0x3dce":10737,"0x3df2":10738,"0x3dba":10739,"0x3dbe":10740,"0x3def":10741,"0x94d1":10742,"0xa816":10743,"0xa83d":10744,"0xa83a":10745,"0xa824":10746,"0xd865":10747,"0xd934":10748,"0xd002":10749,"0xd0d9":10750,"0x7c15":10751,"0x8830":10752,"0x4f10":10753,"0x4fab":10754,"0x4fe0":10755,"0x4fce":10756,"0x4f88":10757,"0x4fa9":10758,"0x4fc9":10759,"0x4fc6":10760,"0x4fcb":10761,"0x4e9e":10762,"0x4e89":10763,"0x4e84":10764,"0x4e8f":10765,"0xa558":10766,"0xa55b":10767,"0x8f64":10768,"0x8f60":10769,"0x8f58":10770,"0x8f48":10771,"0x8f3d":10772,"0x8fb2":10773,"0xadf0":10774,"0xad2d":10775,"0xad1d":10776,"0xad58":10777,"0xad28":10778,"0xad2f":10779,"0xad49":10780,"0xade6":10781,"0xad8c":10782,"0xad86":10783,"0xad24":10784,"0xad3f":10785,"0xad2b":10786,"0x1512":10787,"0x151a":10788,"0x9c1a":10789,"0xa285":10790,"0x9e6c":10791,"0x3ffb":10792,"0x8d6c":10793,"0x8a1d":10794,"0x72f8":10795,"0xaddc":10796,"0xadde":10797,"0xab23":10798,"0xaba0":10799,"0xab87":10800,"0xab71":10801,"0xa9ea":10802,"0xa9dd":10803,"0xa9ee":10804,"0xa9da":10805,"0xa911":10806,"0x3a9d":10807,"0x3aaf":10808,"0x3ac3":10809,"0x3a7a":10810,"0x3aa9":10811,"0x3aa5":10812,"0x1218":10813,"0xdd00":10814,"0xddbd":10815,"0xdd17":10816,"0xaf6e":10817,"0x9f9f":10818,"0xb35b":10819,"0xbeb2":10820,"0xa967":10821,"0x9704":10822,"0x9f87":10823,"0xaf1c":10824,"0xaf15":10825,"0x625a":10826,"0x7de0":10827,"0x7db9":10828,"0x7d4f":10829,"0x7de8":10830,"0xd028":10831,"0xd059":10832,"0xaf8a":10833,"0xaf83":10834,"0xaf05":10835,"0xad1a":10836,"0xad13":10837,"0xc9a9":10838,"0x3ddc":10839,"0x3dd2":10840,"0x3dd9":10841,"0x8a08":10842,"0x856d":10843,"0xbcd1":10844,"0xd95f":10845,"0x3a57":10846,"0x948c":10847,"0x9485":10848,"0x5288":10849,"0xaf94":10850,"0xaf9c":10851,"0xaf91":10852,"0xaf97":10853,"0x3dca":10854,"0x3dc1":10855,"0x3dc6":10856,"0x8fb3":10857,"0xaff3":10858,"0xaff2":10859,"0xaffe":10860,"0xaff6":10861,"0x150d":10862,"0xad0c":10863,"0xad03":10864,"0x6283":10865,"0xa557":10866,"0xadf3":10867,"0xadf6":10868,"0xaee8":10869,"0xaee4":10870,"0xaeee":10871,"0xaee6":10872,"0x13de":10873,"0x12c8":10874,"0x13ac":10875,"0x1441":10876,"0x1449":10877,"0xcad1":10878,"0xcad8":10879,"0xc0ff":10880,"0xbf7c":10881,"0x4e7e":10882,"0x740d":10883,"0x8f4c":10884,"0x8f45":10885,"0x8f43":10886,"0x3da5":10887,"0x3daa":10888,"0x3dae":10889,"0x917f":10890,"0xafec":10891,"0xafe1":10892,"0xafed":10893,"0x4f0d":10894,"0x4f07":10895,"0xaf3c":10896,"0xaf3e":10897,"0xaf39":10898,"0x3e0a":10899,"0x3e01":10900,"0x3e0d":10901,"0x3e06":10902,"0x62c7":10903,"0x4ea0":10904,"0xabd2":10905,"0x62a8":10906,"0x62a2":10907,"0x1403":10908,"0x140d":10909,"0xa561":10910,"0x9495":10911,"0x8f5a":10912,"0x8f52":10913,"0x3ab2":10914,"0x3abe":10915,"0x3ab9":10916,"0x3abb":10917,"0x4f9c":10918,"0x4f9a":10919,"0xa9d6":10920,"0xa9d0":10921,"0x3a95":10922,"0x8d06":10923,"0xc864":10924,"0xc8a8":10925,"0xac65":10926,"0xac6b":10927,"0x7dcd":10928,"0x7dcb":10929,"0x4fd8":10930,"0x4fd0":10931,"0xac03":10932,"0xac0b":10933,"0xac06":10934,"0xace8":10935,"0xacef":10936,"0xace2":10937,"0xa98a":10938,"0xaba2":10939,"0xab9c":10940,"0xab93":10941,"0x269d":10942,"0x2676":10943,"0x26b3":10944,"0xa9e2":10945,"0xa9e7":10946,"0xab6d":10947,"0xb30a":10948,"0x523e":10949,"0x4f85":10950,"0xad84":10951,"0xad82":10952,"0x5277":10953,"0x527e":10954,"0x2b7b":10955,"0x5252":10956,"0xc89a":10957,"0xc89b":10958,"0xbeee":10959,"0x94b3":10960,"0xc00d":10961,"0xac7b":10962,"0x122b":10963,"0x2bb8":10964,"0xad66":10965,"0xabef":10966,"0x3aa7":10967,"0xac82":10968,"0xafb5":10969,"0xbdd4":10970,"0xbf0b":10971,"0x2ba2":10972,"0xc9d7":10973,"0xc888":10974,"0xc908":10975,"0xcb22":10976,"0xc9c5":10977,"##ap":10978,"movap":10979,"0x4df":10980,"0x4dc":10981,"0x4d6":10982,"0xa7a":10983,"0xa76":10984,"0xa59":10985,"0xa8f7":10986,"0xa803":10987,"0xa780":10988,"0xa999":10989,"0x558":10990,"0x52c":10991,"0x58c":10992,"0x58e":10993,"0x51e":10994,"0x5640":10995,"0x55d8":10996,"0x55cc":10997,"0x5632":10998,"0x55c1":10999,"0x563e":11000,"0x55cf":11001,"0x8ce5":11002,"0x88bf":11003,"0xb68":11004,"0xb70":11005,"0xb3a":11006,"0xbf6":11007,"0xb3e":11008,"0xb2d5":11009,"0xbed6":11010,"0xb2d8":11011,"0xb3d3":11012,"0x9ce":11013,"0x9d5":11014,"0x9c9":11015,"0x9c7":11016,"0x9f55":11017,"0x111":11018,"0x119":11019,"0xb42d":11020,"0xb428":11021,"0xb425":11022,"0xb433":11023,"0xb41e":11024,"0xb414":11025,"0xb419":11026,"0xb432":11027,"0xb405":11028,"0xb40a":11029,"0xb402":11030,"0xb434":11031,"0xa0dd":11032,"0xa088":11033,"0x590b":11034,"0x4070":11035,"0x4b70":11036,"0x4b75":11037,"0x4bf1":11038,"0x4bed":11039,"0x4b89":11040,"0x4b97":11041,"0x4bf3":11042,"0x4bfa":11043,"0x4b94":11044,"0x4b6b":11045,"0x4b7f":11046,"0x4be8":11047,"0x6ee3":11048,"0x4c03":11049,"0xaa72":11050,"0x2ea":11051,"0x2e0":11052,"0x2f1":11053,"0xc25":11054,"0x824b":11055,"0x824a":11056,"0x4a81":11057,"0x4a87":11058,"0x4a3f":11059,"0x4a7e":11060,"0x4a3c":11061,"0x4a8d":11062,"0x38e0":11063,"0x7770":11064,"##ffffff":11065,"0x6d8c":11066,"0x6d7e":11067,"0x7ac3":11068,"0x6cb5":11069,"0x7be8":11070,"0x815f":11071,"0x766a":11072,"0x39a0":11073,"0x1468":11074,"0x1479":11075,"0x50a9":11076,"0x50e9":11077,"0x50e6":11078,"0x50a6":11079,"0x501b":11080,"0x50e8":11081,"##fa7":11082,"##d7e":11083,"0x6842":11084,"##d94":11085,"##dbf":11086,"0xaf28":11087,"0x6a44":11088,"0x86e0":11089,"0x86d1":11090,"0x86d8":11091,"0x9414":11092,"0x94ec":11093,"0xa850":11094,"0xa858":11095,"0xa831":11096,"0xa8f8":11097,"0xa811":11098,"0xa827":11099,"0xa842":11100,"0xa80e":11101,"0xa8fb":11102,"0x8bfa":11103,"0xb03e":11104,"0xb080":11105,"0x8770":11106,"0x87fd":11107,"0x7c40":11108,"0x7c36":11109,"0x7c31":11110,"0x7c53":11111,"0x855e":11112,"0x8823":11113,"0x5c0b":11114,"0x11ea":11115,"0xc390":11116,"0x72be":11117,"0xab2a":11118,"0xa900":11119,"0xa960":11120,"0xa95b":11121,"0xa933":11122,"0xa938":11123,"0xa956":11124,"0xa929":11125,"0xa942":11126,"0xa953":11127,"0xa914":11128,"0xa924":11129,"0xa998":11130,"0xa91a":11131,"0xa91f":11132,"0xa992":11133,"0xa94c":11134,"0x3a7b":11135,"0x7e24":11136,"0x1250":11137,"0x12e3":11138,"0xb3dd":11139,"0xb3ee":11140,"0xb3da":11141,"0xb396":11142,"0xb3a0":11143,"0xb3ce":11144,"0xb3af":11145,"0xb3ba":11146,"0xb3a9":11147,"0xb3a5":11148,"0xb3f1":11149,"0xb3f6":11150,"0xb3e7":11151,"0xb3c9":11152,"0xb39b":11153,"0xb3c4":11154,"0xb393":11155,"0xb3fb":11156,"0xb392":11157,"0xa96a":11158,"0x515b":11159,"0xb2dd":11160,"0xb2ee":11161,"0xb2f8":11162,"0xb2eb":11163,"0xb2b6":11164,"0xb2e2":11165,"0xb2b1":11166,"0xb2bf":11167,"0xa6f2":11168,"0xa6eb":11169,"0xa7f1":11170,"0xa7fd":11171,"0xb2ac":11172,"0xb2a9":11173,"0x14d3":11174,"0x562d":11175,"0x5623":11176,"0x562a":11177,"0x5638":11178,"0x5617":11179,"0x5612":11180,"0x561e":11181,"0x1287":11182,"0x55da":11183,"0x55f9":11184,"0x55fe":11185,"0x55e9":11186,"0x55f6":11187,"0x55c6":11188,"0x1444":11189,"0xa7d7":11190,"0x518b":11191,"0xa905":11192,"0xa90a":11193,"0xa90e":11194,"0x930b":11195,"0x86cc":11196,"0x86c7":11197,"0x1399":11198,"0xc210":11199,"0xb2f3":11200,"0xc876":11201,"0x6a33":11202,"0x6a36":11203,"0x933a":11204,"0xa60d":11205,"0xa81b":11206,"0xa5fa":11207,"0xa98d":11208,"0xa974":11209,"0xa979":11210,"0x7c4c":11211,"0x893c":11212,"0x7d57":11213,"0x5608":11214,"0x560f":11215,"0x5605":11216,"0x55d4":11217,"0x55d1":11218,"0x55d6":11219,"0x55ef":11220,"0x55e4":11221,"0x55e1":11222,"0xb2cc":11223,"0xb2c2":11224,"0xb2c7":11225,"0x9eaf":11226,"0x55bf":11227,"0x4d5a":11228,"0xa861":11229,"0xb3bf":11230,"0xb3b5":11231,"0x9dd5":11232,"0x87e5":11233,"0x6861":11234,"0xa734":11235,"0x1138":11236,"0x7d4a":11237,"0xa847":11238,"0xc292":11239,"0xa93f":11240,"0xc281":11241,"0xb3ac":11242,"0xbf66":11243,"0xb3e2":11244,"0xc255":11245,"hl":11246,"r9":11247,"##d75":11248,"##796":11249,"movd":11250,"0x4d4":11251,"0xa64":11252,"0x71b":11253,"0x7c5":11254,"0x7cd":11255,"0x7fac":11256,"0x7d47":11257,"0x7d62":11258,"0x7d8f":11259,"0x7d95":11260,"0x538":11261,"0x53b":11262,"0x589":11263,"0x555":11264,"0x51c":11265,"0x5fa1":11266,"0x5f51":11267,"0x5fa7":11268,"0x8a2":11269,"0x8878":11270,"0x8547":11271,"0xbff":11272,"0xbf3":11273,"0xb74":11274,"0xb0a":11275,"0x649e":11276,"0x6403":11277,"0x6406":11278,"0x9cb":11279,"0x9b0":11280,"0x9d7f":11281,"0x9e2b":11282,"0x116":11283,"0x140a":11284,"0x122e":11285,"0x13e1":11286,"0xa082":11287,"0xa07b":11288,"0xa08f":11289,"0xa066":11290,"0xa06d":11291,"0xa085":11292,"0xa0cc":11293,"0xa00c":11294,"0xa08d":11295,"0x4019":11296,"##20796":11297,"0x6f30":11298,"0x6f36":11299,"0x6f33":11300,"0x6f2c":11301,"0x6f3b":11302,"0x6f29":11303,"0x6f42":11304,"0x6f3e":11305,"0x41f0":11306,"0x4170":11307,"0x41ba":11308,"0x41e9":11309,"0x418c":11310,"0x4173":11311,"0x41b6":11312,"0x41e4":11313,"0x41aa":11314,"0x41c8":11315,"0x418f":11316,"0x4177":11317,"0x41ca":11318,"0x4198":11319,"0x41c2":11320,"0x41c5":11321,"0x41be":11322,"0x41e1":11323,"0x4183":11324,"0x41ec":11325,"0x41ad":11326,"0x4194":11327,"0x417f":11328,"0x6e9e":11329,"0x6e56":11330,"0x6e5e":11331,"0x6e63":11332,"0x6e87":11333,"0x6e59":11334,"0x6e6a":11335,"0x6e4b":11336,"0x6e6d":11337,"0x6e83":11338,"0x6e52":11339,"0x6e4e":11340,"0x6e8a":11341,"0x6e80":11342,"0x6efc":11343,"0x4cce":11344,"0x4cdb":11345,"0xaaec":11346,"0xaabc":11347,"0x2df":11348,"0x3710":11349,"0xa1e2":11350,"0xa109":11351,"0x78d6":11352,"0x78e3":11353,"0x78cf":11354,"0x78c5":11355,"0x78d9":11356,"0x78cc":11357,"0x78e5":11358,"0x78fc":11359,"0x77ee":11360,"0x775d":11361,"0x7758":11362,"0x7726":11363,"0x772c":11364,"0x775f":11365,"0x7766":11366,"0x7752":11367,"0x774e":11368,"0x7769":11369,"0x7747":11370,"0x775a":11371,"0x6010":11372,"0x602c":11373,"0x6017":11374,"0x6024":11375,"0x601b":11376,"0x451c":11377,"0x7a9d":11378,"0x7aa4":11379,"0x7aae":11380,"0x7a92":11381,"0x7aac":11382,"0x7aa7":11383,"0x7a8a":11384,"0x7a99":11385,"0x6390":11386,"0x63af":11387,"0x6327":11388,"0x63f4":11389,"0x63c8":11390,"0x63cf":11391,"0x63be":11392,"0x63ec":11393,"0x6321":11394,"0x63b3":11395,"0x6394":11396,"0x63b0":11397,"0x63e5":11398,"0x63d2":11399,"0x63b7":11400,"0x63ef":11401,"0x63e8":11402,"0x63fc":11403,"0x1080":11404,"0x3fea":11405,"0x3fd4":11406,"0x3fe8":11407,"0x6cbd":11408,"0x6ca4":11409,"0x6cc2":11410,"0x6cac":11411,"0x6cd3":11412,"0x6cbf":11413,"0xb52":11414,"0x79ce":11415,"0x7911":11416,"0x7913":11417,"0x79d6":11418,"0x7997":11419,"0x79c7":11420,"0x7909":11421,"0x7902":11422,"0x7906":11423,"0x790c":11424,"0x3b14":11425,"0x7bf8":11426,"0x7ba5":11427,"0x7bcf":11428,"0x7be1":11429,"0x7bf7":11430,"0x7bb7":11431,"0x5c75":11432,"0x803a":11433,"0x8052":11434,"0x1460":11435,"0x14da":11436,"0x142d":11437,"0x14f9":11438,"0x1436":11439,"0x14df":11440,"0x1417":11441,"0x14c9":11442,"0x14c6":11443,"0x1457":11444,"0x145c":11445,"0x147b":11446,"0x14b1":11447,"0x14ac":11448,"0x14a7":11449,"0x1421":11450,"0x1452":11451,"0x14bf":11452,"0x1454":11453,"0x1471":11454,"0x14fc":11455,"0x50f0":11456,"0x50f5":11457,"##d6d75":11458,"##5320796":11459,"0x7455":11460,"0x745320796":11461,"##24e":11462,"##6666":11463,"0x3ec4":11464,"0x549d":11465,"0x139d":11466,"0x1396":11467,"0x137a":11468,"0x13f6":11469,"0x13ca":11470,"0x13c5":11471,"0x697a":11472,"0x69b2":11473,"0x6912":11474,"##699":11475,"0xb50e":11476,"0x6a30":11477,"0x6aa0":11478,"0x6a26":11479,"0x6aa5":11480,"0x6a29":11481,"0x6ac7":11482,"0xa860":11483,"0xa85f":11484,"0x5edd":11485,"0x5eda":11486,"0x5e9e":11487,"0x5edf":11488,"0x5e73":11489,"0xb0ae":11490,"0xb09f":11491,"0xb09c":11492,"0xb098":11493,"0xb0a8":11494,"0x87ea":11495,"0x87dd":11496,"0x87d1":11497,"0x87f6":11498,"0x87e2":11499,"0x7c1d":11500,"0x7c17":11501,"0x8538":11502,"0x8549":11503,"0x8542":11504,"0x8868":11505,"0x882d":11506,"0x8848":11507,"0x8828":11508,"0x885b":11509,"0x88ba":11510,"0x882a":11511,"0x883a":11512,"0x885e":11513,"0x884f":11514,"0x8835":11515,"0x88ac":11516,"0x88a7":11517,"0xa5f9":11518,"0xa5aa":11519,"0xa5c8":11520,"0x7fa0":11521,"0x7fa5":11522,"0x7fb6":11523,"0x1118":11524,"0x8a40":11525,"0xab20":11526,"0xab1d":11527,"0xab16":11528,"0xab28":11529,"0xab0b":11530,"0x3acf":11531,"0x7e18":11532,"0x7e11":11533,"0x7e1f":11534,"0x12ff":11535,"0x1212":11536,"0x12e7":11537,"0x4d31":11538,"0x914f":11539,"0x51c3":11540,"0xb288":11541,"0xb275":11542,"0xb29e":11543,"0xa6da":11544,"0xa633":11545,"0xa613":11546,"0xa6d8":11547,"0xa615":11548,"0xa7ff":11549,"0xa7da":11550,"0xa7f9":11551,"0xa758":11552,"0xa7eb":11553,"0xa7ed":11554,"0xa7e7":11555,"0xa7f3":11556,"0xa7e1":11557,"0xa7f7":11558,"0x93fe":11559,"0x9390":11560,"0x935b":11561,"0x93e7":11562,"0x93cd":11563,"0x7dea":11564,"0x7dc0":11565,"0x7d30":11566,"0x7d88":11567,"0x7d36":11568,"0x7d44":11569,"0x7d3d":11570,"0x7d75":11571,"0x7d5b":11572,"0x7d2f":11573,"0x7d7a":11574,"0x7d81":11575,"0x7d9f":11576,"0x7d9a":11577,"0x7de3":11578,"0x7db1":11579,"0x7d92":11580,"0x5fa9":11581,"0x5fa4":11582,"0x9bea":11583,"0x69ef":11584,"0x69ec":11585,"0x130e":11586,"0x131a":11587,"0x131b":11588,"0x927c":11589,"0xffffffffffffff":11590,"0x87d8":11591,"0x92d5":11592,"0x9d73":11593,"0x8c07":11594,"0x87ca":11595,"0x6ea1":11596,"0x7f9a":11597,"0x7f93":11598,"0x12f4":11599,"0x12fb":11600,"0x7ff2":11601,"0x5216":11602,"0x1282":11603,"0xb28c":11604,"0xb282":11605,"0xb28e":11606,"0xb286":11607,"0xb280":11608,"0x69b0":11609,"0x150a":11610,"0x1501":11611,"0x8534":11612,"0x13d4":11613,"0x13d7":11614,"0x13db":11615,"0x13aa":11616,"0x13a6":11617,"0x1443":11618,"0x144e":11619,"0x146d":11620,"0x690e":11621,"0xa7de":11622,"0xa7d6":11623,"0x6abf":11624,"0x6ab2":11625,"0x6ab6":11626,"0x6005":11627,"0x600a":11628,"0xa904":11629,"0x1492":11630,"0x8885":11631,"0x888e":11632,"0x693c":11633,"0x693e":11634,"0x6939":11635,"0x889f":11636,"0x8895":11637,"0x886a":11638,"0x8861":11639,"0x1395":11640,"0x3ae5":11641,"0x5f8e":11642,"0x5f8b":11643,"0x1405":11644,"0x12dc":11645,"0x12d2":11646,"0x12d7":11647,"0x12de":11648,"0xa56f":11649,"0x938d":11650,"0xa580":11651,"0x5ea3":11652,"0x5ea1":11653,"0x88ec":11654,"0x8a35":11655,"0x8a3b":11656,"0xb2fc":11657,"0xb2fa":11658,"0xb2fb":11659,"0x3a9a":11660,"0x5f15":11661,"0x5f12":11662,"0x5f17":11663,"0x6a3f":11664,"0x6a3c":11665,"0x6a39":11666,"0x7d07":11667,"0xb77e":11668,"0x7dcf":11669,"0x7dc6":11670,"0xa604":11671,"0xa601":11672,"0xa607":11673,"0x5f98":11674,"0x5f95":11675,"0x5f92":11676,"0x5f9e":11677,"0x5f9b":11678,"0x8841":11679,"0xb27c":11680,"0xb272":11681,"0xb279":11682,"0x7e04":11683,"0x7e0c":11684,"0x7e01":11685,"0x7e07":11686,"0x5137":11687,"0xab99":11688,"0x5f54":11689,"0x5f56":11690,"0xb298":11691,"0xb294":11692,"0xb29a":11693,"0xb292":11694,"0x7ddd":11695,"0x7dd6":11696,"0x7dad":11697,"0x7da6":11698,"0x7c43":11699,"0x9747":11700,"0x7dfa":11701,"0x7c62":11702,"0x8aac":11703,"0x7d54":11704,"0xb0b0":11705,"0x6a42":11706,"0x88b3":11707,"0x5e77":11708,"0x8871":11709,"0x887e":11710,"0x887b":11711,"0x51d2":11712,"0x8854":11713,"0x2bff":11714,"0x881c":11715,"0x8815":11716,"0x87ef":11717,"0xab08":11718,"0x8804":11719,"0xb094":11720,"0xb095":11721,"0x8a51":11722,"0x9df6":11723,"0x5195":11724,"0x3a80":11725,"0x8a8d":11726,"0xa65a":11727,"0x71e5":11728,"0x5562":11729,"0x8a47":11730,"0xa7e5":11731,"movapd":11732,"0xa594":11733,"hlt":11734,"0x7cd2":11735,"0x8a2e":11736,"0xb0a2":11737,"##d6d7544":11738,"0x745320796d6d7544":11739,"0xfffffffffffffff0":11740,"0xd4":11741,"0xa2d":11742,"0xa23":11743,"0xa7c":11744,"0xa8b":11745,"0x530":11746,"0x54d":11747,"0x5652":11748,"0x51e8":11749,"0x54d0":11750,"0x54cd":11751,"0x5124":11752,"0x5243":11753,"0x3ad":11754,"0x8d8":11755,"0x8c8":11756,"0x898":11757,"0xb64":11758,"0xb9e":11759,"0xb05":11760,"0xb0d6":11761,"0x64ad":11762,"0x9e6":11763,"0x929":11764,"0x9e4":11765,"0x955":11766,"0x93e":11767,"0x947":11768,"0x944f":11769,"0x9dc2":11770,"0x9d74":11771,"0x117":11772,"0x156":11773,"0x132":11774,"0x11a":11775,"0x1233":11776,"0x153f":11777,"0x11b8":11778,"0x1243":11779,"0xb49a":11780,"0xa050":11781,"0xa070":11782,"0xa058":11783,"0xa05c":11784,"0xa054":11785,"0x5916":11786,"0x6fba":11787,"0x6f65":11788,"0x6f7b":11789,"0x41fe":11790,"0x6e10":11791,"0x6e3a":11792,"0x6e12":11793,"0x6e0c":11794,"0x6e43":11795,"0x42ca":11796,"0x426b":11797,"0x4cfb":11798,"0xaafe":11799,"0xaaeb":11800,"0xaaf3":11801,"0xaaf7":11802,"0xaaef":11803,"0x96a1":11804,"0xa13c":11805,"0xc7f":11806,"0x8288":11807,"0x82ba":11808,"0x82fc":11809,"0x78b2":11810,"0x7801":11811,"0x77f9":11812,"0x775b":11813,"0x77e9":11814,"0x77e6":11815,"0x7712":11816,"0x77bb":11817,"0x779f":11818,"0x7755":11819,"0x77f3":11820,"0x7785":11821,"0x7799":11822,"0x6d20":11823,"0x6d58":11824,"0x6d53":11825,"0x6d4b":11826,"0x6d66":11827,"0x6d4e":11828,"0x7a7c":11829,"0x7a55":11830,"0x6350":11831,"0x6388":11832,"0x63a9":11833,"0x638e":11834,"0x639a":11835,"0x636f":11836,"0x637e":11837,"0x638d":11838,"0x3f5b":11839,"0xbae1":11840,"0xbae8":11841,"0x6c77":11842,"0x799c":11843,"0x7979":11844,"0x7bb1":11845,"0x7b51":11846,"0x81c5":11847,"0x767d":11848,"0x767c":11849,"0x7693":11850,"0x7692":11851,"0x6bf0":11852,"0x6bf8":11853,"0x6be9":11854,"0x6be2":11855,"0x6be1":11856,"0x6bf7":11857,"0x6be5":11858,"0x39c0":11859,"0x39b8":11860,"0x802a":11861,"##12e":11862,"0x14af":11863,"0x14c3":11864,"0x50ee":11865,"0x50fc":11866,"0x7427":11867,"0x7429":11868,"0x9f44":11869,"0x6823":11870,"0x689e":11871,"0x680f":11872,"0x685a":11873,"##839":11874,"0x54ee":11875,"0x54da":11876,"0x54f8":11877,"0x54f5":11878,"0x54df":11879,"0x54fd":11880,"0x54e9":11881,"0x54c6":11882,"0x54ae":11883,"0x54e4":11884,"##78d":11885,"##7e8":11886,"0x34f8":11887,"0x8c60":11888,"##345":11889,"0x617d":11890,"0x3d49":11891,"0x94c0":11892,"0x9468":11893,"0x949d":11894,"0x9458":11895,"0x9448":11896,"0x9428":11897,"0x947d":11898,"0x9475":11899,"0x94c3":11900,"0x94b2":11901,"0x94a4":11902,"0x94b9":11903,"0x94b6":11904,"0x94c8":11905,"0x9457":11906,"0x9434":11907,"0x6270":11908,"0xa8ea":11909,"0xa80b":11910,"0xa802":11911,"0xb016":11912,"0xb025":11913,"0xb05e":11914,"0xb063":11915,"0xb04f":11916,"0xb014":11917,"0xb01b":11918,"0xb059":11919,"0xb077":11920,"0xb04a":11921,"0xb06d":11922,"0xb039":11923,"0x7310":11924,"0x7c55":11925,"0x85da":11926,"0x8809":11927,"0xa5af":11928,"0xa5c3":11929,"0xa59e":11930,"0xa5f4":11931,"0xa5e6":11932,"0x153a":11933,"0x1553":11934,"0x154b":11935,"0x154e":11936,"0xb956":11937,"0x9aeb":11938,"0x9c30":11939,"0x1158":11940,"0xc3f3":11941,"0xc3fa":11942,"0x8d97":11943,"0x8a2d":11944,"0x8a18":11945,"0x8a28":11946,"0x8a25":11947,"0x8a17":11948,"0x8a1e":11949,"0x8a14":11950,"0x8a1b":11951,"0x8a1a":11952,"0x721c":11953,"0xab10":11954,"0xa9ba":11955,"0x3ace":11956,"0x3acb":11957,"0x7e48":11958,"0x1230":11959,"0x1223":11960,"0x1270":11961,"0x89ea":11962,"0x89ee":11963,"0x89da":11964,"0x89f8":11965,"0x89f5":11966,"0x897a":11967,"0x89f1":11968,"0x89c6":11969,"0x51f9":11970,"0x51fe":11971,"0x512a":11972,"0x51ed":11973,"0x51f4":11974,"0x51c8":11975,"0xa62d":11976,"0xa731":11977,"0x93ab":11978,"0x93b2":11979,"0x93a4":11980,"0xa5b4":11981,"0xa5be":11982,"0xa5b9":11983,"0x9b1d":11984,"0x9b1a":11985,"0x7688":11986,"0x768b":11987,"0x7680":11988,"0x8a0d":11989,"0x9db8":11990,"0x727e":11991,"0x800f":11992,"0x800c":11993,"0x8001":11994,"0x8007":11995,"0x800e":11996,"0x9481":11997,"0x9489":11998,"0x5220":11999,"0x5270":12000,"0x5258":12001,"0x5248":12002,"0x5290":12003,"0x522f":12004,"0x5225":12005,"0x522c":12006,"0x524d":12007,"0x521b":12008,"0x9255":12009,"0x552d":12010,"0x5523":12011,"0x5548":12012,"0x552a":12013,"0x551e":12014,"0x554f":12015,"0x5514":12016,"0x5519":12017,"0x5541":12018,"0x8a9c":12019,"0x8a97":12020,"0x94cd":12021,"0x1334":12022,"0x133c":12023,"0x1337":12024,"0x89d8":12025,"0x89d4":12026,"0x89de":12027,"0xb00f":12028,"0xb005":12029,"0xb000":12030,"0x89cd":12031,"0x1298":12032,"0x89e6":12033,"0xa565":12034,"0xa56a":12035,"0x9493":12036,"0xa58a":12037,"0xa681":12038,"0x89b8":12039,"0x89b4":12040,"0x120d":12041,"0x1200":12042,"0xa9d5":12043,"0x8a32":12044,"0x8a37":12045,"0x8a36":12046,"0x89ac":12047,"0x89ad":12048,"0x510b":12049,"0x157e":12050,"0x9447":12051,"0x9446":12052,"0x2ff3":12053,"0x89fa":12054,"0xa75f":12055,"0xa752":12056,"0xa574":12057,"0xa57b":12058,"0xa9cb":12059,"0x946f":12060,"0xa814":12061,"0x11d0":12062,"0x513e":12063,"0xa5dc":12064,"0xa5d2":12065,"0xab67":12066,"0x7dab":12067,"0x9ee1":12068,"0x1272":12069,"0x8aa8":12070,"0x8aaa":12071,"0x8aa2":12072,"0x550f":12073,"0x550c":12074,"0x5502":12075,"0x5507":12076,"0x5234":12077,"0x5239":12078,"0x529f":12079,"0x529c":12080,"0x5295":12081,"0x94d2":12082,"0x1265":12083,"0x5115":12084,"0x520f":12085,"0x5205":12086,"0x520a":12087,"0x152b":12088,"0x51dc":12089,"0x51d7":12090,"0x5285":12091,"0x528b":12092,"0x525a":12093,"0x5265":12094,"0x5261":12095,"0x553c":12096,"0x5532":12097,"0x5539":12098,"0x54bf":12099,"0x54bc":12100,"0x54b5":12101,"0x11e3":12102,"0x94b5":12103,"0xab03":12104,"0x1537":12105,"0x8d55":12106,"0xa774":12107,"0x54a2":12108,"0x54a7":12109,"0x9f41":12110,"0xb045":12111,"0x2ad5":12112,"0x9d91":12113,"0xa5e4":12114,"0x942b":12115,"0x94a8":12116,"0x51e3":12117,"0x5552":12118,"0x51cd":12119,"0x54d5":12120,"0xb054":12121,"0x9479":12122,"##dec":12123,"0x4d78":12124,"0x4d41":12125,"0xa87":12126,"0x7d8":12127,"0x7d78":12128,"0x7d94":12129,"0x52d":12130,"0x531":12131,"0x57a":12132,"0x576":12133,"0x573":12134,"0x57b":12135,"0x577":12136,"0x572":12137,"0x56d":12138,"0x580":12139,"0x56fc":12140,"0x57b5":12141,"0x5834":12142,"0x57d7":12143,"0x57bc":12144,"0x57a1":12145,"0x5780":12146,"0x5141":12147,"0x5699":12148,"0x5839":12149,"0x578d":12150,"0x57e8":12151,"0x317":12152,"0x8ac":12153,"0x85b0":12154,"0x8d37":12155,"0x8d4b":12156,"0x8cde":12157,"0x8d41":12158,"0xb23":12159,"0xb31":12160,"0xb75":12161,"0xbfd":12162,"0xb81":12163,"0xb17":12164,"0xbf32":12165,"0xb934":12166,"0x9f5":12167,"0x953":12168,"0x98b":12169,"0x9c4":12170,"0x9d8f":12171,"0x9c54":12172,"0x100":12173,"0x1247":12174,"0x124e":12175,"0xb490":12176,"0xb49b":12177,"0xb492":12178,"0xb495":12179,"0xa004":12180,"0xa03c":12181,"0x4077":12182,"0x406b":12183,"0x4120":12184,"0x41fc":12185,"0x6ef9":12186,"0x6ef2":12187,"0x6eeb":12188,"0x6ee7":12189,"0x6efb":12190,"0x6ee8":12191,"0x7068":12192,"0x42f8":12193,"0x4257":12194,"0x425c":12195,"0x424a":12196,"0x4254":12197,"0x4ce7":12198,"0xaa00":12199,"0xaac8":12200,"0xaab1":12201,"0xaa95":12202,"0x2dc":12203,"0x2c7":12204,"0xa140":12205,"0x8331":12206,"0xc0b":12207,"0xc141":12208,"0xcdec":12209,"0x8250":12210,"0x8260":12211,"0x822d":12212,"0x82ab":12213,"0x82a3":12214,"0x8218":12215,"0x8296":12216,"0x8248":12217,"0x8226":12218,"0x8256":12219,"0x82f6":12220,"0x8222":12221,"0x82a6":12222,"0x8214":12223,"0x829c":12224,"0x821b":12225,"0x8259":12226,"0x828f":12227,"0x823e":12228,"0x8267":12229,"0x82b5":12230,"0x8252":12231,"0x82b0":12232,"0x8234":12233,"0x7896":12234,"0x66ee":12235,"0x66eb":12236,"0x66e2":12237,"0x66e1":12238,"0x3810":12239,"0x77ab":12240,"0x77a5":12241,"0x774d":12242,"0x7787":12243,"0x7797":12244,"0x7798":12245,"0x7709":12246,"0x774c":12247,"0x77ad":12248,"0x776b":12249,"0x3610":12250,"0x363d":12251,"0x3677":12252,"0x6d00":12253,"0x6d10":12254,"0x6d05":12255,"0x8465":12256,"0x67ee":12257,"0x67f0":12258,"0x6710":12259,"0x6711":12260,"0x67dc":12261,"0x6712":12262,"0x67d8":12263,"0x67e4":12264,"0x67d4":12265,"0x670b":12266,"0x67cc":12267,"0x67cd":12268,"0x6701":12269,"0x67e8":12270,"0x7abe":12271,"0x6364":12272,"0x6360":12273,"0x6382":12274,"0x10f8":12275,"0x6cfd":12276,"0x6c14":12277,"0x6c9c":12278,"0x6c32":12279,"0xa433":12280,"0x75dd":12281,"0x75f2":12282,"0x75e7":12283,"0x75d8":12284,"0x75f3":12285,"0x75d4":12286,"0x75e2":12287,"0x7920":12288,"0x7996":12289,"0x792f":12290,"0x7927":12291,"0x792a":12292,"0x7986":12293,"0x79ae":12294,"0x7965":12295,"0x791c":12296,"0x79ca":12297,"0x7974":12298,"0x7983":12299,"0x7961":12300,"0x7969":12301,"0x7934":12302,"0x795a":12303,"0x3b7c":12304,"0x3b72":12305,"0x3b66":12306,"0x7bf2":12307,"0x7bdc":12308,"0x7bfd":12309,"0x7be6":12310,"0x7bd6":12311,"0x7bc8":12312,"0x7bfb":12313,"0x7bca":12314,"0x7bd9":12315,"0x7bc1":12316,"0x7bef":12317,"0x5c50":12318,"0x5c70":12319,"0x5c46":12320,"0x5c76":12321,"0x5c63":12322,"0x5c53":12323,"0x5c77":12324,"0x5c4a":12325,"0x5c66":12326,"0x5c61":12327,"0x5c6b":12328,"0x5c47":12329,"0x5c5a":12330,"0x8175":12331,"0x8186":12332,"0x81a6":12333,"0x818b":12334,"0x8165":12335,"0x8197":12336,"0x8167":12337,"0x8183":12338,"0x81a2":12339,"0x8194":12340,"0x8180":12341,"0x816b":12342,"0x8179":12343,"0x76ea":12344,"0x6b58":12345,"0x6b3d":12346,"0x6b3a":12347,"0x6b56":12348,"0x6b42":12349,"0x6b57":12350,"0x6b51":12351,"0x39f0":12352,"0x3978":12353,"0x39b0":12354,"0x8023":12355,"0x8031":12356,"0x8017":12357,"0x801c":12358,"0x50ad":12359,"0x745e":12360,"##14e":12361,"0x90c0":12362,"0x9068":12363,"0x90af":12364,"0x9089":12365,"0x9086":12366,"0x9082":12367,"0x90b4":12368,"0x9077":12369,"0x9092":12370,"0x9051":12371,"0x9085":12372,"0x9054":12373,"0x90bc":12374,"0x90b7":12375,"0x908d":12376,"0x6850":12377,"0x6858":12378,"0x6848":12379,"0x6844":12380,"0x6838":12381,"0x683a":12382,"0x6855":12383,"0x6832":12384,"0x683f":12385,"0x1375":12386,"0x8c00":12387,"0x8c10":12388,"0x8ca0":12389,"0x8cbd":12390,"0x8c3d":12391,"0x8caf":12392,"0x8c2c":12393,"0x8c6c":12394,"0x8cb6":12395,"0x8c1e":12396,"0x8c14":12397,"0x8cc8":12398,"0x8c1b":12399,"0x8cfb":12400,"0x8ccf":12401,"0x8cd9":12402,"0x44ea":12403,"0x8600":12404,"0x8696":12405,"0x8625":12406,"0x8626":12407,"0x8663":12408,"0x867c":12409,"0x86a6":12410,"0x8614":12411,"0x8619":12412,"0x869f":12413,"0x861c":12414,"0x86fb":12415,"0x8677":12416,"0x8692":12417,"0x86b3":12418,"0x86b0":12419,"0x5840":12420,"0x5860":12421,"0x5823":12422,"0x58a3":12423,"0x589d":12424,"0x5828":12425,"0x585b":12426,"0x582f":12427,"0x58f5":12428,"0x58b2":12429,"0x580d":12430,"0x5856":12431,"0x58aa":12432,"0x58ad":12433,"0x5851":12434,"0x94f0":12435,"0x929d":12436,"0x92b1":12437,"0xb081":12438,"0xb08f":12439,"0xb041":12440,"0x8700":12441,"0x8712":12442,"0x73c8":12443,"0x7c60":12444,"0x7c5d":12445,"0x7c18":12446,"0x7c70":12447,"0x7c4d":12448,"0x7c12":12449,"0x712f":12450,"0x7126":12451,"0x85ea":12452,"0x85ee":12453,"0x85a3":12454,"0x85f2":12455,"0x85a9":12456,"0x85ae":12457,"0x85a6":12458,"0x859f":12459,"0x8811":12460,"0x8813":12461,"0x4e1e":12462,"0xa5a6":12463,"0xa5a8":12464,"0x959c":12465,"0x7fdd":12466,"0xb938":12467,"0x9aff":12468,"0x9af0":12469,"0x9af8":12470,"0x9c60":12471,"0x9c88":12472,"0x9c46":12473,"0x9c25":12474,"0x9c9e":12475,"0x9c73":12476,"0x9c42":12477,"0x9c5c":12478,"0x11f0":12479,"0x9e28":12480,"0x9e76":12481,"0x8d50":12482,"0x8d23":12483,"0x8d31":12484,"0x8d2a":12485,"0x8d3e":12486,"0x8a87":12487,"0x8a82":12488,"0x8ac5":12489,"0xabe9":12490,"0xa9f5":12491,"0x3ae0":12492,"0x3a89":12493,"0x3a8c":12494,"0x3ad4":12495,"0x3ad7":12496,"0x820c":12497,"0x8205":12498,"0x7ef0":12499,"0x7ed1":12500,"0x7e1e":12501,"0x125d":12502,"0x121d":12503,"0x1296":12504,"0x12a0":12505,"0x1216":12506,"0x1275":12507,"0x1213":12508,"0x1249":12509,"0x4d20":12510,"0x4d64":12511,"0x4d23":12512,"0x8996":12513,"0x8981":12514,"0x8924":12515,"0x891a":12516,"0x895a":12517,"0x9f8b":12518,"0x2c75":12519,"0x5164":12520,"0x5146":12521,"0xa6ab":12522,"0x9388":12523,"0x93c6":12524,"0x93f3":12525,"0x93fa":12526,"0x7d76":12527,"0x9b12":12528,"0x9b15":12529,"0x9b0e":12530,"0x9b0a":12531,"0x858d":12532,"0x858b":12533,"0xb86d":12534,"0x9e95":12535,"0xa2f5":12536,"0xdab":12537,"0xa9b5":12538,"0xdb0":12539,"0x9deb":12540,"0x9d7b":12541,"0x8c02":12542,"0x8c06":12543,"0x136b":12544,"0x72d6":12545,"0xb89c":12546,"0x984e":12547,"0x5764":12548,"0x5760":12549,"0x57f0":12550,"0x57da":12551,"0x5710":12552,"0x572d":12553,"0x57ab":12554,"0x5723":12555,"0x5770":12556,"0x5731":12557,"0x5728":12558,"0x573d":12559,"0x57c3":12560,"0x57ba":12561,"0x57f5":12562,"0x579e":12563,"0x574d":12564,"0x5749":12565,"0x57eb":12566,"0x5717":12567,"0x5786":12568,"0x577c":12569,"0x579b":12570,"0x57e4":12571,"0x578b":12572,"0x571c":12573,"0x5741":12574,"0x5783":12575,"0x57f7":12576,"0x5794":12577,"0xa9fa":12578,"0x7ea3":12579,"0x61d6":12580,"0x52b8":12581,"0x14d4":12582,"0x56ff":12583,"0x56dd":12584,"0x56ee":12585,"0x56da":12586,"0x5670":12587,"0x5696":12588,"0x56a0":12589,"0x56ce":12590,"0x56f5":12591,"0x56e9":12592,"0x56e6":12593,"0x5673":12594,"0x56e2":12595,"0x5691":12596,"0x8ab7":12597,"0x8abe":12598,"0x516e":12599,"0x516b":12600,"0x684e":12601,"0x684b":12602,"0x7e98":12603,"0x8681":12604,"0x8705":12605,"0x870b":12606,"0x8c32":12607,"0x8c37":12608,"0x5185":12609,"0xc058":12610,"0xc033":12611,"0xc08e":12612,"0xc04f":12613,"0xc06a":12614,"0xc061":12615,"0x12ac":12616,"0x12a7":12617,"0xbfdf":12618,"0x4e72":12619,"0x8559":12620,"0x8c21":12621,"0x8594":12622,"0x8591":12623,"0xc15b":12624,"0x2573":12625,"0x515f":12626,"0x129b":12627,"0xabb7":12628,"0x8ca7":12629,"0x8ce3":12630,"0x8ceb":12631,"0x5173":12632,"0x517b":12633,"0x8a78":12634,"0x8a7f":12635,"0x8a71":12636,"0x730b":12637,"0x860f":12638,"0x860a":12639,"0x317a":12640,"0x8d02":12641,"0x682e":12642,"0x7d0b":12643,"0x13e2":12644,"0x7fd6":12645,"0x11d1":12646,"0x7fe4":12647,"0x7fe7":12648,"0x9402":12649,"0x123a":12650,"0x9b61":12651,"0x7dd0":12652,"0x127a":12653,"0x7c65":12654,"0x7c6a":12655,"0x7d6e":12656,"0x8921":12657,"0x7c77":12658,"0x126a":12659,"0x85fc":12660,"0x85f7":12661,"0x4e0f":12662,"0x4d0f":12663,"0x4d0a":12664,"0x568c":12665,"0x568a":12666,"0x5682":12667,"0x5687":12668,"0x5754":12669,"0x575c":12670,"0x5751":12671,"0x5757":12672,"0x3a78":12673,"0x3a7f":12674,"0x86ad":12675,"0x9dab":12676,"0x8cb3":12677,"0x7c04":12678,"0x7c0b":12679,"0x9aef":12680,"0x9aec":12681,"0x4ddf":12682,"0x4d57":12683,"mulss":12684,"0x5708":12685,"0x5704":12686,"0x570b":12687,"0x5888":12688,"0x5883":12689,"0x588d":12690,"0x5812":12691,"0x5817":12692,"0x581e":12693,"0x586f":12694,"0x586a":12695,"0x5867":12696,"0x565f":12697,"0x5655":12698,"0x565a":12699,"0x5874":12700,"0x587e":12701,"0x5879":12702,"0xb07f":12703,"0x880c":12704,"0x9dcc":12705,"0xc001":12706,"0x9e7e":12707,"0xa6a2":12708,"0xa6ad":12709,"0x3a83":12710,"0x9c63":12711,"0xb043":12712,"0x9af4":12713,"0x4d19":12714,"0x57df":12715,"0x57d0":12716,"0x57ca":12717,"0x57cd":12718,"0x5845":12719,"0x584a":12720,"0x58bc":12721,"0x58b7":12722,"0x5678":12723,"0x567f":12724,"0x5669":12725,"0x5666":12726,"0x8674":12727,"0x8671":12728,"0xbfe8":12729,"0xbfe5":12730,"0x4f5e":12731,"0x71bf":12732,"0x7c5a":12733,"0x5897":12734,"0xbff5":12735,"0x9b03":12736,"0x3ade":12737,"0x9e62":12738,"0x57a8":12739,"0x576c":12740,"0x5735":12741,"0x57b0":12742,"0x5778":12743,"0x5721":12744,"0x56d3":12745,"0x5808":12746,"0x3177":12747,"0x8acc":12748,"0xbfd5":12749,"0x10000":12750,"0x2dc5":12751,"0x2c72":12752,"0xc0b5":12753,"0x4fac":12754,"0xa8c":12755,"0xa67":12756,"0xa972":12757,"0x722":12758,"0x737":12759,"0x722e":12760,"0x7e05":12761,"0x7e08":12762,"0x7cde":12763,"0x7243":12764,"0x546":12765,"0x52f":12766,"0x53a":12767,"0x557":12768,"0x8adb":12769,"0xb20":12770,"0xb60":12771,"0xb9d":12772,"0xb36":12773,"0xb7d":12774,"0xb6c":12775,"0xb84":12776,"0xb1c":12777,"0xb6a":12778,"0xb6d":12779,"0xb345":12780,"0x6414":12781,"0x6419":12782,"0x640f":12783,"0x641a":12784,"0x6408":12785,"0x97b":12786,"0x9d7":12787,"0x9e3":12788,"0x939":12789,"0x9f09":12790,"0x9d95":12791,"0x9dbf":12792,"0x124b":12793,"0x11b1":12794,"0x1222":12795,"0x112e":12796,"0xa0dc":12797,"0xa0fd":12798,"0xa00f":12799,"0xa034":12800,"0x5920":12801,"0x40ea":12802,"0x40f9":12803,"0x40fe":12804,"0x40f4":12805,"0x40e5":12806,"0x40ef":12807,"0x6f73":12808,"0x6fac":12809,"0x41da":12810,"0x41f2":12811,"0x41d0":12812,"0x415c":12813,"0x41d4":12814,"0x41d7":12815,"0x410b":12816,"0x4109":12817,"0x410a":12818,"0x4103":12819,"0x6e7b":12820,"0x6eb5":12821,"0x421d":12822,"0x422f":12823,"0x4227":12824,"0x42a5":12825,"0x4215":12826,"0x42aa":12827,"0x4224":12828,"0x42b4":12829,"0x42be":12830,"0x42b1":12831,"0x42a1":12832,"0x4234":12833,"0x42bc":12834,"0x4cdf":12835,"0x4cc9":12836,"0x4cd6":12837,"0x4cc5":12838,"0x4ce1":12839,"0x4cd3":12840,"0xaa70":12841,"0xaa7c":12842,"0xaaaa":12843,"0xaa87":12844,"0xaa8f":12845,"0xaa74":12846,"0xaa0b":12847,"0xaa6d":12848,"0xaaad":12849,"0xaa85":12850,"0x2ee":12851,"0x2b6":12852,"0x2e3":12853,"0x9633":12854,"0x96a5":12855,"0x96b2":12856,"0x96a6":12857,"0x96b8":12858,"0x96b5":12859,"0x96ad":12860,"0x96bf":12861,"0xa150":12862,"0xa148":12863,"0xa144":12864,"0xa14d":12865,"0xa15e":12866,"0xa153":12867,"0xa155":12868,"0xa141":12869,"0xa15a":12870,"0x832b":12871,"0xce4":12872,"0xce3":12873,"0xce2b":12874,"0x782d":12875,"0x78aa":12876,"0x78f3":12877,"0x78ec":12878,"0x7720":12879,"0x7730":12880,"0x7716":12881,"0x773d":12882,"0x7776":12883,"0x773b":12884,"0x7717":12885,"0x7729":12886,"0x7792":12887,"0x777f":12888,"0x7779":12889,"##000":12890,"0x6d92":12891,"0x4536":12892,"0x4548":12893,"0x452f":12894,"0x4527":12895,"0x4525":12896,"0x4522":12897,"0x455f":12898,"0x4555":12899,"0x4541":12900,"0x4569":12901,"0x4571":12902,"0x456e":12903,"0x45bc":12904,"0x7ab9":12905,"0x7ab6":12906,"0x7a0f":12907,"0x7ab4":12908,"0x7acb":12909,"0x7a83":12910,"0x7ad3":12911,"0x7a78":12912,"0x7ab0":12913,"0x7a47":12914,"0x7a71":12915,"0x6368":12916,"0x63e0":12917,"0x637a":12918,"0x636c":12919,"0x6381":12920,"0x637c":12921,"0x6384":12922,"0x63aa":12923,"0x6365":12924,"0x6319":12925,"0x63d4":12926,"0x63a2":12927,"0x63db":12928,"0x6378":12929,"0x6399":12930,"0x6395":12931,"0x1090":12932,"0x3f6c":12933,"0x3f63":12934,"0x3f5f":12935,"0x3f67":12936,"0x3f85":12937,"0x3f8a":12938,"0x3f71":12939,"0x3f79":12940,"0xba8f":12941,"0xba8a":12942,"0x6cea":12943,"0x6ced":12944,"0x6c8e":12945,"0x6c7c":12946,"0x6c9b":12947,"0x6ce4":12948,"0x6c87":12949,"0x6cf3":12950,"0x6c7b":12951,"0x6c92":12952,"0x6ca2":12953,"0x6cf7":12954,"0x6c85":12955,"0x6cdb":12956,"0x6c7f":12957,"0x6c95":12958,"0x6cde":12959,"0xa42c":12960,"0xb520":12961,"0xb568":12962,"0xb525":12963,"0xb513":12964,"0xb517":12965,"0xb522":12966,"0xb51b":12967,"0x797b":12968,"0x7be4":12969,"0x3950":12970,"0x3960":12971,"0x14a3":12972,"0x1488":12973,"0x145b":12974,"0x14dc":12975,"0x14e6":12976,"0x14b6":12977,"0x14a6":12978,"0x14a2":12979,"0x1451":12980,"0x5050":12981,"0x5088":12982,"0x5031":12983,"0x505f":12984,"0x5055":12985,"0x508f":12986,"0x5041":12987,"0x504b":12988,"0x5083":12989,"0x5037":12990,"0x503c":12991,"0x505a":12992,"0x5079":12993,"0x9991":12994,"0x908c":12995,"0x908f":12996,"0x90a2":12997,"0x90ac":12998,"0x9094":12999,"##c2b":13000,"0x97ff":13001,"0x97ab":13002,"0x97e3":13003,"##666":13004,"0x9f31":13005,"0x9fba":13006,"0x985a":13007,"##dbc":13008,"0x137d":13009,"0x139e":13010,"0x137f":13011,"0x420a":13012,"0x4203":13013,"0x420e":13014,"0x4206":13015,"0xb508":13016,"0xb50f":13017,"0xb50b":13018,"##6bc":13019,"0xa246":13020,"##347":13021,"0x3d4d":13022,"0x3d73":13023,"0x3d63":13024,"0x947a":13025,"0x9412":13026,"0x9477":13027,"0x945a":13028,"0x62f9":13029,"0xa8f0":13030,"0xa8aa":13031,"0x92f0":13032,"0x92e0":13033,"0x92fe":13034,"0x92e7":13035,"0x92e4":13036,"0xb0bd":13037,"0x739d":13038,"0x7388":13039,"0x7374":13040,"0xd311":13041,"0x7cc3":13042,"0x7cf4":13043,"0x7cc9":13044,"0x7caa":13045,"0x7cd7":13046,"0x7cdb":13047,"0x8513":13048,"0x854f":13049,"0x854b":13050,"0x88ad":13051,"0x4fdd":13052,"0x4fa0":13053,"0x4f7d":13054,"0x4fa5":13055,"0x4fb9":13056,"0x4fca":13057,"0x4fc5":13058,"0x4fcd":13059,"0x4e36":13060,"0x9511":13061,"0x9576":13062,"0x152f":13063,"0x157c":13064,"0x154c":13065,"0x9c40":13066,"0x9ca0":13067,"0x9c28":13068,"0x9caf":13069,"0x9c2c":13070,"0x9c76":13071,"0x9cb2":13072,"0x9c4f":13073,"0x9c24":13074,"0x9c57":13075,"0x11da":13076,"0x11fe":13077,"0x11a4":13078,"0x11ed":13079,"0x11f4":13080,"0x11e7":13081,"0x11ae":13082,"0x9e64":13083,"0x9e23":13084,"0x9ef2":13085,"0x9ef8":13086,"0x9e46":13087,"0x9edf":13088,"0x9e4d":13089,"0x9e49":13090,"0x9e5e":13091,"0x9e19":13092,"0x9e51":13093,"0x9e85":13094,"0x7250":13095,"0x7230":13096,"0x7223":13097,"0x7228":13098,"0x7246":13099,"0x7226":13100,"0x72bf":13101,"0xab3b":13102,"0xab53":13103,"0xa97a":13104,"0xa976":13105,"0xa973":13106,"0x7e31":13107,"0x7e12":13108,"0x7e15":13109,"0x7e1c":13110,"0x7e1a":13111,"0x1244":13112,"0x1211":13113,"0x12b6":13114,"0x1214":13115,"0x121c":13116,"0x121f":13117,"0x4df8":13118,"0x4d93":13119,"0x4db1":13120,"0xce1c":13121,"0x9170":13122,"0x850f":13123,"0x850c":13124,"0x850b":13125,"0xf000":13126,"0xa65d":13127,"0xa6b6":13128,"0xa622":13129,"0xa710":13130,"0xa717":13131,"0x7361":13132,"0x736d":13133,"0x93ea":13134,"0x9350":13135,"0x931d":13136,"0x9348":13137,"0x93d1":13138,"0x93c3":13139,"0x93ba":13140,"0x9327":13141,"0x932a":13142,"0x93c9":13143,"0x9324":13144,"0x93c7":13145,"0x934b":13146,"0x7df0":13147,"0x7dfe":13148,"0x7ded":13149,"0x9b40":13150,"0x9b23":13151,"0x9b36":13152,"0x9bf8":13153,"0x9b3d":13154,"0x9b2f":13155,"0x9b27":13156,"0x9b2a":13157,"0x9bf1":13158,"0x9b3a":13159,"0x9b32":13160,"0x1384":13161,"0x1389":13162,"0x856e":13163,"0x8566":13164,"0x2d81":13165,"0x2d98":13166,"0x92d8":13167,"0x92dc":13168,"0x92d9":13169,"0x9de0":13170,"0x9d9e":13171,"0x9ded":13172,"0x9de6":13173,"0x9d56":13174,"0x9db4":13175,"0x9de3":13176,"0x29f2":13177,"0x7265":13178,"0x6eaf":13179,"0x6eaa":13180,"0x6ea3":13181,"0x52bf":13182,"0x1504":13183,"0xa25f":13184,"0x4fe3":13185,"0x8ab6":13186,"0xd318":13187,"0xd32a":13188,"0x148d":13189,"0x725e":13190,"0x7259":13191,"0x9308":13192,"0x9303":13193,"0x62d0":13194,"0x1495":13195,"0x1491":13196,"0x1499":13197,"0x8554":13198,"0x8551":13199,"0x8557":13200,"0x72f3":13201,"0x1583":13202,"0x158d":13203,"0x3d6f":13204,"0x3d6a":13205,"0x4f6f":13206,"0x4f63":13207,"0x92f4":13208,"0x92fa":13209,"0x92f6":13210,"0x129f":13211,"0x4ea1":13212,"0xabd4":13213,"0xabdb":13214,"0x140f":13215,"0x8dc6":13216,"0x9314":13217,"0x9312":13218,"0x9319":13219,"0x7307":13220,"0x9352":13221,"0x1208":13222,"0x1207":13223,"0x4f9b":13224,"0x4f96":13225,"0x7352":13226,"0x93aa":13227,"0x93ae":13228,"0x9f01":13229,"0x9f06":13230,"0x723c":13231,"0x723a":13232,"0x7237":13233,"0x9441":13234,"0x9449":13235,"0x93b6":13236,"0x933e":13237,"0xa9cc":13238,"0xa894":13239,"0x4fd7":13240,"0x2e32":13241,"0x2ef7":13242,"0x946e":13243,"0x946b":13244,"0x7ce8":13245,"0x7ce1":13246,"0x7ceb":13247,"0x7e0f":13248,"0x11d7":13249,"0x11de":13250,"0x940d":13251,"0x9f12":13252,"0xa9e3":13253,"0x7da2":13254,"0x9ee8":13255,"0x9ee4":13256,"0x9ee3":13257,"0x9eee":13258,"0x9ee6":13259,"0x1278":13260,"0x7dfc":13261,"0x7df6":13262,"0x3d5f":13263,"0x3d55":13264,"0x3d5a":13265,"0x3d51":13266,"0x7d5a":13267,"0x8b01":13268,"0xb0be":13269,"0x97c4":13270,"0x1267":13271,"0x4f87":13272,"0x4f8e":13273,"0x4f80":13274,"0x7c32":13275,"0x9ead":13276,"0x9eae":13277,"0x93de":13278,"0x93db":13279,"0x93d6":13280,"0x12b7":13281,"0x9daf":13282,"0x9da3":13283,"0x9da6":13284,"0x7c08":13285,"0x11ef":13286,"0x11e1":13287,"0x9dd9":13288,"0x9ed8":13289,"0x9ed7":13290,"0x9edb":13291,"0x4daf":13292,"0xab47":13293,"0x92a8":13294,"0x92a6":13295,"0x9c03":13296,"0x9c3c":13297,"0x9c33":13298,"0x9dc5":13299,"0x9dca":13300,"0x6897":13301,"0x9e71":13302,"0x9e79":13303,"0x1224":13304,"0x2a10":13305,"0x9c8a":13306,"0x9574":13307,"0x9b45":13308,"0x9b47":13309,"0x9d99":13310,"##88888888":13311,"0x9d82":13312,"0x9d8b":13313,"0x11bf":13314,"0x11b3":13315,"0x4df1":13316,"0x4dfb":13317,"0x9ce1":13318,"0x9c71":13319,"0x2e02":13320,"0x2e09":13321,"0x2f15":13322,"0x53bc":13323,"0x2df6":13324,"0x9e45":13325,"0x9551":13326,"0x93e3":13327,"0x11ad":13328,"0x9c4a":13329,"0x722b":13330,"0x737f":13331,"0x9d77":13332,"0x9e3f":13333,"0x2b61":13334,"0x2e39":13335,"0x6865":13336,"0x68bf":13337,"0x44f":13338,"0x4d85":13339,"0x4da7":13340,"0x4d34":13341,"0x4d47":13342,"0x4e05":13343,"0x4d74":13344,"0x4d71":13345,"0x4d7e":13346,"0x4d94":13347,"0xa24":13348,"0xa640":13349,"0x7e3c":13350,"0x7e41":13351,"0x7d7e":13352,"0x7c2b":13353,"0x7347":13354,"0x540":13355,"0x536":13356,"0x548":13357,"0x533":13358,"0x50d":13359,"0x549":13360,"0x559":13361,"0x524b":13362,"0x522e":13363,"0x5221":13364,"0x50d6":13365,"0x310":13366,"0x35d":13367,"0x873":13368,"0x863":13369,"0x899":13370,"0x8d78":13371,"0x8972":13372,"0x8db7":13373,"0x8999":13374,"0x8dbc":13375,"0xb10":13376,"0xb90":13377,"0xb63":13378,"0xb1e":13379,"0xb7c":13380,"0xb9b":13381,"0xb65":13382,"0xb97":13383,"0xb67":13384,"0x64c6":13385,"0x64e5":13386,"0x912":13387,"0x9f3":13388,"0x9d4":13389,"0x941":13390,"0x9bf":13391,"0x937":13392,"0x94ac":13393,"0x9e08":13394,"0x93d5":13395,"0x93f7":13396,"0x94f3":13397,"0x6586":13398,"0x19":13399,"0x114b":13400,"0x11fc":13401,"0x114e":13402,"0x5ad9":13403,"0xa0a0":13404,"0xa044":13405,"0xa0ba":13406,"0xa022":13407,"0xa09b":13408,"0xa0b8":13409,"0xa0ac":13410,"0xa091":13411,"0xa0b3":13412,"0xa0cd":13413,"0xa071":13414,"0xa079":13415,"0x5958":13416,"##20f":13417,"0x6fdd":13418,"0x6fab":13419,"0x6f16":13420,"0x6f13":13421,"0x6fa5":13422,"0x6fdc":13423,"0x6f5e":13424,"0x6f8e":13425,"0x6fbb":13426,"0x6f7c":13427,"0x6f8b":13428,"0x6fb4":13429,"0x6fd7":13430,"0x6f77":13431,"0x6fca":13432,"0x6f98":13433,"0x6fbe":13434,"0x6fb1":13435,"0x6f6f":13436,"0x6f51":13437,"0x6f91":13438,"0x6f85":13439,"0x6f7e":13440,"0x6fcd":13441,"0x6f04":13442,"0x6f01":13443,"0x6f7f":13444,"0x6fd2":13445,"0x6fb7":13446,"0x6f5a":13447,"0x6f08":13448,"0x6fde":13449,"0x4130":13450,"0x4158":13451,"0x4136":13452,"0x4127":13453,"0x412a":13454,"0x4133":13455,"0x413e":13456,"0x414a":13457,"0x4151":13458,"0x414e":13459,"0x4145":13460,"0x70ed":13461,"0x70d2":13462,"0x705a":13463,"0x4274":13464,"0x42c5":13465,"0x4cff":13466,"0x4cdd":13467,"0x4cba":13468,"0x4c9e":13469,"0x4cb2":13470,"0x4cf1":13471,"0x4ca4":13472,"0x4cb9":13473,"0x4cf6":13474,"0x4cb6":13475,"0x4c93":13476,"0x4c97":13477,"0x4cc7":13478,"0x4cf3":13479,"0x4cd7":13480,"0x4cad":13481,"0x4cb3":13482,"0x4c94":13483,"0x4cbc":13484,"0x4cb7":13485,"0x4cef":13486,"0xaaa9":13487,"0xaaa5":13488,"0xaad0":13489,"0xaabb":13490,"0xaa9f":13491,"0xaa9c":13492,"0xaa4b":13493,"0xaab8":13494,"0xaab3":13495,"0xaab0":13496,"0xaa08":13497,"0x2dd":13498,"0x2b9":13499,"0x2b80":13500,"0x9694":13501,"0xa1f9":13502,"0xa1f8":13503,"0xa12f":13504,"0xa1f1":13505,"0xa1e6":13506,"0xa1fb":13507,"0xa1ec":13508,"0x8360":13509,"0x8368":13510,"0x835d":13511,"0x8348":13512,"0x8326":13513,"0x8317":13514,"0x8356":13515,"0x834f":13516,"0x8314":13517,"0x831c":13518,"0x8321":13519,"0x8303":13520,"0xcbd":13521,"0xc78":13522,"0xc20f":13523,"0x82ea":13524,"0x82dd":13525,"0x82e0":13526,"0x8236":13527,"0x82d0":13528,"0x82d5":13529,"0x82bb":13530,"0x82d6":13531,"0x82c8":13532,"0x82ec":13533,"0x82d9":13534,"0x82bf":13535,"0x8279":13536,"0x78c0":13537,"0x781d":13538,"0x78c3":13539,"0x7833":13540,"0x789e":13541,"0x78b9":13542,"0x7817":13543,"0x7812":13544,"0x78ae":13545,"0x789b":13546,"0x78a6":13547,"0x789a":13548,"0x7877":13549,"0x781f":13550,"0x78b1":13551,"0x78a2":13552,"0x78b3":13553,"0x7808":13554,"0x6632":13555,"0x666666":13556,"addss":13557,"0x6d7c":13558,"0x6d84":13559,"0x6d82":13560,"0x6d77":13561,"0x6d98":13562,"0x6d72":13563,"0x6d6d":13564,"0x285a":13565,"0x8433":13566,"0x843b":13567,"0x8437":13568,"0x8447":13569,"0x8445":13570,"0x67ff":13571,"0x67fd":13572,"0x67f6":13573,"0x67fa":13574,"0x4510":13575,"0x4596":13576,"0x458c":13577,"0x4586":13578,"0x451a":13579,"0x4591":13580,"0x4599":13581,"0x457f":13582,"0x7a56":13583,"0x7a19":13584,"0x7a0a":13585,"0x6333":13586,"0x63a4":13587,"0x636a":13588,"0x10d0":13589,"0xb540":13590,"0xb548":13591,"0xb544":13592,"0xb53a":13593,"0xb556":13594,"0xb553":13595,"0xb5c2":13596,"0xb54b":13597,"0xb54e":13598,"0xb53c":13599,"0xb56b":13600,"0xb55a":13601,"0xb595":13602,"0xb5ef":13603,"0x7940":13604,"0x79ee":13605,"0x79a3":13606,"0x79a0":13607,"0x7958":13608,"0x7944":13609,"0x797d":13610,"0x79f5":13611,"0x79a4":13612,"0x799b":13613,"0x799f":13614,"0x7955":13615,"0x79d4":13616,"0x7998":13617,"0x79b1":13618,"0x79ec":13619,"0x79ac":13620,"0x79a7":13621,"0x7999":13622,"0x3b9a":13623,"0x3b04":13624,"0x7bcb":13625,"0x7bbf":13626,"0x7b95":13627,"0x81f0":13628,"0x81fe":13629,"0x81df":13630,"0x81f4":13631,"0x81b4":13632,"0x81d4":13633,"0x81e2":13634,"0x81cb":13635,"0x81db":13636,"0x81cd":13637,"0x81e8":13638,"0x762a":13639,"0x7695":13640,"0xa310":13641,"0x8097":13642,"0x80c5":13643,"0x80b8":13644,"0x80b5":13645,"0x8080":13646,"0x8071":13647,"0x3085":13648,"0x3099":13649,"0x3079":13650,"##739":13651,"0x14ab":13652,"0x1470":13653,"0x147d":13654,"0x1476":13655,"0x145f":13656,"0x14a1":13657,"0x1439":13658,"0x142e":13659,"0x50d1":13660,"0x50b9":13661,"0x35ff":13662,"0x359e":13663,"0x357e":13664,"0x742f":13665,"##d4c":13666,"0x9046":13667,"0x9760":13668,"0x975d":13669,"##be5":13670,"##1f7":13671,"0x9f23":13672,"0x9f36":13673,"0x9f3d":13674,"0x9f33":13675,"0x9f6c":13676,"0x9f3a":13677,"0x9f35":13678,"0x9875":13679,"0x6818":13680,"0x6870":13681,"0x6816":13682,"0x68d1":13683,"0x687d":13684,"0x6827":13685,"0x682a":13686,"0x6813":13687,"0x682c":13688,"0x6876":13689,"0x68b2":13690,"0x68b9":13691,"0x6873":13692,"0x68b6":13693,"0x68d6":13694,"0x68a6":13695,"0x68aa":13696,"0x68a2":13697,"0x13ea":13698,"0x1330":13699,"0x1323":13700,"0x13ce":13701,"0x1348":13702,"0x1328":13703,"0x13ba":13704,"0x132f":13705,"0x132c":13706,"0x1324":13707,"0x13c8":13708,"0x1341":13709,"0x134b":13710,"0x13c1":13711,"0x1347":13712,"0x8c68":13713,"0x8c1d":13714,"0x8c9e":13715,"0x8c7a":13716,"0x8c76":13717,"0x8c89":13718,"0x8c4f":13719,"0x44ee":13720,"0x44f2":13721,"0xac49":13722,"0x58f9":13723,"0x9420":13724,"0x9410":13725,"0x9430":13726,"0x94e0":13727,"0x9418":13728,"0x94bd":13729,"0x94ba":13730,"0x9476":13731,"0x9438":13732,"0x94a9":13733,"0x94fd":13734,"0x943a":13735,"0x941e":13736,"0x9415":13737,"0x947c":13738,"0x94a6":13739,"0x9419":13740,"0x94c4":13741,"0x941c":13742,"0x9437":13743,"0x943c":13744,"0xa876":13745,"0xa805":13746,"0xa8a8":13747,"0xa8d2":13748,"0x8b50":13749,"0x8b49":13750,"0x8b53":13751,"0x92dd":13752,"0x9258":13753,"0x92bb":13754,"0x92be":13755,"0x73a5":13756,"0x73cf":13757,"0xd739":13758,"0x7c64":13759,"0x7c9e":13760,"0x7ca5":13761,"0x7cdc":13762,"0x7cbb":13763,"0x7cfb":13764,"0x71f8":13765,"0x8573":13766,"0x4e00":13767,"0x4e1f":13768,"0xa526":13769,"0xa5f1":13770,"0x450a":13771,"0x4501":13772,"0x9540":13773,"0x9560":13774,"0x957d":13775,"0x952f":13776,"0x954a":13777,"0x7f00":13778,"0x7f68":13779,"0x155b":13780,"0x152a":13781,"0x1538":13782,"0x15a5":13783,"0x153b":13784,"0x154f":13785,"0x155f":13786,"0x159f":13787,"0x1593":13788,"0x1597":13789,"0x151f":13790,"0x15a2":13791,"0x9ad4":13792,"0x9c10":13793,"0x9cdc":13794,"0x9c15":13795,"0x9c8b":13796,"0x1110":13797,"0x1144":13798,"0x11c9":13799,"0x11c6":13800,"0x11c4":13801,"0xa28c":13802,"0x9e40":13803,"0x9e16":13804,"0x9ec3":13805,"0x9e26":13806,"0x9edc":13807,"0x9ec6":13808,"0x9e1e":13809,"0x9e87":13810,"0x9ecf":13811,"0x8dea":13812,"0x8d70":13813,"0x8dfe":13814,"0x8df8":13815,"0x8d9e":13816,"0x8d56":13817,"0x8d7b":13818,"0x8de3":13819,"0x8a20":13820,"0x8aa5":13821,"0x8a19":13822,"0x8a74":13823,"0x72ee":13824,"0x7260":13825,"0x72e9":13826,"0x72e2":13827,"0x72e3":13828,"0xab68":13829,"0xab9d":13830,"0xab36":13831,"0xab33":13832,"0xab2c":13833,"0xab9e":13834,"0xabb2":13835,"0xabc9":13836,"0xab55":13837,"0xabe2":13838,"0xabcf":13839,"0xabcc":13840,"0xabc1":13841,"0xa9af":13842,"0xa957":13843,"0x3aea":13844,"0x3a50":13845,"0x3adc":13846,"0x3ae9":13847,"0x8203":13848,"0x8201":13849,"0x7e40":13850,"0x7ef9":13851,"0x7e46":13852,"0x7e76":13853,"0x7e89":13854,"0x7e86":13855,"0x1220":13856,"0x1240":13857,"0x12ee":13858,"0x12f2":13859,"0x12ba":13860,"0x1227":13861,"0x4dea":13862,"0x4d40":13863,"0x4d60":13864,"0x4d5d":13865,"0x4d2a":13866,"0x4d3a":13867,"0x4d7b":13868,"0x4de3":13869,"0x4d39":13870,"0x9ffb":13871,"0x9168":13872,"0x915d":13873,"0x9175":13874,"0x917a":13875,"0xb32f":13876,"0xbd7a":13877,"0xbd73":13878,"0xbd98":13879,"0xa29a":13880,"0xa291":13881,"0xa297":13882,"0x8950":13883,"0x8960":13884,"0x8990":13885,"0x8944":13886,"0x897d":13887,"0x8975":13888,"0x892f":13889,"0x8949":13890,"0x8986":13891,"0x8953":13892,"0x899b":13893,"0x8984":13894,"0x8987":13895,"0x899c":13896,"0x895c":13897,"0x8941":13898,"0x894c":13899,"0x8994":13900,"0x2c76":13901,"0x2cdf":13902,"0x2c5f":13903,"0x2cc8":13904,"0xa650":13905,"0xa6dc":13906,"0xa6e2":13907,"0xa6e1":13908,"0xa73b":13909,"0x93ee":13910,"0x93eb":13911,"0x93e4":13912,"0x937b":13913,"0x93ca":13914,"0x937e":13915,"0x7d00":13916,"0x7d9d":13917,"0x7d7d":13918,"0x7d89":13919,"0x7d8e":13920,"0x7de2":13921,"0x7d98":13922,"0xb7e6":13923,"0x9f62":13924,"0x9f67":13925,"0xd53a":13926,"0x9b1f":13927,"0xaeaf":13928,"0xaeaa":13929,"0x9e93":13930,"0x1308":13931,"0x130f":13932,"0x130c":13933,"0x1301":13934,"0x1313":13935,"0x1317":13936,"0x9fd0":13937,"0x720a":13938,"0x738a":13939,"0x8bd6":13940,"0xbc8c":13941,"0x85b7":13942,"0x85bb":13943,"0x7279":13944,"0x29a3":13945,"0x1363":13946,"0x1366":13947,"0x13b3":13948,"0x7e78":13949,"0x948f":13950,"0x9483":13951,"0x948b":13952,"0x9480":13953,"0x91cf":13954,"0x5260":13955,"0x52f0":13956,"0x5268":13957,"0x521d":13958,"0x5244":13959,"0x5228":13960,"0x529e":13961,"0x5242":13962,"0x521e":13963,"0x5219":13964,"0x85c5":13965,"0x73d3":13966,"0x73db":13967,"0x73d0":13968,"0x7f6f":13969,"0x85d3":13970,"0x85db":13971,"0x94cc":13972,"0x8c9c":13973,"0x8c99":13974,"0x857f":13975,"0x8577":13976,"0x9184":13977,"0x7e6a":13978,"0x13d3":13979,"0x144a":13980,"0x1469":13981,"0x1466":13982,"0x6888":13983,"0x688f":13984,"0x6885":13985,"0x6881":13986,"0xa6cb":13987,"0x68c4":13988,"0x68ca":13989,"0x68c2":13990,"0x1484":13991,"0x725c":13992,"0x1497":13993,"0x7eec":13994,"0x7ee9":13995,"0x71d9":13996,"0x71d6":13997,"0x7408":13998,"0x72fd":13999,"0x72cc":14000,"0x72aa":14001,"0x8c6f":14002,"0x9161":14003,"0x8daf":14004,"0x8dac":14005,"0x8e08":14006,"0x950f":14007,"0x9584":14008,"0x958b":14009,"0xc236":14010,"0x9751":14011,"0x975e":14012,"0x9756":14013,"0x8963":14014,"0x8967":14015,"0x896b":14016,"0xabbf":14017,"0xabbc":14018,"0xabd7":14019,"0x73a2":14020,"0x73ad":14021,"0x8d6b":14022,"0x865a":14023,"0x681e":14024,"0x938b":14025,"0x8dc1":14026,"0x9498":14027,"0x949c":14028,"0x949a":14029,"0x9491":14030,"0x8df1":14031,"0x8dfb":14032,"0x8d74":14033,"0x8d71":14034,"0x7302":14035,"0x7f7e":14036,"0xa9df":14037,"0xa9dc":14038,"0xa9d1":14039,"0xa9d7":14040,"0x7c8a":14041,"0x8d14":14042,"0x8d1a":14043,"0x89a1":14044,"0x735c":14045,"0x897f":14046,"0x7d0f":14047,"0x34b0":14048,"0xa9ca":14049,"0xa60f":14050,"0x71cb":14051,"0x2ec5":14052,"0x7d14":14053,"0x8777":14054,"0x11df":14055,"0x11d6":14056,"0xaba5":14057,"0xaba1":14058,"0xabad":14059,"0x9406":14060,"0x9f17":14061,"0x9f1e":14062,"0x9f1b":14063,"0x123c":14064,"0xa5d4":14065,"0x8932":14066,"0x8937":14067,"0x974e":14068,"0x974b":14069,"0x1274":14070,"0x7c94":14071,"0x7c99":14072,"0x7c61":14073,"0x7c6d":14074,"0x7c66":14075,"0x9bd4":14076,"0x9bd7":14077,"0x9d65":14078,"0xa74a":14079,"0x7d59":14080,"0x7c74":14081,"0x7c71":14082,"0x7c7b":14083,"0x5235":14084,"0x5292":14085,"0x5297":14086,"0x94d8":14087,"0x126c":14088,"0x1262":14089,"0x9f2c":14090,"0x9f2a":14091,"0x9f26":14092,"0x4e0a":14093,"0x4e07":14094,"0x4d04":14095,"0x4d05":14096,"0x4d02":14097,"0x5272":14098,"0x93df":14099,"0x93dc":14100,"0x93d2":14101,"0xb38b":14102,"0x9ebf":14103,"0x9eb4":14104,"0x9ebc":14105,"0x9eb3":14106,"0x9eb7":14107,"0x9ebb":14108,"0x528f":14109,"0x5281":14110,"0x5259":14111,"0x5263":14112,"0x526d":14113,"0x9ae5":14114,"0x9ae1":14115,"0x4dd5":14116,"0x4dd2":14117,"0x4ddd":14118,"0x9ed5":14119,"0x2d5f":14120,"0x4da4":14121,"0x4dac":14122,"0x4da0":14123,"0xab41":14124,"0xab4e":14125,"0x686d":14126,"0x6869":14127,"0xa73f":14128,"0x9c0b":14129,"0x9c06":14130,"0x1535":14131,"0xd71b":14132,"0x6895":14133,"0x6893":14134,"0x7d45":14135,"0x52a8":14136,"0x52a5":14137,"0x8d5a":14138,"0x9e0f":14139,"0x9e0c":14140,
[...]
