{
  "version": "1.0",
  "truncation": null,
  "padding": null,
  "added_tokens": [
    {
      "id": 0,
      "content": "[PAD]",
      "single_word": false,
      "lstrip": false,
      "rstrip": false,
      "normalized": false,
      "special": true
    },
    {
      "id": 1,
      "content": "[UNK]",
      "single_word": false,
      "lstrip": false,
      "rstrip": false,
      "normalized": false,
      "special": true
    },
    {
      "id": 2,
      "content": "[CLS]",
      "single_word": false,
      "lstrip": false,
      "rstrip": false,
      "normalized": false,
      "special": true
    },
    {
      "id": 3,
      "content": "[SEP]",
      "single_word": false,
      "lstrip": false,
      "rstrip": false,
      "normalized": false,
      "special": true
    },
    {
      "id": 4,
      "content": "[MASK]",
      "single_word": false,
      "lstrip": false,
      "rstrip": false,
      "normalized": false,
      "special": true
    },
    {
      "id": 5,
      "content": "[EOI]",
      "single_word": false,
      "lstrip": false,
      "rstrip": false,
      "normalized": false,
      "special": true
    },
    {
      "id": 6,
      "content": "[LOOK]",
      "single_word": false,
      "lstrip": false,
      "rstrip": false,
      "normalized": false,
      "special": true
    }
  ],
  "normalizer": {
    "type": "BertNormalizer",
    "clean_text": true,
    "handle_chinese_chars": true,
    "strip_accents": null,
    "lowercase": true
  },
  "pre_tokenizer": {
    "type": "BertPreTokenizer"
  },
  "post_processor": {
    "type": "TemplateProcessing",
    "single": [
      {
        "SpecialToken": {
          "id": "[CLS]",
          "type_id": 0
        }
      },
      {
        "Sequence": {
          "id": "A",
          "type_id": 0
        }
      },
      {
        "SpecialToken": {
          "id": "[SEP]",
          "type_id": 0
        }
      }
    ],
    "pair": [
      {
        "SpecialToken": {
          "id": "[CLS]",
          "type_id": 0
        }
      },
      {
        "Sequence": {
          "id": "A",
          "type_id": 0
        }
      },
      {
        "SpecialToken": {
          "id": "[SEP]",
          "type_id": 0
        }
      },
      {
        "Sequence": {
          "id": "B",
          "type_id": 1
        }
      },
      {
        "SpecialToken": {
          "id": "[SEP]",
          "type_id": 1
        }
      }
    ],
    "special_tokens": {
      "[CLS]": {
        "id": "[CLS]",
        "ids": [
          2
        ],
        "tokens": [
          "[CLS]"
        ]
      },
      "[SEP]": {
        "id": "[SEP]",
        "ids": [
          3
        ],
        "tokens": [
          "[SEP]"
        ]
      }
    }
  },
  "decoder": {
    "type": "WordPiece",
    "prefix": "##",
    "cleanup": true
  },
  "model": {
    "type": "WordPiece",
    "unk_token": "[UNK]",
    "continuing_subword_prefix": "##",
    "max_input_chars_per_word": 100,
    "vocab": {
      "[PAD]": 0,
      "[UNK]": 1,
      "[CLS]": 2,
      "[SEP]": 3,
      "[MASK]": 4,
      "[EOI]": 5,
      "[LOOK]": 6,
      "(": 7,
      ")": 8,
      "*": 9,
      "+": 10,
      ",": 11,
      "-": 12,
      "0": 13,
      "1": 14,
      "2": 15,
      "3": 16,
      "4": 17,
      "5": 18,
      "6": 19,
      "7": 20,
      "8": 21,
      "9": 22,
      ":": 23,
      "[": 24,
      "]": 25,
      "a": 26,
      "b": 27,
      "c": 28,
      "d": 29,
      "e": 30,
      "f": 31,
      "g": 32,
      "h": 33,
      "i": 34,
      "j": 35,
      "k": 36,
      "l": 37,
      "m": 38,
      "n": 39,
      "o": 40,
      "p": 41,
      "q": 42,
      "r": 43,
      "s": 44,
      "t": 45,
      "u": 46,
      "v": 47,
      "w": 48,
      "x": 49,
      "y": 50,
      "z": 51,
      "##x": 52,
      "##c": 53,
      "##0": 54,
      "##7": 55,
      "##5": 56,
      "##3": 57,
      "##6": 58,
      "##9": 59,
      "##1": 60,
      "##2": 61,
      "##f": 62,
      "##4": 63,
      "##8": 64,
      "##a": 65,
      "##b": 66,
      "##e": 67,
      "##d": 68,
      "##p": 69,
      "##s": 70,
      "##r": 71,
      "##l": 72,
      "##q": 73,
      "##i": 74,
      "##v": 75,
      "##m": 76,
      "##w": 77,
      "##t": 78,
      "##n": 79,
      "##z": 80,
      "##o": 81,
      "##k": 82,
      "##g": 83,
      "##u": 84,
      "##h": 85,
      "##y": 86,
      "0x": 87,
      "eo": 88,
      "eoi": 89,
      "0x1": 90,
      "##ax": 91,
      "##ov": 92,
      "mov": 93,
      "rax": 94,
      "##tr": 95,
      "ptr": 96,
      "##or": 97,
      "##ord": 98,
      "##word": 99,
      "rb": 100,
      "rbp": 101,
      "0x2": 102,
      "eax": 103,
      "qword": 104,
      "##dx": 105,
      "dword": 106,
      "0x3": 107,
      "rdx": 108,
      "0x4": 109,
      "0x12": 110,
      "##ea": 111,
      "0x13": 112,
      "0x14": 113,
      "lea": 114,
      "##dd": 115,
      "0x18": 116,
      "add": 117,
      "##di": 118,
      "##mp": 119,
      "0x15": 120,
      "##al": 121,
      "##all": 122,
      "call": 123,
      "0x5": 124,
      "edx": 125,
      "ri": 126,
      "rip": 127,
      "0x16": 128,
      "##cx": 129,
      "xm": 130,
      "xmm": 131,
      "0x10": 132,
      "0x17": 133,
      "rdi": 134,
      "0x11": 135,
      "##si": 136,
      "0x20": 137,
      "movs": 138,
      "0x6": 139,
      "0x19": 140,
      "rcx": 141,
      "0x1c": 142,
      "cmp": 143,
      "0x1a": 144,
      "0x28": 145,
      "xmm0": 146,
      "0x1b": 147,
      "##ff": 148,
      "sh": 149,
      "jmp": 150,
      "##te": 151,
      "by": 152,
      "byte": 153,
      "0x1d": 154,
      "0x7": 155,
      "##zx": 156,
      "movzx": 157,
      "rsi": 158,
      "0x1e": 159,
      "su": 160,
      "sub": 161,
      "0x30": 162,
      "0x1f": 163,
      "0x24": 164,
      "0xc": 165,
      "0x21": 166,
      "shl": 167,
      "##dq": 168,
      "cdq": 169,
      "movsx": 170,
      "##sp": 171,
      "rsp": 172,
      "cdqe": 173,
      "0x22": 174,
      "0x23": 175,
      "esi": 176,
      "##nd": 177,
      "##64": 178,
      "##00": 179,
      "ecx": 180,
      "jn": 181,
      "al": 182,
      "word": 183,
      "jne": 184,
      "0x25": 185,
      "0x38": 186,
      "edi": 187,
      "0xa": 188,
      "0x2c": 189,
      "0x8": 190,
      "##us": 191,
      "pus": 192,
      "push": 193,
      "0x27": 194,
      "je": 195,
      "0x26": 196,
      "0x40": 197,
      "0x9": 198,
      "0x29": 199,
      "movsxd": 200,
      "##b0": 201,
      "0x2a": 202,
      "xmm1": 203,
      "movsd": 204,
      "##20": 205,
      "0x34": 206,
      "0x48": 207,
      "end": 208,
      "##br": 209,
      "endbr": 210,
      "endbr64": 211,
      "##10": 212,
      "##es": 213,
      "tes": 214,
      "test": 215,
      "##50": 216,
      "0x2b": 217,
      "##d0": 218,
      "xor": 219,
      "##e0": 220,
      "##op": 221,
      "jl": 222,
      "##f0": 223,
      "0xb": 224,
      "##et": 225,
      "##60": 226,
      "0x2d": 227,
      "##90": 228,
      "##70": 229,
      "ret": 230,
      "0x2e": 231,
      "0x2f": 232,
      "##24": 233,
      "##c0": 234,
      "##a0": 235,
      "##30": 236,
      "##8b": 237,
      "movss": 238,
      "0x3c": 239,
      "or": 240,
      "##12": 241,
      "0x50": 242,
      "##80": 243,
      "##40": 244,
      "0x33": 245,
      "##ffff": 246,
      "0x31": 247,
      "0x32": 248,
      "##sd": 249,
      "nop": 250,
      "##ab": 251,
      "0xd": 252,
      "##e8": 253,
      "##66": 254,
      "0x44": 255,
      "and": 256,
      "0x35": 257,
      "##ve": 258,
      "leave": 259,
      "##be": 260,
      "##68": 261,
      "##fe": 262,
      "##f8": 263,
      "##18": 264,
      "jle": 265,
      "shr": 266,
      "0x3b": 267,
      "##f4": 268,
      "##a9": 269,
      "##e4": 270,
      "##f7": 271,
      "##28": 272,
      "##69": 273,
      "##14": 274,
      "0x37": 275,
      "##ul": 276,
      "##8d": 277,
      "##fc": 278,
      "##e9": 279,
      "##2c": 280,
      "##6c": 281,
      "##38": 282,
      "##55": 283,
      "0x3d": 284,
      "0x58": 285,
      "0x39": 286,
      "##1c": 287,
      "##58": 288,
      "##ec": 289,
      "##34": 290,
      "##29": 291,
      "##e7": 292,
      "##a8": 293,
      "ax": 294,
      "0x60": 295,
      "##ac": 296,
      "##35": 297,
      "##65": 298,
      "##ed": 299,
      "##78": 300,
      "##a4": 301,
      "0x130": 302,
      "##fd": 303,
      "##eb": 304,
      "##11": 305,
      "##6d": 306,
      "##e5": 307,
      "##74": 308,
      "##f3": 309,
      "##13": 310,
      "##ad": 311,
      "##63": 312,
      "##9d": 313,
      "0x12c": 314,
      "##e3": 315,
      "##f1": 316,
      "##aa": 317,
      "##54": 318,
      "##e2": 319,
      "##fb": 320,
      "##67": 321,
      "##f9": 322,
      "##6b": 323,
      "##6a": 324,
      "0x120": 325,
      "##2d": 326,
      "##4c": 327,
      "##1b": 328,
      "##98": 329,
      "##15": 330,
      "##f5": 331,
      "rbx": 332,
      "##1d": 333,
      "##2b": 334,
      "##19": 335,
      "##27": 336,
      "##17": 337,
      "##3c": 338,
      "0x4c": 339,
      "##89": 340,
      "##5c": 341,
      "##ae": 342,
      "##99": 343,
      "fs": 344,
      "##6e": 345,
      "##3d": 346,
      "##62": 347,
      "##fa": 348,
      "##b8": 349,
      "##39": 350,
      "##b4": 351,
      "##bc": 352,
      "##a7": 353,
      "##5d": 354,
      "##94": 355,
      "0x124": 356,
      "##f2": 357,
      "0x134": 358,
      "##77": 359,
      "##37": 360,
      "##3b": 361,
      "##a2": 362,
      "##61": 363,
      "0x140": 364,
      "##59": 365,
      "##d8": 366,
      "##5b": 367,
      "##ee": 368,
      "##7c": 369,
      "##33": 370,
      "0x13c": 371,
      "##22": 372,
      "##9b": 373,
      "##9c": 374,
      "##1a": 375,
      "##ss": 376,
      "##dc": 377,
      "##d4": 378,
      "##6f": 379,
      "##51": 380,
      "##93": 381,
      "lo": 382,
      "##a1": 383,
      "##7b": 384,
      "##2e": 385,
      "##91": 386,
      "##7d": 387,
      "##5e": 388,
      "##9f": 389,
      "##88": 390,
      "##31": 391,
      "##8c": 392,
      "##32": 393,
      "##bd": 394,
      "##5a": 395,
      "##57": 396,
      "0x54": 397,
      "##e1": 398,
      "##ok": 399,
      "look": 400,
      "##97": 401,
      "##bb": 402,
      "##3f": 403,
      "##84": 404,
      "##3a": 405,
      "##52": 406,
      "##b1": 407,
      "##92": 408,
      "##71": 409,
      "##ef": 410,
      "##b9": 411,
      "##8a": 412,
      "##de": 413,
      "0x70": 414,
      "##53": 415,
      "##f6": 416,
      "##21": 417,
      "##a6": 418,
      "##79": 419,
      "0x11c": 420,
      "##75": 421,
      "0x150": 422,
      "##3e": 423,
      "##7a": 424,
      "##72": 425,
      "0x144": 426,
      "##8e": 427,
      "##7e": 428,
      "##b2": 429,
      "##36": 430,
      "##56": 431,
      "##87": 432,
      "0x14c": 433,
      "##9e": 434,
      "##5f": 435,
      "##d1": 436,
      "##ba": 437,
      "##b5": 438,
      "##d5": 439,
      "##81": 440,
      "##2a": 441,
      "##85": 442,
      "##mul": 443,
      "imul": 444,
      "##26": 445,
      "##95": 446,
      "##73": 447,
      "##96": 448,
      "##db": 449,
      "##1e": 450,
      "##2f": 451,
      "##82": 452,
      "##8f": 453,
      "##e6": 454,
      "##23": 455,
      "##7f": 456,
      "0x68": 457,
      "##1f": 458,
      "##da": 459,
      "##b7": 460,
      "##16": 461,
      "##9a": 462,
      "##bf": 463,
      "##b3": 464,
      "##83": 465,
      "##76": 466,
      "##d9": 467,
      "##df": 468,
      "##86": 469,
      "##25": 470,
      "##b6": 471,
      "0x154": 472,
      "0x78b": 473,
      "##a3": 474,
      "##d3": 475,
      "##a5": 476,
      "##af": 477,
      "##d6": 478,
      "##cc": 479,
      "##d7": 480,
      "##d2": 481,
      "xmm2": 482,
      "0x160": 483,
      "px": 484,
      "pxor": 485,
      "0x180": 486,
      "0x15c": 487,
      "0x3a": 488,
      "##48": 489,
      "0x170": 490,
      "0x80": 491,
      "##44": 492,
      "movq": 493,
      "eb": 494,
      "ebx": 495,
      "jg": 496,
      "sa": 497,
      "sar": 498,
      "pop": 499,
      "cl": 500,
      "##c4": 501,
      "0x78": 502,
      "##49": 503,
      "##c8": 504,
      "cv": 505,
      "cvt": 506,
      "0x64": 507,
      "##cd": 508,
      "##cf": 509,
      "##4e": 510,
      "##41": 511,
      "##ca": 512,
      "##c6": 513,
      "##c5": 514,
      "##0000": 515,
      "##47": 516,
      "##ce": 517,
      "##4b": 518,
      "##c1": 519,
      "##4a": 520,
      "##c7": 521,
      "##4d": 522,
      "##c9": 523,
      "##cb": 524,
      "##4f": 525,
      "0x47": 526,
      "##c2": 527,
      "##46": 528,
      "##43": 529,
      "##c3": 530,
      "0x42": 531,
      "0x190": 532,
      "##42": 533,
      "##45": 534,
      "r12": 535,
      "0x4d": 536,
      "0x10b0": 537,
      "0x5c": 538,
      "0x45": 539,
      "0x3f": 540,
      "0x90": 541,
      "0xa0": 542,
      "0x1a0": 543,
      "0xffff": 544,
      "0x43": 545,
      "mul": 546,
      "0x49": 547,
      "0x36": 548,
      "0x4b": 549,
      "0x3e": 550,
      "0xe": 551,
      "0x1b0": 552,
      "di": 553,
      "0xb0": 554,
      "div": 555,
      "0x98": 556,
      "0xf": 557,
      "r12d": 558,
      "0x41": 559,
      "movab": 560,
      "movabs": 561,
      "r8": 562,
      "0x1070": 563,
      "0x4a": 564,
      "0x78b20": 565,
      "##2sd": 566,
      "0x6c": 567,
      "0xb8": 568,
      "0x200": 569,
      "dl": 570,
      "0x1c0": 571,
      "##mi": 572,
      "##omi": 573,
      "0x1d0": 574,
      "##ap": 575,
      "0x88": 576,
      "0x1e0": 577,
      "0x63": 578,
      "0x78b24": 579,
      "0x46": 580,
      "0x10a0": 581,
      "0x1090": 582,
      "0x62": 583,
      "0x1dd": 584,
      "0xa8": 585,
      "0x1ea": 586,
      "movap": 587,
      "jbe": 588,
      "0x210": 589,
      "0x10c0": 590,
      "0x52": 591,
      "0x10f0": 592,
      "0xc0": 593,
      "0x1050": 594,
      "0x1f0": 595,
      "0x57": 596,
      "0x100": 597,
      "0x10d0": 598,
      "0x53": 599,
      "xmm3": 600,
      "0x55": 601,
      "0x74": 602,
      "0x1080": 603,
      "ja": 604,
      "r8d": 605,
      "0xffffffff": 606,
      "0x1ff": 607,
      "cvtsi": 608,
      "addsd": 609,
      "0x220": 610,
      "0x51": 611,
      "0x5d": 612,
      "0x230": 613,
      "mulsd": 614,
      "0x61": 615,
      "0xd0": 616,
      "0xe0": 617,
      "0x240": 618,
      "0x4e": 619,
      "0x5a": 620,
      "0x1324": 621,
      "0x10e0": 622,
      "0x59": 623,
      "0x1100": 624,
      "0x1110": 625,
      "0x9c": 626,
      "0x1060": 627,
      "0x250": 628,
      "0xd8": 629,
      "0x5e": 630,
      "movapd": 631,
      "0x264": 632,
      "0x5b": 633,
      "0x1150": 634,
      "##omisd": 635,
      "0x270": 636,
      "0x260": 637,
      "0x1130": 638,
      "0x7c": 639,
      "0xc8": 640,
      "0x6b": 641,
      "no": 642,
      "##fefe": 643,
      "0x65": 644,
      "##ss2sd": 645,
      "cvtss2sd": 646,
      "0xe8": 647,
      "jns": 648,
      "0x56": 649,
      "0x67": 650,
      "mulss": 651,
      "0xf8": 652,
      "0x110": 653,
      "0x290": 654,
      "0xff": 655,
      "cvtsi2sd": 656,
      "r9": 657,
      "0x1140": 658,
      "0x6d": 659,
      "jb": 660,
      "0xe4": 661,
      "0x280": 662,
      "0x174c": 663,
      "0x2a0": 664,
      "0xbc": 665,
      "not": 666,
      "0xf4": 667,
      "##f7f7": 668,
      "0x11d0": 669,
      "0xa4": 670,
      "0x1190": 671,
      "0x1120": 672,
      "0x6a": 673,
      "0x1200": 674,
      "0x11e0": 675,
      "0x1160": 676,
      "0x400": 677,
      "jge": 678,
      "0x1750": 679,
      "0xc4": 680,
      "0x1170": 681,
      "0xf0": 682,
      "uc": 683,
      "dx": 684,
      "0x4f": 685,
      "divsd": 686,
      "##omiss": 687,
      "0x429": 688,
      "0x1180": 689,
      "0x1768": 690,
      "0x84": 691,
      "0x2b0": 692,
      "0x11a0": 693,
      "0x69": 694,
      "0x11f0": 695,
      "0x11b0": 696,
      "0x2c0": 697,
      "0x1210": 698,
      "0x2d0": 699,
      "0x410": 700,
      "0x1240": 701,
      "0x1220": 702,
      "subsd": 703,
      "0x11c0": 704,
      "0x94": 705,
      "0xb4": 706,
      "##000": 707,
      "0x8c": 708,
      "0x2dd": 709,
      "0x6360": 710,
      "0x2e0": 711,
      "0x138": 712,
      "##6666": 713,
      "0x330": 714,
      "0x1230": 715,
      "0x1250": 716,
      "0x2ea": 717,
      "0xffffff": 718,
      "0x310": 719,
      "xmm4": 720,
      "xmmword": 721,
      "0x11a9": 722,
      "0x1260": 723,
      "0x158": 724,
      "0x1189": 725,
      "idi": 726,
      "idiv": 727,
      "0x4a9": 728,
      "r9d": 729,
      "0x12c9": 730,
      "0x2f0": 731,
      "0x7a": 732,
      "0x350": 733,
      "0x420": 734,
      "comisd": 735,
      "addss": 736,
      "0x340": 737,
      "0xac": 738,
      "##2ss": 739,
      "0x1290": 740,
      "0x1280": 741,
      "0x11e9": 742,
      "0x3e8": 743,
      "0x12b0": 744,
      "0x300": 745,
      "0x1270": 746,
      "0x12c0": 747,
      "0xfc": 748,
      "0x72": 749,
      "0x11c9": 750,
      "0x66": 751,
      "##00000000": 752,
      "0x12a0": 753,
      "0x3f0": 754,
      "0x108": 755,
      "0x320": 756,
      "0x12e0": 757,
      "0x249f": 758,
      "0x3b0": 759,
      "0x418": 760,
      "0x324": 761,
      "movaps": 762,
      "0x12f0": 763,
      "0x1300": 764,
      "0x5f": 765,
      "js": 766,
      "0x2ff": 767,
      "0x360": 768,
      "0x438": 769,
      "0xdc": 770,
      "0x1310": 771,
      "0x12d0": 772,
      "0x75": 773,
      "0xec": 774,
      "0x6e": 775,
      "0x430": 776,
      "0x3d0": 777,
      "0x7d": 778,
      "0x258": 779,
      "0x1249": 780,
      "cvtsi2ss": 781,
      "0x128": 782,
      "r11": 783,
      "0x1209": 784,
      "0x1350": 785,
      "0xd4": 786,
      "0x1329": 787,
      "0x73": 788,
      "0x428": 789,
      "0xcc": 790,
      "0x1330": 791,
      "0x1320": 792,
      "0x71": 793,
      "0x390": 794,
      "0x414": 795,
      "0x13bb": 796,
      "0x3e7": 797,
      "0x368": 798,
      "0x1169": 799,
      "0x118": 800,
      "0x364": 801,
      "0x1340": 802,
      "0x370": 803,
      "0x3c0": 804,
      "0x186a": 805,
      "ne": 806,
      "neg": 807,
      "0x130d": 808,
      "0x470": 809,
      "0x1229": 810,
      "0x380": 811,
      "0x3a9": 812,
      "0x6f": 813,
      "0x1349": 814,
      "0x440": 815,
      "ucomisd": 816,
      "0x402c": 817,
      "0x1269": 818,
      "0x77": 819,
      "0x3e0": 820,
      "comiss": 821,
      "subss": 822,
      "0x312": 823,
      "0x1389": 824,
      "##fefefefe": 825,
      "0x3e9": 826,
      "0x3ea": 827,
      "0x1380": 828,
      "0x11ce": 829,
      "0x800": 830,
      "0x450": 831,
      "0x11b1": 832,
      "cm": 833,
      "cmov": 834,
      "0x460": 835,
      "0x12e7": 836,
      "0x11ae": 837,
      "0x1378": 838,
      "xmm5": 839,
      "0x1289": 840,
      "0x424": 841,
      "0x36c": 842,
      "0xdd": 843,
      "0x1360": 844,
      "0x7b": 845,
      "0x12a9": 846,
      "jp": 847,
      "0x3ab": 848,
      "0x11ee": 849,
      "0x136c": 850,
      "0x3ac": 851,
      "set": 852,
      "0x11d1": 853,
      "0x369": 854,
      "0x12f1": 855,
      "0x148": 856,
      "0x3ec": 857,
      "0x3f4": 858,
      "cq": 859,
      "cqo": 860,
      "0x1309": 861,
      "0x132d": 862,
      "0x3a4": 863,
      "0x1231": 864,
      "0x12ed": 865,
      "0xffffffffffff": 866,
      "0x468": 867,
      "0x3a0": 868,
      "0x1339": 869,
      "0x11ad": 870,
      "##ep": 871,
      "rep": 872,
      "0x1388": 873,
      "0x1370": 874,
      "0x1191": 875,
      "0x480": 876,
      "0x1390": 877,
      "0x366": 878,
      "0x120e": 879,
      "ro": 880,
      "rol": 881,
      "0x128d": 882,
      "0x3e4": 883,
      "0x79": 884,
      "0x131d": 885,
      "0x12cd": 886,
      "0x13b0": 887,
      "ucomiss": 888,
      "0x12e9": 889,
      "0x13a0": 890,
      "0x118e": 891,
      "0x1258": 892,
      "0x124e": 893,
      "0x11f1": 894,
      "0x120d": 895,
      "0x131e": 896,
      "0x12aa": 897,
      "0x1298": 898,
      "0x130e": 899,
      "0x122e": 900,
      "0xfe": 901,
      "0x458": 902,
      "jae": 903,
      "0x130b": 904,
      "0x12f5": 905,
      "0x131c": 906,
      "0x5093": 907,
      "0x13c0": 908,
      "0x12d5": 909,
      "0x12e1": 910,
      "0x126e": 911,
      "0x1000": 912,
      "0x13a7": 913,
      "0x1211": 914,
      "0x168": 915,
      "0x129c": 916,
      "0x132e": 917,
      "0x1308": 918,
      "0x3dd": 919,
      "0x1322": 920,
      "0x1311": 921,
      "0x12ee": 922,
      "0x36d": 923,
      "0xe9": 924,
      "0x12e4": 925,
      "0x136e": 926,
      "0x12fb": 927,
      "0x3a8": 928,
      "0x12be": 929,
      "cw": 930,
      "cwde": 931,
      "0x140a": 932,
      "0x3ed": 933,
      "0xc35": 934,
      "0x12ad": 935,
      "0x118d": 936,
      "0x12ef": 937,
      "0x12d1": 938,
      "0x1264": 939,
      "0x1351": 940,
      "0x36b": 941,
      "0x134d": 942,
      "0x1304": 943,
      "0x12d8": 944,
      "0x490": 945,
      "0x12b1": 946,
      "0x12a4": 947,
      "0x3ff": 948,
      "se": 949,
      "sete": 950,
      "0x11cd": 951,
      "0x1261": 952,
      "0x1299": 953,
      "0x122d": 954,
      "0x12b9": 955,
      "0x12d9": 956,
      "0x1278": 957,
      "0x12f9": 958,
      "0x132c": 959,
      "0x1291": 960,
      "0x3eb": 961,
      "0x42c": 962,
      "0x1245": 963,
      "0x124d": 964,
      "0x12c1": 965,
      "0x127a": 966,
      "0x124f": 967,
      "0x1251": 968,
      "0x12c6": 969,
      "0x1275": 970,
      "0x1255": 971,
      "0x3ad": 972,
      "0x133d": 973,
      "0x128e": 974,
      "0x126d": 975,
      "r13": 976,
      "0x1301": 977,
      "0x1265": 978,
      "0x3f8": 979,
      "0x1314": 980,
      "0x12f3": 981,
      "0x1344": 982,
      "0x12ec": 983,
      "0x134e": 984,
      "0x127c": 985,
      "0x12eb": 986,
      "0x365": 987,
      "0x1319": 988,
      "0x1271": 989,
      "0x12ce": 990,
      "0x11ed": 991,
      "0x1343": 992,
      "0x4a4": 993,
      "0x12fd": 994,
      "0xa20": 995,
      "0x12df": 996,
      "0x12dd": 997,
      "0x1334": 998,
      "0x11f5": 999,
      "0x1331": 1000,
      "0x130f": 1001,
      "0x3a7": 1002,
      "0x1368": 1003,
      "0x1325": 1004,
      "0x1355": 1005,
      "0x1228": 1006,
      "0x363": 1007,
      "0x1285": 1008,
      "0x12b4": 1009,
      "0x1259": 1010,
      "movd": 1011,
      "0x12a1": 1012,
      "0x1281": 1013,
      "0x1284": 1014,
      "0x12f4": 1015,
      "0x9b": 1016,
      "0x12a3": 1017,
      "0x13d0": 1018,
      "0x134c": 1019,
      "0x4c0": 1020,
      "0x12fe": 1021,
      "0x12e8": 1022,
      "0x12c3": 1023,
      "0x1321": 1024,
      "0x124a": 1025,
      "0x1328": 1026,
      "0x12d2": 1027,
      "0x1354": 1028,
      "0x1398": 1029,
      "0x1341": 1030,
      "0x1356": 1031,
      "0x1399": 1032,
      "0x1347": 1033,
      "0x12f8": 1034,
      "0x126f": 1035,
      "0x129d": 1036,
      "0x1215": 1037,
      "0x1391": 1038,
      "0x1332": 1039,
      "0x1312": 1040,
      "0x12a8": 1041,
      "0x1d4": 1042,
      "0x12bd": 1043,
      "0x12cf": 1044,
      "0x126a": 1045,
      "0x1335": 1046,
      "0x133e": 1047,
      "0x138f": 1048,
      "0x12b7": 1049,
      "0x12cc": 1050,
      "0x135b": 1051,
      "0x41c": 1052,
      "0x1248": 1053,
      "0x12f2": 1054,
      "0x133c": 1055,
      "0x1337": 1056,
      "0x127e": 1057,
      "0x139f": 1058,
      "0x129f": 1059,
      "0x138c": 1060,
      "0x13c7": 1061,
      "0x288": 1062,
      "0x1318": 1063,
      "0x12dc": 1064,
      "0x1235": 1065,
      "0x130c": 1066,
      "0x11d5": 1067,
      "0x1279": 1068,
      "0x12ae": 1069,
      "0x138e": 1070,
      "0x464": 1071,
      "0x139b": 1072,
      "0x1239": 1073,
      "0x367": 1074,
      "0x1393": 1075,
      "0x12c5": 1076,
      "0x1295": 1077,
      "0x134f": 1078,
      "0x13c9": 1079,
      "0x1277": 1080,
      "0x1292": 1081,
      "0x135f": 1082,
      "0x1219": 1083,
      "0x1317": 1084,
      "0x132a": 1085,
      "0x1234": 1086,
      "0x127d": 1087,
      "0x1371": 1088,
      "0x12bb": 1089,
      "0x12c8": 1090,
      "0x1345": 1091,
      "0x125e": 1092,
      "0x12ab": 1093,
      "0x1282": 1094,
      "0x1359": 1095,
      "0x12a7": 1096,
      "0x1386": 1097,
      "0x136b": 1098,
      "0x12ac": 1099,
      "0x129b": 1100,
      "##2si": 1101,
      "cvtt": 1102,
      "0x1262": 1103,
      "0x1272": 1104,
      "0x1287": 1105,
      "0x13a2": 1106,
      "0x12db": 1107,
      "0x12f7": 1108,
      "0x12c4": 1109,
      "0x12bf": 1110,
      "0x1469": 1111,
      "0x12e3": 1112,
      "0x1374": 1113,
      "0x1365": 1114,
      "0x12bc": 1115,
      "0x12b3": 1116,
      "0x12b5": 1117,
      "0x1294": 1118,
      "0x1348": 1119,
      "0x1306": 1120,
      "0x125a": 1121,
      "0x128b": 1122,
      "0x13ea": 1123,
      "0x1274": 1124,
      "0x125d": 1125,
      "0x1242": 1126,
      "0x1267": 1127,
      "0x1369": 1128,
      "0x1375": 1129,
      "0x128a": 1130,
      "0x13a9": 1131,
      "0x12d4": 1132,
      "0x1336": 1133,
      "0x1307": 1134,
      "0x1760": 1135,
      "0x1303": 1136,
      "0x1315": 1137,
      "0x12cb": 1138,
      "0x1326": 1139,
      "0x1293": 1140,
      "0x128c": 1141,
      "0x12e5": 1142,
      "0x76": 1143,
      "0x3be": 1144,
      "0x12da": 1145,
      "0x131f": 1146,
      "0x1297": 1147,
      "0x131a": 1148,
      "0x126c": 1149,
      "0x12a2": 1150,
      "0x137d": 1151,
      "0x1238": 1152,
      "0x135a": 1153,
      "0x13d9": 1154,
      "0x13a4": 1155,
      "0x13ac": 1156,
      "0x1468": 1157,
      "0x139d": 1158,
      "0x1313": 1159,
      "0x12de": 1160,
      "0x128f": 1161,
      "0x134a": 1162,
      "0x46c": 1163,
      "0x1338": 1164,
      "0x13bd": 1165,
      "0x135e": 1166,
      "0x124c": 1167,
      "0x1316": 1168,
      "0x1748": 1169,
      "0x135c": 1170,
      "0x131b": 1171,
      "0x136d": 1172,
      "0x12a5": 1173,
      "0x12b8": 1174,
      "0x133f": 1175,
      "0x1254": 1176,
      "0x12e6": 1177,
      "0x12fc": 1178,
      "0x1384": 1179,
      "0x125c": 1180,
      "0x3e5": 1181,
      "0x1288": 1182,
      "0x1218": 1183,
      "0x1268": 1184,
      "0x45c": 1185,
      "0x1420": 1186,
      "0x1263": 1187,
      "0x13ab": 1188,
      "0x1377": 1189,
      "0x455": 1190,
      "0xe5": 1191,
      "0x13f0": 1192,
      "0x137a": 1193,
      "0x12f6": 1194,
      "0x1410": 1195,
      "0x1363": 1196,
      "0x1221": 1197,
      "0x11fd": 1198,
      "0x13e5": 1199,
      "0x123e": 1200,
      "0x13ae": 1201,
      "0x12af": 1202,
      "0x123f": 1203,
      "0x137f": 1204,
      "0x12c2": 1205,
      "0x1362": 1206,
      "0x126b": 1207,
      "0x1286": 1208,
      "0x129a": 1209,
      "0x1450": 1210,
      "0x12a6": 1211,
      "0x1372": 1212,
      "0x1302": 1213,
      "0x12b2": 1214,
      "0x13b7": 1215,
      "0x127f": 1216,
      "0x1252": 1217,
      "0x1226": 1218,
      "0x1383": 1219,
      "0x1253": 1220,
      "0x1395": 1221,
      "0x132b": 1222,
      "0x136f": 1223,
      "0x1327": 1224,
      "0x134b": 1225,
      "0x12fa": 1226,
      "0x138b": 1227,
      "0x133a": 1228,
      "0x1296": 1229,
      "0x13f8": 1230,
      "0x1305": 1231,
      "0x1283": 1232,
      "0x12ca": 1233,
      "0x1400": 1234,
      "0x1225": 1235,
      "0x13cd": 1236,
      "0x434": 1237,
      "0x122f": 1238,
      "0x13b2": 1239,
      "0x1346": 1240,
      "0x123c": 1241,
      "0x13af": 1242,
      "0x1257": 1243,
      "0x4e9": 1244,
      "0x127b": 1245,
      "0x13cc": 1246,
      "0x130a": 1247,
      "0x12b6": 1248,
      "0x1352": 1249,
      "0x125f": 1250,
      "0x1276": 1251,
      "0x1449": 1252,
      "0x125b": 1253,
      "0x142e": 1254,
      "0x12ba": 1255,
      "0x121b": 1256,
      "0x1342": 1257,
      "0x1273": 1258,
      "0x1241": 1259,
      "0x1421": 1260,
      "0x429c": 1261,
      "0x13bf": 1262,
      "0x121e": 1263,
      "0x1401": 1264,
      "0x1430": 1265,
      "0x132f": 1266,
      "0x13d3": 1267,
      "0x12ea": 1268,
      "0x1443": 1269,
      "0x1429": 1270,
      "0xe3": 1271,
      "0x13ee": 1272,
      "0x3fc": 1273,
      "0x137b": 1274,
      "0x123b": 1275,
      "0x14d8": 1276,
      "0x12ff": 1277,
      "0x13e9": 1278,
      "0x1233": 1279,
      "0x1207": 1280,
      "0x1357": 1281,
      "0x1247": 1282,
      "0x1438": 1283,
      "0x135d": 1284,
      "0x1222": 1285,
      "0x13fb": 1286,
      "0x13ce": 1287,
      "0x1510": 1288,
      "0x1387": 1289,
      "0x122b": 1290,
      "0x1224": 1291,
      "0x1244": 1292,
      "0x13a8": 1293,
      "0x121d": 1294,
      "0x13a5": 1295,
      "0x13e8": 1296,
      "0x1358": 1297,
      "0x13aa": 1298,
      "0x1236": 1299,
      "0x138d": 1300,
      "0x454": 1301,
      "0x13e0": 1302,
      "0x12c7": 1303,
      "0x141f": 1304,
      "0x120c": 1305,
      "0x1396": 1306,
      "0x1223": 1307,
      "0x1256": 1308,
      "0x12d3": 1309,
      "0x139e": 1310,
      "0x13d5": 1311,
      "0x144a": 1312,
      "0x13f9": 1313,
      "0x1405": 1314,
      "0x1376": 1315,
      "0x1397": 1316,
      "0x13f5": 1317,
      "0x13f1": 1318,
      "0x133b": 1319,
      "0x136a": 1320,
      "0x1243": 1321,
      "0x1458": 1322,
      "0x13bc": 1323,
      "0x140e": 1324,
      "0x121f": 1325,
      "0x1379": 1326,
      "0x13e1": 1327,
      "0x13c6": 1328,
      "0x1361": 1329,
      "0x12e2": 1330,
      "0x123d": 1331,
      "xmm6": 1332,
      "0x12d6": 1333,
      "0x1266": 1334,
      "0x1364": 1335,
      "0x13ad": 1336,
      "0x137e": 1337,
      "0x129e": 1338,
      "0x123a": 1339,
      "0x11b5": 1340,
      "0x474": 1341,
      "0x1323": 1342,
      "0x137c": 1343,
      "0x1419": 1344,
      "##5555": 1345,
      "0x1366": 1346,
      "0x1333": 1347,
      "0x1205": 1348,
      "0x1382": 1349,
      "0x3f3": 1350,
      "0x13a3": 1351,
      "0x13fd": 1352,
      "0x11c6": 1353,
      "0x12d7": 1354,
      "0x1392": 1355,
      "0x43c": 1356,
      "0x13e4": 1357,
      "0x143c": 1358,
      "0x13b4": 1359,
      "0x3f9": 1360,
      "0x13cf": 1361,
      "0x142c": 1362,
      "0x148d": 1363,
      "0x13dd": 1364,
      "0x13ba": 1365,
      "0x13b3": 1366,
      "0x13a6": 1367,
      "0x140c": 1368,
      "0x14b0": 1369,
      "0x143b": 1370,
      "0x13c2": 1371,
      "0x78a": 1372,
      "0x13c4": 1373,
      "0x13b9": 1374,
      "0x500": 1375,
      "0x13b8": 1376,
      "0x13e2": 1377,
      "0x478": 1378,
      "0x1232": 1379,
      "0x13f4": 1380,
      "0x13ff": 1381,
      "0x11f9": 1382,
      "0x1447": 1383,
      "0x124b": 1384,
      "0x1440": 1385,
      "0x13c3": 1386,
      "0x1367": 1387,
      "0x138a": 1388,
      "0x1428": 1389,
      "0x13d2": 1390,
      "0x13b1": 1391,
      "0x1422": 1392,
      "0x13d6": 1393,
      "0x13be": 1394,
      "0x99": 1395,
      "0x13ed": 1396,
      "0x1385": 1397,
      "0x1227": 1398,
      "0x1413": 1399,
      "0x13cb": 1400,
      "0x13d4": 1401,
      "0x1480": 1402,
      "0x1203": 1403,
      "0x1214": 1404,
      "0x13df": 1405,
      "0x1394": 1406,
      "0x1373": 1407,
      "0x1416": 1408,
      "0x145f": 1409,
      "0x120f": 1410,
      "0x42b": 1411,
      "0x139c": 1412,
      "0x144d": 1413,
      "0x1246": 1414,
      "0x3fb": 1415,
      "0x121a": 1416,
      "0x13c1": 1417,
      "0x13a1": 1418,
      "0x4a0": 1419,
      "0x13f3": 1420,
      "0x3fd": 1421,
      "0x140d": 1422,
      "0x89": 1423,
      "0x3f7": 1424,
      "0x122c": 1425,
      "0x13eb": 1426,
      "0x3f5": 1427,
      "0x650": 1428,
      "0x13ca": 1429,
      "0x13c5": 1430,
      "0x3fe": 1431,
      "0x122a": 1432,
      "0x11f8": 1433,
      "0x1237": 1434,
      "0x120a": 1435,
      "0x1212": 1436,
      "0x1412": 1437,
      "0x1402": 1438,
      "0x1408": 1439,
      "0x1433": 1440,
      "0x1407": 1441,
      "0x13b6": 1442,
      "0x13dc": 1443,
      "0x1381": 1444,
      "0x13e3": 1445,
      "0x13da": 1446,
      "0x510": 1447,
      "0x13c8": 1448,
      "0x1353": 1449,
      "0x141b": 1450,
      "0x141a": 1451,
      "0x1470": 1452,
      "0x13fa": 1453,
      "0x1494": 1454,
      "0x42d": 1455,
      "0x13d1": 1456,
      "0x1461": 1457,
      "0x13db": 1458,
      "0x1445": 1459,
      "0x146f": 1460,
      "0x1481": 1461,
      "0x498": 1462,
      "0x1580": 1463,
      "0x1460": 1464,
      "0x144e": 1465,
      "0x104": 1466,
      "0x14c3": 1467,
      "0x13de": 1468,
      "0x1425": 1469,
      "0x14b3": 1470,
      "0xe2": 1471,
      "0x45d": 1472,
      "0x145c": 1473,
      "0x1490": 1474,
      "0x1464": 1475,
      "0x13b5": 1476,
      "0x13fc": 1477,
      "0x1409": 1478,
      "0x13ec": 1479,
      "0x121c": 1480,
      "0x1454": 1481,
      "0x1213": 1482,
      "0x147f": 1483,
      "0x1451": 1484,
      "0x46b": 1485,
      "0x1455": 1486,
      "0x151c": 1487,
      "0x146d": 1488,
      "0x143f": 1489,
      "##fq": 1490,
      "0x1431": 1491,
      "0x1441": 1492,
      "0x145a": 1493,
      "divss": 1494,
      "0x1202": 1495,
      "0x13fe": 1496,
      "0x1414": 1497,
      "0x494": 1498,
      "0x1403": 1499,
      "0x14ef": 1500,
      "0x1459": 1501,
      "0x1439": 1502,
      "0x1424": 1503,
      "0x143e": 1504,
      "0x149a": 1505,
      "0x448": 1506,
      "0x14b9": 1507,
      "0x1434": 1508,
      "0x49c": 1509,
      "0x1466": 1510,
      "0x14a1": 1511,
      "0x13f7": 1512,
      "0x1448": 1513,
      "0xfd": 1514,
      "0x540": 1515,
      "0x141e": 1516,
      "0x11fe": 1517,
      "0x14bc": 1518,
      "0x1417": 1519,
      "0x1204": 1520,
      "0x1474": 1521,
      "0x1477": 1522,
      "0x14ac": 1523,
      "0x1453": 1524,
      "0x1418": 1525,
      "0x14a5": 1526,
      "0x142f": 1527,
      "0x14a0": 1528,
      "0x1472": 1529,
      "0x412": 1530,
      "0x43d": 1531,
      "0x14ae": 1532,
      "0x1201": 1533,
      "0x139a": 1534,
      "0x14ce": 1535,
      "0x13e6": 1536,
      "0x13f6": 1537,
      "##f7f7f7f7": 1538,
      "0x13ef": 1539,
      "0x141d": 1540,
      "0x11fa": 1541,
      "0x1442": 1542,
      "0x11eb": 1543,
      "0x14de": 1544,
      "0x46d": 1545,
      "0x1488": 1546,
      "0x1216": 1547,
      "0x1415": 1548,
      "0x1486": 1549,
      "0x1491": 1550,
      "0x147e": 1551,
      "0x15f0": 1552,
      "0x1411": 1553,
      "0x1446": 1554,
      "0x11d9": 1555,
      "0x1426": 1556,
      "0x1534": 1557,
      "0x1406": 1558,
      "0x1479": 1559,
      "0x11ff": 1560,
      "0x1452": 1561,
      "0x1526": 1562,
      "0x13e7": 1563,
      "0x1427": 1564,
      "0x41b": 1565,
      "0x147d": 1566,
      "0x14a4": 1567,
      "0x148c": 1568,
      "0x1404": 1569,
      "r10": 1570,
      "0x1478": 1571,
      "0x4e8": 1572,
      "0x1499": 1573,
      "0x1487": 1574,
      "0x141c": 1575,
      "0x144c": 1576,
      "0x1483": 1577,
      "0x1475": 1578,
      "0x1457": 1579,
      "0x14e0": 1580,
      "0x5a8": 1581,
      "0x14c8": 1582,
      "0x14c4": 1583,
      "0x1208": 1584,
      "0x13d7": 1585,
      "0x13d8": 1586,
      "0x14ba": 1587,
      "0x145d": 1588,
      "0x147c": 1589,
      "0x1195": 1590,
      "0x435": 1591,
      "0x14ab": 1592,
      "0x146a": 1593,
      "0x1217": 1594,
      "0x14f1": 1595,
      "0x1432": 1596,
      "0x1569": 1597,
      "0x14f4": 1598,
      "0x1436": 1599,
      "0x143a": 1600,
      "0x1435": 1601,
      "0x14d0": 1602,
      "0x148a": 1603,
      "0x1484": 1604,
      "0x466": 1605,
      "0x11e7": 1606,
      "0x1437": 1607,
      "0x144b": 1608,
      "0x1500": 1609,
      "0x149f": 1610,
      "0x142b": 1611,
      "0x1485": 1612,
      "0x149d": 1613,
      "0x148b": 1614,
      "0x1521": 1615,
      "0x145b": 1616,
      "0x11e5": 1617,
      "0x1456": 1618,
      "0x14c1": 1619,
      "0x1465": 1620,
      "0x149c": 1621,
      "0x14f8": 1622,
      "0x140f": 1623,
      "0x23cd": 1624,
      "0x469": 1625,
      "0x146b": 1626,
      "0x1507": 1627,
      "0x1514": 1628,
      "0x1492": 1629,
      "0x120b": 1630,
      "0x146e": 1631,
      "0x143d": 1632,
      "0x145e": 1633,
      "0x1444": 1634,
      "0x4e2": 1635,
      "0x14d7": 1636,
      "0x142a": 1637,
      "0x1531": 1638,
      "0x14e8": 1639,
      "0x1423": 1640,
      "0x1497": 1641,
      "0x14cf": 1642,
      "0x1547": 1643,
      "0x463": 1644,
      "0x14d5": 1645,
      "0x14ad": 1646,
      "0x28e": 1647,
      "0x153c": 1648,
      "0x13f2": 1649,
      "0x142d": 1650,
      "0x1520": 1651,
      "0x147a": 1652,
      "0x178": 1653,
      "0x146c": 1654,
      "0x14a3": 1655,
      "st": 1656,
      "0x14a8": 1657,
      "0x1660": 1658,
      "0x4b0": 1659,
      "0x14ea": 1660,
      "0x1462": 1661,
      "0x148f": 1662,
      "0x1a8": 1663,
      "0x11d8": 1664,
      "0x1473": 1665,
      "0x11f3": 1666,
      "0x14a2": 1667,
      "0x14e1": 1668,
      "0x1495": 1669,
      "0x14b7": 1670,
      "0xea": 1671,
      "0x3e2": 1672,
      "0x140b": 1673,
      "##os": 1674,
      "0x149b": 1675,
      "stos": 1676,
      "stosq": 1677,
      "0x17a1": 1678,
      "0x14d1": 1679,
      "0x14c7": 1680,
      "0x465": 1681,
      "0x1489": 1682,
      "0x14b4": 1683,
      "0x11e2": 1684,
      "0x41d": 1685,
      "0x150a": 1686,
      "0x155c": 1687,
      "0x14d2": 1688,
      "0x1206": 1689,
      "0x14aa": 1690,
      "xmm7": 1691,
      "0x147b": 1692,
      "0x14c6": 1693,
      "0x1551": 1694,
      "0x1463": 1695,
      "0x3e3": 1696,
      "0x14fe": 1697,
      "0x149e": 1698,
      "0x1610": 1699,
      "0x1471": 1700,
      "0x11fb": 1701,
      "0x1570": 1702,
      "0x293": 1703,
      "0x14e5": 1704,
      "0x14fc": 1705,
      "0x1498": 1706,
      "0x1503": 1707,
      "0x157c": 1708,
      "0x11f6": 1709,
      "0x1528": 1710,
      "0x9a": 1711,
      "0x82": 1712,
      "0x150c": 1713,
      "0x1467": 1714,
      "0x14fb": 1715,
      "0x11c5": 1716,
      "0x1518": 1717,
      "0x1493": 1718,
      "0x14bd": 1719,
      "0x1496": 1720,
      "0x14d6": 1721,
      "0x16d0": 1722,
      "0x152d": 1723,
      "0x14e7": 1724,
      "0x14db": 1725,
      "0x144f": 1726,
      "0x1502": 1727,
      "0x14f0": 1728,
      "0x413": 1729,
      "0x14cb": 1730,
      "0x11f2": 1731,
      "0x14ec": 1732,
      "0x15a6": 1733,
      "0x15be": 1734,
      "0x14a6": 1735,
      "0x14b5": 1736,
      "0x14cd": 1737,
      "0x14c9": 1738,
      "0xf42": 1739,
      "0x150e": 1740,
      "0x14da": 1741,
      "0x1505": 1742,
      "0x14be": 1743,
      "0x14e3": 1744,
      "0x417": 1745,
      "0x11ef": 1746,
      "0x14bf": 1747,
      "0x154e": 1748,
      "0x14f3": 1749,
      "0x47c": 1750,
      "0x14a9": 1751,
      "0x1476": 1752,
      "0x1482": 1753,
      "0x14b1": 1754,
      "0x11dd": 1755,
      "0x14e2": 1756,
      "0x1536": 1757,
      "0x1578": 1758,
      "0x11b8": 1759,
      "0x15e4": 1760,
      "0x4ad": 1761,
      "0x14ed": 1762,
      "0x4a9c": 1763,
      "0x14c0": 1764,
      "0x14df": 1765,
      "0x152a": 1766,
      "0x467": 1767,
      "0x14dc": 1768,
      "0x4ac": 1769,
      "0x14b6": 1770,
      "0x1589": 1771,
      "0x11da": 1772,
      "0x153f": 1773,
      "0x14d4": 1774,
      "0x14d9": 1775,
      "0x151a": 1776,
      "0x14eb": 1777,
      "0x15c5": 1778,
      "0x1517": 1779,
      "0xab": 1780,
      "0x15e9": 1781,
      "0x1523": 1782,
      "0x14e4": 1783,
      "0x1513": 1784,
      "0x15fb": 1785,
      "0x154c": 1786,
      "0x1574": 1787,
      "0x1504": 1788,
      "0x11e1": 1789,
      "0x4b4": 1790,
      "0x1543": 1791,
      "0x14a7": 1792,
      "0x11df": 1793,
      "0x1524": 1794,
      "0x153b": 1795,
      "0x14e9": 1796,
      "0x11f4": 1797,
      "0x154f": 1798,
      "0x11de": 1799,
      "0x151e": 1800,
      "0x156c": 1801,
      "0x1546": 1802,
      "0x1522": 1803,
      "0x152b": 1804,
      "0x4f4": 1805,
      "0x11dc": 1806,
      "0x15f1": 1807,
      "0x594": 1808,
      "0x15cb": 1809,
      "0x14f6": 1810,
      "0x14fd": 1811,
      "0x158c": 1812,
      "0x1736": 1813,
      "0x14ee": 1814,
      "0x1554": 1815,
      "0x11fc": 1816,
      "0x4ec": 1817,
      "0x1509": 1818,
      "0x2e8": 1819,
      "0x11e4": 1820,
      "0x1581": 1821,
      "0x11c4": 1822,
      "0x155b": 1823,
      "0x11ea": 1824,
      "0x14fa": 1825,
      "0x1558": 1826,
      "0x11be": 1827,
      "0x148e": 1828,
      "0x14f7": 1829,
      "0x14e6": 1830,
      "0x520": 1831,
      "0x1512": 1832,
      "0x11e3": 1833,
      "0x14d3": 1834,
      "0x14b8": 1835,
      "0x1632": 1836,
      "0x1594": 1837,
      "##667": 1838,
      "0x155e": 1839,
      "0x11ec": 1840,
      "0x14c5": 1841,
      "0x9d": 1842,
      "0x11b9": 1843,
      "0x150d": 1844,
      "0x11cb": 1845,
      "0x45b": 1846,
      "0x1529": 1847,
      "0x14c2": 1848,
      "0x1542": 1849,
      "0x14ff": 1850,
      "0x1560": 1851,
      "0x4d0": 1852,
      "0x16a2": 1853,
      "0x157a": 1854,
      "0x14ca": 1855,
      "0x4a8": 1856,
      "0x14bb": 1857,
      "0x1611": 1858,
      "0x4f0": 1859,
      "0x1545": 1860,
      "0x1559": 1861,
      "0x1549": 1862,
      "0x15fe": 1863,
      "0x1a30": 1864,
      "0x11f7": 1865,
      "0x14b2": 1866,
      "0x1556": 1867,
      "0x14dd": 1868,
      "0x1583": 1869,
      "0x1557": 1870,
      "0x1591": 1871,
      "0x7f": 1872,
      "0x164c": 1873,
      "0x198": 1874,
      "0x1577": 1875,
      "0x14cc": 1876,
      "0x1538": 1877,
      "0x154a": 1878,
      "0x1588": 1879,
      "0x415": 1880,
      "0x159e": 1881,
      "0x1508": 1882,
      "0x1544": 1883,
      "0x14f2": 1884,
      "0x15d4": 1885,
      "0x4bc": 1886,
      "0x1564": 1887,
      "0x175c": 1888,
      "0x11c2": 1889,
      "0x14af": 1890,
      "0x14f9": 1891,
      "0x28a": 1892,
      "0x1573": 1893,
      "0x1537": 1894,
      "0x1530": 1895,
      "0x11e8": 1896,
      "0x427": 1897,
      "0x4b8": 1898,
      "0x419": 1899,
      "0x15b7": 1900,
      "0x157e": 1901,
      "0x1600": 1902,
      "0x15b0": 1903,
      "0x15bb": 1904,
      "0x1501": 1905,
      "0x477": 1906,
      "0x176c": 1907,
      "0x439": 1908,
      "0x15ed": 1909,
      "0x150f": 1910,
      "0x15dc": 1911,
      "0x11e6": 1912,
      "0x14f5": 1913,
      "0x1567": 1914,
      "0x4e4": 1915,
      "0x15d0": 1916,
      "0xa1c": 1917,
      "0x1506": 1918,
      "0x15a1": 1919,
      "0x1548": 1920,
      "0x1598": 1921,
      "0x1608": 1922,
      "0x1565": 1923,
      "0x16a8": 1924,
      "0x15b9": 1925,
      "0x158a": 1926,
      "##fcfc": 1927,
      "0x1614": 1928,
      "0x156e": 1929,
      "0x528": 1930,
      "0x15c0": 1931,
      "0x499": 1932,
      "0x1555": 1933,
      "0x15d8": 1934,
      "0x1568": 1935,
      "0x1587": 1936,
      "0x159b": 1937,
      "0x1650": 1938,
      "0x1561": 1939,
      "0xb7": 1940,
      "0x156a": 1941,
      "0x155a": 1942,
      "0x1a2a": 1943,
      "0x1535": 1944,
      "0x1519": 1945,
      "0x153e": 1946,
      "0x550": 1947,
      "0x15f4": 1948,
      "0xeb": 1949,
      "0x15ce": 1950,
      "0x49b": 1951,
      "0x15a4": 1952,
      "0x1596": 1953,
      "##000000000000": 1954,
      "0x155d": 1955,
      "0x15b5": 1956,
      "0x524": 1957,
      "0x1bc": 1958,
      "0x154b": 1959,
      "0x4d4": 1960,
      "0x15dd": 1961,
      "0x15c7": 1962,
      "0x1744": 1963,
      "0x1582": 1964,
      "0xfb": 1965,
      "0x152c": 1966,
      "0x1539": 1967,
      "0x1688": 1968,
      "0x4ab": 1969,
      "0x1619": 1970,
      "0x437": 1971,
      "0x15e2": 1972,
      "0x1540": 1973,
      "0x570": 1974,
      "0x3aa": 1975,
      "0x1550": 1976,
      "0x150b": 1977,
      "0x49d": 1978,
      "0x1571": 1979,
      "0x1586": 1980,
      "0x15a0": 1981,
      "0x15c2": 1982,
      "0x4e0": 1983,
      "0x152e": 1984,
      "0x15f8": 1985,
      "0x15db": 1986,
      "0x15ad": 1987,
      "0x15ba": 1988,
      "0x160c": 1989,
      "0x11d3": 1990,
      "0x1566": 1991,
      "0x1618": 1992,
      "0x152f": 1993,
      "0x15b4": 1994,
      "0x660": 1995,
      "0x1678": 1996,
      "0x15c1": 1997,
      "0x1515": 1998,
      "0x15d6": 1999,
      "0x1623": 2000,
      "0x8d": 2001,
      "0x167e": 2002,
      "0x151f": 2003,
      "0x153d": 2004,
      "0x4e7": 2005,
      "0x15ac": 2006,
      "0x534": 2007,
      "0x530": 2008,
      "0x1552": 2009,
      "0x15ae": 2010,
      "0x159d": 2011,
      "0x157f": 2012,
      "0x15c9": 2013,
      "0x1533": 2014,
      "0x161b": 2015,
      "0x11c7": 2016,
      "0x4d8": 2017,
      "0x1579": 2018,
      "##ne": 2019,
      "0x1590": 2020,
      "0x15aa": 2021,
      "0x15da": 2022,
      "0x459": 2023,
      "0x1516": 2024,
      "0x155f": 2025,
      "0x1615": 2026,
      "0x159a": 2027,
      "0x15d9": 2028,
      "0x16bc": 2029,
      "0x4ea": 2030,
      "0x15d1": 2031,
      "0x1511": 2032,
      "0x362": 2033,
      "0x162c": 2034,
      "0x11a4": 2035,
      "0x15a7": 2036,
      "0x1562": 2037,
      "0x1597": 2038,
      "0x1629": 2039,
      "0x3f2": 2040,
      "0x1601": 2041,
      "0x1604": 2042,
      "0x1572": 2043,
      "0x15f7": 2044,
      "setne": 2045,
      "0x1635": 2046,
      "0x1532": 2047,
      "0x1541": 2048,
      "0x16fc": 2049,
      "0x1585": 2050,
      "0x15cd": 2051,
      "0x15a2": 2052,
      "0x163c": 2053,
      "0x151b": 2054,
      "0x15ee": 2055,
      "0xa5": 2056,
      "0x1592": 2057,
      "0x411": 2058,
      "0x15df": 2059,
      "0x172c": 2060,
      "0xa2": 2061,
      "0x1628": 2062,
      "0x16cf": 2063,
      "0x1527": 2064,
      "0x15c8": 2065,
      "0x1563": 2066,
      "0x1593": 2067,
      "0x7e": 2068,
      "0x1620": 2069,
      "0x1599": 2070,
      "0x15d3": 2071,
      "0x154d": 2072,
      "0x15e1": 2073,
      "0x53c": 2074,
      "0xe7": 2075,
      "0x16cc": 2076,
      "0x1680": 2077,
      "0x156f": 2078,
      "0x158e": 2079,
      "0x15b2": 2080,
      "0x83": 2081,
      "bs": 2082,
      "0x16ac": 2083,
      "0x1646": 2084,
      "0x161c": 2085,
      "0x178f": 2086,
      "0x157b": 2087,
      "0x1612": 2088,
      "0x165c": 2089,
      "0x15fd": 2090,
      "0x1647": 2091,
      "0x15e5": 2092,
      "0x15c4": 2093,
      "0x160f": 2094,
      "0x158f": 2095,
      "0x10c": 2096,
      "0x15bc": 2097,
      "0x1616": 2098,
      "0x15f3": 2099,
      "0x15fc": 2100,
      "0x1654": 2101,
      "0x1626": 2102,
      "0x159c": 2103,
      "0x4dd": 2104,
      "0x151d": 2105,
      "0xf9": 2106,
      "0x4f8": 2107,
      "0x1681": 2108,
      "0x16b9": 2109,
      "0x163e": 2110,
      "0x2f6c": 2111,
      "0x1584": 2112,
      "0x5d0": 2113,
      "0x161e": 2114,
      "0x11c1": 2115,
      "0x15af": 2116,
      "0x11db": 2117,
      "0x15e3": 2118,
      "0x15ec": 2119,
      "0x1638": 2120,
      "0x15e0": 2121,
      "0x1984": 2122,
      "0xa9": 2123,
      "0x168d": 2124,
      "0x1810": 2125,
      "0x15a9": 2126,
      "0x15a3": 2127,
      "0x15e8": 2128,
      "0x15a5": 2129,
      "0x1648": 2130,
      "0x1640": 2131,
      "0x161a": 2132,
      "0x1606": 2133,
      "0x15bd": 2134,
      "0xbb": 2135,
      "0x11a2": 2136,
      "0x1576": 2137,
      "0x1605": 2138,
      "0x162b": 2139,
      "0x156d": 2140,
      "0x15ca": 2141,
      "0x15f6": 2142,
      "0x1662": 2143,
      "0x514": 2144,
      "0x15a8": 2145,
      "0x1b4": 2146,
      "0x16c1": 2147,
      "0x15b3": 2148,
      "0x162d": 2149,
      "0x15cf": 2150,
      "0x1575": 2151,
      "0x36a": 2152,
      "0x162f": 2153,
      "0x564": 2154,
      "0x1639": 2155,
      "0x1653": 2156,
      "0x4be": 2157,
      "0x1694": 2158,
      "0x66666": 2159,
      "0x1649": 2160,
      "0x159f": 2161,
      "0x1602": 2162,
      "0x4dc": 2163,
      "0x153a": 2164,
      "0x1685": 2165,
      "0x168b": 2166,
      "0x156b": 2167,
      "0x560": 2168,
      "cmovs": 2169,
      "0x160a": 2170,
      "0x16a0": 2171,
      "0x15c6": 2172,
      "0x1692": 2173,
      "0x1657": 2174,
      "0x15e6": 2175,
      "0x15e7": 2176,
      "0x6ed": 2177,
      "0x164e": 2178,
      "0x1655": 2179,
      "0x166d": 2180,
      "0xad": 2181,
      "0xbd": 2182,
      "0x1665": 2183,
      "0x163b": 2184,
      "0x158d": 2185,
      "0x158b": 2186,
      "0x16f0": 2187,
      "0x1718": 2188,
      "0x169e": 2189,
      "0x1525": 2190,
      "0x16be": 2191,
      "0x15f5": 2192,
      "0x169c": 2193,
      "0x11ca": 2194,
      "0xffffffffffffff": 2195,
      "0x15ea": 2196,
      "0x157d": 2197,
      "0x517": 2198,
      "0x1553": 2199,
      "0x1670": 2200,
      "0x164d": 2201,
      "0x167a": 2202,
      "0x16a9": 2203,
      "0x162e": 2204,
      "0x168c": 2205,
      "0x1687": 2206,
      "0x15eb": 2207,
      "0x19e7": 2208,
      "0x15d2": 2209,
      "0x1671": 2210,
      "0x4fe": 2211,
      "0x15ab": 2212,
      "0x161d": 2213,
      "0x16c5": 2214,
      "0x165a": 2215,
      "0x15c3": 2216,
      "0x15fa": 2217,
      "0x160b": 2218,
      "0x1698": 2219,
      "0x17b9": 2220,
      "0xa7": 2221,
      "0x15b1": 2222,
      "0x95": 2223,
      "0x97": 2224,
      "0x555": 2225,
      "0xc3": 2226,
      "0x1735": 2227,
      "0x1609": 2228,
      "0x16c0": 2229,
      "0x15b6": 2230,
      "0x198c": 2231,
      "0x1669": 2232,
      "0x1641": 2233,
      "0x15f9": 2234,
      "0x167b": 2235,
      "0x16da": 2236,
      "0x1644": 2237,
      "0x17c0": 2238,
      "0x1643": 2239,
      "0x15b8": 2240,
      "0x1755": 2241,
      "0x15d5": 2242,
      "0x1622": 2243,
      "0x15bf": 2244,
      "0x16a7": 2245,
      "0x1645": 2246,
      "0x15ff": 2247,
      "0x1667": 2248,
      "0x1656": 2249,
      "0x1676": 2250,
      "0x163d": 2251,
      "0x1621": 2252,
      "0x173f": 2253,
      "0x165e": 2254,
      "0x1727": 2255,
      "0x87": 2256,
      "0x16c8": 2257,
      "0x4e5": 2258,
      "0x1714": 2259,
      "0x1668": 2260,
      "0x1020": 2261,
      "0x16ed": 2262,
      "0x1634": 2263,
      "0x4fc": 2264,
      "##f3f3": 2265,
      "0x1663": 2266,
      "0x11d7": 2267,
      "0xa3": 2268,
      "0x170d": 2269,
      "0x1672": 2270,
      "0x1595": 2271,
      "0x1636": 2272,
      "0x177": 2273,
      "0x16d4": 2274,
      "0x164f": 2275,
      "0x166b": 2276,
      "0x170b": 2277,
      "0x17aa": 2278,
      "0x166c": 2279,
      "0x15ef": 2280,
      "0x15cc": 2281,
      "0x1642": 2282,
      "0x17b7": 2283,
      "0x1613": 2284,
      "0x1c96": 2285,
      "0x15de": 2286,
      "0x558": 2287,
      "0x1624": 2288,
      "0x16b4": 2289,
      "0x54c": 2290,
      "0x16dc": 2291,
      "0x11d2": 2292,
      "0x1631": 2293,
      "0x17b4": 2294,
      "0x1758": 2295,
      "##wap": 2296,
      "bswap": 2297,
      "0x16bd": 2298,
      "0x1700": 2299,
      "0x1704": 2300,
      "0x165b": 2301,
      "0x11cc": 2302,
      "0x16b0": 2303,
      "0x16a4": 2304,
      "0x169a": 2305,
      "0x16e1": 2306,
      "0x16f9": 2307,
      "0x16f3": 2308,
      "0x630": 2309,
      "0x16f6": 2310,
      "0x160e": 2311,
      "0x4eb": 2312,
      "0x610": 2313,
      "0x1697": 2314,
      "0x17a9": 2315,
      "0x1728": 2316,
      "0x16b8": 2317,
      "0x16e6": 2318,
      "0x16a6": 2319,
      "0x518": 2320,
      "0x568": 2321,
      "0x1617": 2322,
      "0x16ec": 2323,
      "0x16cb": 2324,
      "0x17de": 2325,
      "0x17a0": 2326,
      "0x1630": 2327,
      "0x1691": 2328,
      "0x168f": 2329,
      "0x1677": 2330,
      "0x16d5": 2331,
      "0x1696": 2332,
      "0x1847": 2333,
      "0x11d4": 2334,
      "0x16b6": 2335,
      "0x1880": 2336,
      "0x81": 2337,
      "0x1651": 2338,
      "0x171b": 2339,
      "0x11d6": 2340,
      "0x1664": 2341,
      "0x1707": 2342,
      "0x11cf": 2343,
      "0x52c": 2344,
      "0x3f1": 2345,
      "0x16af": 2346,
      "0x16e7": 2347,
      "0x17c9": 2348,
      "0x160d": 2349,
      "0x16d8": 2350,
      "##sd2si": 2351,
      "cvttsd2si": 2352,
      "0x16aa": 2353,
      "0x161f": 2354,
      "0x1793": 2355,
      "0x620": 2356,
      "0x1684": 2357,
      "0x17d8": 2358,
      "0x16e8": 2359,
      "0x1722": 2360,
      "0x16ef": 2361,
      "0x600": 2362,
      "0x1661": 2363,
      "0x16ad": 2364,
      "0x1b8": 2365,
      "0x1706": 2366,
      "0x172f": 2367,
      "0x1799": 2368,
      "0x17b0": 2369,
      "0x164a": 2370,
      "0xfa": 2371,
      "0x1666": 2372,
      "0x8a": 2373,
      "0x1607": 2374,
      "0x1780": 2375,
      "0x114": 2376,
      "0x16b2": 2377,
      "0x1675": 2378,
      "0x17ed": 2379,
      "0x228": 2380,
      "0x1627": 2381,
      "r14": 2382,
      "0x904": 2383,
      "0x16df": 2384,
      "0x16a5": 2385,
      "0x538": 2386,
      "0x17d0": 2387,
      "0x1603": 2388,
      "0x169d": 2389,
      "0x554": 2390,
      "0x1e8c": 2391,
      "0x119e": 2392,
      "0x164b": 2393,
      "0x163a": 2394,
      "0x16b5": 2395,
      "0x1775": 2396,
      "0x1851": 2397,
      "0xb2": 2398,
      "0x16c2": 2399,
      "0x18b8": 2400,
      "0x169b": 2401,
      "0x1715": 2402,
      "0x171d": 2403,
      "0x47d": 2404,
      "0x1742": 2405,
      "0x18d8": 2406,
      "0x16c6": 2407,
      "0x16d3": 2408,
      "0x1720": 2409,
      "0x57c": 2410,
      "0x16ea": 2411,
      "0x15d7": 2412,
      "0x174e": 2413,
      "0x1879": 2414,
      "0x163f": 2415,
      "0x11c8": 2416,
      "0x1782": 2417,
      "0x92": 2418,
      "0x1796": 2419,
      "0x1674": 2420,
      "0x1765": 2421,
      "0x1767": 2422,
      "0x338": 2423,
      "0x16dd": 2424,
      "0x1673": 2425,
      "0x810": 2426,
      "0x1679": 2427,
      "0x1658": 2428,
      "0x1637": 2429,
      "0x590": 2430,
      "0x16e5": 2431,
      "0x1779": 2432,
      "0x8b": 2433,
      "0x15f2": 2434,
      "0x1702": 2435,
      "0x1633": 2436,
      "0x165f": 2437,
      "0x1690": 2438,
      "0x11bf": 2439,
      "0x173a": 2440,
      "0x1010": 2441,
      "0x1683": 2442,
      "0x181d": 2443,
      "0x16e3": 2444,
      "0x16e2": 2445,
      "0x1874": 2446,
      "0x16e0": 2447,
      "0x43b": 2448,
      "0x172b": 2449,
      "0x17c7": 2450,
      "0x1762": 2451,
      "##pd": 2452,
      "0x1659": 2453,
      "0x17db": 2454,
      "0x1725": 2455,
      "0x16bf": 2456,
      "##999": 2457,
      "0x170e": 2458,
      "0x185a": 2459,
      "0x1731": 2460,
      "0x1734": 2461,
      "0x165d": 2462,
      "0x168e": 2463,
      "0x16c9": 2464,
      "0x1710": 2465,
      "0xaa": 2466,
      "0x167f": 2467,
      "0x173c": 2468,
      "0x640": 2469,
      "0x181a": 2470,
      "0x183b": 2471,
      "0x16fe": 2472,
      "0x578": 2473,
      "0x1787": 2474,
      "0x16c4": 2475,
      "0x11b3": 2476,
      "0x116d": 2477,
      "0x16d1": 2478,
      "0x1798": 2479,
      "0x1724": 2480,
      "0x16f1": 2481,
      "0x173b": 2482,
      "0x47b": 2483,
      "0x1778": 2484,
      "0x11bc": 2485,
      "0x16de": 2486,
      "0x17f2": 2487,
      "0x1808": 2488,
      "0x1752": 2489,
      "0x1705": 2490,
      "0x100000": 2491,
      "0x16b1": 2492,
      "0x1712": 2493,
      "0x16f5": 2494,
      "0x16f8": 2495,
      "0x1745": 2496,
      "0x167c": 2497,
      "0x3a2": 2498,
      "0x17d7": 2499,
      "0x1625": 2500,
      "0x1699": 2501,
      "0x1835": 2502,
      "0x1906": 2503,
      "0x17c4": 2504,
      "0x17ce": 2505,
      "0x170a": 2506,
      "0x1898": 2507,
      "0x1739": 2508,
      "0x176f": 2509,
      "0x166e": 2510,
      "0x166f": 2511,
      "0x1800": 2512,
      "0x1958": 2513,
      "0x1840": 2514,
      "0x16d6": 2515,
      "0x16c3": 2516,
      "0x1733": 2517,
      "0x1709": 2518,
      "0x166a": 2519,
      "0x175e": 2520,
      "0x188": 2521,
      "0x17a5": 2522,
      "0x1738": 2523,
      "0x17cc": 2524,
      "0x16ff": 2525,
      "0x167d": 2526,
      "0x174b": 2527,
      "0x1711": 2528,
      "0x17a3": 2529,
      "0x1693": 2530,
      "0x172a": 2531,
      "0x1741": 2532,
      "0x16ee": 2533,
      "0x85": 2534,
      "0x1747": 2535,
      "##f7f": 2536,
      "0x28c": 2537,
      "0x180a": 2538,
      "0x173e": 2539,
      "0x1171": 2540,
      "0x19d0": 2541,
      "0x529": 2542,
      "0x173d": 2543,
      "0x56c": 2544,
      "0x11bb": 2545,
      "0x17e7": 2546,
      "0x18db": 2547,
      "0x16d7": 2548,
      "0x1887": 2549,
      "0x1844": 2550,
      "0x16eb": 2551,
      "0x17f1": 2552,
      "0x16ca": 2553,
      "0x170c": 2554,
      "0x1769": 2555,
      "0x4a7": 2556,
      "0x55c": 2557,
      "0x1785": 2558,
      "0x1682": 2559,
      "0x171e": 2560,
      "0x16ba": 2561,
      "0x189b": 2562,
      "0x16d2": 2563,
      "0x162a": 2564,
      "0x1652": 2565,
      "0x16ab": 2566,
      "0x1759": 2567,
      "0x168a": 2568,
      "0x16e4": 2569,
      "0x11bd": 2570,
      "0x1771": 2571,
      "0x17f0": 2572,
      "0x16f2": 2573,
      "0x177e": 2574,
      "0x17f9": 2575,
      "0x1719": 2576,
      "0x17b2": 2577,
      "0x186b": 2578,
      "0x16fd": 2579,
      "0x1792": 2580,
      "0x116e": 2581,
      "0x1842": 2582,
      "0x1773": 2583,
      "0x1791": 2584,
      "0x179b": 2585,
      "0x789": 2586,
      "0x1889": 2587,
      "0x93": 2588,
      "0x512": 2589,
      "0x1757": 2590,
      "0xf7": 2591,
      "0x169f": 2592,
      "0x1850": 2593,
      "0x16ae": 2594,
      "0x11ba": 2595,
      "0x17a7": 2596,
      "0x171a": 2597,
      "0x17be": 2598,
      "0x17ac": 2599,
      "0x1717": 2600,
      "0x180d": 2601,
      "0x178c": 2602,
      "0x17e2": 2603,
      "0x18cc": 2604,
      "0x171c": 2605,
      "0x17e3": 2606,
      "0x1730": 2607,
      "0x179a": 2608,
      "0x177d": 2609,
      "##1d6": 2610,
      "0x18a9": 2611,
      "0x1721": 2612,
      "0x17ef": 2613,
      "0x1703": 2614,
      "0x17ad": 2615,
      "0x1751": 2616,
      "0x1726": 2617,
      "0x17e4": 2618,
      "0x1833": 2619,
      "0x574": 2620,
      "0x1814": 2621,
      "0x4f9": 2622,
      "0x1689": 2623,
      "0x1826": 2624,
      "0x17e5": 2625,
      "0x1764": 2626,
      "0x175f": 2627,
      "0x170f": 2628,
      "0x580": 2629,
      "0x17dd": 2630,
      "0x1b7a": 2631,
      "0x18f8": 2632,
      "0x18a2": 2633,
      "0x10018": 2634,
      "0x1857": 2635,
      "0x177a": 2636,
      "0x17d3": 2637,
      "0x175d": 2638,
      "0x174a": 2639,
      "0x16f7": 2640,
      "0x183d": 2641,
      "0x51b": 2642,
      "0x545e": 2643,
      "0x180f": 2644,
      "0x182e": 2645,
      "0x16e9": 2646,
      "0x16b3": 2647,
      "0xb9": 2648,
      "0x17bb": 2649,
      "0x17df": 2650,
      "0x18c0": 2651,
      "0x171f": 2652,
      "0x175a": 2653,
      "0x17d1": 2654,
      "0x1708": 2655,
      "0x527": 2656,
      "0x17ae": 2657,
      "0x1784": 2658,
      "0x17f7": 2659,
      "0x16a3": 2660,
      "0x179d": 2661,
      "0x17a2": 2662,
      "0x5a0": 2663,
      "0x184c": 2664,
      "0xc2": 2665,
      "0x185c": 2666,
      "0x1822": 2667,
      "0x18ec": 2668,
      "0x1854": 2669,
      "0x18e9": 2670,
      "0x176d": 2671,
      "0x1940": 2672,
      "0x1797": 2673,
      "0x1845": 2674,
      "0x1788": 2675,
      "0x1891": 2676,
      "0x16f4": 2677,
      "0x16ce": 2678,
      "0x1816": 2679,
      "0x16bb": 2680,
      "0x1776": 2681,
      "0x18bb": 2682,
      "0x1749": 2683,
      "0x17b5": 2684,
      "0x1770": 2685,
      "0x19a9": 2686,
      "0x1862": 2687,
      "0x190c": 2688,
      "0x1852": 2689,
      "0x1740": 2690,
      "0x1864": 2691,
      "0x16a1": 2692,
      "0x17e9": 2693,
      "0x1828": 2694,
      "0xffffffffffffffff": 2695,
      "0x177b": 2696,
      "0x1695": 2697,
      "0x1772": 2698,
      "0x18b2": 2699,
      "0x16fb": 2700,
      "0x1821": 2701,
      "0x348": 2702,
      "0x1686": 2703,
      "0x1199": 2704,
      "0x1832": 2705,
      "0x1813": 2706,
      "0x1861": 2707,
      "0x186f": 2708,
      "0x11ab": 2709,
      "0x17da": 2710,
      "0x17fc": 2711,
      "0x180c": 2712,
      "0x183e": 2713,
      "0x191c": 2714,
      "0x1774": 2715,
      "0x17c6": 2716,
      "0x1951": 2717,
      "0x1890": 2718,
      "0x1763": 2719,
      "0x1737": 2720,
      "0x178e": 2721,
      "0x1916": 2722,
      "0x16d9": 2723,
      "0x1732": 2724,
      "0x19d8": 2725,
      "0x1954": 2726,
      "0x193b": 2727,
      "0x178d": 2728,
      "0x1820": 2729,
      "0x179f": 2730,
      "0x16fa": 2731,
      "0x18e2": 2732,
      "0x17d4": 2733,
      "0x17ca": 2734,
      "0x197a": 2735,
      "0x1830": 2736,
      "0x1803": 2737,
      "0x172d": 2738,
      "0x1817": 2739,
      "0x182c": 2740,
      "0x17ff": 2741,
      "0x1753": 2742,
      "0x5e8": 2743,
      "0x189d": 2744,
      "0x1aa0": 2745,
      "0x18c7": 2746,
      "0x17bd": 2747,
      "0x1869": 2748,
      "0x1a34": 2749,
      "0x569": 2750,
      "0x11c3": 2751,
      "0x1f77": 2752,
      "0x16c7": 2753,
      "##f1b": 2754,
      "0x4ff": 2755,
      "0x1838": 2756,
      "0xf3": 2757,
      "0x1789": 2758,
      "0x172e": 2759,
      "0x181b": 2760,
      "0x7e0": 2761,
      "0x1827": 2762,
      "0x1849": 2763,
      "0x1901": 2764,
      "0x5f0": 2765,
      "0x174f": 2766,
      "0x1892": 2767,
      "0x18fe": 2768,
      "0x17b6": 2769,
      "0x1729": 2770,
      "0x53d": 2771,
      "0x164": 2772,
      "0x16cd": 2773,
      "0x178b": 2774,
      "0x18b5": 2775,
      "0x1868": 2776,
      "0x177c": 2777,
      "0x17ba": 2778,
      "0x181f": 2779,
      "0x194a": 2780,
      "0x17bf": 2781,
      "0x17ea": 2782,
      "0x17b1": 2783,
      "0x4ed": 2784,
      "0x17f5": 2785,
      "0x628": 2786,
      "0x18ea": 2787,
      "0x184d": 2788,
      "0x1863": 2789,
      "0x17c1": 2790,
      "0x4fd": 2791,
      "0x191a": 2792,
      "0x182a": 2793,
      "0x16db": 2794,
      "0x4fb": 2795,
      "0x1877": 2796,
      "0x4bd": 2797,
      "0x17e1": 2798,
      "0x18ad": 2799,
      "0x1795": 2800,
      "0x51c": 2801,
      "0x186d": 2802,
      "0x658": 2803,
      "0x1858": 2804,
      "0x1790": 2805,
      "0x16b7": 2806,
      "0x1e76": 2807,
      "0x190d": 2808,
      "0x1766": 2809,
      "0x1701": 2810,
      "0x1974": 2811,
      "0x1761": 2812,
      "0x1754": 2813,
      "0x1a4e": 2814,
      "0x784": 2815,
      "0x17af": 2816,
      "0x188e": 2817,
      "0x18c5": 2818,
      "0x1802": 2819,
      "0x17d2": 2820,
      "0x1781": 2821,
      "0x638": 2822,
      "##cccc": 2823,
      "0x462": 2824,
      "0x17fa": 2825,
      "0x18fa": 2826,
      "0x18a4": 2827,
      "0x176e": 2828,
      "0x18aa": 2829,
      "0x187e": 2830,
      "0x58b": 2831,
      "0x422": 2832,
      "0x17dc": 2833,
      "0x1988": 2834,
      "0x1990": 2835,
      "0x52b": 2836,
      "0x176a": 2837,
      "0x187d": 2838,
      "0x17a6": 2839,
      "0x18cf": 2840,
      "0x1723": 2841,
      "0x96": 2842,
      "0x178a": 2843,
      "0x1884": 2844,
      "0x199d": 2845,
      "0x17a4": 2846,
      "0x1829": 2847,
      "0x1a00": 2848,
      "0x18ed": 2849,
      "0x184b": 2850,
      "0x17fd": 2851,
      "0xba": 2852,
      "0x62c": 2853,
      "0x248": 2854,
      "0x1908": 2855,
      "0x17d5": 2856,
      "0x194d": 2857,
      "0x1920": 2858,
      "0x56d": 2859,
      "0x1870": 2860,
      "0x18d0": 2861,
      "0x1756": 2862,
      "0x19f4": 2863,
      "0x18f0": 2864,
      "0x18f1": 2865,
      "0x1837": 2866,
      "0x17c8": 2867,
      "0x17c3": 2868,
      "0x1811": 2869,
      "0x238": 2870,
      "0x17e8": 2871,
      "0x19b1": 2872,
      "0x17cf": 2873,
      "0x18ab": 2874,
      "0x1713": 2875,
      "0x11a5": 2876,
      "0x17f8": 2877,
      "0x2640": 2878,
      "0x1831": 2879,
      "0x535": 2880,
      "0x1912": 2881,
      "0x191b": 2882,
      "0x1903": 2883,
      "0x175b": 2884,
      "0x52d": 2885,
      "0x1947": 2886,
      "0x1e8": 2887,
      "0x17eb": 2888,
      "0x182b": 2889,
      "0x18bd": 2890,
      "0x1970": 2891,
      "0x179e": 2892,
      "##ck": 2893,
      "0x17c5": 2894,
      "0x185e": 2895,
      "0x1786": 2896,
      "0x2000": 2897,
      "0xed": 2898,
      "0x17bc": 2899,
      "0x18a5": 2900,
      "0x1743": 2901,
      "0xa1": 2902,
      "0x1783": 2903,
      "0x195e": 2904,
      "0x1777": 2905,
      "0x176b": 2906,
      "lock": 2907,
      "0x1917": 2908,
      "0x1805": 2909,
      "0x177f": 2910,
      "0x9f": 2911,
      "0x1b3f": 2912,
      "0x18a0": 2913,
      "0x19aa": 2914,
      "0x457": 2915,
      "0x183f": 2916,
      "0x11b4": 2917,
      "0x2010": 2918,
      "0x17a8": 2919,
      "0x513": 2920,
      "0x1746": 2921,
      "0x4e3": 2922,
      "0x2620": 2923,
      "0x19c2": 2924,
      "0x68d": 2925,
      "0x17e6": 2926,
      "0x1801": 2927,
      "0x1966": 2928,
      "0x5e7": 2929,
      "0x19db": 2930,
      "0x187c": 2931,
      "0x196c": 2932,
      "0x1a23": 2933,
      "0x1b6b": 2934,
      "0x1855": 2935,
      "0x17f4": 2936,
      "0x1985": 2937,
      "0x1806": 2938,
      "0x1aae": 2939,
      "0x1a2e": 2940,
      "0x17ec": 2941,
      "0x433": 2942,
      "0x17fe": 2943,
      "0x1853": 2944,
      "0x1848": 2945,
      "0x17e0": 2946,
      "0x4aa": 2947,
      "0x1807": 2948,
      "0x1716": 2949,
      "0x1900": 2950,
      "0x184f": 2951,
      "0x185b": 2952,
      "0x188f": 2953,
      "0x1969": 2954,
      "0x197e": 2955,
      "0x19e0": 2956,
      "0x19a0": 2957,
      "0x19e8": 2958,
      "0x6ed9": 2959,
      "0x18f7": 2960,
      "0x1946": 2961,
      "0x18de": 2962,
      "0x18d6": 2963,
      "0x1894": 2964,
      "0x1999": 2965,
      "0x17b3": 2966,
      "0x19b4": 2967,
      "0x183a": 2968,
      "0x1860": 2969,
      "0x53b": 2970,
      "0x1883": 2971,
      "0x1823": 2972,
      "0x180e": 2973,
      "0x186e": 2974,
      "0x19e2": 2975,
      "0x185f": 2976,
      "0x18ae": 2977,
      "0x1839": 2978,
      "0x18e4": 2979,
      "0x19f0": 2980,
      "0x196a": 2981,
      "0x1881": 2982,
      "0x1a4": 2983,
      "0x19a2": 2984,
      "0x1932": 2985,
      "0x18d2": 2986,
      "0x18af": 2987,
      "0x18d1": 2988,
      "0x18dd": 2989,
      "0x18ba": 2990,
      "0x1867": 2991,
      "0x61c": 2992,
      "0x17ee": 2993,
      "0x1865": 2994,
      "0x18a8": 2995,
      "0x19ca": 2996,
      "0x1873": 2997,
      "0x634": 2998,
      "0x1968": 2999,
      "0x1978": 3000,
      "0x1804": 3001,
      "0x18a7": 3002,
      "0x1a68": 3003,
      "0x1824": 3004,
      "0x188b": 3005,
      "0x182d": 3006,
      "0x1b1b": 3007,
      "0x193a": 3008,
      "0x1a7b": 3009,
      "0x18e5": 3010,
      "cx": 3011,
      "0x46a": 3012,
      "0x5ab": 3013,
      "0x174d": 3014,
      "0x66666667": 3015,
      "0x1a52": 3016,
      "0x1888": 3017,
      "0x18d3": 3018,
      "0x1a16": 3019,
      "0x1a48": 3020,
      "0x181c": 3021,
      "0x249": 3022,
      "0x18f4": 3023,
      "0x1914": 3024,
      "0x182f": 3025,
      "0x1885": 3026,
      "0x1921": 3027,
      "0x192b": 3028,
      "0x17cb": 3029,
      "0x18c9": 3030,
      "0x17ab": 3031,
      "0x1866": 3032,
      "0x1911": 3033,
      "0x11a8": 3034,
      "0x188a": 3035,
      "0x186c": 3036,
      "0x567": 3037,
      "0x190a": 3038,
      "0x18a6": 3039,
      "0x190b": 3040,
      "pushfq": 3041,
      "0x1923": 3042,
      "0x179c": 3043,
      "0x18b6": 3044,
      "0x1949": 3045,
      "0x1893": 3046,
      "0x19a6": 3047,
      "0x1a03": 3048,
      "0x11b6": 3049,
      "0x59c": 3050,
      "0x197f": 3051,
      "0x18f3": 3052,
      "0x1913": 3053,
      "0x18e3": 3054,
      "0x19b0": 3055,
      "##eba1": 3056,
      "0x1871": 3057,
      "0x1c63": 3058,
      "##27999": 3059,
      "0x5a827999": 3060,
      "0x6ed9eba1": 3061,
      "0x1ac5": 3062,
      "0x56b": 3063,
      "0x189f": 3064,
      "0x1836": 3065,
      "0x2020": 3066,
      "0x1ec": 3067,
      "0x1a17": 3068,
      "0x192e": 3069,
      "0x17fb": 3070,
      "0x1834": 3071,
      "0x1198": 3072,
      "0x565": 3073,
      "0x189e": 3074,
      "0x1977": 3075,
      "0x18b4": 3076,
      "0x1c8": 3077,
      "0x1a14": 3078,
      "0x18c2": 3079,
      "0x1965": 3080,
      "0x1856": 3081,
      "0x184a": 3082,
      "0x18be": 3083,
      "0x18e7": 3084,
      "0x195f": 3085,
      "0xb5": 3086,
      "0x51d": 3087,
      "0x1963": 3088,
      "0x19d4": 3089,
      "0x18ff": 3090,
      "0x1812": 3091,
      "0x566": 3092,
      "0x8d5": 3093,
      "0x1815": 3094,
      "0x1967": 3095,
      "0x1825": 3096,
      "0x184e": 3097,
      "0x1a73": 3098,
      "0x5e0": 3099,
      "0x1937": 3100,
      "0x1944": 3101,
      "0x16c": 3102,
      "0x18d4": 3103,
      "0x18e0": 3104,
      "##f7f7f7f": 3105,
      "0x1a99": 3106,
      "0x1abe": 3107,
      "0x17d9": 3108,
      "##fff": 3109,
      "0x1997": 3110,
      "0x18b0": 3111,
      "0x55b": 3112,
      "0x1991": 3113,
      "0x18f5": 3114,
      "0x1859": 3115,
      "0x11ac": 3116,
      "0x181e": 3117,
      "0x1886": 3118,
      "0x1992": 3119,
      "0x18eb": 3120,
      "0x1896": 3121,
      "0x1a5b": 3122,
      "0x17f6": 3123,
      "0x18c1": 3124,
      "0x198e": 3125,
      "0x1980": 3126,
      "0x17c2": 3127,
      "0x1ad6": 3128,
      "0x187f": 3129,
      "0x193f": 3130,
      "0x192f": 3131,
      "0x1918": 3132,
      "0x1922": 3133,
      "0x195b": 3134,
      "0x192a": 3135,
      "0x19cd": 3136,
      "0x19dc": 3137,
      "0x19bf": 3138,
      "0x624": 3139,
      "0x1794": 3140,
      "0x18a1": 3141,
      "0x1982": 3142,
      "0x1895": 3143,
      "0x58d": 3144,
      "0x1a06": 3145,
      "0x18e1": 3146,
      "0x19c7": 3147,
      "0x1882": 3148,
      "0x19c3": 3149,
      "0x1a04": 3150,
      "0x1bad": 3151,
      "0x1819": 3152,
      "0x18e6": 3153,
      "0x192d": 3154,
      "0x189c": 3155,
      "0x1aa3": 3156,
      "0x18ce": 3157,
      "0x1941": 3158,
      "0x18c4": 3159,
      "0x17cd": 3160,
      "0x1b34": 3161,
      "0x19bc": 3162,
      "0x18d9": 3163,
      "0x11a7": 3164,
      "0x196d": 3165,
      "0x1927": 3166,
      "0x5a9": 3167,
      "0x19b8": 3168,
      "xorpd": 3169,
      "0x1a77": 3170,
      "0x18ac": 3171,
      "0x19c5": 3172,
      "0x1a1e": 3173,
      "0x1931": 3174,
      "0x1a35": 3175,
      "0x1a26": 3176,
      "0x1929": 3177,
      "0x1843": 3178,
      "0x1987": 3179,
      "0x1876": 3180,
      "0x1d56": 3181,
      "0x198a": 3182,
      "0x1a38": 3183,
      "0x1a5f": 3184,
      "0x1a6b": 3185,
      "0x1a62": 3186,
      "0x18fc": 3187,
      "0x452": 3188,
      "0x197c": 3189,
      "0x2c8": 3190,
      "0x1909": 3191,
      "0x1a20": 3192,
      "0x198b": 3193,
      "0x193d": 3194,
      "0x19ad": 3195,
      "0x1b2d": 3196,
      "0x191e": 3197,
      "0x1934": 3198,
      "0x196e": 3199,
      "0x191d": 3200,
      "0x19ae": 3201,
      "0x2413": 3202,
      "0x1897": 3203,
      "0x1d69": 3204,
      "0xa28": 3205,
      "0x18d5": 3206,
      "0x668": 3207,
      "0x18cd": 3208,
      "0x497": 3209,
      "0xca6": 3210,
      "0x1872": 3211,
      "0xf5": 3212,
      "0x1933": 3213,
      "0x1a32": 3214,
      "0xb3": 3215,
      "0x1919": 3216,
      "0x194e": 3217,
      "0x1960": 3218,
      "0x1928": 3219,
      "0x18b1": 3220,
      "0x19de": 3221,
      "0x18ca": 3222,
      "0x187a": 3223,
      "0x1cef": 3224,
      "0x1d93": 3225,
      "0x1a3e": 3226,
      "0x1925": 3227,
      "0x195c": 3228,
      "0xfefefefe": 3229,
      "0x18cb": 3230,
      "0x19cb": 3231,
      "0x1998": 3232,
      "0x7f7f7f7f7": 3233,
      "0x4f5": 3234,
      "0x193c": 3235,
      "0x1a4c": 3236,
      "0x18c3": 3237,
      "0x1a0e": 3238,
      "0x19fd": 3239,
      "0x1899": 3240,
      "0x563": 3241,
      "0x1976": 3242,
      "0x1a80": 3243,
      "0x1f50": 3244,
      "0x4f3": 3245,
      "0x1809": 3246,
      "0x1d06": 3247,
      "0x1878": 3248,
      "0x1d8": 3249,
      "0x2710": 3250,
      "0x11b2": 3251,
      "0x493": 3252,
      "0x1930": 3253,
      "0x197b": 3254,
      "0x5a4": 3255,
      "0x3fa": 3256,
      "0x1a10": 3257,
      "0x1b12": 3258,
      "0x218": 3259,
      "0x185d": 3260,
      "0x1ab7": 3261,
      "0x180b": 3262,
      "0x1ba6": 3263,
      "0xfefefefefefefefe": 3264,
      "0x1b43": 3265,
      "0xff00": 3266,
      "0x1a70": 3267,
      "0x18c6": 3268,
      "0x7f7f7f7f7f7f7f7f": 3269,
      "0x1907": 3270,
      "0x1a12": 3271,
      "0x1aba": 3272,
      "0x18dc": 3273,
      "0x19e9": 3274,
      "0x1afe": 3275,
      "0x18bf": 3276,
      "0x1956": 3277,
      "0x19b6": 3278,
      "0x1cbd": 3279,
      "0x1818": 3280,
      "0x1aff": 3281,
      "0x1986": 3282,
      "0x18f6": 3283,
      "0x1ae0": 3284,
      "0x193e": 3285,
      "0x1964": 3286,
      "0x1a9b": 3287,
      "0x18f2": 3288,
      "0x1994": 3289,
      "0x18b3": 3290,
      "0x1d0c": 3291,
      "0x1a0f": 3292,
      "##ss2si": 3293,
      "cvttss2si": 3294,
      "0x1996": 3295,
      "0x18ee": 3296,
      "0x1e74": 3297,
      "0x190e": 3298,
      "0x1989": 3299,
      "0x19cc": 3300,
      "0x19ec": 3301,
      "0x19e3": 3302,
      "0x1936": 3303,
      "0x1d65": 3304,
      "0x1926": 3305,
      "0x19d6": 3306,
      "0x4f7": 3307,
      "0x19a4": 3308,
      "0x1a92": 3309,
      "0x189a": 3310,
      "0x1f8c": 3311,
      "0x1b7d": 3312,
      "0x194c": 3313,
      "0x1841": 3314,
      "0x19fa": 3315,
      "0x183c": 3316,
      "0x559": 3317,
      "0x17f3": 3318,
      "0x1959": 3319,
      "0x91": 3320,
      "0x19ce": 3321,
      "0x1943": 3322,
      "0x1924": 3323,
      "0x19c9": 3324,
      "ror": 3325,
      "0x5dd": 3326,
      "0x19e6": 3327,
      "0x19c0": 3328,
      "0x18da": 3329,
      "0x1942": 3330,
      "0x19f7": 3331,
      "0x1af6": 3332,
      "0x19ac": 3333,
      "0x1a87": 3334,
      "popfq": 3335,
      "0x1a1c": 3336,
      "0x1939": 3337,
      "0x1a08": 3338,
      "0x1aa8": 3339,
      "0x1c0c": 3340,
      "0x1a15": 3341,
      "0x192c": 3342,
      "0x4bb": 3343,
      "0x1b2f": 3344,
      "0x1175": 3345,
      "0x1953": 3346,
      "0x1a63": 3347,
      "0x1ac2": 3348,
      "0x8f1b": 3349,
      "0x1938": 3350,
      "0x1ac": 3351,
      "0x18d7": 3352,
      "0x11b7": 3353,
      "0x19f1": 3354,
      "0x1915": 3355,
      "0x1905": 3356,
      "0x1a13": 3357,
      "0x1bfa": 3358,
      "0x17d6": 3359,
      "0x1b96": 3360,
      "0x598": 3361,
      "0x19a8": 3362,
      "0x194f": 3363,
      "0x1dc3": 3364,
      "0x1973": 3365,
      "0x86": 3366,
      "0x195d": 3367,
      "0x1a69": 3368,
      "0x1910": 3369,
      "0x199e": 3370,
      "0x1cce": 3371,
      "0x1a7c": 3372,
      "0x577": 3373,
      "0x187b": 3374,
      "0x55d": 3375,
      "0x1b4b": 3376,
      "0x1875": 3377,
      "0x19ed": 3378,
      "0x19c6": 3379,
      "0x1904": 3380,
      "0x1c26": 3381,
      "0x1b97": 3382,
      "0x188d": 3383,
      "0x1a27": 3384,
      "0x19b9": 3385,
      "0x1b61": 3386,
      "0x1902": 3387,
      "0x18e8": 3388,
      "0x1c7d": 3389,
      "0x17b8": 3390,
      "0x1846": 3391,
      "0x18b9": 3392,
      "0x18ef": 3393,
      "0x1b9e": 3394,
      "0x18fd": 3395,
      "0x19be": 3396,
      "0x1b9d": 3397,
      "0x1a7f": 3398,
      "0x196f": 3399,
      "0x1bf3": 3400,
      "##2c1d6": 3401,
      "##bcdc": 3402,
      "0xca62c1d6": 3403,
      "0x8f1bbcdc": 3404,
      "0x1acc": 3405,
      "0x19df": 3406,
      "0x1afc": 3407,
      "0x18c8": 3408,
      "0x1bcf": 3409,
      "0x199b": 3410,
      "0x1af2": 3411,
      "0xa6": 3412,
      "0x1a1f": 3413,
      "0x1cfd": 3414,
      "0x509": 3415,
      "0x19c8": 3416,
      "0x18bc": 3417,
      "0x1a8e": 3418,
      "0x1993": 3419,
      "0x1a5e": 3420,
      "0x618": 3421,
      "0x195a": 3422,
      "0x1962": 3423,
      "0x1cd7": 3424,
      "0x274": 3425,
      "0x190f": 3426,
      "0x1b77": 3427,
      "0x1a36": 3428,
      "0x1b5b": 3429,
      "0x1c9b": 3430,
      "0x19ee": 3431,
      "0x1a66": 3432,
      "0x1e53": 3433,
      "0x19dd": 3434,
      "0x19fc": 3435,
      "0x1a01": 3436,
      "0x1c2e": 3437,
      "0x19d7": 3438,
      "0x8e": 3439,
      "0x1a9c": 3440,
      "0x19c1": 3441,
      "0x19a1": 3442,
      "0x1ac8": 3443,
      "0x432": 3444,
      "0x670": 3445,
      "0x19d1": 3446,
      "0x19d3": 3447,
      "0x1c03": 3448,
      "0x1aac": 3449,
      "0x539": 3450,
      "0x1a25": 3451,
      "0x64c": 3452,
      "0x19b7": 3453,
      "0x1b0f": 3454,
      "0x1aef": 3455,
      "0x1a57": 3456,
      "0x1983": 3457,
      "0x1a59": 3458,
      "0x1b06": 3459,
      "0x18f9": 3460,
      "0x1a6f": 3461,
      "0x1948": 3462,
      "0x1d6d": 3463,
      "0x1f94": 3464,
      "0x188c": 3465,
      "0x197d": 3466,
      "0x186": 3467,
      "0x1b49": 3468,
      "0x1b8f": 3469,
      "0x278": 3470,
      "0x1a28": 3471,
      "0x1f60": 3472,
      "0x5cc": 3473,
      "0x19b2": 3474,
      "0x1a2d": 3475,
      "0x664": 3476,
      "0x1950": 3477,
      "0x1961": 3478,
      "0x1ce8": 3479,
      "0x1c1e": 3480,
      "0x1d47": 3481,
      "0x1b01": 3482,
      "0x17c": 3483,
      "0x1971": 3484,
      "0x1ab0": 3485,
      "0x1aa6": 3486,
      "0x19ea": 3487,
      "0x1a2b": 3488,
      "0x1f8": 3489,
      "0x654": 3490,
      "0x19ba": 3491,
      "0x1bb0": 3492,
      "0x119c": 3493,
      "0x1ae9": 3494,
      "0x1b14": 3495,
      "0x19f9": 3496,
      "0x1a1b": 3497,
      "0x1c4b": 3498,
      "0x19f8": 3499,
      "0x1a39": 3500,
      "0x18a3": 3501,
      "0x1e1f": 3502,
      "0x1b70": 3503,
      "0x1a3f": 3504,
      "0x1e84": 3505,
      "0x515": 3506,
      "0x1a60": 3507,
      "0x1ac9": 3508,
      "0x1ca4": 3509,
      "0x18df": 3510,
      "0x1c41": 3511,
      "0x1ba3": 3512,
      "0x1a6a": 3513,
      "0x1acb": 3514,
      "0x1c8b": 3515,
      "0x1e33": 3516,
      "0x1a89": 3517,
      "0x1b65": 3518,
      "0x1aaa": 3519,
      "0x1b3c": 3520,
      "0x1a47": 3521,
      "0x1b0d": 3522,
      "0x1a4b": 3523,
      "0x1a56": 3524,
      "0x5f4": 3525,
      "0x191f": 3526,
      "0x1b88": 3527,
      "0x11a1": 3528,
      "0x198d": 3529,
      "0x1a24": 3530,
      "0x1ab6": 3531,
      "##trac": 3532,
      "0x5f8": 3533,
      "notrac": 3534,
      "notrack": 3535,
      "0x1a0d": 3536,
      "0x19da": 3537,
      "0x1df7": 3538,
      "0x1a88": 3539,
      "0x1bc0": 3540,
      "0x2150": 3541,
      "0x1f4a": 3542,
      "0x1a54": 3543,
      "0x1b30": 3544,
      "0x1a76": 3545,
      "0x1aab": 3546,
      "0x5dc": 3547,
      "0x1b56": 3548,
      "0x1a91": 3549,
      "0x18b7": 3550,
      "##aaaa": 3551,
      "0x19a5": 3552,
      "0x1c20": 3553,
      "0x1be5": 3554,
      "0x66c": 3555,
      "0x1c13": 3556,
      "0x1c94": 3557,
      "0x1a43": 3558,
      "0x1bf1": 3559,
      "0x1a1a": 3560,
      "0x1ce7": 3561,
      "0x1a31": 3562,
      "0x1d4e": 3563,
      "0x1e87": 3564,
      "0x1af0": 3565,
      "0x3dac": 3566,
      "0x1a8b": 3567,
      "0x1a95": 3568,
      "0x1bb2": 3569,
      "0x1acf": 3570,
      "0x19b5": 3571,
      "0x1a0b": 3572,
      "0xc1": 3573,
      "0x614": 3574,
      "0x1a3d": 3575,
      "0x1b1f": 3576,
      "0x1a02": 3577,
      "0x1bbd": 3578,
      "0x1cf8": 3579,
      "0x1ac0": 3580,
      "0x1a0c": 3581,
      "0x1ad9": 3582,
      "0x1a83": 3583,
      "0x1d8c": 3584,
      "0x18fb": 3585,
      "0x19ff": 3586,
      "0x1ad3": 3587,
      "0x1b04": 3588,
      "0x1ab2": 3589,
      "0x1b54": 3590,
      "0x1b19": 3591,
      "0x1a19": 3592,
      "0x1b18": 3593,
      "0x1a1d": 3594,
      "0x9e": 3595,
      "0x1a46": 3596,
      "0x1ab3": 3597,
      "0x1a6c": 3598,
      "0x1b05": 3599,
      "0x1bd1": 3600,
      "0x1a29": 3601,
      "0x1bec": 3602,
      "0x1a0a": 3603,
      "0x1a81": 3604,
      "0x1b1e": 3605,
      "0x1ca8": 3606,
      "0xb6": 3607,
      "0x1cdd": 3608,
      "0x2130": 3609,
      "0x1a90": 3610,
      "0x1af9": 3611,
      "r15": 3612,
      "0x1a21": 3613,
      "0x1d10": 3614,
      "0x1ad1": 3615,
      "0x1cc1": 3616,
      "0x1a3c": 3617,
      "0x1a82": 3618,
      "0x19bb": 3619,
      "0x1a11": 3620,
      "0x690": 3621,
      "0x1ae3": 3622,
      "0x1b71": 3623,
      "0x198f": 3624,
      "0x1c43": 3625,
      "0x5fc": 3626,
      "0x1bde": 3627,
      "0x1ada": 3628,
      "0x1b79": 3629,
      "0x1dbc": 3630,
      "0x1981": 3631,
      "0x1935": 3632,
      "0x2018": 3633,
      "0x1da5": 3634,
      "0x1c38": 3635,
      "0x4ee": 3636,
      "0x1c00": 3637,
      "0x1aeb": 3638,
      "0x19e1": 3639,
      "0x1c88": 3640,
      "0x1a94": 3641,
      "0x1a8c": 3642,
      "0x1c48": 3643,
      "0x597": 3644,
      "0x5c0": 3645,
      "0x1b98": 3646,
      "0x1aa4": 3647,
      "0x1d85": 3648,
      "0x1e8b": 3649,
      "0x1ab1": 3650,
      "0x1a9e": 3651,
      "0x519": 3652,
      "0x1aa7": 3653,
      "0x1aaf": 3654,
      "0x1ab9": 3655,
      "0x1ac6": 3656,
      "0x199f": 3657,
      "0x1ade": 3658,
      "0x7a12": 3659,
      "0x1ccf": 3660,
      "0x19a7": 3661,
      "0x1daf": 3662,
      "0x1f68": 3663,
      "0x194b": 3664,
      "0x19f2": 3665,
      "0x59d": 3666,
      "0x537": 3667,
      "0x1bc7": 3668,
      "0x1a4d": 3669,
      "0x1c0b": 3670,
      "0x1bed": 3671,
      "0x1e14": 3672,
      "0x19fe": 3673,
      "0x19c4": 3674,
      "0x1b16": 3675,
      "0x1b46": 3676,
      "0x5b0": 3677,
      "0x1b51": 3678,
      "0x1d90": 3679,
      "0x1b81": 3680,
      "0x358": 3681,
      "0x1be7": 3682,
      "0x174": 3683,
      "0x1a5d": 3684,
      "0x19a3": 3685,
      "0x1d5d": 3686,
      "0x19af": 3687,
      "0x19f3": 3688,
      "0x1a3a": 3689,
      "0x1a8a": 3690,
      "0x1a58": 3691,
      "0x1a5a": 3692,
      "0x1b8a": 3693,
      "0x19bd": 3694,
      "0x1a05": 3695,
      "0x78af8": 3696,
      "0x19d5": 3697,
      "0x1b7f": 3698,
      "0x1ae8": 3699,
      "0x1bd3": 3700,
      "0x1bff": 3701,
      "0x1c23": 3702,
      "0x1a79": 3703,
      "0x1d87": 3704,
      "0x1ad5": 3705,
      "0x511": 3706,
      "0x1b22": 3707,
      "0x1ae5": 3708,
      "0x1ae2": 3709,
      "0x1d71": 3710,
      "0x1e5d": 3711,
      "0x1975": 3712,
      "0x1c4f": 3713,
      "0x19eb": 3714,
      "0x1b2a": 3715,
      "0x1abc": 3716,
      "0x1b4f": 3717,
      "0x1cff": 3718,
      "0x1bdc": 3719,
      "0x1a40": 3720,
      "0x1a8d": 3721,
      "0x1b26": 3722,
      "0x1a85": 3723,
      "0x1adf": 3724,
      "0x1a5c": 3725,
      "0x1a78": 3726,
      "0x1b27": 3727,
      "0x1a44": 3728,
      "0x1a2c": 3729,
      "0x57d": 3730,
      "0x1deb": 3731,
      "0x1d81": 3732,
      "0x1a55": 3733,
      "0x1d1b": 3734,
      "0x199a": 3735,
      "0x1d08": 3736,
      "0x1a98": 3737,
      "0x19f6": 3738,
      "0x1a84": 3739,
      "0x11aa": 3740,
      "0x1caf": 3741,
      "0x1c74": 3742,
      "0x2170": 3743,
      "0x1ced": 3744,
      "0x1ca6": 3745,
      "0x1b1d": 3746,
      "0x1bcc": 3747,
      "0x1bc4": 3748,
      "0x5f5": 3749,
      "0x1ba2": 3750,
      "0x1add": 3751,
      "0x1b55": 3752,
      "0x1dca": 3753,
      "0x1b03": 3754,
      "0x1ea8": 3755,
      "0x19d9": 3756,
      "0x1a4a": 3757,
      "0x19e4": 3758,
      "0x1b90": 3759,
      "0x1adb": 3760,
      "0x1c32": 3761,
      "0x1955": 3762,
      "0x1d95": 3763,
      "0x1ae7": 3764,
      "0x1995": 3765,
      "0x1bf4": 3766,
      "0x4a2": 3767,
      "0x1be3": 3768,
      "0x1d43": 3769,
      "0x1a07": 3770,
      "0x1b68": 3771,
      "0x1c9d": 3772,
      "0x1c73": 3773,
      "0x1b72": 3774,
      "0x1c78": 3775,
      "0x1b60": 3776,
      "0x1afa": 3777,
      "##00000000000000": 3778,
      "0x8f": 3779,
      "0x1c27": 3780,
      "0x1b1c": 3781,
      "0x1a2f": 3782,
      "0x1cf1": 3783,
      "0x1bb8": 3784,
      "0x1a97": 3785,
      "0x1c9e": 3786,
      "0x1cb1": 3787,
      "0x1a3b": 3788,
      "0x1c07": 3789,
      "0x102": 3790,
      "0x1945": 3791,
      "0x1cdb": 3792,
      "0xa18": 3793,
      "0x1c6c": 3794,
      "0x1a41": 3795,
      "0x1ab8": 3796,
      "0x1ad4": 3797,
      "0x6a0": 3798,
      "0x1b02": 3799,
      "0x1b85": 3800,
      "0x1c53": 3801,
      "0x1ce3": 3802,
      "0x1cb4": 3803,
      "0x1c47": 3804,
      "0x1d2d": 3805,
      "0x1af1": 3806,
      "0x1b58": 3807,
      "0x1af7": 3808,
      "0x1d73": 3809,
      "0x1b6e": 3810,
      "0x1b78": 3811,
      "0x1a9d": 3812,
      "0x1d5a": 3813,
      "0x1b2e": 3814,
      "0x1d0a": 3815,
      "0x19f5": 3816,
      "0x1d8a": 3817,
      "0x1c2b": 3818,
      "0x1f35": 3819,
      "0x1b89": 3820,
      "0x1d20": 3821,
      "0x1b2c": 3822,
      "0x1b2b": 3823,
      "0x1c19": 3824,
      "0x1b9b": 3825,
      "0x1dac": 3826,
      "0x1bb4": 3827,
      "0x1a49": 3828,
      "0x1b09": 3829,
      "0x19ef": 3830,
      "0x1e18": 3831,
      "0x1957": 3832,
      "0x1acd": 3833,
      "0x1baa": 3834,
      "0x1d00": 3835,
      "0x1ad0": 3836,
      "0x7d0": 3837,
      "0x19ab": 3838,
      "0x1be4": 3839,
      "0x1149": 3840,
      "0x1a7d": 3841,
      "0x1a67": 3842,
      "0x1a37": 3843,
      "0x1b15": 3844,
      "0x1c15": 3845,
      "0x1c5a": 3846,
      "0x1b5d": 3847,
      "0x1c22": 3848,
      "0x1b62": 3849,
      "0x2100": 3850,
      "0x1c60": 3851,
      "0x1bfd": 3852,
      "0x5e4": 3853,
      "0x1cd1": 3854,
      "0x1ad8": 3855,
      "0x1c3d": 3856,
      "0x1a71": 3857,
      "0x557": 3858,
      "0x1b38": 3859,
      "0x1b21": 3860,
      "0x1d91": 3861,
      "0x1d98": 3862,
      "0x2048": 3863,
      "0x1bcd": 3864,
      "0x1c83": 3865,
      "0x1b39": 3866,
      "0x1ac4": 3867,
      "0x1df8": 3868,
      "0x1b99": 3869,
      "0x199c": 3870,
      "0x1c1d": 3871,
      "0x1ace": 3872,
      "0x1c17": 3873,
      "0x1ba1": 3874,
      "0x1b4c": 3875,
      "0x19fb": 3876,
      "0x208": 3877,
      "0x1bd0": 3878,
      "0x1c5d": 3879,
      "0x23a0": 3880,
      "0x1c68": 3881,
      "0x19e5": 3882,
      "0x1a22": 3883,
      "0x1df1": 3884,
      "0x1d78": 3885,
      "0x1c86": 3886,
      "0x1b23": 3887,
      "0x1ceb": 3888,
      "0x1d82": 3889,
      "0x1f7f": 3890,
      "0x1c8f": 3891,
      "0x1a42": 3892,
      "0x1b73": 3893,
      "0x1bc5": 3894,
      "0x1c66": 3895,
      "0x1cca": 3896,
      "0x1aa1": 3897,
      "0x1c59": 3898,
      "0x1b0c": 3899,
      "0x1c0a": 3900,
      "0x1c14": 3901,
      "0x1ccb": 3902,
      "0x1b11": 3903,
      "0x1d62": 3904,
      "0x1bd4": 3905,
      "0x820": 3906,
      "0x1e02": 3907,
      "0x2040": 3908,
      "0x1ec7": 3909,
      "0xbe": 3910,
      "0x1979": 3911,
      "0x1bcb": 3912,
      "0x1b42": 3913,
      "0x1a75": 3914,
      "0x1b64": 3915,
      "0x1af4": 3916,
      "0x65c": 3917,
      "0x1b8c": 3918,
      "0x1b6a": 3919,
      "0x1d24": 3920,
      "0x2330": 3921,
      "0x1c2d": 3922,
      "0x2024": 3923,
      "0x1a65": 3924,
      "0x1d3f": 3925,
      "0x674": 3926,
      "0x1c21": 3927,
      "0x61a": 3928,
      "0x1b9a": 3929,
      "0x1d35": 3930,
      "0x1b92": 3931,
      "0x1d15": 3932,
      "0x1d37": 3933,
      "0x1c28": 3934,
      "0x4f2": 3935,
      "0x1a18": 3936,
      "0x1d01": 3937,
      "0x1b82": 3938,
      "0x1952": 3939,
      "0x1a09": 3940,
      "0x19cf": 3941,
      "0x1a6e": 3942,
      "0x1f63": 3943,
      "0x599": 3944,
      "0x11af": 3945,
      "0x1af3": 3946,
      "0x1b4e": 3947,
      "0x1d5b": 3948,
      "0x1d8f": 3949,
      "0x3ae": 3950,
      "0x1bbe": 3951,
      "0x1b5f": 3952,
      "0x1d54": 3953,
      "0x1a9f": 3954,
      "0x1cf2": 3955,
      "##sd2ss": 3956,
      "cvtsd2ss": 3957,
      "0x1e69": 3958,
      "0x1c11": 3959,
      "movsq": 3960,
      "0x1ddd": 3961,
      "0x1e44": 3962,
      "0x1e3f": 3963,
      "0x1d21": 3964,
      "0x1d02": 3965,
      "0x18c": 3966,
      "0x1d0e": 3967,
      "0x1dd2": 3968,
      "0x1c6b": 3969,
      "0x1fde": 3970,
      "0x1dc7": 3971,
      "0x19d2": 3972,
      "0x1a93": 3973,
      "0x1cec": 3974,
      "0x1a7a": 3975,
      "0x1dc0": 3976,
      "0x1c46": 3977,
      "0x1c76": 3978,
      "0x1ce5": 3979,
      "0x1e73": 3980,
      "0x1c65": 3981,
      "0x1a86": 3982,
      "0x1b9f": 3983,
      "0x1f25": 3984,
      "0x1b69": 3985,
      "0x1d4f": 3986,
      "0x1c71": 3987,
      "0xf1": 3988,
      "0x1d12": 3989,
      "0x1b4a": 3990,
      "0x1d96": 3991,
      "0x1972": 3992,
      "0x361": 3993,
      "0x196b": 3994,
      "0x1b75": 3995,
      "0x1c1c": 3996,
      "0x1d58": 3997,
      "0x1dbf": 3998,
      "0x1c3e": 3999,
      "0x1d3b": 4000,
      "0x1d7e": 4001,
      "0x1dd7": 4002,
      "0x1cc4": 4003,
      "0x1d9c": 4004,
      "0x1b52": 4005,
      "0x1bfc": 4006,
      "0x1aca": 4007,
      "0x1d7c": 4008,
      "0x1b5c": 4009,
      "0x1e1c": 4010,
      "0x1ea4": 4011,
      "0x1bc3": 4012,
      "0x1afb": 4013,
      "0x1c34": 4014,
      "0x5ea": 4015,
      "0x1c98": 4016,
      "0x1d26": 4017,
      "0x1d23": 4018,
      "0x1cb3": 4019,
      "0x1d61": 4020,
      "0x1ae4": 4021,
      "0x1b28": 4022,
      "0x1bf6": 4023,
      "0x1bf0": 4024,
      "0x1aa5": 4025,
      "0x1bb7": 4026,
      "0x1c90": 4027,
      "0x1d80": 4028,
      "0x119f": 4029,
      "0x1c75": 4030,
      "0x1e2": 4031,
      "0x612": 4032,
      "0x1b93": 4033,
      "0x1c9f": 4034,
      "0x2074": 4035,
      "0x1cf6": 4036,
      "0x2110": 4037,
      "0x1e6": 4038,
      "0x1c3a": 4039,
      "0x644": 4040,
      "0x1b24": 4041,
      "0x1a6d": 4042,
      "0x1b3b": 4043,
      "0x1d0f": 4044,
      "0x1b0a": 4045,
      "0x1b37": 4046,
      "0x1bab": 4047,
      "0x3a1": 4048,
      "0x1d33": 4049,
      "0x1dfd": 4050,
      "0x268": 4051,
      "0x1abb": 4052,
      "0x1f39": 4053,
      "0x1d74": 4054,
      "0x1e67": 4055,
      "0x1b45": 4056,
      "0x1b44": 4057,
      "0x1c36": 4058,
      "0x1f58": 4059,
      "0x1b95": 4060,
      "0x1de0": 4061,
      "0x119d": 4062,
      "0x1c80": 4063,
      "0x1b33": 4064,
      "0x1f07": 4065,
      "0x1aee": 4066,
      "0x1d9a": 4067,
      "0x1cb9": 4068,
      "0x1aec": 4069,
      "0x1d2e": 4070,
      "0x1d9b": 4071,
      "0x1bd8": 4072,
      "0x1da1": 4073,
      "0x1eb9": 4074,
      "0x65d": 4075,
      "0x1c7a": 4076,
      "0x1b00": 4077,
      "0x1aa9": 4078,
      "0x1b83": 4079,
      "0x1c89": 4080,
      "0x1cac": 4081,
      "0x1c8a": 4082,
      "0x1a50": 4083,
      "0x1d31": 4084,
      "0x2034": 4085,
      "0x1d19": 4086,
      "0x1c09": 4087,
      "0x1bca": 4088,
      "0x1fc8": 4089,
      "0x1ab4": 4090,
      "0x1b76": 4091,
      "0x1fe9": 4092,
      "0x1bf9": 4093,
      "0x5bc": 4094,
      "0x1abf": 4095,
      "0x1b32": 4096,
      "0x1be9": 4097,
      "0x1c56": 4098,
      "0x1c8c": 4099,
      "0x1ddc": 4100,
      "0x1b40": 4101,
      "0x1c5c": 4102,
      "0x1e78": 4103,
      "0x1db4": 4104,
      "0x1bdf": 4105,
      "0x787": 4106,
      "0x1c84": 4107,
      "0x1cc7": 4108,
      "0x1cd4": 4109,
      "0x1e7b": 4110,
      "0x1d59": 4111,
      "0x9c50": 4112,
      "0x1c16": 4113,
      "0x1bac": 4114,
      "0x1c3b": 4115,
      "0x1a7e": 4116,
      "0x1bba": 4117,
      "0x1c04": 4118,
      "0x1aa2": 4119,
      "0x1ac1": 4120,
      "0x1b80": 4121,
      "0x1b13": 4122,
      "0x1ce6": 4123,
      "0x3f65": 4124,
      "0x1cd3": 4125,
      "0xb1": 4126,
      "0x1bb9": 4127,
      "0x1cdf": 4128,
      "0x1f11": 4129,
      "0x1c8e": 4130,
      "0x1cda": 4131,
      "0x1a4f": 4132,
      "0x1ca9": 4133,
      "0x1de9": 4134,
      "0x1b48": 4135,
      "0x1b10": 4136,
      "0x1d28": 4137,
      "0x1bbb": 4138,
      "0x1d40": 4139,
      "0x2009": 4140,
      "0x1b87": 4141,
      "0x1e93": 4142,
      "0x1b0b": 4143,
      "0x1b84": 4144,
      "0x1cc0": 4145,
      "0x1c52": 4146,
      "0x1fb4": 4147,
      "0x1d1d": 4148,
      "0x1c9c": 4149,
      "0x1bdb": 4150,
      "0x1c82": 4151,
      "0x1a45": 4152,
      "0x1b25": 4153,
      "0x1b6f": 4154,
      "0x1a72": 4155,
      "0x1c87": 4156,
      "0x1bc2": 4157,
      "0x1b47": 4158,
      "0x1bb5": 4159,
      "0x29c0": 4160,
      "0x1d7b": 4161,
      "0x1ab5": 4162,
      "0x1b07": 4163,
      "0x1ce4": 4164,
      "0x1ae1": 4165,
      "0x1c5f": 4166,
      "0x23e0": 4167,
      "0x1aea": 4168,
      "0xc7": 4169,
      "0x1b20": 4170,
      "0x1d9e": 4171,
      "0x1be1": 4172,
      "0x1f15": 4173,
      "0x1cd2": 4174,
      "0x1ea5": 4175,
      "0x1ad7": 4176,
      "0x61b": 4177,
      "0x1cf3": 4178,
      "0x68c": 4179,
      "0x1cc8": 4180,
      "0x1cfb": 4181,
      "0x1c51": 4182,
      "0x1b59": 4183,
      "0x1e65": 4184,
      "0x1d34": 4185,
      "0x1f70": 4186,
      "0x1d1f": 4187,
      "0x1e47": 4188,
      "0x1e9e": 4189,
      "0x1ecf": 4190,
      "0x1eee": 4191,
      "0x1bd2": 4192,
      "0x1c67": 4193,
      "0x1b35": 4194,
      "##6e1": 4195,
      "0x1b67": 4196,
      "0x1b3d": 4197,
      "0xbf": 4198,
      "0x1a51": 4199,
      "0x1b53": 4200,
      "0x1c1b": 4201,
      "0x57b": 4202,
      "0x1b3a": 4203,
      "0x1b50": 4204,
      "0x1e06": 4205,
      "0x1ca0": 4206,
      "0x1c69": 4207,
      "0x1ba0": 4208,
      "0x22a9": 4209,
      "0x35c": 4210,
      "0x1cbb": 4211,
      "0x1a33": 4212,
      "0x635": 4213,
      "0x1d67": 4214,
      "0x1ed4": 4215,
      "0x1e01": 4216,
      "0x1b5a": 4217,
      "0x1bc8": 4218,
      "0x828": 4219,
      "0x1d18": 4220,
      "0x1c61": 4221,
      "0x1a61": 4222,
      "0xae": 4223,
      "##f0f0": 4224,
      "0x1b41": 4225,
      "0x1eaf": 4226,
      "0x1b4d": 4227,
      "0x1ef0": 4228,
      "0x1c55": 4229,
      "0x62d": 4230,
      "0x1f98": 4231,
      "0x1ba7": 4232,
      "0x1f22": 4233,
      "0x1a53": 4234,
      "0x1af8": 4235,
      "0x1d27": 4236,
      "0x1c4c": 4237,
      "0x1d2a": 4238,
      "0x1be8": 4239,
      "0x1d68": 4240,
      "0x1ccc": 4241,
      "0x1d70": 4242,
      "0x1dab": 4243,
      "0x1e8a": 4244,
      "0x1cb2": 4245,
      "0x2028": 4246,
      "0x1cb6": 4247,
      "0x1b91": 4248,
      "0x2038": 4249,
      "0x1d09": 4250,
      "0x1ba8": 4251,
      "0x1d1a": 4252,
      "0x1da2": 4253,
      "0x1ca7": 4254,
      "0x6a4": 4255,
      "0x1d4d": 4256,
      "0xcd": 4257,
      "0x67c": 4258,
      "0x1c42": 4259,
      "0x1d4c": 4260,
      "0x1bef": 4261,
      "##51f": 4262,
      "0x1d5e": 4263,
      "0x1da8": 4264,
      "0x1c92": 4265,
      "0x1a74": 4266,
      "0x5e5": 4267,
      "0x1f6a": 4268,
      "0x1c0f": 4269,
      "0x1be0": 4270,
      "0x1cd9": 4271,
      "0x1fd0": 4272,
      "0x1c35": 4273,
      "0x1d45": 4274,
      "0x1e0c": 4275,
      "0x1da3": 4276,
      "0x1d3a": 4277,
      "0x1c5e": 4278,
      "0x1d30": 4279,
      "0x1d97": 4280,
      "0x1b8e": 4281,
      "0x1c91": 4282,
      "0x2fc4": 4283,
      "0x1fe4": 4284,
      "0x1d07": 4285,
      "0x1c40": 4286,
      "0x1c3c": 4287,
      "0x1bd6": 4288,
      "0x1d55": 4289,
      "0xc5": 4290,
      "0x1ef3": 4291,
      "0x1b1a": 4292,
      "0x1a8f": 4293,
      "0x1d77": 4294,
      "0x1e28": 4295,
      "0x62b": 4296,
      "0x1b29": 4297,
      "0x1e9b": 4298,
      "r13d": 4299,
      "0x1c08": 4300,
      "0x1ba9": 4301,
      "0x1a64": 4302,
      "0x1e30": 4303,
      "0x1cf5": 4304,
      "0x1c6f": 4305,
      "0x429e": 4306,
      "0x1bc9": 4307,
      "0x1dd0": 4308,
      "0x1bb6": 4309,
      "0x1f2d": 4310,
      "0x1e08": 4311,
      "0x1c2f": 4312,
      "0x1b5e": 4313,
      "0x1aed": 4314,
      "0x1da7": 4315,
      "0x4a9d": 4316,
      "0x1d9f": 4317,
      "0x1b6c": 4318,
      "0x1f40": 4319,
      "0x629": 4320,
      "0x1c7f": 4321,
      "0x1c85": 4322,
      "0x1ad2": 4323,
      "0x1b74": 4324,
      "0x2380": 4325,
      "0x1d51": 4326,
      "0x1c6e": 4327,
      "0x1e0d": 4328,
      "0x1b08": 4329,
      "0x1de8": 4330,
      "0x1eb8": 4331,
      "0x1be2": 4332,
      "0x1f74": 4333,
      "0x1d60": 4334,
      "0x1f8f": 4335,
      "0x1d2f": 4336,
      "0x850": 4337,
      "0x2060": 4338,
      "0x1c4a": 4339,
      "0x1c44": 4340,
      "0x1e2b": 4341,
      "0x1c1a": 4342,
      "0x1f19": 4343,
      "0x1bb1": 4344,
      "0x1ae6": 4345,
      "0x1c33": 4346,
      "0x1b31": 4347,
      "0x1bc1": 4348,
      "0x1aad": 4349,
      "0x1d52": 4350,
      "0x1d13": 4351,
      "0x1c3f": 4352,
      "0x3ee": 4353,
      "0x680": 4354,
      "0x1e2e": 4355,
      "0x1e5f": 4356,
      "0x1e0e": 4357,
      "0x1e12": 4358,
      "0x20f9": 4359,
      "0x1dd1": 4360,
      "0x1b6d": 4361,
      "0x1af5": 4362,
      "0x1ddf": 4363,
      "0x1e7f": 4364,
      "0x1ba5": 4365,
      "0x1dfa": 4366,
      "0x24a0": 4367,
      "0x1bd5": 4368,
      "0x1d86": 4369,
      "0x1f88": 4370,
      "0x1bbf": 4371,
      "0x1d4a": 4372,
      "0x1fb0": 4373,
      "##ns": 4374,
      "0x1da4": 4375,
      "cmovns": 4376,
      "0x11a6": 4377,
      "0x1e03": 4378,
      "0x1c6d": 4379,
      "0x1c9a": 4380,
      "0x19b3": 4381,
      "0x1ed3": 4382,
      "0x20ce": 4383,
      "0x1ed9": 4384,
      "0x1ac7": 4385,
      "0x1fbc": 4386,
      "0x1fad": 4387,
      "0x1d7a": 4388,
      "0x1e42": 4389,
      "0x59b": 4390,
      "0x1d41": 4391,
      "0x1f6c": 4392,
      "0x1dd9": 4393,
      "0x830": 4394,
      "0x1caa": 4395,
      "0x78b00": 4396,
      "0x1e17": 4397,
      "0x1f7b": 4398,
      "0x1cd0": 4399,
      "0x1ce1": 4400,
      "0x30d4": 4401,
      "0x1f6e": 4402,
      "0x1edd": 4403,
      "0x2310": 4404,
      "0x1bda": 4405,
      "0x1d8b": 4406,
      "0x61a9": 4407,
      "0x1f59": 4408,
      "0x5b8": 4409,
      "0x1b66": 4410,
      "0x1c06": 4411,
      "0x2014": 4412,
      "0x1a96": 4413,
      "0x2810": 4414,
      "0x1ecd": 4415,
      "0x1cb7": 4416,
      "0xe1": 4417,
      "0x219b": 4418,
      "0x1bc6": 4419,
      "0x1d2b": 4420,
      "0x1d3e": 4421,
      "0x5ff": 4422,
      "0x1ded": 4423,
      "0x1c70": 4424,
      "0x1bfe": 4425,
      "0x1ffe": 4426,
      "0x1cc3": 4427,
      "0x5d4": 4428,
      "0x1dc6": 4429,
      "0x1cfa": 4430,
      "0x1ed5": 4431,
      "0x1b7c": 4432,
      "0x1cc5": 4433,
      "0x1d1c": 4434,
      "0x2154": 4435,
      "0x1bb3": 4436,
      "0x1def": 4437,
      "0x1e4f": 4438,
      "0x63a": 4439,
      "0x1ac3": 4440,
      "0x1c01": 4441,
      "0x4e9f": 4442,
      "0x121": 4443,
      "0x184": 4444,
      "0x1b8d": 4445,
      "0x1f5e": 4446,
      "0x200f": 4447,
      "0x1e51": 4448,
      "0x1c5b": 4449,
      "0x1e6c": 4450,
      "0x1f1f": 4451,
      "0x41a": 4452,
      "0x1d49": 4453,
      "0x1dc8": 4454,
      "0x1c50": 4455,
      "0x1e5b": 4456,
      "0x1e58": 4457,
      "0x1d14": 4458,
      "0x1c31": 4459,
      "0x1e0b": 4460,
      "0x244": 4461,
      "0x1bd9": 4462,
      "0x1e24": 4463,
      "0x5fd": 4464,
      "0x1e07": 4465,
      "0x1ff3": 4466,
      "0x202f": 4467,
      "0x2fd0": 4468,
      "0x1bdd": 4469,
      "0x1db3": 4470,
      "0x1de5": 4471,
      "0x1e37": 4472,
      "0x1cb5": 4473,
      "0x1b3e": 4474,
      "0x1ee8": 4475,
      "0x678": 4476,
      "0x1c0d": 4477,
      "0x1a9a": 4478,
      "0x1bee": 4479,
      "0x2440": 4480,
      "0x2a8": 4481,
      "0x1e11": 4482,
      "0x1e13": 4483,
      "0x1d50": 4484,
      "0x1dfc": 4485,
      "0x1e48": 4486,
      "0x1c58": 4487,
      "0x1ce2": 4488,
      "0x1adc": 4489,
      "0x1fd4": 4490,
      "0x1e71": 4491,
      "0x1ca3": 4492,
      "0x1d22": 4493,
      "0x1ef5": 4494,
      "0x200c": 4495,
      "0x1d46": 4496,
      "0x1c0e": 4497,
      "0x23ef": 4498,
      "0x1f5a": 4499,
      "0x1b0e": 4500,
      "0x1ebb": 4501,
      "0x1dbe": 4502,
      "0x1b86": 4503,
      "0x1f46": 4504,
      "##00000": 4505,
      "0x5e9": 4506,
      "0x1bbc": 4507,
      "0x1e7e": 4508,
      "0x1db5": 4509,
      "0x1d76": 4510,
      "0x1fe3": 4511,
      "0x1c4e": 4512,
      "0x1d53": 4513,
      "0x1fa3": 4514,
      "0x1e85": 4515,
      "0x2158": 4516,
      "0x20c4": 4517,
      "0x1edf": 4518,
      "0x2108": 4519,
      "0x119b": 4520,
      "0x698": 4521,
      "0x1ce0": 4522,
      "0x1c2a": 4523,
      "0x1f31": 4524,
      "0x5b4": 4525,
      "0x1db0": 4526,
      "0x1ed6": 4527,
      "0x1dc1": 4528,
      "0x472": 4529,
      "0x2a0e": 4530,
      "0xf2": 4531,
      "##fffffff": 4532,
      "0x1dce": 4533,
      "0x218a": 4534,
      "0x1c10": 4535,
      "0x1e40": 4536,
      "0x1fc4": 4537,
      "0x1ec3": 4538,
      "0x1c6a": 4539,
      "0x1c54": 4540,
      "0x1bae": 4541,
      "0x1db8": 4542,
      "0x1e4c": 4543,
      "0x1cf7": 4544,
      "0x1e4b": 4545,
      "0x1f90": 4546,
      "0x1cf9": 4547,
      "0x1f9c": 4548,
      "0x1cbe": 4549,
      "0x209f": 4550,
      "0x1e99": 4551,
      "0x1eb3": 4552,
      "0x1cbf": 4553,
      "0x1d3c": 4554,
      "0x1e57": 4555,
      "0x1bf5": 4556,
      "0x1c30": 4557,
      "0x1eb4": 4558,
      "0x1d89": 4559,
      "0x2242": 4560,
      "0x1dff": 4561,
      "0x1eb2": 4562,
      "0x207c": 4563,
      "0x1ba4": 4564,
      "0x1f4d": 4565,
      "0x1e62": 4566,
      "0x1cad": 4567,
      "0x1d7d": 4568,
      "0x1e2c": 4569,
      "0x20d4": 4570,
      "0x1ca1": 4571,
      "0x1fc3": 4572,
      "0x1db2": 4573,
      "0x1f02": 4574,
      "0x1db7": 4575,
      "0x2122": 4576,
      "0x226e": 4577,
      "0x1dcb": 4578,
      "0x1e22": 4579,
      "0x1ec1": 4580,
      "0x1c7e": 4581,
      "0x2098": 4582,
      "0x1ee6": 4583,
      "0x1ee2": 4584,
      "0x1d6f": 4585,
      "0x1ca2": 4586,
      "0x1f2c": 4587,
      "0x1fac": 4588,
      "0x20dd": 4589,
      "0x1cdc": 4590,
      "0x20aa": 4591,
      "0x61d": 4592,
      "0x1dd5": 4593,
      "0x200d": 4594,
      "0x1e1a": 4595,
      "0x1f83": 4596,
      "0x1f78": 4597,
      "0x1184": 4598,
      "0x20fc": 4599,
      "0x1e4d": 4600,
      "0x1f09": 4601,
      "0x3b9": 4602,
      "0x429d": 4603,
      "0x1bd7": 4604,
      "0x20e0": 4605,
      "0x1d04": 4606,
      "0x1c45": 4607,
      "0x1de3": 4608,
      "0x1f30": 4609,
      "0x1dd8": 4610,
      "0x1d92": 4611,
      "0xe94": 4612,
      "0x1d8d": 4613,
      "0x1e26": 4614,
      "0x205c": 4615,
      "0x5ec": 4616,
      "0x684": 4617,
      "0x1f82": 4618,
      "0x227d": 4619,
      "0x6b0": 4620,
      "0x1ebc": 4621,
      "0x1f93": 4622,
      "0x1d38": 4623,
      "0x1f9f": 4624,
      "0x1d48": 4625,
      "0x20b0": 4626,
      "0x1fa4": 4627,
      "0x1d17": 4628,
      "0x1d39": 4629,
      "0x1d05": 4630,
      "0x1afd": 4631,
      "0x1ed0": 4632,
      "0x2119": 4633,
      "0x1de1": 4634,
      "0x1ce9": 4635,
      "0x1c79": 4636,
      "0x1fd8": 4637,
      "0x1ef8": 4638,
      "0x221f": 4639,
      "0x1ea1": 4640,
      "0x1dc2": 4641,
      "0x1fa7": 4642,
      "0x1c2c": 4643,
      "0x1e97": 4644,
      "0x1c25": 4645,
      "0x5ad": 4646,
      "0x1d6c": 4647,
      "0x1d32": 4648,
      "0x1db9": 4649,
      "0x2400": 4650,
      "0x2008": 4651,
      "0x1dfe": 4652,
      "0x204f": 4653,
      "0x23b1": 4654,
      "0x1e31": 4655,
      "0x206e": 4656,
      "0x1c39": 4657,
      "0x1b63": 4658,
      "0x1ebe": 4659,
      "0x208b": 4660,
      "0x1abd": 4661,
      "0x1c29": 4662,
      "0x588": 4663,
      "0x18038": 4664,
      "0x3b9ac": 4665,
      "0x216a": 4666,
      "0x1f48": 4667,
      "0x1d5c": 4668,
      "0x1e0f": 4669,
      "0x694": 4670,
      "0x1f66": 4671,
      "0x22c9": 4672,
      "0x8d0": 4673,
      "0x210d": 4674,
      "0x1f97": 4675,
      "0x1eed": 4676,
      "0x1daa": 4677,
      "0x1f18": 4678,
      "0x1194": 4679,
      "0x1d11": 4680,
      "0x1f0c": 4681,
      "0x1efd": 4682,
      "0x2051": 4683,
      "0x1ee5": 4684,
      "0x1de2": 4685,
      "0x1f86": 4686,
      "0x1d16": 4687,
      "0x1ebd": 4688,
      "0x1b36": 4689,
      "0x233a": 4690,
      "0x1e1b": 4691,
      "0x202b": 4692,
      "0x23b0": 4693,
      "0x1f54": 4694,
      "0x1ee0": 4695,
      "0x2002": 4696,
      "0x2090": 4697,
      "0x1e2a": 4698,
      "0x201c": 4699,
      "0x1d1e": 4700,
      "0x1f3f": 4701,
      "0x1cbc": 4702,
      "0x1cd6": 4703,
      "0x1c18": 4704,
      "0x1f7d": 4705,
      "0x1f0d": 4706,
      "0x1fb8": 4707,
      "0x1dcf": 4708,
      "0x1c4": 4709,
      "0x1cae": 4710,
      "0x1b7b": 4711,
      "0x1e50": 4712,
      "0x1ec8": 4713,
      "0x1dde": 4714,
      "0x1f0b": 4715,
      "0x2030": 4716,
      "0x1df5": 4717,
      "0x1d75": 4718,
      "0x1bf8": 4719,
      "0x1de7": 4720,
      "0x1fb9": 4721,
      "0x4f1": 4722,
      "0x2ee": 4723,
      "0x2058": 4724,
      "0xcb": 4725,
      "0x2080": 4726,
      "0x20ac": 4727,
      "0x203e": 4728,
      "0x63c": 4729,
      "0x1dad": 4730,
      "0x1d94": 4731,
      "0xd9": 4732,
      "0x1bf7": 4733,
      "0x615": 4734,
      "0x1b9c": 4735,
      "0x1e15": 4736,
      "0x20ea": 4737,
      "0x1d64": 4738,
      "0x1e6f": 4739,
      "0x1f0e": 4740,
      "0x1ef9": 4741,
      "0x1b17": 4742,
      "0x1c1f": 4743,
      "0x1c24": 4744,
      "0x1e38": 4745,
      "0x1f92": 4746,
      "0x1bea": 4747,
      "0x33c": 4748,
      "0x1c12": 4749,
      "0x209c": 4750,
      "0x1eda": 4751,
      "0x6a9": 4752,
      "0x1b94": 4753,
      "0xe98": 4754,
      "0x1baf": 4755,
      "0x6c0": 4756,
      "0x1e55": 4757,
      "0x208a": 4758,
      "0x2281": 4759,
      "0x211c": 4760,
      "0x2144": 4761,
      "0x2013": 4762,
      "0x1f04": 4763,
      "0x6cc": 4764,
      "0x1e63": 4765,
      "0x21c6": 4766,
      "0x23fe": 4767,
      "0x1cea": 4768,
      "0xca": 4769,
      "0x1c7b": 4770,
      "0x1fc0": 4771,
      "0x20cc": 4772,
      "0x619": 4773,
      "0x1e09": 4774,
      "0x2470": 4775,
      "0x1f34": 4776,
      "0x1e96": 4777,
      "0x1f2a": 4778,
      "0x1eeb": 4779,
      "0x1c97": 4780,
      "0x1ff8": 4781,
      "0x1c62": 4782,
      "0x235d": 4783,
      "0x1e3d": 4784,
      "0x1f75": 4785,
      "0x1d84": 4786,
      "0x4858": 4787,
      "0x1fbe": 4788,
      "0x20b8": 4789,
      "0x8000": 4790,
      "0x840": 4791,
      "0x1f42": 4792,
      "0x1c95": 4793,
      "##eb8": 4794,
      "0x1d6b": 4795,
      "0x1cba": 4796,
      "0x1cc9": 4797,
      "0x1e00": 4798,
      "0x5a7": 4799,
      "0x1dcd": 4800,
      "0x1cfc": 4801,
      "0x1eea": 4802,
      "0x5f7": 4803,
      "0x1f24": 4804,
      "0x1cc2": 4805,
      "0x1d29": 4806,
      "0x1e0a": 4807,
      "0x1c81": 4808,
      "0x1e49": 4809,
      "0x2120": 4810,
      "0x1fef": 4811,
      "0x1c37": 4812,
      "0x1c8d": 4813,
      "0x13890": 4814,
      "0x1dea": 4815,
      "0x1fdb": 4816,
      "0x1df4": 4817,
      "0x1c7c": 4818,
      "0x509340": 4819,
      "0x1dee": 4820,
      "0x1f57": 4821,
      "0x1eaa": 4822,
      "0x1dba": 4823,
      "0x1c57": 4824,
      "0x1dfb": 4825,
      "0x45a": 4826,
      "0x1f7c": 4827,
      "0x1eff": 4828,
      "0x1be6": 4829,
      "0x201a": 4830,
      "##240": 4831,
      "0x1e23": 4832,
      "0x1d79": 4833,
      "0x1dda": 4834,
      "0x6a8": 4835,
      "0x1e3e": 4836,
      "0x1e82": 4837,
      "0x1fdc": 4838,
      "0x1f0f": 4839,
      "0x1eb1": 4840,
      "0x1cf0": 4841,
      "0x101": 4842,
      "0x2262": 4843,
      "0x1e2f": 4844,
      "0x224e": 4845,
      "0x1e35": 4846,
      "0x2056": 4847,
      "0x1cde": 4848,
      "0x533": 4849,
      "0x69c": 4850,
      "0x1beb": 4851,
      "0x2177": 4852,
      "0x1eac": 4853,
      "0x655": 4854,
      "0x1d3d": 4855,
      "0x1bfb": 4856,
      "0x1e86": 4857,
      "0x1ecc": 4858,
      "0x408": 4859,
      "0x1dbb": 4860,
      "0x206f": 4861,
      "0x1f8a": 4862,
      "0x2066": 4863,
      "0x1cb8": 4864,
      "0x1d4b": 4865,
      "0x9c40": 4866,
      "0x1d25": 4867,
      "0x20fd": 4868,
      "0x6ab": 4869,
      "0x203b": 4870,
      "0x1cb0": 4871,
      "0x1da6": 4872,
      "0x1f41": 4873,
      "0x5ac": 4874,
      "0x206c": 4875,
      "0x1ee9": 4876,
      "0x202d": 4877,
      "0x23cb": 4878,
      "0x217e": 4879,
      "0x20f4": 4880,
      "0x1f85": 4881,
      "0x1fb3": 4882,
      "0x1eae": 4883,
      "0x2072": 4884,
      "0x1f28": 4885,
      "0x20b4": 4886,
      "0x2305": 4887,
      "0x1cd8": 4888,
      "0x5c4": 4889,
      "0x1c49": 4890,
      "0x1f3e": 4891,
      "0x1d6a": 4892,
      "0x2190": 4893,
      "0x1e72": 4894,
      "0x1d63": 4895,
      "0x1ee4": 4896,
      "0x5092": 4897,
      "0x1c99": 4898,
      "0x1e32": 4899,
      "0x23c1": 4900,
      "0x1e7a": 4901,
      "0x1d42": 4902,
      "0x1b57": 4903,
      "0x1e39": 4904,
      "0x2054": 4905,
      "0x1f3b": 4906,
      "0x1f72": 4907,
      "0x20e8": 4908,
      "0x1c4d": 4909,
      "0x2266": 4910,
      "0x1e3c": 4911,
      "0x1ea2": 4912,
      "0x203a": 4913,
      "0x21ac": 4914,
      "0x222e": 4915,
      "0x221a": 4916,
      "0x11a3": 4917,
      "0x20d0": 4918,
      "0x1f29": 4919,
      "0x1e6a": 4920,
      "0x208c": 4921,
      "0x1f43": 4922,
      "0x1d72": 4923,
      "0x2068": 4924,
      "0x226f": 4925,
      "0x1b8b": 4926,
      "0x1e1d": 4927,
      "0x210f": 4928,
      "0x1e21": 4929,
      "0x1cf4": 4930,
      "0x1edc": 4931,
      "0x492": 4932,
      "0x22d5": 4933,
      "0x1df6": 4934,
      "0x1f9a": 4935,
      "0x1e3b": 4936,
      "0x22c": 4937,
      "0x2029": 4938,
      "0x1d7f": 4939,
      "0x1f38": 4940,
      "0x1e81": 4941,
      "0x1fec": 4942,
      "0x2045": 4943,
      "0x1e8d": 4944,
      "0x1d36": 4945,
      "0x1ec0": 4946,
      "0x20f0": 4947,
      "0x1ec9": 4948,
      "0x21d5": 4949,
      "0x21bb": 4950,
      "0x1cc6": 4951,
      "0x1d57": 4952,
      "0x1f71": 4953,
      "0x2167": 4954,
      "0x1de6": 4955,
      "0x223f": 4956,
      "##000000": 4957,
      "0x1e98": 4958,
      "0x1f84": 4959,
      "0x23ff": 4960,
      "0x1e9c": 4961,
      "0x1ff0": 4962,
      "0x1d0b": 4963,
      "0x20d1": 4964,
      "0x2082": 4965,
      "0x2325": 4966,
      "0x1e20": 4967,
      "0x1bf2": 4968,
      "0x1ca5": 4969,
      "0x1f2f": 4970,
      "0x1e46": 4971,
      "0x1ef6": 4972,
      "0x203d": 4973,
      "0x1da0": 4974,
      "0x1e6e": 4975,
      "r10d": 4976,
      "0x1de4": 4977,
      "0x20d6": 4978,
      "0x1f91": 4979,
      "0x1cd5": 4980,
      "0x2187": 4981,
      "0x1e60": 4982,
      "0x21da": 4983,
      "0x2126": 4984,
      "0x1e90": 4985,
      "0x5f9": 4986,
      "0x6f0": 4987,
      "0x1d0d": 4988,
      "0x2302": 4989,
      "0x1e91": 4990,
      "0x1dd4": 4991,
      "0x2410": 4992,
      "0x1d66": 4993,
      "0x117e": 4994,
      "0x2023": 4995,
      "0x1e8e": 4996,
      "0x21a5": 4997,
      "0x2094": 4998,
      "0x236e": 4999,
      "0x21db": 5000,
      "0x1ed1": 5001,
      "0x1e89": 5002,
      "0x2324": 5003,
      "0x1db6": 5004,
      "0x56a": 5005,
      "0x1e68": 5006,
      "0x1fa6": 5007,
      "0x1e27": 5008,
      "0x21cc": 5009,
      "0x20ba": 5010,
      "0x1e9f": 5011,
      "0x2246": 5012,
      "0x1ffb": 5013,
      "0x59470": 5014,
      "0x4fa": 5015,
      "0x2182": 5016,
      "0x21c1": 5017,
      "0x1f6f": 5018,
      "0x1efc": 5019,
      "0x217b": 5020,
      "0x669": 5021,
      "0x1c77": 5022,
      "0x225a": 5023,
      "0x5d8": 5024,
      "0x3da0": 5025,
      "0x1dec": 5026,
      "0x2007": 5027,
      "0x1ffa": 5028,
      "0x2036": 5029,
      "0x1f4e": 5030,
      "0x1f89": 5031,
      "0x1f4": 5032,
      "0x244f": 5033,
      "0x1dcc": 5034,
      "0x202c": 5035,
      "0x2065": 5036,
      "0x1e2d": 5037,
      "0x2031": 5038,
      "0x22b8": 5039,
      "0x2720": 5040,
      "0x1fd2": 5041,
      "0x20be": 5042,
      "0x1e83": 5043,
      "0x9f4": 5044,
      "0x1fc9": 5045,
      "0x1f4c": 5046,
      "0x1f5f": 5047,
      "0x1f56": 5048,
      "0x1e70": 5049,
      "0x1ef4": 5050,
      "0x1dd3": 5051,
      "0x1d44": 5052,
      "0x1e94": 5053,
      "0x2360": 5054,
      "0x1f8b": 5055,
      "0x1e43": 5056,
      "0x2134": 5057,
      "0x1b7e": 5058,
      "0x1f01": 5059,
      "0x2fcc": 5060,
      "0x1f13": 5061,
      "0x1f87": 5062,
      "0x1fe1": 5063,
      "0x1fab": 5064,
      "0x1f5d": 5065,
      "0x6d0": 5066,
      "0x1e04": 5067,
      "0x1db1": 5068,
      "0x1c64": 5069,
      "0x2168": 5070,
      "##6f6": 5071,
      "0x2121": 5072,
      "0x1f20": 5073,
      "0x20a2": 5074,
      "0x1ee3": 5075,
      "0x2128": 5076,
      "0x2254": 5077,
      "0x1dd6": 5078,
      "0x2350": 5079,
      "0x2103": 5080,
      "0x20d9": 5081,
      "0x6ad": 5082,
      "0x1bce": 5083,
      "0x1cab": 5084,
      "0x1e10": 5085,
      "0x1ea9": 5086,
      "0x1cee": 5087,
      "0xc9": 5088,
      "0x1ec2": 5089,
      "0x21b0": 5090,
      "0x204c": 5091,
      "0x1f1d": 5092,
      "0x1edb": 5093,
      "0x1e36": 5094,
      "0x22d8": 5095,
      "0x1ece": 5096,
      "0x2193": 5097,
      "0x1e4e": 5098,
      "0x1df3": 5099,
      "0x27c": 5100,
      "0x1fa1": 5101,
      "0x1eb5": 5102,
      "0x1f53": 5103,
      "0x2105": 5104,
      "0x617": 5105,
      "0x5fb": 5106,
      "0x1f6b": 5107,
      "0x6e0": 5108,
      "0x1f3a": 5109,
      "0x213a": 5110,
      "0x1dbd": 5111,
      "0x1d2c": 5112,
      "0x1e45": 5113,
      "0x1d99": 5114,
      "0x1ec4": 5115,
      "0x2026": 5116,
      "0x1fa9": 5117,
      "0x1ec6": 5118,
      "0x1f62": 5119,
      "0x1fbf": 5120,
      "0x2015": 5121,
      "0x1f00": 5122,
      "0xfffffffa": 5123,
      "0x1d5f": 5124,
      "0x20c2": 5125,
      "0x21b6": 5126,
      "0x2304": 5127,
      "0x22f8": 5128,
      "0x1f52": 5129,
      "0x1ecb": 5130,
      "0x237f": 5131,
      "0x20b3": 5132,
      "0x2117": 5133,
      "0x1f03": 5134,
      "0x1faf": 5135,
      "0x1c02": 5136,
      "0x1e61": 5137,
      "0x1f5c": 5138,
      "0x231a": 5139,
      "0x2084": 5140,
      "0x1e75": 5141,
      "0x522": 5142,
      "0x1e64": 5143,
      "0x1ed7": 5144,
      "0x217a": 5145,
      "0x1f67": 5146,
      "0x22fe": 5147,
      "0x205b": 5148,
      "0x1ea3": 5149,
      "0x228c": 5150,
      "0x1fb5": 5151,
      "0x2043": 5152,
      "0x5fe": 5153,
      "0x1efb": 5154,
      "0x5aa": 5155,
      "0x1e95": 5156,
      "0x1f3c": 5157,
      "0x1fe2": 5158,
      "r11d": 5159,
      "0x754": 5160,
      "0x249d": 5161,
      "0x1f73": 5162,
      "0x1df0": 5163,
      "0x21d4": 5164,
      "0x212b": 5165,
      "0x1fce": 5166,
      "0x20e2": 5167,
      "0x2139": 5168,
      "0x23a1": 5169,
      "0x1df9": 5170,
      "0x20ab": 5171,
      "0x5ed": 5172,
      "0x2095": 5173,
      "0x2197": 5174,
      "0x270f": 5175,
      "0x637": 5176,
      "0x1ead": 5177,
      "0x4cbd": 5178,
      "0x22b0": 5179,
      "0x1f9d": 5180,
      "0x1f51": 5181,
      "0x212e": 5182,
      "0x201b": 5183,
      "0xfffffffe": 5184,
      "0x2313": 5185,
      "0x1fe6": 5186,
      "0x1ff5": 5187,
      "0x20b2": 5188,
      "0x2109": 5189,
      "0x2344": 5190,
      "0x1fae": 5191,
      "0x1fcd": 5192,
      "0x214f": 5193,
      "0xd2": 5194,
      "0x3d09": 5195,
      "0x3f6": 5196,
      "0x1d6e": 5197,
      "0x613": 5198,
      "0x1ff1": 5199,
      "0x1cfe": 5200,
      "0x1fd6": 5201,
      "0x2027": 5202,
      "0x206a": 5203,
      "0x215c": 5204,
      "0x1e16": 5205,
      "0x1fc6": 5206,
      "0x1fca": 5207,
      "0x2050": 5208,
      "0x1e8f": 5209,
      "0x2016": 5210,
      "0x204e": 5211,
      "0x1f10": 5212,
      "0x20e3": 5213,
      "0x229b": 5214,
      "0x1f05": 5215,
      "0x206b": 5216,
      "0x1f95": 5217,
      "0x21f2": 5218,
      "0x2221": 5219,
      "0x1fb7": 5220,
      "0x2460": 5221,
      "0x1ccd": 5222,
      "0x21c4": 5223,
      "0x21aa": 5224,
      "0x2067": 5225,
      "0x2260": 5226,
      "0x21f1": 5227,
      "0x2278": 5228,
      "0x627": 5229,
      "0x2083": 5230,
      "0x1e1e": 5231,
      "0x4000": 5232,
      "0x204a": 5233,
      "0x1f69": 5234,
      "0x227a": 5235,
      "0x1e3a": 5236,
      "0x1f26": 5237,
      "0x1ff7": 5238,
      "0x1d9d": 5239,
      "0x2046": 5240,
      "0x20c9": 5241,
      "0x1f16": 5242,
      "0x203c": 5243,
      "0x710": 5244,
      "0x2078": 5245,
      "0x1ede": 5246,
      "0x230d": 5247,
      "0x1e9d": 5248,
      "0x461": 5249,
      "0x213c": 5250,
      "0x1fb2": 5251,
      "0x214b": 5252,
      "0x2088": 5253,
      "0x1c05": 5254,
      "0x2163": 5255,
      "0x1c72": 5256,
      "0x1e6d": 5257,
      "0x20ca": 5258,
      "0x1ea7": 5259,
      "0x1d8e": 5260,
      "0x1d88": 5261,
      "0x68b": 5262,
      "0xaf": 5263,
      "0x1dc5": 5264,
      "0x1fa2": 5265,
      "0x23f2": 5266,
      "0x214d": 5267,
      "0x1e9a": 5268,
      "0x1e56": 5269,
      "0x271": 5270,
      "0x1d03": 5271,
      "0x1eb7": 5272,
      "0x1f4b": 5273,
      "0x1f1b": 5274,
      "0x5100": 5275,
      "0x20d8": 5276,
      "0x2194": 5277,
      "0x2140": 5278,
      "0x1e29": 5279,
      "0x1e88": 5280,
      "0x2218": 5281,
      "0x1f2b": 5282,
      "0x203f": 5283,
      "0x20c6": 5284,
      "0x2061": 5285,
      "0x5e3": 5286,
      "0x2059": 5287,
      "0x2011": 5288,
      "0x1f08": 5289,
      "0x2005": 5290,
      "0x1ef2": 5291,
      "0x1e6b": 5292,
      "0x1eca": 5293,
      "0x1151": 5294,
      "0x2146": 5295,
      "0x1192": 5296,
      "0x237b": 5297,
      "0x1e92": 5298,
      "0x23f9": 5299,
      "0x1e66": 5300,
      "0x1e5c": 5301,
      "0x2147": 5302,
      "0x21ec": 5303,
      "0x21e0": 5304,
      "0x23b4": 5305,
      "0x20f8": 5306,
      "0x344": 5307,
      "0x1e05": 5308,
      "0xc3510": 5309,
      "0x257b": 5310,
      "0x2233": 5311,
      "0x2383": 5312,
      "0x1df2": 5313,
      "0x23df": 5314,
      "0x1ddb": 5315,
      "0x2224": 5316,
      "0x2341": 5317,
      "0x2536": 5318,
      "0x20a3": 5319,
      "0x21b4": 5320,
      "0x21b9": 5321,
      "0x2390": 5322,
      "0x233d": 5323,
      "0x1ea6": 5324,
      "0x6bc": 5325,
      "##6ef": 5326,
      "0x6ac": 5327,
      "0x1e25": 5328,
      "0x532": 5329,
      "0x1eba": 5330,
      "0x254": 5331,
      "0x1eb6": 5332,
      "0x21ae": 5333,
      "0x1040": 5334,
      "0x1c93": 5335,
      "0x1f49": 5336,
      "0x1e7c": 5337,
      "0x1f17": 5338,
      "0x207f": 5339,
      "0x1eef": 5340,
      "0x22b5": 5341,
      "0x2206": 5342,
      "0x2141": 5343,
      "0x21ca": 5344,
      "0x2ea5": 5345,
      "0xe50": 5346,
      "0x2d59": 5347,
      "0x22a1": 5348,
      "0x2063": 5349,
      "0x1f7e": 5350,
      "0x1fcb": 5351,
      "0x509318": 5352,
      "0x20b7": 5353,
      "0x2004": 5354,
      "0x659": 5355,
      "0x21a6": 5356,
      "0x2250": 5357,
      "0x2340": 5358,
      "0x677": 5359,
      "0x1dc4": 5360,
      "0x20da": 5361,
      "0x2cec": 5362,
      "0xd5": 5363,
      "0x1dc9": 5364,
      "0x2064": 5365,
      "0x1f65": 5366,
      "0x1f33": 5367,
      "0x1fdf": 5368,
      "0x1f44": 5369,
      "0x20b5": 5370,
      "0x2070": 5371,
      "0x1e5e": 5372,
      "0xdb": 5373,
      "0x688": 5374,
      "0x25f8": 5375,
      "0x248d": 5376,
      "0x257e": 5377,
      "0x611": 5378,
      "0x2003": 5379,
      "0x209b": 5380,
      "0x219e": 5381,
      "0x1f1a": 5382,
      "0x1e19": 5383,
      "0x213f": 5384,
      "0x714": 5385,
      "0x818": 5386,
      "0x20ff": 5387,
      "0x20cb": 5388,
      "0x4298": 5389,
      "0x2420": 5390,
      "0x25c0": 5391,
      "0x667": 5392,
      "0x20bd": 5393,
      "0x6dd": 5394,
      "0x22b2": 5395,
      "0x215e": 5396,
      "0x1eb0": 5397,
      "0x1f14": 5398,
      "0x2137": 5399,
      "0x6e7": 5400,
      "0x1e77": 5401,
      "0x2052": 5402,
      "0x1eab": 5403,
      "0x208e": 5404,
      "0x1e5a": 5405,
      "0x2235": 5406,
      "0x20e5": 5407,
      "0x1fa0": 5408,
      "0x114d": 5409,
      "0x2455": 5410,
      "0x2044": 5411,
      "0x224a": 5412,
      "0x21fa": 5413,
      "0x1fed": 5414,
      "0x22a7": 5415,
      "0x2227": 5416,
      "0x21e5": 5417,
      "0x2364": 5418,
      "0x114e": 5419,
      "0x22ca": 5420,
      "0x2200": 5421,
      "0x5be": 5422,
      "0x1ee7": 5423,
      "0x2252": 5424,
      "0x220a": 5425,
      "0x2116": 5426,
      "0x1fcc": 5427,
      "0x244a": 5428,
      "0x22d2": 5429,
      "0x2159": 5430,
      "0x1dc": 5431,
      "0x1ffc": 5432,
      "0x230f": 5433,
      "0x23e8": 5434,
      "0x1f64": 5435,
      "0x2101": 5436,
      "r14d": 5437,
      "0x2191": 5438,
      "0x236b": 5439,
      "0x2148": 5440,
      "0x2118": 5441,
      "0x1e7d": 5442,
      "0x2160": 5443,
      "0x216e": 5444,
      "0x2353": 5445,
      "0x2386": 5446,
      "0x1f27": 5447,
      "0x2333": 5448,
      "0x1f81": 5449,
      "0x1f9e": 5450,
      "0x1dae": 5451,
      "0x2267": 5452,
      "0x2062": 5453,
      "0x24ba": 5454,
      "0x235a": 5455,
      "0x1e79": 5456,
      "0x55555": 5457,
      "0x1f2e": 5458,
      "0x2363": 5459,
      "0x20ec": 5460,
      "0x1fc5": 5461,
      "0xa14": 5462,
      "0x1efa": 5463,
      "0x1f79": 5464,
      "0x211a": 5465,
      "0x1f5b": 5466,
      "0x548": 5467,
      "0x1ff9": 5468,
      "0x2021": 5469,
      "0x266e": 5470,
      "0x225d": 5471,
      "0x2315": 5472,
      "0x1da9": 5473,
      "0x2320": 5474,
      "0x22f3": 5475,
      "0x2327": 5476,
      "0x23d0": 5477,
      "0x1efe": 5478,
      "0x2173": 5479,
      "0x1f0a": 5480,
      "0x1f8e": 5481,
      "0x6b4": 5482,
      "0x2075": 5483,
      "0x24e0": 5484,
      "0x1fb6": 5485,
      "##e16": 5486,
      "0x20eb": 5487,
      "0x222b": 5488,
      "0x1182": 5489,
      "0x2357": 5490,
      "0x2012": 5491,
      "0x78ac0": 5492,
      "0x78440": 5493,
      "0x3f610": 5494,
      "0x207b": 5495,
      "0x1f3d": 5496,
      "0x209d": 5497,
      "0x2370": 5498,
      "0x541": 5499,
      "0x248a": 5500,
      "0x1fa8": 5501,
      "0x1eec": 5502,
      "0x23b5": 5503,
      "0x1e59": 5504,
      "0x21dd": 5505,
      "0x1f8d": 5506,
      "0x1e34": 5507,
      "0x249f90": 5508,
      "0x24d0": 5509,
      "0x6cb0": 5510,
      "0x700": 5511,
      "0x2249": 5512,
      "0x2675": 5513,
      "0x20f5": 5514,
      "##f3f3f3f3": 5515,
      "##fcfcfcfc": 5516,
      "0x1fe5": 5517,
      "0x1ebf": 5518,
      "0x20c1": 5519,
      "0x220c": 5520,
      "0x2096": 5521,
      "0x940": 5522,
      "0x2296": 5523,
      "0x20bc": 5524,
      "0x21f0": 5525,
      "0x2230": 5526,
      "0x21bf": 5527,
      "0x2125": 5528,
      "0x1f1e": 5529,
      "0x1fff": 5530,
      "0x224c": 5531,
      "0x2329": 5532,
      "0x1f61": 5533,
      "0x1e54": 5534,
      "0x1f55": 5535,
      "0x1f4f": 5536,
      "0x229d": 5537,
      "0x22c1": 5538,
      "0x1faa": 5539,
      "0x215f": 5540,
      "0x23ce": 5541,
      "0x21a0": 5542,
      "0x21b5": 5543,
      "0x30d": 5544,
      "0x212d": 5545,
      "0x234": 5546,
      "0x5e2": 5547,
      "0x2006": 5548,
      "0x231f": 5549,
      "0x2dc": 5550,
      "0x1fe8": 5551,
      "0x2033": 5552,
      "0x231c": 5553,
      "0x5172": 5554,
      "0x5eb": 5555,
      "0x2471": 5556,
      "0x20f6": 5557,
      "0x207a": 5558,
      "0x244d": 5559,
      "0x1d83": 5560,
      "0x1e52": 5561,
      "0x23e4": 5562,
      "0x20c0": 5563,
      "0x22e1": 5564,
      "0x21b2": 5565,
      "0x1f76": 5566,
      "0x2149": 5567,
      "0x1fc7": 5568,
      "0x2185": 5569,
      "0x234b": 5570,
      "0x1ff6": 5571,
      "0x2114": 5572,
      "0x20f7": 5573,
      "0x2178": 5574,
      "0x1018": 5575,
      "0x22ad": 5576,
      "0x21ea": 5577,
      "0x1f45": 5578,
      "0x21be": 5579,
      "0x22e0": 5580,
      "0x20a8": 5581,
      "0x1fea": 5582,
      "0x63d": 5583,
      "0x1fd7": 5584,
      "0x210a": 5585,
      "0x22bd": 5586,
      "0x26f2": 5587,
      "0x229a": 5588,
      "0x1fba": 5589,
      "0x734": 5590,
      "0x21e3": 5591,
      "0x216b": 5592,
      "0x2201": 5593,
      "0x1ec5": 5594,
      "0x2277": 5595,
      "0x223a": 5596,
      "0x22cf": 5597,
      "0x471": 5598,
      "0x207e": 5599,
      "0x245a": 5600,
      "0x23c5": 5601,
      "0x215a": 5602,
      "0x216d": 5603,
      "0x2403": 5604,
      "0x201d": 5605,
      "0x238b": 5606,
      "0x1f7a": 5607,
      "0x22d3": 5608,
      "0x2210": 5609,
      "0x246f": 5610,
      "0x1181": 5611,
      "0x1d4dc": 5612,
      "0x1fc2": 5613,
      "0x2379": 5614,
      "0x26c": 5615,
      "0x2345": 5616,
      "0x2289": 5617,
      "0x66d": 5618,
      "0x245c": 5619,
      "0x20ed": 5620,
      "0x21d6": 5621,
      "0x23af": 5622,
      "0x226c": 5623,
      "0x1f9b": 5624,
      "0x215b": 5625,
      "0x665": 5626,
      "0x2272": 5627,
      "0x21c7": 5628,
      "0x205e": 5629,
      "0x213d": 5630,
      "0x1f06": 5631,
      "0x20e7": 5632,
      "0x7f0": 5633,
      "0x22c6": 5634,
      "0x2022": 5635,
      "0x25ec": 5636,
      "0x2635": 5637,
      "0x1fe7": 5638,
      "0x2057": 5639,
      "0x220f": 5640,
      "0x2475": 5641,
      "0x20af": 5642,
      "0x2389": 5643,
      "0x214": 5644,
      "0x236a": 5645,
      "0x2102": 5646,
      "0x1188": 5647,
      "0x2406": 5648,
      "0x2300": 5649,
      "0x1ef7": 5650,
      "0x205d": 5651,
      "0x2365": 5652,
      "0x2a4": 5653,
      "0x20bb": 5654,
      "0x1ef1": 5655,
      "0x205f": 5656,
      "0x2308": 5657,
      "0x2215": 5658,
      "0x21cf": 5659,
      "0x20c5": 5660,
      "0x2155": 5661,
      "0x1f96": 5662,
      "0x2270": 5663,
      "0x21ce": 5664,
      "0x23a2": 5665,
      "0x200e": 5666,
      "0x2035": 5667,
      "0x23fb": 5668,
      "0x2284": 5669,
      "0x69d": 5670,
      "0x1ff4": 5671,
      "0x237d": 5672,
      "0x1fa5": 5673,
      "0x2164": 5674,
      "0x1e80": 5675,
      "0x2276": 5676,
      "0x2366": 5677,
      "0x2290": 5678,
      "0x210e": 5679,
      "0x1001c": 5680,
      "0x2480": 5681,
      "0x2184": 5682,
      "0x2214": 5683,
      "0xd7": 5684,
      "0x2203": 5685,
      "0x247d": 5686,
      "0x22e9": 5687,
      "0x2162": 5688,
      "0x21de": 5689,
      "0x24d7": 5690,
      "0x23f7": 5691,
      "0x22a3": 5692,
      "0x21ff": 5693,
      "0x1197": 5694,
      "0x2042": 5695,
      "0x1e4a": 5696,
      "0x218e": 5697,
      "0x663": 5698,
      "0x2335": 5699,
      "0x1d4e0": 5700,
      "0x2092": 5701,
      "0x20df": 5702,
      "0x23d8": 5703,
      "0x1f21": 5704,
      "0x25f4": 5705,
      "0x24b0": 5706,
      "0x208d": 5707,
      "0x214e": 5708,
      "0x20c7": 5709,
      "0x119a": 5710,
      "0x23ba": 5711,
      "0x5f3": 5712,
      "0x24ca": 5713,
      "0x6ea": 5714,
      "0x22ee": 5715,
      "0x228f": 5716,
      "##a07": 5717,
      "0x720": 5718,
      "0x21f9": 5719,
      "0x2086": 5720,
      "0x20ae": 5721,
      "0x689": 5722,
      "0x209e": 5723,
      "0x66b": 5724,
      "0x4f42": 5725,
      "0x453": 5726,
      "0x2156": 5727,
      "##6e6": 5728,
      "0x6d4": 5729,
      "0x23e7": 5730,
      "0x2001": 5731,
      "0x204d": 5732,
      "0x21a4": 5733,
      "0x6dc": 5734,
      "0x1fee": 5735,
      "0x21b3": 5736,
      "0x1f47": 5737,
      "0x2205": 5738,
      "0x22ed": 5739,
      "0x1e4": 5740,
      "0x252f": 5741,
      "0x235f": 5742,
      "0x2612": 5743,
      "0x2436": 5744,
      "0x1ff2": 5745,
      "0x22da": 5746,
      "0x2244": 5747,
      "0x24c5": 5748,
      "0x2089": 5749,
      "0x2017": 5750,
      "0x2138": 5751,
      "0x22e8": 5752,
      "0x2309": 5753,
      "0x2322": 5754,
      "0x21e6": 5755,
      "0x562": 5756,
      "0x666": 5757,
      "0x22e4": 5758,
      "0x1f1c": 5759,
      "0x213e": 5760,
      "0x26a9": 5761,
      "0x53e3": 5762,
      "0x23d5": 5763,
      "0x2506": 5764,
      "0x20cf": 5765,
      "0x201e": 5766,
      "0x20b6": 5767,
      "0x22ea": 5768,
      "0x1fda": 5769,
      "0x2180": 5770,
      "0x2318": 5771,
      "0x20a4": 5772,
      "0x2311": 5773,
      "0x2451": 5774,
      "0x2171": 5775,
      "0x2166": 5776,
      "0x207d": 5777,
      "0x24be": 5778,
      "0x2730": 5779,
      "0x6be": 5780,
      "0x240f": 5781,
      "0x238f": 5782,
      "0x243c": 5783,
      "0x25a0": 5784,
      "0x22f6": 5785,
      "0x235e": 5786,
      "0x3010": 5787,
      "0x214a": 5788,
      "0x217d": 5789,
      "0x2679": 5790,
      "0x6b8": 5791,
      "0x2490": 5792,
      "0x1fc1": 5793,
      "0x308": 5794,
      "0x68d10": 5795,
      "0x54190": 5796,
      "0x2047": 5797,
      "0x20d2": 5798,
      "0x21d8": 5799,
      "0x298": 5800,
      "0x2560": 5801,
      "0x2373": 5802,
      "0x1f80": 5803,
      "0x23cc": 5804,
      "0x25a8": 5805,
      "0x1f32": 5806,
      "0x2770": 5807,
      "0x2041": 5808,
      "0x20f2": 5809,
      "0x488": 5810,
      "0x24f8": 5811,
      "0x1ea0": 5812,
      "0x21e9": 5813,
      "0x2582": 5814,
      "0x2196": 5815,
      "0x20e4": 5816,
      "0x2199": 5817,
      "0x241c": 5818,
      "0x21ba": 5819,
      "0x222a": 5820,
      "0x22d0": 5821,
      "0x2085": 5822,
      "0x22c5": 5823,
      "0x201f": 5824,
      "0x23aa": 5825,
      "0x23d1": 5826,
      "0x2079": 5827,
      "0x2384": 5828,
      "0x24a8": 5829,
      "0x479": 5830,
      "0x2091": 5831,
      "0x2540": 5832,
      "0x2478": 5833,
      "0x2099": 5834,
      "0x21b1": 5835,
      "0x21e2": 5836,
      "0x23ae": 5837,
      "0x2371": 5838,
      "0x67b": 5839,
      "0x223b": 5840,
      "0x22ba": 5841,
      "0x258a": 5842,
      "0xee": 5843,
      "0x210b": 5844,
      "0x2429": 5845,
      "0x18030": 5846,
      "0x2488": 5847,
      "0x2129": 5848,
      "0x22df": 5849,
      "0x1fb1": 5850,
      "0x225c": 5851,
      "0x2093": 5852,
      "0x1ffd": 5853,
      "0x2f8": 5854,
      "0x2d8": 5855,
      "0x21c8": 5856,
      "0x2208": 5857,
      "0x2174": 5858,
      "0x25a6": 5859,
      "0x260e": 5860,
      "0x296a": 5861,
      "0x1fd3": 5862,
      "0x2188": 5863,
      "0x834": 5864,
      "0x25cd": 5865,
      "0x2247": 5866,
      "0x20fa": 5867,
      "0x24c2": 5868,
      "0x245e": 5869,
      "0x22e2": 5870,
      "0x2131": 5871,
      "0x2157": 5872,
      "0x22ce": 5873,
      "0x262e": 5874,
      "0x23c2": 5875,
      "0x233f": 5876,
      "0x23a3": 5877,
      "0x246d": 5878,
      "0x211e": 5879,
      "0x22ae": 5880,
      "0x2287": 5881,
      "0x1f23": 5882,
      "0x24f0": 5883,
      "0x239f": 5884,
      "0x2104": 5885,
      "0x202e": 5886,
      "0x27f7": 5887,
      "0x63b": 5888,
      "0x2112": 5889,
      "0x218d": 5890,
      "0x258b": 5891,
      "0x2348": 5892,
      "0x21b8": 5893,
      "0x21c0": 5894,
      "0x2609": 5895,
      "0x2590": 5896,
      "0x1ed8": 5897,
      "0x2347": 5898,
      "0x221c": 5899,
      "0x2257": 5900,
      "0x219d": 5901,
      "0x23eb": 5902,
      "0x23b9": 5903,
      "0x202a": 5904,
      "0x22f5": 5905,
      "0x232e": 5906,
      "0x1fbd": 5907,
      "0x23f3": 5908,
      "0x2123": 5909,
      "0x219c": 5910,
      "0x6e9": 5911,
      "0x225b": 5912,
      "0x21a2": 5913,
      "0x2032": 5914,
      "0x2377": 5915,
      "0x2238": 5916,
      "0x1fe0": 5917,
      "0x1f12": 5918,
      "0x232d": 5919,
      "0x2189": 5920,
      "0x10020": 5921,
      "0x1f37": 5922,
      "0x6e8": 5923,
      "0x24fb": 5924,
      "0x22b4": 5925,
      "0x254b": 5926,
      "0x217c": 5927,
      "0x21e1": 5928,
      "0x2136": 5929,
      "0x2198": 5930,
      "0x2649": 5931,
      "0x6ff": 5932,
      "0x1f99": 5933,
      "0x2448": 5934,
      "0x384": 5935,
      "0x23de": 5936,
      "0x21f8": 5937,
      "0x21f4": 5938,
      "0x22c2": 5939,
      "0x20b1": 5940,
      "0x2464": 5941,
      "0x2328": 5942,
      "0x21a7": 5943,
      "0x2714": 5944,
      "0x21df": 5945,
      "0x1fd5": 5946,
      "0x22e7": 5947,
      "0x20dc": 5948,
      "0x2222": 5949,
      "0x205a": 5950,
      "0x23a6": 5951,
      "0x245d": 5952,
      "0x20fb": 5953,
      "0x2516": 5954,
      "0x1196": 5955,
      "0x2217": 5956,
      "0x10000": 5957,
      "0x212a": 5958,
      "0x226a": 5959,
      "0x2292": 5960,
      "0x232b": 5961,
      "0x20ad": 5962,
      "0x23a8": 5963,
      "0x2073": 5964,
      "0x2019": 5965,
      "0x23f6": 5966,
      "0x5f2": 5967,
      "0x25d9": 5968,
      "0x22cd": 5969,
      "0x28ea": 5970,
      "0x218f": 5971,
      "0x2097": 5972,
      "0x20bf": 5973,
      "0x2683": 5974,
      "0x2025": 5975,
      "0x2223": 5976,
      "0x25c3": 5977,
      "0x21d2": 5978,
      "0x21d3": 5979,
      "0x21f5": 5980,
      "0x2263": 5981,
      "0x23bf": 5982,
      "0x25f0": 5983,
      "0x230b": 5984,
      "0xda": 5985,
      "0x223d": 5986,
      "0x45e": 5987,
      "0x2279": 5988,
      "0x1f6d": 5989,
      "0x118f": 5990,
      "0x2530": 5991,
      "0x220e": 5992,
      "0x22dc": 5993,
      "0x2349": 5994,
      "0x2055": 5995,
      "0x2851": 5996,
      "0x224f": 5997,
      "0x20c8": 5998,
      "0x231e": 5999,
      "0x24cc": 6000,
      "0x222c": 6001,
      "0x1185": 6002,
      "0x2153": 6003,
      "0x2483": 6004,
      "0x2323": 6005,
      "0x2288": 6006,
      "0x246a": 6007,
      "0x224": 6008,
      "0x2273": 6009,
      "0x2113": 6010,
      "0x249a": 6011,
      "0x22ef": 6012,
      "0x26d4": 6013,
      "0x6a7": 6014,
      "0x23db": 6015,
      "0x2568": 6016,
      "0x231d": 6017,
      "0x20a9": 6018,
      "0x26ca": 6019,
      "0x6ec": 6020,
      "0x5bd": 6021,
      "0x2037": 6022,
      "0x2397": 6023,
      "0x23c8": 6024,
      "0x273f": 6025,
      "0x211d": 6026,
      "0xfffffffffffffff8": 6027,
      "0x592": 6028,
      "0x2152": 6029,
      "0x448f0": 6030,
      "0x1fcf": 6031,
      "0x233e": 6032,
      "0x23d9": 6033,
      "0x23c6": 6034,
      "0x2368": 6035,
      "0x23c9": 6036,
      "0x9c0": 6037,
      "0x2077": 6038,
      "0x225f": 6039,
      "0x2450": 6040,
      "0x21ef": 6041,
      "0x1e41": 6042,
      "0x7a1": 6043,
      "0x22a4": 6044,
      "0x20ee": 6045,
      "0x2049": 6046,
      "0x23f8": 6047,
      "0x26ad": 6048,
      "0x639": 6049,
      "0x2071": 6050,
      "0x7ff": 6051,
      "0x2548": 6052,
      "0x4010": 6053,
      "0x2234": 6054,
      "0x2132": 6055,
      "0x2053": 6056,
      "0x229f": 6057,
      "0x242e": 6058,
      "0x2111": 6059,
      "0x2422": 6060,
      "0x227e": 6061,
      "0x23bd": 6062,
      "0x2298": 6063,
      "0xf6": 6064,
      "0x24dd": 6065,
      "0x2637": 6066,
      "0x2797": 6067,
      "0x6e4": 6068,
      "0x210c": 6069,
      "0x2452": 6070,
      "0x838": 6071,
      "0x22c4": 6072,
      "0x243f": 6073,
      "0x2519": 6074,
      "0x648": 6075,
      "0x274c": 6076,
      "0x13a": 6077,
      "0x2468": 6078,
      "0x2393": 6079,
      "0x2237": 6080,
      "0x2127": 6081,
      "0x24b3": 6082,
      "0x231b": 6083,
      "0x2087": 6084,
      "0x26b0": 6085,
      "0x26f0": 6086,
      "0x2107": 6087,
      "0x2220": 6088,
      "0x24c3": 6089,
      "0x20a1": 6090,
      "0x20ef": 6091,
      "0x25b4": 6092,
      "0x24cf": 6093,
      "0x118c": 6094,
      "0x213b": 6095,
      "0x2542": 6096,
      "0x27c4": 6097,
      "0x2143": 6098,
      "0x2756": 6099,
      "0x750": 6100,
      "0x204b": 6101,
      "0x1178": 6102,
      "0x258c": 6103,
      "0x2175": 6104,
      "0x2425": 6105,
      "0x22eb": 6106,
      "0xfffffffd": 6107,
      "0x25ff": 6108,
      "0x25d4": 6109,
      "0x2069": 6110,
      "0x228a": 6111,
      "0x2216": 6112,
      "0x730": 6113,
      "0x242b": 6114,
      "0x890": 6115,
      "0x25c8": 6116,
      "0x2081": 6117,
      "0x2558": 6118,
      "0x2269": 6119,
      "0x42e": 6120,
      "0x208f": 6121,
      "0x2394": 6122,
      "0x6d8": 6123,
      "0x2286": 6124,
      "##12a": 6125,
      "0x2169": 6126,
      "0x25c6": 6127,
      "0x20cd": 6128,
      "0x21c2": 6129,
      "0x2124": 6130,
      "0x2337": 6131,
      "0x21d0": 6132,
      "0x200b": 6133,
      "0x20d7": 6134,
      "0x2228": 6135,
      "0x234e": 6136,
      "0x65b": 6137,
      "0x264e": 6138,
      "0x6aa": 6139,
      "0x2293": 6140,
      "0x22db": 6141,
      "0x21fd": 6142,
      "0x4eeb0": 6143,
      "0x21ee": 6144,
      "0x223e": 6145,
      "0x2841": 6146,
      "0x2a28": 6147,
      "0x21e8": 6148,
      "0x239b": 6149,
      "0x263d": 6150,
      "0x2229": 6151,
      "0x2777": 6152,
      "0x2372": 6153,
      "0x2381": 6154,
      "0x2724": 6155,
      "0x21fb": 6156,
      "0x2255": 6157,
      "0x241f": 6158,
      "0x2419": 6159,
      "0x23d7": 6160,
      "0x206d": 6161,
      "0x25de": 6162,
      "0x23ea": 6163,
      "0x232a": 6164,
      "0x69b": 6165,
      "0x2375": 6166,
      "0x22b3": 6167,
      "0x24c8": 6168,
      "0x246b": 6169,
      "0x242f": 6170,
      "0x23fc": 6171,
      "0x118a": 6172,
      "0x4a98": 6173,
      "0x2595": 6174,
      "0x2183": 6175,
      "0xde": 6176,
      "0x218c": 6177,
      "0x23c": 6178,
      "0x21c3": 6179,
      "0x2145": 6180,
      "0x2391": 6181,
      "0x2565": 6182,
      "0x25e6": 6183,
      "0x2616": 6184,
      "0xfffffffb": 6185,
      "0x273c": 6186,
      "0x20a0": 6187,
      "0x20c3": 6188,
      "##b08": 6189,
      "0x287c": 6190,
      "0x21e7": 6191,
      "0x2388": 6192,
      "0x24aa": 6193,
      "0x21d1": 6194,
      "0x2618": 6195,
      "0x1179": 6196,
      "0x24e5": 6197,
      "0x2792": 6198,
      "0x24a2": 6199,
      "0x20f1": 6200,
      "0x2575": 6201,
      "0x2294": 6202,
      "0x2819": 6203,
      "0x2551": 6204,
      "0x2499": 6205,
      "0x27ac": 6206,
      "0x20a7": 6207,
      "0x214c": 6208,
      "0x276a": 6209,
      "0x2909": 6210,
      "0x2351": 6211,
      "0x24b7": 6212,
      "0x20a6": 6213,
      "0x2477": 6214,
      "0x22aa": 6215,
      "0x26d1": 6216,
      "0x2f88": 6217,
      "0x1fdd": 6218,
      "##9f6": 6219,
      "##354": 6220,
      "0x2497": 6221,
      "0x22e3": 6222,
      "0x2115": 6223,
      "0x2231": 6224,
      "0x1ee1": 6225,
      "0x2610": 6226,
      "0x2207": 6227,
      "0x215d": 6228,
      "0x23bb": 6229,
      "0x275b": 6230,
      "0x22fc": 6231,
      "0x2280": 6232,
      "0x1fbb": 6233,
      "0x234d": 6234,
      "0x2282": 6235,
      "0x228e": 6236,
      "0x2b60": 6237,
      "0x2b8": 6238,
      "##31e": 6239,
      "0x252e": 6240,
      "0x2527": 6241,
      "0x242c": 6242,
      "0x23b3": 6243,
      "0x24a1": 6244,
      "0x220d": 6245,
      "0x26fc": 6246,
      "0x1feb": 6247,
      "0x2672": 6248,
      "0x20e1": 6249,
      "0x4ae": 6250,
      "0x2474": 6251,
      "0x22bb": 6252,
      "0x2133": 6253,
      "0x27dd": 6254,
      "0x24d9": 6255,
      "0x27bc": 6256,
      "0x209a": 6257,
      "0x2161": 6258,
      "0x22bc": 6259,
      "0x80000": 6260,
      "0x2708": 6261,
      "0x28c7": 6262,
      "0x24e2": 6263,
      "0x259d": 6264,
      "0xd3": 6265,
      "0x247a": 6266,
      "0x253b": 6267,
      "0x25d0": 6268,
      "0x24e4": 6269,
      "##6ee": 6270,
      "0x221b": 6271,
      "0x2633": 6272,
      "0x21a8": 6273,
      "0x21d9": 6274,
      "0x4b2": 6275,
      "0x24ab": 6276,
      "0x2920": 6277,
      "0x6f7": 6278,
      "0x24ef": 6279,
      "0x21f7": 6280,
      "0x217f": 6281,
      "0x222f": 6282,
      "0x2494": 6283,
      "0x228d": 6284,
      "0x2799": 6285,
      "0x20f3": 6286,
      "0x24af": 6287,
      "0x21dc": 6288,
      "0x2766": 6289,
      "0x25be": 6290,
      "0x2763": 6291,
      "0x239e": 6292,
      "0x2447": 6293,
      "0x20fe": 6294,
      "0x5a2": 6295,
      "0x2240": 6296,
      "0x26f7": 6297,
      "0x2352": 6298,
      "0x2b10": 6299,
      "0x212c": 6300,
      "0x211b": 6301,
      "0x2297": 6302,
      "0x220b": 6303,
      "0x22c8": 6304,
      "0x26de": 6305,
      "0x25ce": 6306,
      "0x2664": 6307,
      "0x1193": 6308,
      "0x22f4": 6309,
      "0x2e6c": 6310,
      "0x2605": 6311,
      "0x2892": 6312,
      "0x268b": 6313,
      "0x24f4": 6314,
      "0x26b8": 6315,
      "0x782": 6316,
      "0x2316": 6317,
      "0x2f8c": 6318,
      "0x2739": 6319,
      "0x334": 6320,
      "0x51eb8": 6321,
      "0x51eb851f": 6322,
      "0x2151": 6323,
      "0x21af": 6324,
      "0x28b2": 6325,
      "0x2585": 6326,
      "0x1f36": 6327,
      "0x27b4": 6328,
      "0x298a": 6329,
      "0x103": 6330,
      "0x2442": 6331,
      "0x22c3": 6332,
      "0x23ad": 6333,
      "0x25af": 6334,
      "0x272c": 6335,
      "0x2654": 6336,
      "0x22ab": 6337,
      "0x2213": 6338,
      "0x26d6": 6339,
      "0x22de": 6340,
      "0x2510": 6341,
      "0x1ed2": 6342,
      "0x25bb": 6343,
      "0x2428": 6344,
      "0x2356": 6345,
      "0x5f1": 6346,
      "0x22e6": 6347,
      "0x211f": 6348,
      "0x26a1": 6349,
      "0x24c1": 6350,
      "0x245b": 6351,
      "0x20b9": 6352,
      "0x24e9": 6353,
      "0x251f": 6354,
      "0x27a1": 6355,
      "0x24c": 6356,
      "0x216f": 6357,
      "0x28fa": 6358,
      "0x2834": 6359,
      "0x22d7": 6360,
      "0x3810": 6361,
      "0x2285": 6362,
      "0x230a": 6363,
      "0x2321": 6364,
      "0x354": 6365,
      "0x2076": 6366,
      "0x24d5": 6367,
      "0x224d": 6368,
      "0x22ff": 6369,
      "0x2165": 6370,
      "0x291e": 6371,
      "0x23f0": 6372,
      "0x2209": 6373,
      "##f31": 6374,
      "0x2871": 6375,
      "0x25ca": 6376,
      "0x26a5": 6377,
      "0x2362": 6378,
      "0x21c5": 6379,
      "0x22bf": 6380,
      "0x2689": 6381,
      "0x248e": 6382,
      "0x23b7": 6383,
      "0x21fc": 6384,
      "0x2570": 6385,
      "0x240a": 6386,
      "0x23e5": 6387,
      "0x2550": 6388,
      "0x2179": 6389,
      "##e1f": 6390,
      "0x295e": 6391,
      "0x6e3": 6392,
      "0x22fd": 6393,
      "0x4c4b": 6394,
      "0x22c0": 6395,
      "0x24ec": 6396,
      "0x2465": 6397,
      "0x2202": 6398,
      "0x2275": 6399,
      "0x21ad": 6400,
      "0x23e2": 6401,
      "0x255c": 6402,
      "0x25e1": 6403,
      "0x21a1": 6404,
      "0x6f4": 6405,
      "0x2433": 6406,
      "0x2212": 6407,
      "0x270c": 6408,
      "0x25e2": 6409,
      "0x78b10": 6410,
      "0x2439": 6411,
      "0x2142": 6412,
      "0x2258": 6413,
      "0x255f": 6414,
      "0x24ea": 6415,
      "0x2239": 6416,
      "##ffffffff": 6417,
      "0x1155": 6418,
      "0x2817": 6419,
      "0x230c": 6420,
      "0x388": 6421,
      "0x2226": 6422,
      "0x23c0": 6423,
      "0x25e0": 6424,
      "0x240d": 6425,
      "r15d": 6426,
      "0x2430": 6427,
      "0x6eb": 6428,
      "0x216c": 6429,
      "0x238d": 6430,
      "0x2687": 6431,
      "0x2ad8": 6432,
      "0x2647": 6433,
      "0x2523": 6434,
      "0x23cf": 6435,
      "0x2336": 6436,
      "0x234c": 6437,
      "0x21e4": 6438,
      "0x242d": 6439,
      "0x237c": 6440,
      "0x24da": 6441,
      "0x22af": 6442,
      "0x2a79": 6443,
      "0x2864": 6444,
      "0x2259": 6445,
      "0x24f6": 6446,
      "0x76c": 6447,
      "0x4db": 6448,
      "0x22cc": 6449,
      "0x2402": 6450,
      "0x2952": 6451,
      "0x2331": 6452,
      "0x288e": 6453,
      "0x25ea": 6454,
      "0x2514": 6455,
      "0x2ac0": 6456,
      "0x2317": 6457,
      "0x25b0": 6458,
      "0x251e": 6459,
      "0x2555": 6460,
      "0x21bc": 6461,
      "0x2253": 6462,
      "0x23c4": 6463,
      "0x263b": 6464,
      "0x2339": 6465,
      "0x23a4": 6466,
      "0x2a33": 6467,
      "0x2900": 6468,
      "0x2479": 6469,
      "0x238e": 6470,
      "0x2814": 6471,
      "0x24de": 6472,
      "0x2489": 6473,
      "0x2172": 6474,
      "0x289a": 6475,
      "0x24a5": 6476,
      "0x25da": 6477,
      "0x21fe": 6478,
      "0x24ad": 6479,
      "0x28cc": 6480,
      "0x980": 6481,
      "0x2186": 6482,
      "0x2928": 6483,
      "0x34c": 6484,
      "0x2418": 6485,
      "0x24f7": 6486,
      "0x22f0": 6487,
      "0x2669": 6488,
      "0x26ff": 6489,
      "0x289e": 6490,
      "0x2135": 6491,
      "0x2265": 6492,
      "0x24bc": 6493,
      "0x23b8": 6494,
      "0x257f": 6495,
      "0x221e": 6496,
      "0x2405": 6497,
      "0x26d9": 6498,
      "0x593": 6499,
      "0x2385": 6500,
      "0x2507": 6501,
      "0x2634": 6502,
      "0x21a9": 6503,
      "0x2875": 6504,
      "0x2415": 6505,
      "0x21d7": 6506,
      "0x2454": 6507,
      "0xdc0": 6508,
      "0x265b": 6509,
      "0x2225": 6510,
      "0x2614": 6511,
      "0x2458": 6512,
      "0x219f": 6513,
      "0x27a4": 6514,
      "0x2106": 6515,
      "0x2398": 6516,
      "0x2576": 6517,
      "0x278f": 6518,
      "0x117d": 6519,
      "0x2580": 6520,
      "0x222d": 6521,
      "0x23f5": 6522,
      "0x2867": 6523,
      "0x22d1": 6524,
      "0x24a3": 6525,
      "0x200a": 6526,
      "0x29cb": 6527,
      "0x21ed": 6528,
      "0x26c4": 6529,
      "0x221d": 6530,
      "0x27d8": 6531,
      "0x242a": 6532,
      "0x29f7": 6533,
      "0x254d": 6534,
      "0x2241": 6535,
      "0x25e8": 6536,
      "0x255e": 6537,
      "0x2ac7": 6538,
      "0x2525": 6539,
      "0x285d": 6540,
      "0x259a": 6541,
      "0x2774": 6542,
      "0x256b": 6543,
      "0x234f": 6544,
      "0x2703": 6545,
      "0x212f": 6546,
      "0x29b6": 6547,
      "0x27c0": 6548,
      "0x2569": 6549,
      "0x2492": 6550,
      "0x2896": 6551,
      "0x2176": 6552,
      "0x229e": 6553,
      "0x2cb4": 6554,
      "0x28d0": 6555,
      "0x229c": 6556,
      "0x2941": 6557,
      "0x2546": 6558,
      "0x2435": 6559,
      "0x2181": 6560,
      "0x20de": 6561,
      "0x25c2": 6562,
      "0x2758": 6563,
      "0x26b2": 6564,
      "0x4b9": 6565,
      "0x27f4": 6566,
      "0x26b4": 6567,
      "0x26cf": 6568,
      "0x622": 6569,
      "0x2699": 6570,
      "0x29f0": 6571,
      "0x697": 6572,
      "0x2274": 6573,
      "0x2354": 6574,
      "0x28a5": 6575,
      "0x23a7": 6576,
      "##fe5": 6577,
      "0x2438": 6578,
      "0x2502": 6579,
      "0x3b9aca07": 6580,
      "0x508": 6581,
      "0x227c": 6582,
      "0x2332": 6583,
      "0x240c": 6584,
      "0x244b": 6585,
      "0x288f": 6586,
      "0x3e90": 6587,
      "0x42a": 6588,
      "0x24ae": 6589,
      "0x223c": 6590,
      "0x227b": 6591,
      "0x2750": 6592,
      "0x23ee": 6593,
      "##556": 6594,
      "0x2783": 6595,
      "0x21ab": 6596,
      "0x2696": 6597,
      "0x2627": 6598,
      "0x2642": 6599,
      "0x2399": 6600,
      "0x29dc": 6601,
      "0x2599": 6602,
      "0x286c": 6603,
      "0x256f": 6604,
      "0x27ce": 6605,
      "0x2412": 6606,
      "0x23a9": 6607,
      "0x2744": 6608,
      "0x2a1a": 6609,
      "##fd8": 6610,
      "0x2601": 6611,
      "0x23e6": 6612,
      "0x970": 6613,
      "0x24ed": 6614,
      "0x22e5": 6615,
      "0x2359": 6616,
      "0x251b": 6617,
      "0x250f": 6618,
      "0x18044": 6619,
      "0x2862": 6620,
      "0x22ac": 6621,
      "0x72c": 6622,
      "0x274e": 6623,
      "0x25bf": 6624,
      "0x28e0": 6625,
      "0x8970": 6626,
      "0x2660": 6627,
      "0x2314": 6628,
      "0x2d79": 6629,
      "0x282e": 6630,
      "0x2358": 6631,
      "0x2711": 6632,
      "0xfffffffc": 6633,
      "0x261e": 6634,
      "0x2493": 6635,
      "0x2794": 6636,
      "0x27fc": 6637,
      "0x24c6": 6638,
      "0x2591": 6639,
      "0x25c5": 6640,
      "0x262c": 6641,
      "0x2a06": 6642,
      "0x246c": 6643,
      "0x22f2": 6644,
      "0x2486": 6645,
      "0x270a": 6646,
      "0x26b1": 6647,
      "0xd6": 6648,
      "0x2491": 6649,
      "0x261b": 6650,
      "0x2600": 6651,
      "0xfb0": 6652,
      "0x28ae": 6653,
      "0x2529": 6654,
      "0x24e7": 6655,
      "0x2461": 6656,
      "0x2500": 6657,
      "0x27b9": 6658,
      "0x2374": 6659,
      "0x23e9": 6660,
      "0x2623": 6661,
      "0x2fac": 6662,
      "0x250b": 6663,
      "0x23f1": 6664,
      "0x2690": 6665,
      "0x29b2": 6666,
      "0x117b": 6667,
      "0x2496": 6668,
      "0x22a0": 6669,
      "0x22b1": 6670,
      "0x2204": 6671,
      "0x20a5": 6672,
      "0x21cd": 6673,
      "0x275f": 6674,
      "0x2361": 6675,
      "0x26c3": 6676,
      "0x2367": 6677,
      "0x2d6c": 6678,
      "0x1187": 6679,
      "0xe6": 6680,
      "0x2597": 6681,
      "0x2780": 6682,
      "0x2b71": 6683,
      "0xa10": 6684,
      "##66666666": 6685,
      "0x28f8": 6686,
      "0x2586": 6687,
      "0x6666666666666": 6688,
      "0x22f9": 6689,
      "0x6666666666666667": 6690,
      "0x25d5": 6691,
      "0x2d2c": 6692,
      "0x2512": 6693,
      "0x2414": 6694,
      "0x2733": 6695,
      "0x2c21": 6696,
      "0x2801": 6697,
      "0x2517": 6698,
      "0x29a0": 6699,
      "0x3ed8": 6700,
      "0x26f4": 6701,
      "0x2910": 6702,
      "0x2fa0": 6703,
      "0x24a9": 6704,
      "0x29ea": 6705,
      "0x2a24": 6706,
      "0x2b9e": 6707,
      "0x239a": 6708,
      "0x21f3": 6709,
      "0x2572": 6710,
      "##516": 6711,
      "0x258f": 6712,
      "0x277e": 6713,
      "0x248c": 6714,
      "0x24db": 6715,
      "0x25fc": 6716,
      "0x78920": 6717,
      "0x78918": 6718,
      "0x782a0": 6719,
      "0x28db": 6720,
      "0x2561": 6721,
      "0x28f3": 6722,
      "0x26ea": 6723,
      "0x2631": 6724,
      "0x28e9": 6725,
      "0x2456": 6726,
      "0x22c7": 6727,
      "0x22b7": 6728,
      "0x239c": 6729,
      "0x24c0": 6730,
      "0x250e": 6731,
      "0x6fc": 6732,
      "0x1fd9": 6733,
      "0x2725": 6734,
      "0x256e": 6735,
      "0x6f8": 6736,
      "0x277d": 6737,
      "0x274a": 6738,
      "0x27ed": 6739,
      "0x2798": 6740,
      "0x27c8": 6741,
      "0x2f00": 6742,
      "0x200000": 6743,
      "0x26c7": 6744,
      "0x24b8": 6745,
      "0x271a": 6746,
      "0x2be7": 6747,
      "0x25b2": 6748,
      "0x2de6": 6749,
      "0x2f20": 6750,
      "0x24ee": 6751,
      "0x2868": 6752,
      "0x2a37": 6753,
      "0x2319": 6754,
      "0x2a80": 6755,
      "0x23da": 6756,
      "0x24fc": 6757,
      "0x2312": 6758,
      "0x22a2": 6759,
      "0x2520": 6760,
      "0x2619": 6761,
      "0x4c4": 6762,
      "0x118b": 6763,
      "0x261f": 6764,
      "0x2409": 6765,
      "0x2211": 6766,
      "0x241b": 6767,
      "0x2473": 6768,
      "0x23c7": 6769,
      "0x29a5": 6770,
      "0x2466": 6771,
      "0x249e": 6772,
      "0x21cb": 6773,
      "0x26aa": 6774,
      "0x2a5b": 6775,
      "0xce": 6776,
      "0x29e8": 6777,
      "0x43a": 6778,
      "0x2a49": 6779,
      "0x226d": 6780,
      "0x262b": 6781,
      "0x26bd": 6782,
      "0x6e5": 6783,
      "0x2c50": 6784,
      "0x2712": 6785,
      "0x269f": 6786,
      "0x230e": 6787,
      "0x25b5": 6788,
      "0x2295": 6789,
      "0x2b9a": 6790,
      "0x2408": 6791,
      "0x2501": 6792,
      "##f90": 6793,
      "0x117c": 6794,
      "0x2830": 6795,
      "0x2f50": 6796,
      "0x28b8": 6797,
      "0x2495": 6798,
      "0x2441": 6799,
      "0x21b7": 6800,
      "0x27a7": 6801,
      "0x2882": 6802,
      "0x2827": 6803,
      "0x26ef": 6804,
      "0x2626": 6805,
      "0x22f1": 6806,
      "0x1fd1": 6807,
      "0x2694": 6808,
      "0x2423": 6809,
      "0x25e7": 6810,
      "0x2463": 6811,
      "0x25d7": 6812,
      "0x29c1": 6813,
      "0x26e9": 6814,
      "0x266d": 6815,
      "0x6c4": 6816,
      "0x2432": 6817,
      "0x2831": 6818,
      "0x21a3": 6819,
      "0x2762": 6820,
      "0x2a60": 6821,
      "0x3df5": 6822,
      "0x2b28": 6823,
      "0x2251": 6824,
      "0x26df": 6825,
      "0x824": 6826,
      "0x2639": 6827,
      "0x28fd": 6828,
      "0x73c": 6829,
      "0x2445": 6830,
      "0x28e7": 6831,
      "0x24a4": 6832,
      "0x20e6": 6833,
      "0x712": 6834,
      "0x24a6": 6835,
      "0x2524": 6836,
      "0x3e2c": 6837,
      "0x632": 6838,
      "0x20db": 6839,
      "0x25e4": 6840,
      "0x2326": 6841,
      "0x2759": 6842,
      "0x20d5": 6843,
      "0x285a": 6844,
      "0x2453": 6845,
      "0xd1": 6846,
      "0x1fc": 6847,
      "0x2039": 6848,
      "0x6fb": 6849,
      "0x224b": 6850,
      "0x26db": 6851,
      "0x291b": 6852,
      "0x2243": 6853,
      "0x2392": 6854,
      "0x244c": 6855,
      "0x3b39": 6856,
      "0x2427": 6857,
      "0x295b": 6858,
      "0x2485": 6859,
      "0xc10": 6860,
      "0x2a8d": 6861,
      "0x22be": 6862,
      "0x24b2": 6863,
      "0x2a94": 6864,
      "0x243d": 6865,
      "0x2515": 6866,
      "0x28d4": 6867,
      "0x23dc": 6868,
      "0x25a9": 6869,
      "0x219a": 6870,
      "0x23a5": 6871,
      "0x2594": 6872,
      "0x2553": 6873,
      "0x282a": 6874,
      "0x2606": 6875,
      "0x24b4": 6876,
      "0x2668": 6877,
      "0x2283": 6878,
      "0xc00": 6879,
      "0x2407": 6880,
      "0x28c4": 6881,
      "0x24d2": 6882,
      "0x2378": 6883,
      "0x27e9": 6884,
      "0xda8": 6885,
      "0x2a41": 6886,
      "0x27b2": 6887,
      "0x293b": 6888,
      "0x6bd": 6889,
      "0x263f": 6890,
      "0x2b03": 6891,
      "0x24b1": 6892,
      "0x26e4": 6893,
      "0x2a57": 6894,
      "0x2826": 6895,
      "0x51a": 6896,
      "0x24fd": 6897,
      "0x2b68": 6898,
      "0x2ccc": 6899,
      "0x2837": 6900,
      "0x58f0": 6901,
      "0x718": 6902,
      "0x269d": 6903,
      "0x2992": 6904,
      "0x657": 6905,
      "0x25a4": 6906,
      "0x2956": 6907,
      "0x2a15": 6908,
      "0x194": 6909,
      "0x2522": 6910,
      "0x2650": 6911,
      "0x770": 6912,
      "0x2bd3": 6913,
      "0x25ac": 6914,
      "0x2b0e": 6915,
      "0x2855": 6916,
      "0x2434": 6917,
      "0x225e": 6918,
      "0x23d2": 6919,
      "0x764": 6920,
      "0x2b81": 6921,
      "0x2878": 6922,
      "0x74c": 6923,
      "0x2c33": 6924,
      "0x25cb": 6925,
      "0x278d": 6926,
      "0x21bd": 6927,
      "0x259c": 6928,
      "0x2ef3": 6929,
      "0x2f05": 6930,
      "0x267d": 6931,
      "0x2481": 6932,
      "0x23d4": 6933,
      "0x2482": 6934,
      "0x29db": 6935,
      "0x2306": 6936,
      "0x23ab": 6937,
      "0x2a3d": 6938,
      "0x22fa": 6939,
      "0x2245": 6940,
      "0x2fb8": 6941,
      "0x2603": 6942,
      "0x236d": 6943,
      "0x23bc": 6944,
      "0x27d6": 6945,
      "0x2748": 6946,
      "0x218b": 6947,
      "0x27b6": 6948,
      "0x24ce": 6949,
      "0x2f30": 6950,
      "0x25a2": 6951,
      "0x2446": 6952,
      "0x9a0": 6953,
      "0x26c8": 6954,
      "0x2b0c": 6955,
      "0x2836": 6956,
      "0x243a": 6957,
      "0x254f": 6958,
      "0x2d7d": 6959,
      "0x579": 6960,
      "0x28b6": 6961,
      "0x2917": 6962,
      "0x2539": 6963,
      "0x2232": 6964,
      "0x253e": 6965,
      "0x23d6": 6966,
      "0x2734": 6967,
      "0x25b3": 6968,
      "0x28ca": 6969,
      "0x2431": 6970,
      "0x2613": 6971,
      "0x268e": 6972,
      "0x2387": 6973,
      "0x29c4": 6974,
      "0x2543": 6975,
      "0x2ef9": 6976,
      "0x2779": 6977,
      "0x25fe": 6978,
      "0x259b": 6979,
      "0x2469": 6980,
      "0x23ec": 6981,
      "0x2369": 6982,
      "0x292f": 6983,
      "0x2b89": 6984,
      "0x6bb": 6985,
      "0x27a8": 6986,
      "0x927": 6987,
      "0x7f8": 6988,
      "0x26c9": 6989,
      "0x2706": 6990,
      "0x247f": 6991,
      "0x1cc": 6992,
      "0x22dd": 6993,
      "0x27bb": 6994,
      "0x267f": 6995,
      "0x25d2": 6996,
      "0x117f": 6997,
      "0x2753": 6998,
      "##8080": 6999,
      "0x22ec": 7000,
      "0x755": 7001,
      "0x251d": 7002,
      "0x727": 7003,
      "0x255d": 7004,
      "0x2676": 7005,
      "0xef": 7006,
      "0x21c": 7007,
      "0x28df": 7008,
      "0x67d": 7009,
      "0x2c74": 7010,
      "0x71b": 7011,
      "0x22d4": 7012,
      "0x2954": 7013,
      "0x2449": 7014,
      "0x27ae": 7015,
      "0x2a6c": 7016,
      "0x23d3": 7017,
      "0x286a": 7018,
      "0x23b2": 7019,
      "0x2589": 7020,
      "0x2459": 7021,
      "0x2ba7": 7022,
      "0x780": 7023,
      "0x888": 7024,
      "0x22a5": 7025,
      "0x2d87": 7026,
      "0x279c": 7027,
      "0x2615": 7028,
      "0x25aa": 7029,
      "0x264c": 7030,
      "0x26a4": 7031,
      "0x252d": 7032,
      "0x2700": 7033,
      "0x79c": 7034,
      "0x2534": 7035,
      "0x2f5c": 7036,
      "0x25f6": 7037,
      "0x26bf": 7038,
      "0x259f": 7039,
      "0x255a": 7040,
      "0x2587": 7041,
      "0x63a30": 7042,
      "0x28b1": 7043,
      "0x2195": 7044,
      "0x233c": 7045,
      "0x25d6": 7046,
      "0x2579": 7047,
      "0x24d4": 7048,
      "0x2b8e": 7049,
      "0x2355": 7050,
      "0x2849": 7051,
      "0x2686": 7052,
      "0x122": 7053,
      "0x2717": 7054,
      "0x2617": 7055,
      "0x232c": 7056,
      "0x291c": 7057,
      "0x2e34": 7058,
      "0x2752": 7059,
      "0x2db9": 7060,
      "0x10010": 7061,
      "0x28de": 7062,
      "0x2722": 7063,
      "0x768": 7064,
      "0x2343": 7065,
      "0x24f90": 7066,
      "0x26a0": 7067,
      "0x49bd0": 7068,
      "0x2749": 7069,
      "0x9b0": 7070,
      "0x265e": 7071,
      "0x724": 7072,
      "0x253d": 7073,
      "0x265c": 7074,
      "0x2f90": 7075,
      "0x27aa": 7076,
      "0x20d3": 7077,
      "0x2895": 7078,
      "0x2578": 7079,
      "0x2509": 7080,
      "0x2538": 7081,
      "0x2670": 7082,
      "0x25a3": 7083,
      "0x265d": 7084,
      "0x3c32": 7085,
      "0x2338": 7086,
      "0x22a8": 7087,
      "0x2303": 7088,
      "0x2aad": 7089,
      "0x28b7": 7090,
      "0x21f6": 7091,
      "0x2f60": 7092,
      "0x2c81": 7093,
      "0x2583": 7094,
      "0x29e0": 7095,
      "0x2968": 7096,
      "0x2743": 7097,
      "0x25fa": 7098,
      "0x253a": 7099,
      "0x2973": 7100,
      "0x318": 7101,
      "0x315a": 7102,
      "0x24ac": 7103,
      "0x2865": 7104,
      "0x774": 7105,
      "0x2a19": 7106,
      "0x2969": 7107,
      "0x2256": 7108,
      "0x23e3": 7109,
      "0x26d5": 7110,
      "0x5fa": 7111,
      "0x271b": 7112,
      "0x2ae9": 7113,
      "##b1e": 7114,
      "0x22a6": 7115,
      "0x2376": 7116,
      "0x2905": 7117,
      "0x284d": 7118,
      "0x237e": 7119,
      "0x715": 7120,
      "0x2261": 7121,
      "0x2bbe": 7122,
      "0x2805": 7123,
      "0x24df": 7124,
      "0x277a": 7125,
      "0x26bc": 7126,
      "0x272e": 7127,
      "0x24f5": 7128,
      "0x2d2b": 7129,
      "##690": 7130,
      "0x2417": 7131,
      "0x24e1": 7132,
      "0x2b2f": 7133,
      "0x760": 7134,
      "##91f": 7135,
      "0xe10": 7136,
      "0x287d": 7137,
      "0x267e": 7138,
      "0x2268": 7139,
      "0x227f": 7140,
      "0x299e": 7141,
      "0x431b": 7142,
      "0x250a": 7143,
      "0x16e": 7144,
      "0x253c": 7145,
      "0x29f9": 7146,
      "0x2549": 7147,
      "0x2940": 7148,
      "0x2978": 7149,
      "0x2a44": 7150,
      "0x21eb": 7151,
      "0x271e": 7152,
      "0x2a67": 7153,
      "0x2382": 7154,
      "0x24f1": 7155,
      "0x28bd": 7156,
      "0x2907": 7157,
      "0x2421": 7158,
      "0x2a1d": 7159,
      "0x28ac": 7160,
      "0xbd0": 7161,
      "0x2e0f": 7162,
      "0x28d8": 7163,
      "0x2264": 7164,
      "0x235b": 7165,
      "0x240b": 7166,
      "0x247b": 7167,
      "0x25d1": 7168,
      "0x279d": 7169,
      "0x2aa3": 7170,
      "0x24d1": 7171,
      "0x2732": 7172,
      "0x27e2": 7173,
      "0x2737": 7174,
      "0x2b00": 7175,
      "0x23ac": 7176,
      "0x25f3": 7177,
      "0x2786": 7178,
      "0x2af8": 7179,
      "0x2541": 7180,
      "0x28be": 7181,
      "0x2291": 7182,
      "0x2769": 7183,
      "0xa00": 7184,
      "0x2bcf": 7185,
      "0x2544": 7186,
      "0x29f2": 7187,
      "0xa2c": 7188,
      "0x25db": 7189,
      "0x2663": 7190,
      "0x29ef": 7191,
      "0x2574": 7192,
      "0x2b44": 7193,
      "0x2667": 7194,
      "0x2395": 7195,
      "0x2c55": 7196,
      "0x2904": 7197,
      "0x2aed": 7198,
      "0x47a": 7199,
      "0x284": 7200,
      "0x266a": 7201,
      "0x20e9": 7202,
      "0x22d6": 7203,
      "0x2559": 7204,
      "0x235c": 7205,
      "0x25c7": 7206,
      "0x2d0e": 7207,
      "0x293a": 7208,
      "##a16": 7209,
      "0x40000": 7210,
      "0x2271": 7211,
      "0x23dd": 7212,
      "0x2573": 7213,
      "0x2771": 7214,
      "0x279e": 7215,
      "0x2a2c": 7216,
      "0x24cd": 7217,
      "0x38c": 7218,
      "0x26ce": 7219,
      "0xf4258": 7220,
      "##ccd": 7221,
      "0x28c0": 7222,
      "0x5bb": 7223,
      "0x2411": 7224,
      "0x270b": 7225,
      "0x5d01": 7226,
      "0x2673": 7227,
      "0x2d05": 7228,
      "0x2a4d": 7229,
      "0x28ee": 7230,
      "0x29a1": 7231,
      "0x2975": 7232,
      "0x253f": 7233,
      "0x25ae": 7234,
      "0x268d": 7235,
      "0x2a8c": 7236,
      "0x2802": 7237,
      "0x2547": 7238,
      "0x267b": 7239,
      "0x280d": 7240,
      "0x239d": 7241,
      "0x860": 7242,
      "0x2972": 7243,
      "0x2644": 7244,
      "0x152": 7245,
      "0x2593": 7246,
      "0x256c": 7247,
      "0x2651": 7248,
      "0x2a96": 7249,
      "0x28e4": 7250,
      "0x24fe": 7251,
      "##d10": 7252,
      "0x278a": 7253,
      "0x27cb": 7254,
      "0xde0": 7255,
      "0x2563": 7256,
      "0x2fc0": 7257,
      "0x2467": 7258,
      "0x254e": 7259,
      "0x29ee": 7260,
      "0x29ab": 7261,
      "0x2e38": 7262,
      "0x24b5": 7263,
      "0x25d8": 7264,
      "0x2457": 7265,
      "0x236c": 7266,
      "0x262a": 7267,
      "0x2879": 7268,
      "0x2dcc": 7269,
      "0x270d": 7270,
      "0x2a1c": 7271,
      "0x297d": 7272,
      "0x2da0": 7273,
      "0x2a7a": 7274,
      "0x2850": 7275,
      "0x22fb": 7276,
      "0x26cb": 7277,
      "0x27db": 7278,
      "0x284a": 7279,
      "0x2503": 7280,
      "0x26cd": 7281,
      "0x2655": 7282,
      "0x275e": 7283,
      "0x2959": 7284,
      "0x2963": 7285,
      "0x257d": 7286,
      "0x284e": 7287,
      "0x22b6": 7288,
      "0x2979": 7289,
      "0x299f": 7290,
      "0x27ff": 7291,
      "0xdf": 7292,
      "0x28a9": 7293,
      "0x2a86": 7294,
      "0x2adb": 7295,
      "0x2bc6": 7296,
      "0x2e4d": 7297,
      "0x2462": 7298,
      "0x247e": 7299,
      "0x2307": 7300,
      "0x2192": 7301,
      "0x89705": 7302,
      "0x22cb": 7303,
      "0x28a1": 7304,
      "0x2533": 7305,
      "0x75d": 7306,
      "0x2c31": 7307,
      "##e1e": 7308,
      "0x2793": 7309,
      "0x7e8": 7310,
      "0x22b9": 7311,
      "0x23b6": 7312,
      "0x2a3b": 7313,
      "0x2997": 7314,
      "0x238a": 7315,
      "##000000000000000": 7316,
      "0x2443": 7317,
      "0x24f3": 7318,
      "0x2a87": 7319,
      "0x2a22": 7320,
      "0x2a1e": 7321,
      "0x261a": 7322,
      "0x287f": 7323,
      "0x2bc2": 7324,
      "0x269c": 7325,
      "0x296f": 7326,
      "0x2b66": 7327,
      "0x297e": 7328,
      "0x2beb": 7329,
      "0x2567": 7330,
      "0x2961": 7331,
      "0x2b33": 7332,
      "0x2bb2": 7333,
      "0x26be": 7334,
      "0x26c5": 7335,
      "0x3bf7": 7336,
      "0x2b14": 7337,
      "0x27da": 7338,
      "0x2c02": 7339,
      "0x204": 7340,
      "0x28f5": 7341,
      "0x2cb8": 7342,
      "0x28d2": 7343,
      "0x2aeb": 7344,
      "0x2872": 7345,
      "0x2ca5": 7346,
      "0x2a35": 7347,
      "0x2554": 7348,
      "0x2301": 7349,
      "0x28f2": 7350,
      "0x29ce": 7351,
      "0x228b": 7352,
      "0x2be2": 7353,
      "0x2deb": 7354,
      "0x32a6": 7355,
      "0x26e7": 7356,
      "0x29b8": 7357,
      "##756": 7358,
      "0x2691": 7359,
      "0x299b": 7360,
      "0x740": 7361,
      "0x25b9": 7362,
      "0x260a": 7363,
      "0x25f1": 7364,
      "0x2562": 7365,
      "0x6f9": 7366,
      "0x2927": 7367,
      "0x23e1": 7368,
      "0x28ff": 7369,
      "0x2b11": 7370,
      "0x24bf": 7371,
      "0x24c9": 7372,
      "0x2937": 7373,
      "0x2ac4": 7374,
      "0x2334": 7375,
      "0x22d9": 7376,
      "0x2a8a": 7377,
      "0x27a9": 7378,
      "0x2346": 7379,
      "0x272d": 7380,
      "0x2532": 7381,
      "0x27de": 7382,
      "0x4c8": 7383,
      "0x2643": 7384,
      "0x2985": 7385,
      "0x290a": 7386,
      "0x3d39": 7387,
      "0x24dc": 7388,
      "0x25ef": 7389,
      "0x2be4": 7390,
      "0x273d": 7391,
      "0x287e": 7392,
      "0x2b06": 7393,
      "0x269b": 7394,
      "0x29cd": 7395,
      "0x2a2e": 7396,
      "0x2976": 7397,
      "0x268c": 7398,
      "0x2697": 7399,
      "setb": 7400,
      "0x2ce2": 7401,
      "0x2df2": 7402,
      "0x2d4c": 7403,
      "0x25ba": 7404,
      "0x283f": 7405,
      "0x2915": 7406,
      "0x2396": 7407,
      "0x2552": 7408,
      "0x2785": 7409,
      "0x2622": 7410,
      "0x2c2a": 7411,
      "0x258d": 7412,
      "0x2526": 7413,
      "0x2da7": 7414,
      "0x28ed": 7415,
      "0x4290": 7416,
      "0x276d": 7417,
      "0x2e14": 7418,
      "0x2ae2": 7419,
      "0x2a9b": 7420,
      "0x2f95": 7421,
      "0x49a": 7422,
      "0x289c": 7423,
      "0x256d": 7424,
      "0x28a8": 7425,
      "0x26fb": 7426,
      "0x2811": 7427,
      "0x24a7": 7428,
      "0x25ed": 7429,
      "0x2c10": 7430,
      "0x2505": 7431,
      "0x2857": 7432,
      "0x2736": 7433,
      "0x2c4e": 7434,
      "0x2a77": 7435,
      "0x71c": 7436,
      "0x2a27": 7437,
      "0x254a": 7438,
      "0x26e1": 7439,
      "0xb22": 7440,
      "0x2e77": 7441,
      "0x297a": 7442,
      "##ef6": 7443,
      "0xf4240": 7444,
      "0x2681": 7445,
      "0x2b37": 7446,
      "0xdb0": 7447,
      "0x25ad": 7448,
      "0x2f54": 7449,
      "0x28cf": 7450,
      "0x27d5": 7451,
      "0x735": 7452,
      "0x2a76": 7453,
      "0x2ada": 7454,
      "##28fe5": 7455,
      "##12a28fe5": 7456,
      "##f3112a28fe5": 7457,
      "0x89705f3112a28fe5": 7458,
      "0x2859": 7459,
      "0x28d6": 7460,
      "0x288a": 7461,
      "0x2845": 7462,
      "0x2604": 7463,
      "0x7a4": 7464,
      "0x2bf2": 7465,
      "0x24eb": 7466,
      "0x248f": 7467,
      "0x2894": 7468,
      "0x25b7": 7469,
      "0x232f": 7470,
      "0x24d3": 7471,
      "0x2b17": 7472,
      "0x256a": 7473,
      "0x25df": 7474,
      "0x2848": 7475,
      "0x27d9": 7476,
      "0x290c": 7477,
      "0x2531": 7478,
      "0x29ae": 7479,
      "0x293d": 7480,
      "##ps": 7481,
      "0x24b6": 7482,
      "0x2ed7": 7483,
      "0x2825": 7484,
      "0x2c1e": 7485,
      "0x26ec": 7486,
      "0x2c66": 7487,
      "0x283d": 7488,
      "0x2a11": 7489,
      "0x2a04": 7490,
      "0x2988": 7491,
      "0x271f": 7492,
      "0x257a": 7493,
      "0x2cac": 7494,
      "0x29bb": 7495,
      "0x23be": 7496,
      "0x25f5": 7497,
      "0x2719": 7498,
      "0x6fe": 7499,
      "0x2ae0": 7500,
      "0x2e3f": 7501,
      "0x27af": 7502,
      "0x2ac9": 7503,
      "0x2dd3": 7504,
      "0x25ab": 7505,
      "0x2592": 7506,
      "0x2a45": 7507,
      "0x717": 7508,
      "0x2cc9": 7509,
      "0x27a0": 7510,
      "0x3bd0": 7511,
      "0x290e": 7512,
      "0x287b": 7513,
      "0x2809": 7514,
      "0x2a5d": 7515,
      "0x26fe": 7516,
      "0x279b": 7517,
      "0x2880": 7518,
      "0x28a7": 7519,
      "0x34d10": 7520,
      "0x78b08": 7521,
      "0x2982": 7522,
      "0x28f0": 7523,
      "0x27f1": 7524,
      "0x880": 7525,
      "0x25fb": 7526,
      "0x2742": 7527,
      "0x662": 7528,
      "0x2790": 7529,
      "0x2a09": 7530,
      "0x2c60": 7531,
      "0x2af2": 7532,
      "0x25a7": 7533,
      "0x26e5": 7534,
      "0x2657": 7535,
      "0x29e7": 7536,
      "0x2eab": 7537,
      "0x2545": 7538,
      "0x2566": 7539,
      "0x2a08": 7540,
      "0x2484": 7541,
      "0x241a": 7542,
      "0x23fd": 7543,
      "0x2b84": 7544,
      "0x2416": 7545,
      "0x2666": 7546,
      "0x2661": 7547,
      "0x2f68": 7548,
      "0x2728": 7549,
      "0x29ba": 7550,
      "0xdd0": 7551,
      "0x2816": 7552,
      "0x2c0f": 7553,
      "0x2dd7": 7554,
      "0x2680": 7555,
      "0x2a81": 7556,
      "0x2931": 7557,
      "0x26e6": 7558,
      "0x2873": 7559,
      "0x292e": 7560,
      "0xdb8": 7561,
      "0x2d72": 7562,
      "0x2c06": 7563,
      "0x2c17": 7564,
      "0x296c": 7565,
      "0x2437": 7566,
      "0x288b": 7567,
      "##00ff": 7568,
      "0x26e0": 7569,
      "0x2a98": 7570,
      "0x8010": 7571,
      "0x252c": 7572,
      "0x2738": 7573,
      "0x2af4": 7574,
      "0x2aee": 7575,
      "0x2621": 7576,
      "0x2ab9": 7577,
      "0x2f76": 7578,
      "0x2508": 7579,
      "0x318c": 7580,
      "0x26ee": 7581,
      "0x2a0d": 7582,
      "0x2ca8": 7583,
      "0x2658": 7584,
      "0x24fa": 7585,
      "0x259e": 7586,
      "0x2607": 7587,
      "0x2981": 7588,
      "0x272f": 7589,
      "0x572": 7590,
      "0x75c": 7591,
      "0x233b": 7592,
      "0x2b59": 7593,
      "0x2584": 7594,
      "0x283a": 7595,
      "0x27cc": 7596,
      "0x2b23": 7597,
      "0x769": 7598,
      "0x2653": 7599,
      "0x254c": 7600,
      "0x24c4": 7601,
      "0x252a": 7602,
      "0x278e": 7603,
      "0x23c3": 7604,
      "0x28e3": 7605,
      "0x2f0b": 7606,
      "0x2958": 7607,
      "0x4ba": 7608,
      "0x24bb": 7609,
      "0x2dc9": 7610,
      "0xfffe": 7611,
      "0x28f6": 7612,
      "0x2299": 7613,
      "0x2ac2": 7614,
      "0x27cf": 7615,
      "0x2e42": 7616,
      "0x260b": 7617,
      "0x2b52": 7618,
      "0x28a6": 7619,
      "0x2511": 7620,
      "0x2c24": 7621,
      "0x2ce1": 7622,
      "0x2e61": 7623,
      "0x24bd": 7624,
      "0x2cfb": 7625,
      "0x2a5f": 7626,
      "0x24cb": 7627,
      "0x2e91": 7628,
      "0x2636": 7629,
      "0x293e": 7630,
      "0x28e5": 7631,
      "0x26dc": 7632,
      "0x2bab": 7633,
      "0x2698": 7634,
      "0x294d": 7635,
      "0x2c0c": 7636,
      "0x280f": 7637,
      "0x2521": 7638,
      "0x2e43": 7639,
      "0x2f98": 7640,
      "0x2936": 7641,
      "0x2c5e": 7642,
      "0x29a9": 7643,
      "0x29c3": 7644,
      "0x26a3": 7645,
      "0x29f1": 7646,
      "0x2d33": 7647,
      "0x2995": 7648,
      "0x26c0": 7649,
      "0x3f60": 7650,
      "0x2e63": 7651,
      "0x2638": 7652,
      "0x29aa": 7653,
      "0x2d5d": 7654,
      "0x2a90": 7655,
      "0x2932": 7656,
      "0x2aa0": 7657,
      "0x2ced": 7658,
      "0x26eb": 7659,
      "0x272b": 7660,
      "0x2630": 7661,
      "0x2df1": 7662,
      "0x1d4d8": 7663,
      "0x296d": 7664,
      "0x29bd": 7665,
      "0x2c49": 7666,
      "0x2d35": 7667,
      "0x777": 7668,
      "0x280c": 7669,
      "0x2757": 7670,
      "0x2788": 7671,
      "0x26b5": 7672,
      "0x28ba": 7673,
      "0x24d8": 7674,
      "0x2602": 7675,
      "0x2a4f": 7676,
      "0x814": 7677,
      "0x858": 7678,
      "0x2789": 7679,
      "0x29a3": 7680,
      "0x3cf7": 7681,
      "0x2727": 7682,
      "0x27c3": 7683,
      "0x286e": 7684,
      "0x30fd": 7685,
      "0x28c1": 7686,
      "0x26ae": 7687,
      "0x2a73": 7688,
      "0x25c9": 7689,
      "0x27e0": 7690,
      "0x26c1": 7691,
      "0x699": 7692,
      "0x2498": 7693,
      "0x2709": 7694,
      "0x2564": 7695,
      "0x25f7": 7696,
      "0x2b5c": 7697,
      "0x27b1": 7698,
      "0x2a0c": 7699,
      "0x24e3": 7700,
      "0x2d49": 7701,
      "0x237a": 7702,
      "0x25b6": 7703,
      "0x27c9": 7704,
      "0x284c": 7705,
      "0x758": 7706,
      "0x73d": 7707,
      "0x24e8": 7708,
      "0x2bfa": 7709,
      "0x2dfa": 7710,
      "0xe40": 7711,
      "0x42b4": 7712,
      "0x27f6": 7713,
      "0x4ad9": 7714,
      "0x2951": 7715,
      "0x2a30": 7716,
      "0x2a0a": 7717,
      "0x23fa": 7718,
      "0x261c": 7719,
      "0x260c": 7720,
      "0x2d0c": 7721,
      "0x2aaa": 7722,
      "0x2db3": 7723,
      "0x25bc": 7724,
      "0x27c1": 7725,
      "0x2773": 7726,
      "0x2d0b": 7727,
      "0x2c7a": 7728,
      "0x2bbb": 7729,
      "0x2d6f": 7730,
      "0x2f4c": 7731,
      "0x31cd": 7732,
      "0x3b71": 7733,
      "0x2a3a": 7734,
      "0x310a": 7735,
      "0x28ce": 7736,
      "0x258e": 7737,
      "0x29af": 7738,
      "0x2b54": 7739,
      "0x2684": 7740,
      "0x81c": 7741,
      "0x25dd": 7742,
      "##288": 7743,
      "0x1174": 7744,
      "0x2404": 7745,
      "0x2c99": 7746,
      "0x9cc": 7747,
      "0x2923": 7748,
      "0x26d8": 7749,
      "0x2943": 7750,
      "0x2b2b": 7751,
      "0x2ee0": 7752,
      "0x2e55": 7753,
      "0x25a1": 7754,
      "0x6f5": 7755,
      "0x2853": 7756,
      "0x2930": 7757,
      "0x31aa": 7758,
      "0x2741": 7759,
      "0x2804": 7760,
      "0x7a8": 7761,
      "0x2c1a": 7762,
      "0x9f8": 7763,
      "0x2bb1": 7764,
      "0x6e2": 7765,
      "0x27e6": 7766,
      "0x25b1": 7767,
      "0x29b7": 7768,
      "0x251a": 7769,
      "0x244e": 7770,
      "0x2823": 7771,
      "0x2716": 7772,
      "0x2bed": 7773,
      "0x2248": 7774,
      "0x25c": 7775,
      "0x29c8": 7776,
      "0x2955": 7777,
      "0xffffff00": 7778,
      "0x737": 7779,
      "0x9a8": 7780,
      "0x2d52": 7781,
      "0x2721": 7782,
      "0x266b": 7783,
      "0x2648": 7784,
      "0x25b8": 7785,
      "0x24c7": 7786,
      "0x2912": 7787,
      "0x2b20": 7788,
      "0x2e54": 7789,
      "0x2c77": 7790,
      "0x2a54": 7791,
      "0x2d28": 7792,
      "0x2edf": 7793,
      "0x25e9": 7794,
      "0x2b0a": 7795,
      "0x2f3f": 7796,
      "0x26c6": 7797,
      "0xc6": 7798,
      "0x2e87": 7799,
      "0x262d": 7800,
      "0x2745": 7801,
      "0xb70": 7802,
      "0x28bc": 7803,
      "0x2424": 7804,
      "0x2e83": 7805,
      "0x28cb": 7806,
      "0x3210": 7807,
      "0x26f9": 7808,
      "0x2528": 7809,
      "0x25c1": 7810,
      "0x633": 7811,
      "0x2b85": 7812,
      "0x2d48": 7813,
      "0x713": 7814,
      "0x234a": 7815,
      "0x26f1": 7816,
      "0x29e4": 7817,
      "0xffff00ff": 7818,
      "0xff00ffff": 7819,
      "0x52e": 7820,
      "0x23ca": 7821,
      "0x2581": 7822,
      "0x29c6": 7823,
      "0x27d2": 7824,
      "0x2ad5": 7825,
      "0x2fa8": 7826,
      "0x29ff": 7827,
      "0x29d0": 7828,
      "0x28ec": 7829,
      "0x281f": 7830,
      "0x27ef": 7831,
      "0x247c": 7832,
      "0x2557": 7833,
      "0x2d4a": 7834,
      "0x910": 7835,
      "0x2535": 7836,
      "0x2b8b": 7837,
      "0x2e1b": 7838,
      "0x2f58": 7839,
      "0x2342": 7840,
      "0x2c28": 7841,
      "0x2674": 7842,
      "0x26f6": 7843,
      "0x2e13": 7844,
      "0x57a": 7845,
      "0x2858": 7846,
      "0x2761": 7847,
      "0x2dab": 7848,
      "0x4e24": 7849,
      "0x2767": 7850,
      "0x4a29": 7851,
      "0x2768": 7852,
      "0x2a56": 7853,
      "0x2ccf": 7854,
      "0x2b19": 7855,
      "0x2ba8": 7856,
      "0x2934": 7857,
      "0x2705": 7858,
      "0x6fd": 7859,
      "0x3074": 7860,
      "0x27a6": 7861,
      "0x2a3e": 7862,
      "0x2908": 7863,
      "0x3020": 7864,
      "0xc90": 7865,
      "0x26b7": 7866,
      "0x7ab": 7867,
      "0x2d1c": 7868,
      "##nt": 7869,
      "0x27e4": 7870,
      "0x29fd": 7871,
      "0x3bbb": 7872,
      "0x343f": 7873,
      "0x24ff": 7874,
      "0x23f4": 7875,
      "0x3063": 7876,
      "0x3f4a": 7877,
      "0x2839": 7878,
      "0x2c9c": 7879,
      "0x2ad2": 7880,
      "0x2c8b": 7881,
      "0x2625": 7882,
      "0x3be8": 7883,
      "0x2646": 7884,
      "0x25d3": 7885,
      "0x2735": 7886,
      "0x2713": 7887,
      "0x18010": 7888,
      "0x18024": 7889,
      "0x18018": 7890,
      "0x1802c": 7891,
      "0x18048": 7892,
      "0x28e6": 7893,
      "0x2796": 7894,
      "0x2e57": 7895,
      "0x2a59": 7896,
      "0x2e75": 7897,
      "0x28a4": 7898,
      "0x292b": 7899,
      "0x2f13": 7900,
      "0x2a64": 7901,
      "0x276b": 7902,
      "0x2a52": 7903,
      "0x29c5": 7904,
      "0x250d": 7905,
      "0x28f4": 7906,
      "0x2d1f": 7907,
      "0x267a": 7908,
      "0x2740": 7909,
      "0xda0": 7910,
      "0x26d0": 7911,
      "0x2bbf": 7912,
      "0x2659": 7913,
      "0x2e44": 7914,
      "0x2dda": 7915,
      "0x26f3": 7916,
      "0x2c52": 7917,
      "0x2b5e": 7918,
      "0x2e70": 7919,
      "0x3019": 7920,
      "0x2d84": 7921,
      "0x2444": 7922,
      "0x2537": 7923,
      "0x2d16": 7924,
      "0x3c67": 7925,
      "0x24b9": 7926,
      "0x2891": 7927,
      "0x2914": 7928,
      "0x2ccd": 7929,
      "0x744": 7930,
      "0x2a36": 7931,
      "0x2e4b": 7932,
      "0x2d91": 7933,
      "0x22f7": 7934,
      "0x2d99": 7935,
      "0x2efd": 7936,
      "0x265f": 7937,
      "0x2d3a": 7938,
      "0x29ca": 7939,
      "0x2645": 7940,
      "0x249c": 7941,
      "0x2a2b": 7942,
      "0x2bd9": 7943,
      "##cnt": 7944,
      "##zcnt": 7945,
      "0x28aa": 7946,
      "0x2d44": 7947,
      "0x271c": 7948,
      "0x2e2e": 7949,
      "0x2e27": 7950,
      "0x246e": 7951,
      "0x2c2d": 7952,
      "0x282b": 7953,
      "0x290d": 7954,
      "0x306c": 7955,
      "0x2901": 7956,
      "0x2426": 7957,
      "0x2d81": 7958,
      "0xe30": 7959,
      "0x2718": 7960,
      "0x2f45": 7961,
      "0x2964": 7962,
      "0x2808": 7963,
      "0x27c5": 7964,
      "0x2887": 7965,
      "0x30000": 7966,
      "0x2b42": 7967,
      "0x2731": 7968,
      "0x2baa": 7969,
      "0x2a6a": 7970,
      "0x2236": 7971,
      "0x28b0": 7972,
      "0x25c4": 7973,
      "0x2bd7": 7974,
      "0x3120": 7975,
      "0x2ddb": 7976,
      "0x2a23": 7977,
      "0x71d": 7978,
      "0x2b40": 7979,
      "0x2e25": 7980,
      "0x2820": 7981,
      "0x30d8": 7982,
      "0x2e3a": 7983,
      "0x27b8": 7984,
      "0x2d23": 7985,
      "0x2cbc": 7986,
      "0x29d7": 7987,
      "0x2608": 7988,
      "0x27e5": 7989,
      "0x27a5": 7990,
      "0x2598": 7991,
      "0x2787": 7992,
      "0x28d9": 7993,
      "0x264f": 7994,
      "0x2c6a": 7995,
      "0x268f": 7996,
      "0x2d73": 7997,
      "0x2990": 7998,
      "0xfd90": 7999,
      "0x291a": 8000,
      "0x21c9": 8001,
      "0x72b": 8002,
      "0x29d8": 8003,
      "0x26af": 8004,
      "0x2840": 8005,
      "0x3ee7": 8006,
      "0x2856": 8007,
      "0x920": 8008,
      "0x2860": 8009,
      "0x2cbf": 8010,
      "0x2ad9": 8011,
      "0x78ae8": 8012,
      "0x15210": 8013,
      "0x294": 8014,
      "0x29bc": 8015,
      "0x2cf9": 8016,
      "0x250c": 8017,
      "0xcf": 8018,
      "0x2765": 8019,
      "0x26f8": 8020,
      "0x2b75": 8021,
      "0x2dc0": 8022,
      "0x29da": 8023,
      "0x255b": 8024,
      "0x2919": 8025,
      "0x295f": 8026,
      "0x2abf": 8027,
      "0x2bdd": 8028,
      "0x264b": 8029,
      "0x290f": 8030,
      "0x2a53": 8031,
      "0x2d9a": 8032,
      "0x28f1": 8033,
      "0x2677": 8034,
      "0x298e": 8035,
      "0x290b": 8036,
      "0x778": 8037,
      "0x2c5a": 8038,
      "0x2b4b": 8039,
      "0x2bb0": 8040,
      "0x26e2": 8041,
      "0x26b9": 8042,
      "0x2bcd": 8043,
      "0x28d3": 8044,
      "0x2b1c": 8045,
      "0x2885": 8046,
      "0x262f": 8047,
      "0x2d03": 8048,
      "0x2833": 8049,
      "0x285f": 8050,
      "0x241d": 8051,
      "0x27b7": 8052,
      "##5d8": 8053,
      "0x2772": 8054,
      "0x2504": 8055,
      "0x252b": 8056,
      "0x2ba5": 8057,
      "0x2a61": 8058,
      "0x2d8d": 8059,
      "0x2782": 8060,
      "0x2bc8": 8061,
      "0x2629": 8062,
      "0x2960": 8063,
      "0x2e65": 8064,
      "0x738": 8065,
      "0x2bf3": 8066,
      "0x24f9": 8067,
      "0x790": 8068,
      "0x2487": 8069,
      "0x260f": 8070,
      "0x7fffffff": 8071,
      "0x269e": 8072,
      "0x3017": 8073,
      "0x2989": 8074,
      "0x29e2": 8075,
      "0x2cb1": 8076,
      "0x2688": 8077,
      "0x29d4": 8078,
      "0x2926": 8079,
      "0x2ba2": 8080,
      "0x2dd9": 8081,
      "0x25f2": 8082,
      "0x552": 8083,
      "0x2af9": 8084,
      "0x33b1": 8085,
      "##b10": 8086,
      "0x2729": 8087,
      "0x27fa": 8088,
      "0x2e3b": 8089,
      "0x26cc": 8090,
      "0x29d6": 8091,
      "0x284f": 8092,
      "0x2b64": 8093,
      "0x243b": 8094,
      "0x2b8f": 8095,
      "0x2747": 8096,
      "0x29fe": 8097,
      "0x3026": 8098,
      "0x2d97": 8099,
      "0x2ce8": 8100,
      "0x26a8": 8101,
      "0x2ae4": 8102,
      "0x2b4c": 8103,
      "0x2665": 8104,
      "0x9e0": 8105,
      "0x29d1": 8106,
      "0xff00ff": 8107,
      "0x281c": 8108,
      "##3f6": 8109,
      "0x2c88": 8110,
      "0x26e3": 8111,
      "0x2ceb": 8112,
      "0x27d1": 8113,
      "0x2dd2": 8114,
      "0x29e5": 8115,
      "0x2922": 8116,
      "0x285c": 8117,
      "0x27a2": 8118,
      "0x29fa": 8119,
      "0x2e4f": 8120,
      "0x2911": 8121,
      "0x2755": 8122,
      "0x2b48": 8123,
      "0x2d6b": 8124,
      "0x82c": 8125,
      "0x2685": 8126,
      "0x2b74": 8127,
      "0x2c04": 8128,
      "0x27f3": 8129,
      "0x2b70": 8130,
      "0x3bfa": 8131,
      "0x2a12": 8132,
      "0x2afe": 8133,
      "0x2b0f": 8134,
      "0x314": 8135,
      "##1010": 8136,
      "0x30a4": 8137,
      "0x31bc": 8138,
      "0x45d4": 8139,
      "0x278c": 8140,
      "0x2cc6": 8141,
      "0x2aba": 8142,
      "0x2890": 8143,
      "0x2843": 8144,
      "0x29c7": 8145,
      "0x3154": 8146,
      "0x2dac": 8147,
      "0x1186": 8148,
      "0x2db8": 8149,
      "0x26ba": 8150,
      "0x2e18": 8151,
      "0x302e": 8152,
      "0x2596": 8153,
      "0x286f": 8154,
      "0x378": 8155,
      "##f98": 8156,
      "0x28dc": 8157,
      "0x28d1": 8158,
      "0x24f2": 8159,
      "0x2eda": 8160,
      "0x275a": 8161,
      "0x2a85": 8162,
      "0x281d": 8163,
      "0x2acb": 8164,
      "0x2c0a": 8165,
      "0x28b4": 8166,
      "0x28b3": 8167,
      "0x27cd": 8168,
      "0x2ab5": 8169,
      "0x2abd": 8170,
      "0x2b80": 8171,
      "0x263e": 8172,
      "0x2fa6": 8173,
      "0x277b": 8174,
      "0x2f1c": 8175,
      "0x2884": 8176,
      "0x2af1": 8177,
      "0x2994": 8178,
      "0x2d5a": 8179,
      "0x2ad1": 8180,
      "0x263a": 8181,
      "0x1b7ad0": 8182,
      "0x2938": 8183,
      "0x29ed": 8184,
      "0x2518": 8185,
      "tzcnt": 8186,
      "0x3050": 8187,
      "0x2e29": 8188,
      "0x2962": 8189,
      "0x2d96": 8190,
      "0x27bf": 8191,
      "0x2cd6": 8192,
      "0x26fa": 8193,
      "0x272a": 8194,
      "0x226b": 8195,
      "0x2693": 8196,
      "0x2983": 8197,
      "0x2948": 8198,
      "0x28bf": 8199,
      "0x2bac": 8200,
      "0xfff": 8201,
      "0x2889": 8202,
      "0x2bfe": 8203,
      "0x2bfc": 8204,
      "0x28fe": 8205,
      "0x28fb": 8206,
      "0x24e6": 8207,
      "0x2fcd": 8208,
      "0x294f": 8209,
      "0x2b1b": 8210,
      "0x31b9": 8211,
      "0x29a2": 8212,
      "0x2e00": 8213,
      "0x286d": 8214,
      "0x28c5": 8215,
      "0x25f9": 8216,
      "0x3792": 8217,
      "0x106": 8218,
      "0x728": 8219,
      "0x294a": 8220,
      "0x315f": 8221,
      "0x4915": 8222,
      "0x249b": 8223,
      "0x2f86": 8224,
      "0x2a4a": 8225,
      "0x238c": 8226,
      "0x2cc8": 8227,
      "0x297b": 8228,
      "0x282f": 8229,
      "##a1f": 8230,
      "0x2c9b": 8231,
      "0x298f": 8232,
      "0x2dba": 8233,
      "0x2702": 8234,
      "0x2c41": 8235,
      "0x27f2": 8236,
      "0x2641": 8237,
      "0x55a": 8238,
      "0x3390": 8239,
      "0x27c7": 8240,
      "0x3f14": 8241,
      "0x3230": 8242,
      "0x25bd": 8243,
      "0x2f28": 8244,
      "0x2556": 8245,
      "0x2bdb": 8246,
      "0x27e1": 8247,
      "0x24d6": 8248,
      "0x9ad": 8249,
      "0x2a84": 8250,
      "0x2cae": 8251,
      "0x289d": 8252,
      "0x26f5": 8253,
      "0x2df5": 8254,
      "0x2eff": 8255,
      "0x26d7": 8256,
      "0x2d2f": 8257,
      "0x2c05": 8258,
      "0x2628": 8259,
      "0x2afb": 8260,
      "0x2b7a": 8261,
      "0x245f": 8262,
      "0x2ab4": 8263,
      "0x2e9c": 8264,
      "0x2821": 8265,
      "0x2cd7": 8266,
      "0x2760": 8267,
      "0xfc0": 8268,
      "0x2bc0": 8269,
      "0x2f81": 8270,
      "0x2577": 8271,
      "0x2933": 8272,
      "0x3094": 8273,
      "0x2903": 8274,
      "0x2e9f": 8275,
      "0x309e": 8276,
      "0x2a31": 8277,
      "0x2a91": 8278,
      "0x989": 8279,
      "0x2746": 8280,
      "0x66a": 8281,
      "0x2588": 8282,
      "0x2b97": 8283,
      "0x240e": 8284,
      "0x29df": 8285,
      "0x31c": 8286,
      "0x27c6": 8287,
      "0x2401": 8288,
      "0x2807": 8289,
      "0x266c": 8290,
      "0x2b2c": 8291,
      "0x25dc": 8292,
      "0x2723": 8293,
      "0x2ae3": 8294,
      "0x2a7e": 8295,
      "0x2671": 8296,
      "0x2b3b": 8297,
      "0x2e69": 8298,
      "0x2800": 8299,
      "0x2e47": 8300,
      "0x2eea": 8301,
      "0x26bb": 8302,
      "0x2f04": 8303,
      "0x2847": 8304,
      "0x2883": 8305,
      "0x27c2": 8306,
      "0x2adf": 8307,
      "0x27e8": 8308,
      "0x2824": 8309,
      "0x2be6": 8310,
      "0x2faa": 8311,
      "0x48cd": 8312,
      "0x2a6e": 8313,
      "0x3195": 8314,
      "0x289f": 8315,
      "0x3cd7": 8316,
      "0x26a2": 8317,
      "0x2c08": 8318,
      "0x2c83": 8319,
      "0x29a6": 8320,
      "0x2b6b": 8321,
      "0x3ba2": 8322,
      "0x27fb": 8323,
      "0x2bde": 8324,
      "0x3058": 8325,
      "0x2bcb": 8326,
      "0x2fae": 8327,
      "##316": 8328,
      "0x2b63": 8329,
      "0x288c": 8330,
      "0x2c3a": 8331,
      "0x848": 8332,
      "0x329b": 8333,
      "0x2986": 8334,
      "0x2b9d": 8335,
      "0x2861": 8336,
      "0x2a7f": 8337,
      "0x9f0": 8338,
      "0x73b": 8339,
      "0x2a89": 8340,
      "0x3cc6": 8341,
      "0x2dbd": 8342,
      "0x2899": 8343,
      "0x29b9": 8344,
      "0x2764": 8345,
      "0x2e32": 8346,
      "0x28c6": 8347,
      "0x2e97": 8348,
      "0x2c26": 8349,
      "0x2726": 8350,
      "0x2d31": 8351,
      "0x2c9f": 8352,
      "0x280b": 8353,
      "0x2c0d": 8354,
      "0x28b9": 8355,
      "0x2c75": 8356,
      "0x2775": 8357,
      "0x2791": 8358,
      "0x2d18": 8359,
      "0x31dc": 8360,
      "0x2ea3": 8361,
      "0x2513": 8362,
      "0x281e": 8363,
      "0x299c": 8364,
      "0x2a02": 8365,
      "0x25cf": 8366,
      "0x2781": 8367,
      "0x2ec5": 8368,
      "0x29f5": 8369,
      "0x2c9e": 8370,
      "0x2692": 8371,
      "0x2945": 8372,
      "0x26d2": 8373,
      "0x2a7d": 8374,
      "0x2fd8": 8375,
      "0x3f0d": 8376,
      "0x2778": 8377,
      "0x26e8": 8378,
      "0x2c98": 8379,
      "0x26b3": 8380,
      "0x285e": 8381,
      "0x2b38": 8382,
      "0x283e": 8383,
      "0x2c3b": 8384,
      "0x3a18": 8385,
      "0x3084": 8386,
      "##216": 8387,
      "0x28d5": 8388,
      "0x261d": 8389,
      "0x2d64": 8390,
      "0x2d4f": 8391,
      "0x2a4b": 8392,
      "0x2a4c": 8393,
      "0x29b1": 8394,
      "##f3f3f": 8395,
      "0x2bf7": 8396,
      "0x2e94": 8397,
      "0x2d07": 8398,
      "0x2632": 8399,
      "0x23ed": 8400,
      "0x2d56": 8401,
      "0x2b13": 8402,
      "0x2704": 8403,
      "0x27a3": 8404,
      "0x29ec": 8405,
      "0xdc8": 8406,
      "0x264a": 8407,
      "0x3034": 8408,
      "0x3228": 8409,
      "0x11f": 8410,
      "0x2ba3": 8411,
      "0x2cf4": 8412,
      "0x2dc6": 8413,
      "0x30da": 8414,
      "0x2bd0": 8415,
      "0x2957": 8416,
      "0x2afd": 8417,
      "0x2d37": 8418,
      "0x2d0f": 8419,
      "0x2652": 8420,
      "0x2c90": 8421,
      "0x2d29": 8422,
      "0x276e": 8423,
      "0x2b7d": 8424,
      "0x2aa8": 8425,
      "0x711": 8426,
      "0x2695": 8427,
      "0x2a00": 8428,
      "0x2e16": 8429,
      "0x2d92": 8430,
      "0x2c94": 8431,
      "0x2949": 8432,
      "0x2ca1": 8433,
      "0x284b": 8434,
      "0x2f83": 8435,
      "0x870": 8436,
      "0x2f7b": 8437,
      "0x2e24": 8438,
      "0x2e06": 8439,
      "0x28a3": 8440,
      "0x27e3": 8441,
      "0x2611": 8442,
      "0x3389": 8443,
      "##fb8": 8444,
      "0x30d3": 8445,
      "0x2bf4": 8446,
      "0x2bae": 8447,
      "0x30b3": 8448,
      "0x2754": 8449,
      "0x29d2": 8450,
      "0x2bb7": 8451,
      "0x2e66": 8452,
      "0x9e8": 8453,
      "0x2835": 8454,
      "0x2944": 8455,
      "0x28c8": 8456,
      "0x765": 8457,
      "0x2874": 8458,
      "0x243e": 8459,
      "0x27ee": 8460,
      "0x26dd": 8461,
      "##3d70": 8462,
      "0x30e0": 8463,
      "0x2ba6": 8464,
      "0x3081": 8465,
      "0x29a8": 8466,
      "0x2ff9": 8467,
      "0x2b3c": 8468,
      "0x2dd5": 8469,
      "0x29f6": 8470,
      "0x2c37": 8471,
      "0x2219": 8472,
      "0x2935": 8473,
      "0x2b92": 8474,
      "0x275d": 8475,
      "0x2eaf": 8476,
      "0x26a6": 8477,
      "0x3100": 8478,
      "0x2e0a": 8479,
      "0x604": 8480,
      "0x739": 8481,
      "0x2b78": 8482,
      "0x3ab4": 8483,
      "0x9fc": 8484,
      "0x2a75": 8485,
      "0x3b51": 8486,
      "0x2e7e": 8487,
      "0x2cd4": 8488,
      "0x268a": 8489,
      "0x2a21": 8490,
      "0x28f7": 8491,
      "0x281a": 8492,
      "0x2832": 8493,
      "0x2828": 8494,
      "0x2cf2": 8495,
      "0x2c8f": 8496,
      "0x2707": 8497,
      "0x139": 8498,
      "0x2a6b": 8499,
      "##d1e": 8500,
      "0x2c63": 8501,
      "0x2d60": 8502,
      "0x263c": 8503,
      "0x2acd": 8504,
      "0x2c58": 8505,
      "0x2c40": 8506,
      "0x236f": 8507,
      "0x2cfe": 8508,
      "0x295a": 8509,
      "0x2f74": 8510,
      "0x2d9d": 8511,
      "0x3bde": 8512,
      "0x29fc": 8513,
      "0x2b57": 8514,
      "0xdd8": 8515,
      "0x329a": 8516,
      "0x2cd3": 8517,
      "0x2b32": 8518,
      "0x2dd0": 8519,
      "0x2baf": 8520,
      "0x3001": 8521,
      "0x3eb2": 8522,
      "0x28bb": 8523,
      "0x2b08": 8524,
      "0x2fc8": 8525,
      "0x2946": 8526,
      "0x3c5a": 8527,
      "0x2c44": 8528,
      "0x2656": 8529,
      "0x928": 8530,
      "0x316e": 8531,
      "0x29f3": 8532,
      "0x29f4": 8533,
      "0x2d19": 8534,
      "0x2f08": 8535,
      "0x2c79": 8536,
      "0x2b30": 8537,
      "0x2a6f": 8538,
      "0x2ee7": 8539,
      "0x2d20": 8540,
      "0x257c": 8541,
      "0x2da2": 8542,
      "0x2947": 8543,
      "0x2be5": 8544,
      "0x2e3e": 8545,
      "0x3583": 8546,
      "0x26da": 8547,
      "0x2987": 8548,
      "0x2f38": 8549,
      "0x32aa": 8550,
      "0x79d": 8551,
      "0x2bf0": 8552,
      "0x25e5": 8553,
      "0x78c": 8554,
      "0x2e49": 8555,
      "0x3381": 8556,
      "0x260d": 8557,
      "0x2906": 8558,
      "0x2a2f": 8559,
      "0x29e6": 8560,
      "0x288d": 8561,
      "0xb00": 8562,
      "0x509350": 8563,
      "0x509354": 8564,
      "0x2cf6": 8565,
      "0x3393": 8566,
      "0x2e8a": 8567,
      "0x3008": 8568,
      "0x27d0": 8569,
      "0x292a": 8570,
      "0x2ce9": 8571,
      "0x2bee": 8572,
      "0x30c1": 8573,
      "0x279a": 8574,
      "0x2aca": 8575,
      "0x2be8": 8576,
      "0x2939": 8577,
      "0x2d10": 8578,
      "0x29b4": 8579,
      "0x2de7": 8580,
      "0x2c6b": 8581,
      "0x2886": 8582,
      "0x33ee": 8583,
      "0x2c54": 8584,
      "0x282c": 8585,
      "0x2bb3": 8586,
      "0x2c46": 8587,
      "0x278b": 8588,
      "0x2de4": 8589,
      "0x2d3f": 8590,
      "0x91c": 8591,
      "0x2fd5": 8592,
      "0xa90": 8593,
      "0x2c5b": 8594,
      "0x2a72": 8595,
      "0x930": 8596,
      "0x2b79": 8597,
      "0x2d71": 8598,
      "##21f": 8599,
      "0x2d4b": 8600,
      "0x3bf3": 8601,
      "0x28ad": 8602,
      "0x2998": 8603,
      "0x248b": 8604,
      "0x2966": 8605,
      "0x294e": 8606,
      "0x2678": 8607,
      "0x29de": 8608,
      "0x311b": 8609,
      "0x3b44": 8610,
      "0x4748": 8611,
      "0x2ab0": 8612,
      "0x2fe0": 8613,
      "0x2cdf": 8614,
      "0x2971": 8615,
      "0x2a74": 8616,
      "0x2ec2": 8617,
      "0x2c34": 8618,
      "0x267c": 8619,
      "0x2aef": 8620,
      "0x2c1c": 8621,
      "0x2b21": 8622,
      "0x27b3": 8623,
      "0x2d4e": 8624,
      "0x4551": 8625,
      "0x2d3d": 8626,
      "0xfffffffffffffffb": 8627,
      "0x2a17": 8628,
      "0x2e07": 8629,
      "0x2d69": 8630,
      "0x241e": 8631,
      "0x2c13": 8632,
      "0x186a10": 8633,
      "0x2924": 8634,
      "0x2a9a": 8635,
      "0x3069": 8636,
      "0x31a6": 8637,
      "0x1028": 8638,
      "0x2fd4": 8639,
      "0x72d": 8640,
      "0x2cf1": 8641,
      "0x265a": 8642,
      "0x264d": 8643,
      "0x2a03": 8644,
      "0x273e": 8645,
      "0x2c2e": 8646,
      "0x2c97": 8647,
      "0x30a9": 8648,
      "0x2cc5": 8649,
      "0x27f0": 8650,
      "0x2a34": 8651,
      "0x30bc": 8652,
      "0x2bb5": 8653,
      "0x2ee3": 8654,
      "0x2c2c": 8655,
      "0x2b4a": 8656,
      "0x28a0": 8657,
      "0x7f4": 8658,
      "0x2a93": 8659,
      "0x2e30": 8660,
      "0x2f3b": 8661,
      "0x3437": 8662,
      "0x2ce6": 8663,
      "0x2953": 8664,
      "0x2e7b": 8665,
      "0x314a": 8666,
      "0x301e": 8667,
      "0x2d30": 8668,
      "0x27eb": 8669,
      "0x2682": 8670,
      "0x328": 8671,
      "0x2cb9": 8672,
      "0x2a70": 8673,
      "##2b8": 8674,
      "0x27e7": 8675,
      "0x2a43": 8676,
      "##916": 8677,
      "0x28eb": 8678,
      "0xe20": 8679,
      "0x2e6e": 8680,
      "0x2f22": 8681,
      "0x2ddf": 8682,
      "0x7c0": 8683,
      "0x990": 8684,
      "0x2846": 8685,
      "##b16": 8686,
      "0x29eb": 8687,
      "0x2b04": 8688,
      "0x2bff": 8689,
      "0x2a8e": 8690,
      "0x2a46": 8691,
      "0x3294": 8692,
      "0x32c": 8693,
      "0x2b95": 8694,
      "0x2f70": 8695,
      "0x2b86": 8696,
      "0x2d40": 8697,
      "0x2f71": 8698,
      "0x2c62": 8699,
      "0x2be9": 8700,
      "0x2b76": 8701,
      "0x2c8a": 8702,
      "0x2b50": 8703,
      "##21e": 8704,
      "0x2ad3": 8705,
      "0x280a": 8706,
      "0x2a25": 8707,
      "0x346f": 8708,
      "0x2dc1": 8709,
      "0x2ab8": 8710,
      "0x29d9": 8711,
      "0x276f": 8712,
      "0x2d93": 8713,
      "0x3351": 8714,
      "0x249fa0": 8715,
      "0x2ece": 8716,
      "0x31f7": 8717,
      "0x2e12": 8718,
      "0xe28": 8719,
      "0x26a7": 8720,
      "0x2a40": 8721,
      "0x2b51": 8722,
      "0x2c1d": 8723,
      "0x2e80": 8724,
      "0x2f5b": 8725,
      "0x719": 8726,
      "0x2abc": 8727,
      "0x2967": 8728,
      "0x2acf": 8729,
      "0x900": 8730,
      "0x3b7c": 8731,
      "##91e": 8732,
      "0x2e89": 8733,
      "0x2e99": 8734,
      "0x310c": 8735,
      "0x2a50": 8736,
      "0x2c56": 8737,
      "0x2eb4": 8738,
      "0xf4250": 8739,
      "0x346d": 8740,
      "0x3c97": 8741,
      "0x2f99": 8742,
      "0x2a10": 8743,
      "0x2a2a": 8744,
      "0x2d06": 8745,
      "0x3b20": 8746,
      "0x283c": 8747,
      "0x3005": 8748,
      "0x2a39": 8749,
      "0x281b": 8750,
      "0x2af6": 8751,
      "0x2a82": 8752,
      "0x26b6": 8753,
      "0x3a79": 8754,
      "0x2822": 8755,
      "0x2c71": 8756,
      "0x2a68": 8757,
      "0x2d02": 8758,
      "0x270e": 8759,
      "0x274f": 8760,
      "0x2db2": 8761,
      "0x2cfc": 8762,
      "0x2898": 8763,
      "0x2abe": 8764,
      "0x2b56": 8765,
      "0x2f9d": 8766,
      "0x324a": 8767,
      "0x3f51": 8768,
      "0x28b5": 8769,
      "0x2996": 8770,
      "0x2dc5": 8771,
      "0x2bc9": 8772,
      "0x3bce": 8773,
      "0x2b6f": 8774,
      "0x4aa8": 8775,
      "0x2980": 8776,
      "0x2a9e": 8777,
      "0x3f67": 8778,
      "0x28e8": 8779,
      "0x2f48": 8780,
      "0x28d7": 8781,
      "0x2cb5": 8782,
      "0x5272": 8783,
      "0x2e1f": 8784,
      "0x2863": 8785,
      "0x298c": 8786,
      "0x2cf5": 8787,
      "0x2c93": 8788,
      "0x2da4": 8789,
      "0x2def": 8790,
      "0x829": 8791,
      "0x2ea0": 8792,
      "0x2ee4": 8793,
      "0x2d0a": 8794,
      "0x2b29": 8795,
      "0x2a16": 8796,
      "0x729": 8797,
      "0x3029": 8798,
      "0x2ace": 8799,
      "0x30bd": 8800,
      "0x25fd": 8801,
      "0x2bd6": 8802,
      "0x25cc": 8803,
      "0x2c5d": 8804,
      "0x2a58": 8805,
      "0x2a13": 8806,
      "0x2d61": 8807,
      "0x282d": 8808,
      "0x2d14": 8809,
      "0x2ec3": 8810,
      "0x766": 8811,
      "0x29d3": 8812,
      "0x2a71": 8813,
      "0x3cee": 8814,
      "0x3538": 8815,
      "0x28c2": 8816,
      "0x2b90": 8817,
      "0x2fbd": 8818,
      "0x3f30": 8819,
      "0x2a9d": 8820,
      "0x2b6e": 8821,
      "0x2b61": 8822,
      "0x3ede": 8823,
      "0x2e5a": 8824,
      "0x2e41": 8825,
      "0x2829": 8826,
      "0x2877": 8827,
      "0x2c7f": 8828,
      "0x2d51": 8829,
      "0x3067": 8830,
      "0x2e85": 8831,
      "0x3ec8": 8832,
      "0x298b": 8833,
      "0x2aaf": 8834,
      "0x2571": 8835,
      "0x2d45": 8836,
      "0x2f80": 8837,
      "0x2c92": 8838,
      "0x2d78": 8839,
      "0x2b9c": 8840,
      "0x2f8d": 8841,
      "0x29b5": 8842,
      "0x2ae7": 8843,
      "0x2e4": 8844,
      "0x3218": 8845,
      "0x2a78": 8846,
      "0x332f": 8847,
      "0x2784": 8848,
      "0x27ab": 8849,
      "0x3158": 8850,
      "0x2e7c": 8851,
      "0x2d21": 8852,
      "0x2e52": 8853,
      "0x2aa7": 8854,
      "0x31e6": 8855,
      "0x3030": 8856,
      "0x2c6c": 8857,
      "0x2dee": 8858,
      "0x785": 8859,
      "0x2a51": 8860,
      "0x2dfe": 8861,
      "0x2c18": 8862,
      "0x2ca3": 8863,
      "0x26ac": 8864,
      "0x2f7f": 8865,
      "0x6a2": 8866,
      "0x2c2b": 8867,
      "0x2cc": 8868,
      "0x2b5b": 8869,
      "0x27bd": 8870,
      "0x2f53": 8871,
      "##ffffff": 8872,
      "0x251c": 8873,
      "0x2c6d": 8874,
      "0x26ed": 8875,
      "0x2b45": 8876,
      "0x2cd5": 8877,
      "0x2b36": 8878,
      "0x2cc3": 8879,
      "0x2b5a": 8880,
      "0x2c1b": 8881,
      "0x2b3d": 8882,
      "0x2c53": 8883,
      "0x2a66": 8884,
      "0x2d67": 8885,
      "0x2950": 8886,
      "0x32df": 8887,
      "0x27b0": 8888,
      "0x2aa1": 8889,
      "0x2dc3": 8890,
      "0x2bfd": 8891,
      "0x2b77": 8892,
      "0x608": 8893,
      "0x2e08": 8894,
      "0x2c19": 8895,
      "0x2cff": 8896,
      "0x2a48": 8897,
      "0x34bf": 8898,
      "0x2e1e": 8899,
      "0x2624": 8900,
      "0x2bf8": 8901,
      "0x2cd9": 8902,
      "0x28c3": 8903,
      "0x75b": 8904,
      "0x2902": 8905,
      "0x2472": 8906,
      "0x2918": 8907,
      "0x76d": 8908,
      "0x2cd1": 8909,
      "0x2ba0": 8910,
      "0x297c": 8911,
      "0x2a07": 8912,
      "0x2cdc": 8913,
      "0x29f8": 8914,
      "0x2bea": 8915,
      "0xc30": 8916,
      "0x4ec4": 8917,
      "0x28da": 8918,
      "0x2a2d": 8919,
      "0x2d7c": 8920,
      "0x132": 8921,
      "0x2b7b": 8922,
      "0x2f9a": 8923,
      "0x2ff1": 8924,
      "0x2b3e": 8925,
      "0x276c": 8926,
      "0x2e86": 8927,
      "0x2a0b": 8928,
      "0x2dbc": 8929,
      "0x277c": 8930,
      "0x343d": 8931,
      "0x2f6d": 8932,
      "0x2b88": 8933,
      "0x3226": 8934,
      "0x2a3f": 8935,
      "0x2b3a": 8936,
      "0x3ce6": 8937,
      "0x2d09": 8938,
      "0x34c6": 8939,
      "0x918": 8940,
      "0x2b58": 8941,
      "0x2870": 8942,
      "0x2818": 8943,
      "0x321a": 8944,
      "0x2cd0": 8945,
      "0x4977": 8946,
      "0x2b16": 8947,
      "0x2d8a": 8948,
      "0x2e5e": 8949,
      "0x3254": 8950,
      "0x30d1": 8951,
      "0x2fba": 8952,
      "0x4dbd": 8953,
      "0x3055": 8954,
      "0x29d5": 8955,
      "0x2bd4": 8956,
      "0x3097": 8957,
      "0x3200": 8958,
      "0x416a": 8959,
      "0x3040": 8960,
      "0x2cde": 8961,
      "0x2ab1": 8962,
      "0x978": 8963,
      "0x3d1d": 8964,
      "0x27ba": 8965,
      "0x29fb": 8966,
      "0x2e67": 8967,
      "0x2a7b": 8968,
      "0x30ec": 8969,
      "0x2b0d": 8970,
      "0x2d75": 8971,
      "0x306a": 8972,
      "0x289b": 8973,
      "0x2c7b": 8974,
      "##51e": 8975,
      "0x2c43": 8976,
      "0x602f": 8977,
      "0x277f": 8978,
      "0x266f": 8979,
      "0x271d": 8980,
      "0x317b": 8981,
      "0x2c7d": 8982,
      "0x2795": 8983,
      "0x274b": 8984,
      "0x2de3": 8985,
      "0x3c3b": 8986,
      "0x3344": 8987,
      "0x4588": 8988,
      "0x763": 8989,
      "0x2b2e": 8990,
      "0x2f3d": 8991,
      "0xeb4": 8992,
      "0xccccc": 8993,
      "0x27ca": 8994,
      "0x29a7": 8995,
      "0x2e7f": 8996,
      "0x2b1f": 8997,
      "0x2bca": 8998,
      "0x32ec": 8999,
      "0x2893": 9000,
      "0x28cd": 9001,
      "0x2e0b": 9002,
      "0x2cc2": 9003,
      "0x31c0": 9004,
      "0x2ded": 9005,
      "0x3c49": 9006,
      "0x2a14": 9007,
      "0x2ab6": 9008,
      "0x33cb": 9009,
      "0x2bb8": 9010,
      "0x2d85": 9011,
      "0x2d39": 9012,
      "0x7a0": 9013,
      "0x3111": 9014,
      "0x1183": 9015,
      "0x2d80": 9016,
      "0x2eb5": 9017,
      "0x26c2": 9018,
      "0x2b87": 9019,
      "0x2e5d": 9020,
      "0x31a2": 9021,
      "0xa50": 9022,
      "0x2984": 9023,
      "0x2aea": 9024,
      "0x3578": 9025,
      "0x4af3": 9026,
      "0x2d50": 9027,
      "0x2c4c": 9028,
      "0x2d68": 9029,
      "0x3b63": 9030,
      "0x27fd": 9031,
      "0x9b8": 9032,
      "0x2ddc": 9033,
      "0x2d9b": 9034,
      "0x2e62": 9035,
      "0x30e3": 9036,
      "0x2f55": 9037,
      "0x3d34": 9038,
      "0x99fd": 9039,
      "0x2cd2": 9040,
      "0x3178": 9041,
      "0x2b35": 9042,
      "0x463b": 9043,
      "0x249fd8": 9044,
      "0x2d89": 9045,
      "0x2e04": 9046,
      "0x2b34": 9047,
      "0x2d41": 9048,
      "0x30a3": 9049,
      "0x2fca": 9050,
      "0x297f": 9051,
      "0x2a88": 9052,
      "0x2942": 9053,
      "0x3e99": 9054,
      "0x2b4f": 9055,
      "0x29a4": 9056,
      "0x2d46": 9057,
      "0x3de6": 9058,
      "0x2965": 9059,
      "0x3e53": 9060,
      "0x28dd": 9061,
      "0x29ad": 9062,
      "0x3472": 9063,
      "0x2de0": 9064,
      "0x3227": 9065,
      "0x2ca6": 9066,
      "0x404b": 9067,
      "0x34a5": 9068,
      "0x28e1": 9069,
      "0x2bf5": 9070,
      "0x3d0a": 9071,
      "0x3202": 9072,
      "0x27be": 9073,
      "0x2803": 9074,
      "0x2e0e": 9075,
      "0x293f": 9076,
      "0x3e6c": 9077,
      "0x3071": 9078,
      "0x279f": 9079,
      "0x2b91": 9080,
      "0x7e4": 9081,
      "0x2fde": 9082,
      "0x32e4": 9083,
      "0x2c51": 9084,
      "0x29e3": 9085,
      "##ff0": 9086,
      "0x2b7e": 9087,
      "0x283b": 9088,
      "0x2e8f": 9089,
      "0x2b22": 9090,
      "0x286b": 9091,
      "0x2ccb": 9092,
      "0x2e36": 9093,
      "0x3140": 9094,
      "0x27f9": 9095,
      "0x2f02": 9096,
      "##f0f0f0f0": 9097,
      "0x2b69": 9098,
      "0x2ec7": 9099,
      "0x2e72": 9100,
      "0x2f14": 9101,
      "0x2bda": 9102,
      "0x3557": 9103,
      "0x33c8": 9104,
      "0x274d": 9105,
      "0x2fc7": 9106,
      "0x2c39": 9107,
      "0x2c8e": 9108,
      "0x2f18": 9109,
      "0x2cbe": 9110,
      "0x3014": 9111,
      "0x2b73": 9112,
      "0x3295": 9113,
[...]
