{"version":"1.0","truncation":null,"padding":null,"added_tokens":[{"id":0,"special":true,"content":"[PAD]","single_word":false,"lstrip":false,"rstrip":false,"normalized":false},{"id":1,"special":true,"content":"[UNK]","single_word":false,"lstrip":false,"rstrip":false,"normalized":false},{"id":2,"special":true,"content":"[CLS]","single_word":false,"lstrip":false,"rstrip":false,"normalized":false},{"id":3,"special":true,"content":"[SEP]","single_word":false,"lstrip":false,"rstrip":false,"normalized":false},{"id":4,"special":true,"content":"[MASK]","single_word":false,"lstrip":false,"rstrip":false,"normalized":false}],"normalizer":{"type":"BertNormalizer","clean_text":true,"handle_chinese_chars":true,"strip_accents":null,"lowercase":true},"pre_tokenizer":{"type":"BertPreTokenizer"},"post_processor":{"type":"TemplateProcessing","single":[{"SpecialToken":{"id":"[CLS]","type_id":0}},{"Sequence":{"id":"A","type_id":0}},{"SpecialToken":{"id":"[SEP]","type_id":0}}],"pair":[{"SpecialToken":{"id":"[CLS]","type_id":0}},{"Sequence":{"id":"A","type_id":0}},{"SpecialToken":{"id":"[SEP]","type_id":0}},{"Sequence":{"id":"B","type_id":1}},{"SpecialToken":{"id":"[SEP]","type_id":1}}],"special_tokens":{"[CLS]":{"id":"[CLS]","ids":[2],"tokens":["[CLS]"]},"[SEP]":{"id":"[SEP]","ids":[3],"tokens":["[SEP]"]}}},"decoder":{"type":"WordPiece","prefix":"##","cleanup":true},"model":{"type":"WordPiece","unk_token":"[UNK]","continuing_subword_prefix":"##","max_input_chars_per_word":100,"vocab":{"[PAD]":0,"[UNK]":1,"[CLS]":2,"[SEP]":3,"[MASK]":4,"*":5,"+":6,",":7,"-":8,"0":9,"1":10,"2":11,"3":12,"4":13,"5":14,"6":15,"7":16,"8":17,"9":18,":":19,"[":20,"]":21,"a":22,"b":23,"c":24,"d":25,"e":26,"f":27,"g":28,"h":29,"i":30,"j":31,"k":32,"l":33,"m":34,"n":35,"o":36,"p":37,"q":38,"r":39,"s":40,"t":41,"u":42,"v":43,"w":44,"x":45,"y":46,"z":47,"##x":48,"##b":49,"##3":50,"##6":51,"##d":52,"##9":53,"##4":54,"##c":55,"##7":56,"##a":57,"##1":58,"##f":59,"##8":60,"##0":61,"##5":62,"##2":63,"##e":64,"##i":65,"##v":66,"##m":67,"##o":68,"##s":69,"##p":70,"##t":71,"##l":72,"##g":73,"##n":74,"##z":75,"##r":76,"##q":77,"##u":78,"##y":79,"##w":80,"##h":81,"##k":82,"0x":83,"eo":84,"eoi":85,"##ov":86,"mov":87,"##ax":88,"pt":89,"ptr":90,"##or":91,"0x6":92,"##ord":93,"##word":94,"0x4":95,"lo":96,"##ok":97,"look":98,"rax":99,"eax":100,"ri":101,"rip":102,"rb":103,"rbp":104,"dword":105,"0xa":106,"qword":107,"0x7":108,"rd":109,"0x5":110,"0x3":111,"ca":112,"##ll":113,"call":114,"0x8":115,"0xb":116,"ed":117,"0x64":118,"rdx":119,"0x9":120,"##si":121,"##te":122,"by":123,"byte":124,"rdi":125,"##ea":126,"edx":127,"##ff":128,"0x65":129,"0x1":130,"lea":131,"0xb4":132,"##cx":133,"esi":134,"edi":135,"0x5a":136,"0xa0":137,"##zx":138,"movzx":139,"0x59":140,"0x40":141,"##20":142,"0x4b":143,"al":144,"pu":145,"##sh":146,"push":147,"##64":148,"rcx":149,"##mp":150,"0x43":151,"rs":152,"rsp":153,"0x6f":154,"##nd":155,"rsi":156,"##dd":157,"0x41":158,"0x6e":159,"0x70":160,"0x42":161,"0x4c":162,"0xaa":163,"0x2":164,"movs":165,"movsx":166,"0x37":167,"cmp":168,"0x96":169,"end":170,"##br":171,"endbr":172,"endbr64":173,"0xa1":174,"rbx":175,"0x83":176,"##op":177,"0xc":178,"0x82":179,"0x78":180,"0x4a":181,"0x66":182,"ecx":183,"0x49":184,"0x5b":185,"su":186,"sub":187,"0x38":188,"0x77":189,"r1":190,"##00":191,"0x36":192,"add":193,"je":194,"##ne":195,"te":196,"##st":197,"test":198,"##40":199,"##50":200,"jne":201,"##ffff":202,"##ee":203,"0x3c":204,"0x6d":205,"0x28":206,"##c0":207,"##60":208,"##f0":209,"0x84":210,"##et":211,"movsxd":212,"0x67":213,"0x60":214,"0x45":215,"0x7a":216,"0x63":217,"ret":218,"0x10":219,"##da":220,"##10":221,"0x3f":222,"0xba":223,"0x6c":224,"0x18":225,"0x20":226,"0xae":227,"0xa4":228,"##ul":229,"im":230,"imul":231,"0x75":232,"0xb5":233,"0x79":234,"0x3b":235,"##68":236,"##30":237,"jmp":238,"0x7b":239,"nop":240,"0x5c":241,"0x47":242,"##2d":243,"0xbb":244,"##f9":245,"0x48":246,"##ab":247,"##e0":248,"##5d":249,"0x81":250,"##23":251,"##a3":252,"##18":253,"##70":254,"##1d":255,"0x46":256,"##9d":257,"0x76":258,"and":259,"eb":260,"ebx":261,"0xa3":262,"##96":263,"##a0":264,"##58":265,"##fe":266,"##16":267,"##bd":268,"##ce":269,"##36":270,"##88":271,"##48":272,"##90":273,"##44":274,"0x6b":275,"##31":276,"##28":277,"##d1":278,"0xffff":279,"##f2":280,"##f8":281,"##7d":282,"##3d":283,"0x39":284,"##75":285,"##5b":286,"##af":287,"##46":288,"##c3":289,"##ba":290,"##11":291,"##2f":292,"##27":293,"##2a":294,"0x5d":295,"##25":296,"0x647":297,"##f5":298,"0x80":299,"##33":300,"0x3ee":301,"pop":302,"##13":303,"##26":304,"##2c":305,"##9e":306,"##7a":307,"##76":308,"##df":309,"##38":310,"0x30":311,"0x3eef":312,"##a9":313,"##a5":314,"##b2":315,"##f1":316,"##dc":317,"##fd":318,"##a4":319,"##b9":320,"##6c":321,"##0d":322,"##e9":323,"##4d":324,"##49":325,"##dq":326,"cdq":327,"##eb":328,"##81":329,"##ed":330,"##3b":331,"##17":332,"##f4":333,"##e6":334,"##3a":335,"##89":336,"0x3700":337,"##56":338,"##f6":339,"##d0":340,"##5e":341,"##29":342,"##8c":343,"##73":344,"##b6":345,"cdqe":346,"##12":347,"0x14":348,"0x50":349,"##d5":350,"##8e":351,"##42":352,"##86":353,"##bb":354,"##e7":355,"##ve":356,"leave":357,"##c9":358,"##c6":359,"0x99":360,"##22":361,"##63":362,"0x35":363,"##d8":364,"##1e":365,"##d6":366,"##ae":367,"##15":368,"##53":369,"##4f":370,"##7c":371,"##0e":372,"##9b":373,"0x3620":374,"##84":375,"##a6":376,"##e4":377,"##aa":378,"0x74":379,"0xffffff":380,"##8b":381,"0x24":382,"##35":383,"r8":384,"##65":385,"##14":386,"##5f":387,"##24":388,"##19":389,"##c8":390,"##9f":391,"##c4":392,"##87":393,"fs":394,"##93":395,"##55":396,"##9a":397,"##97":398,"##1c":399,"##9c":400,"##c7":401,"##82":402,"##0f":403,"##57":404,"##b4":405,"##1b":406,"0x36e0":407,"0x3760":408,"##f3":409,"##5c":410,"##59":411,"##fa":412,"##d4":413,"##6a":414,"##fb":415,"##7b":416,"##8f":417,"0x430":418,"##41":419,"##d7":420,"##3e":421,"##77":422,"##ca":423,"##67":424,"##32":425,"##74":426,"##62":427,"0x90":428,"##e2":429,"##98":430,"##c2":431,"##e3":432,"##640":433,"r12":434,"##cf":435,"##0b":436,"##72":437,"##09":438,"0x97":439,"##cb":440,"##c5":441,"##be":442,"0x37f0":443,"0x3640":444,"##1a":445,"##4b":446,"##1f":447,"##b1":448,"##3f":449,"##4a":450,"##66":451,"0x9f":452,"##05":453,"##07":454,"##6f":455,"0x98":456,"##e1":457,"0xc4":458,"0x68":459,"##a8":460,"##a1":461,"##92":462,"##0a":463,"##6d":464,"##b8":465,"##4c":466,"##83":467,"##b5":468,"##ec":469,"##ad":470,"##39":471,"##a2":472,"##ac":473,"##f7":474,"##a7":475,"##61":476,"##d3":477,"##51":478,"##d9":479,"##21":480,"##91":481,"##52":482,"##02":483,"0xb8":484,"##b3":485,"0x3e":486,"##cc":487,"##85":488,"0x8e":489,"xor":490,"##4e":491,"0x54":492,"##db":493,"0x13":494,"##94":495,"##bf":496,"##78":497,"0x69":498,"##2e":499,"0xaf":500,"##69":501,"##c1":502,"0x420":503,"##8a":504,"##b0":505,"0xb50":506,"##99":507,"##5d0":508,"##80":509,"or":510,"##40a":511,"##7e":512,"##37":513,"0x35d0":514,"0x3670":515,"0x34":516,"0x6a":517,"##cd":518,"0x8c":519,"##04":520,"##3c":521,"##e5":522,"##54":523,"##6b":524,"0xb4a3":525,"0xa2":526,"jl":527,"##03":528,"##01":529,"##06":530,"##fa3":531,"##34":532,"0x44":533,"##7f":534,"0x540a":535,"##2b":536,"0xfffffa3":537,"0xfffffffe":538,"0xfffffff5":539,"0xfffffa3c":540,"0x1a":541,"##0c":542,"0x61":543,"##47":544,"0x86":545,"##71":546,"r8d":547,"##6e":548,"0xac":549,"0xa09e":550,"0x58":551,"0x3d":552,"0x94":553,"0x62":554,"##bc":555,"##d2":556,"##43":557,"##b7":558,"##45":559,"0x3910":560,"0xa8":561,"##5a":562,"r10d":563,"0x646c":564,"0x64c0":565,"0x64ab":566,"0x6423":567,"0x6488":568,"0x8b":569,"r11d":570,"##95":571,"0x5e":572,"##ef":573,"0x92":574,"0xb0":575,"0x1c":576,"0x87":577,"sh":578,"0x73":579,"0xd":580,"##79":581,"0xa50":582,"0x6584":583,"0x7c":584,"##8d":585,"##e8":586,"##fc":587,"0x3830":588,"0x71":589,"0x85":590,"0x88":591,"##08":592,"0x4f":593,"0x4e":594,"0xa5":595,"0x3570":596,"jg":597,"0x8f":598,"0x34f0":599,"shl":600,"0xb4ab":601,"0xb4ba":602,"0xb4c2":603,"0x5ae9":604,"0x450":605,"0x95":606,"0xad":607,"0x627":608,"0x7f":609,"0x15":610,"word":611,"0x6548":612,"0xb9":613,"0x3820":614,"0xb4df":615,"0xb4ec":616,"0x6ff":617,"r9d":618,"0x9a":619,"0x6536":620,"0x434":621,"0x5c0":622,"0x9c":623,"0xb4f7":624,"0x64dc":625,"0x6ee1":626,"0x6568":627,"0x64ea":628,"0x650a":629,"0xaa10":630,"0xa130":631,"0xa125":632,"0xa119":633,"0x3720":634,"0x6dd":635,"0x17":636,"0x11":637,"jle":638,"0x16":639,"0xb456":640,"r12d":641,"r15d":642,"r13d":643,"r14d":644,"0xa28":645,"0x66aa":646,"0x9617":647,"0x38f0":648,"0xb468":649,"0xb47b":650,"0xb46d":651,"0x3920":652,"0x63f9":653,"0xb48b":654,"0xb503":655,"0xb4d6":656,"0xb52a":657,"0x6478":658,"0x6472":659,"0x653b":660,"0x6464":661,"0x6400":662,"0x64f9":663,"0x649d":664,"0x6496":665,"0x64fe":666,"0x64ce":667,"0x6444":668,"0x6431":669,"0x645b":670,"0x642a":671,"0x6438":672,"0x64b2":673,"0x64f1":674,"0x64a4":675,"0x64b9":676,"0x6481":677,"0x64f4":678,"0x645e":679,"0x64d5":680,"0x6415":681,"0x644f":682,"0x640e":683,"0x6455":684,"0x641c":685,"0x64c7":686,"0x646a":687,"0x648f":688,"0x643e":689,"0x64e3":690,"0x644a":691,"0x6407":692,"0x6540":693,"0x6518":694,"0x651d":695,"0x6531":696,"0x6546":697,"0x6527":698,"0x652c":699,"0x650d":700,"0x654d":701,"0x6512":702,"0x6522":703,"0x6503":704,"0xb4c0":705,"0xb4da":706,"0xb49d":707,"0xb416":708,"0xb4f8":709,"0xb42f":710,"0xb47a":711,"0xb4a9":712,"0xb4eb":713,"0xb481":714,"0xb4c9":715,"0xb47c":716,"0xb493":717,"0xb4b4":718,"0xb45c":719,"0xb462":720,"0xb4cb":721,"0x63dd":722,"0x63f2":723,"0x63eb":724,"0x63d6":725,"0x63e4":726,"0xb518":727,"0xb51d":728,"0xb536":729,"0xb529":730,"0xb51e":731,"0xb535":732,"0xb514":733,"0xa3da":734,"0x3940":735,"0x647b":736,"0xb504":737,"0xb910":738,"0x9e":739,"0xa02a":740,"0x5acd":741,"0xa0f2":742,"0x3860":743,"0xc3":744,"0x3ff":745,"0x8d":746,"0x3840":747,"0x5c0f":748,"0x8a":749,"0xae20":750,"0x72":751,"0xa077":752,"0xa075":753,"0xa051":754,"0xa068":755,"0xa063":756,"0xadd":757,"0xa0fe":758,"0xa0d1":759,"0x97f9":760,"0xa0a6":761,"0xa098":762,"0x3800":763,"0x5988":764,"0x59af":765,"0x59ba":766,"0x5942":767,"0xa0bd":768,"0xa0af":769,"0xa0d5":770,"0xa08e":771,"0xa0c6":772,"0xa07c":773,"0xa057":774,"0xa0f3":775,"0xa0b5":776,"0x59d1":777,"0x59e6":778,"0xa118":779,"0xa124":780,"0x5a10":781,"0x5a68":782,"0x5aab":783,"0x5a96":784,"0x5aa0":785,"0x5a48":786,"0x5a7d":787,"0x5a25":788,"0x5a33":789,"0x5a2c":790,"0x5aa5":791,"0x5ab2":792,"0x5a17":793,"0x5a3a":794,"0x5a56":795,"0x5a5e":796,"0x5a8c":797,"0x5a63":798,"0x5a1e":799,"0x5a4f":800,"0x5a9b":801,"0x5a87":802,"0x5a82":803,"0x5a59":804,"0x5a41":805,"0x5a77":806,"0x5a72":807,"0x5a09":808,"0x5a6f":809,"0x5aad":810,"0x5a91":811,"0x5a02":812,"0xa0ff":813,"0xa0da":814,"0xa05d":815,"0xa011":816,"0xa076":817,"0xa0a4":818,"0xa0e6":819,"0xa086":820,"0xa0bb":821,"0xa0e7":822,"0xa0c4":823,"0x59dd":824,"0x5950":825,"0x59c0":826,"0x59e0":827,"0x59a3":828,"0x599d":829,"0x5996":830,"0x59c3":831,"0x597a":832,"0x59a9":833,"0x596c":834,"0x5949":835,"0x5981":836,"0x59ed":837,"0x593b":838,"0x59f4":839,"0x595e":840,"0x5973":841,"0x59c9":842,"0x5965":843,"0x5957":844,"0x59b4":845,"0x59fb":846,"0x598f":847,"0x59d7":848,"0x59cf":849,"0xa131":850,"0xa113":851,"0xa10f":852,"0xa50b":853,"0xab":854,"0xa9":855,"0x3a":856,"0x9687":857,"0x6ece":858,"0x6ed4":859,"0xaa8e":860,"0x4c3d":861,"0xaf5":862,"0x27":863,"0xaa66":864,"0x820":865,"0x3730":866,"0x7e":867,"0x12":868,"0x65f3":869,"0x6eba":870,"0x4c89":871,"##44f":872,"##de":873,"0x65bd":874,"0x5b58":875,"0x4d":876,"0x458":877,"##401":878,"0xaf2":879,"0x6a0":880,"0x9ff":881,"0x4bc0":882,"##3fc":883,"0xaa8c":884,"0x6eb6":885,"0x4c30":886,"0x6ed7":887,"0x38a0":888,"0x6efa":889,"0xaa68":890,"0x6f74":891,"0x6f00":892,"0x6f53":893,"0x6f0c":894,"0xaaa1":895,"0xaabf":896,"0x4bb9":897,"0x4bb6":898,"0x4ba2":899,"0x3930":900,"##5b0":901,"0x6f32":902,"0x9663":903,"0x6f20":904,"0x6f40":905,"0x6f60":906,"0x6f2d":907,"0x6f23":908,"0x6f58":909,"0x6f75":910,"0x6f5b":911,"0x6f46":912,"0x6f26":913,"0x6f76":914,"0x6f49":915,"0x6f3a":916,"0x6f35":917,"0x6f14":918,"0x6f0f":919,"0x6f6a":920,"0x6f1a":921,"0x6f07":922,"0x6f4c":923,"0x6eee":924,"0x6eda":925,"0x6ec3":926,"0x6efd":927,"0x6ee9":928,"0x6ef4":929,"0x6ee6":930,"0x6ebb":931,"0x6ec8":932,"0x6ebe":933,"0xaa40":934,"0xaa16":935,"0xaa42":936,"0xaa65":937,"0xaa1c":938,"0xaa1a":939,"0xaa83":940,"0x711":941,"0x468":942,"0x4c42":943,"0x8690":944,"0x4bfd":945,"0x4b8e":946,"0x4c04":947,"0x969c":948,"0xce":949,"0x4c33":950,"0x4c38":951,"0x4bea":952,"0x4b9d":953,"0x4b96":954,"0x4bd1":955,"0x4baf":956,"0x4bc3":957,"0x4bdf":958,"0x4ba5":959,"0x4bf6":960,"0x4bbb":961,"0x4bd8":962,"0x4b9a":963,"0x4bca":964,"0x4be2":965,"0x4bc5":966,"0x4bb1":967,"0x4bac":968,"0x4ba7":969,"0x4b91":970,"0x4b8a":971,"0x4be5":972,"0x4bef":973,"0x4c2d":974,"0x4c18":975,"0x4c13":976,"0x4c26":977,"0x4c0e":978,"0x4c0b":979,"0x4c1f":980,"0xc44f":981,"0xc401":982,"0xc3fc":983,"0x7523":984,"0x7529":985,"0x7522":986,"0xc423":987,"0xc428":988,"0xc432":989,"0xc3da":990,"0x91":991,"js":992,"0x8282":993,"0x922f":994,"0x641b":995,"0x96ba":996,"0x9660":997,"0x9689":998,"0xdd":999,"0x6420":1000,"0x64da":1001,"0x642d":1002,"0x64bd":1003,"0x6428":1004,"0x6446":1005,"0x6433":1006,"0x64a5":1007,"0x64ae":1008,"0x6453":1009,"0x648b":1010,"0x6465":1011,"0x645f":1012,"0x649f":1013,"0x649a":1014,"0x6497":1015,"0x6459":1016,"0x6462":1017,"0x64cf":1018,"0x64c5":1019,"0x644b":1020,"0x641f":1021,"0x64b1":1022,"0x643f":1023,"0x6492":1024,"0x64b8":1025,"0x6439":1026,"0x64d9":1027,"0x6485":1028,"0x644e":1029,"0x64db":1030,"0x643c":1031,"0x963d":1032,"0x9611":1033,"0x963b":1034,"0x9615":1035,"0x960b":1036,"0x9661":1037,"0x967e":1038,"0x6479":1039,"0x6474":1040,"0x6471":1041,"0x647f":1042,"##aaaa":1043,"0xba00":1044,"0xaf6":1045,"0x664":1046,"0x9f9":1047,"0x8794":1048,"0x626":1049,"0xb3":1050,"0xadc":1051,"0x448":1052,"0x3520":1053,"0xbd":1054,"0x35a0":1055,"0xa20":1056,"0x6c0":1057,"0xa29":1058,"0x89":1059,"0x840":1060,"0xdc":1061,"0xbe":1062,"0x6d17":1063,"##5d8":1064,"0xa96":1065,"0x746":1066,"0x970":1067,"0x9f8":1068,"0x35b0":1069,"0x850":1070,"0x65ea":1071,"0x65d6":1072,"0x5858":1073,"0xaf1":1074,"0x759a":1075,"0x9fe":1076,"0x65a6":1077,"0x627c":1078,"##12b":1079,"0x21":1080,"0xb4ca":1081,"0x2c":1082,"0x460":1083,"0x51":1084,"0xf":1085,"0xaa2f":1086,"##878":1087,"movab":1088,"movabs":1089,"0xb2":1090,"0x38d0":1091,"0x76df":1092,"0xb878":1093,"0xb49c":1094,"0x620":1095,"0x95c":1096,"0xaddd":1097,"0xaa01":1098,"0x8302":1099,"0xa6":1100,"0x400":1101,"0x38b0":1102,"0x7010":1103,"sa":1104,"0xd1":1105,"sar":1106,"0x625":1107,"0xa7":1108,"0x736":1109,"0x3d0":1110,"0x912b":1111,"0x6588":1112,"r13":1113,"0x710":1114,"0x93":1115,"0x7d":1116,"0x5da":1117,"0x6575":1118,"0x7867":1119,"r14":1120,"r15":1121,"0x9ff3":1122,"0x662e":1123,"0xa5b":1124,"0x3850":1125,"0x1d":1126,"jge":1127,"0x5f":1128,"ax":1129,"0x69d":1130,"0x6713":1131,"0xa40":1132,"0x7058":1133,"0x3680":1134,"set":1135,"0x3650":1136,"setne":1137,"0xd0":1138,"0x83e9":1139,"0x8243":1140,"0x76c2":1141,"##ce9":1142,"0xaf50":1143,"0x99e":1144,"0x4c44":1145,"0x3d1":1146,"0xb7":1147,"0x3980":1148,"0x4a64":1149,"0x9f6":1150,"0x9a0":1151,"0x82c3":1152,"0x65f1":1153,"0x794e":1154,"0x6aff":1155,"0x4986":1156,"0x77a8":1157,"0x6d99":1158,"bl":1159,"0x5b56":1160,"0x35f0":1161,"jn":1162,"0xd5":1163,"0x9b":1164,"jns":1165,"0x858":1166,"0x6613":1167,"0xa30":1168,"0x7694":1169,"0x748":1170,"0x49d9":1171,"0x6620":1172,"0x6616":1173,"0x660e":1174,"0x990":1175,"0x3970":1176,"0x976":1177,"0x6544":1178,"0x6bf9":1179,"0xaea":1180,"0x428":1181,"0x454":1182,"0x760":1183,"0xaf8":1184,"0xe":1185,"##23b":1186,"0x3900":1187,"0x3f0":1188,"0xb86":1189,"0x65a9":1190,"##iv":1191,"0xaf0":1192,"0xad1":1193,"0x464":1194,"##245":1195,"0x49d0":1196,"0x7076":1197,"dl":1198,"0x77b9":1199,"##ed3":1200,"0xc5d8":1201,"0x4a20":1202,"0x4a00":1203,"0x4a40":1204,"0x4a50":1205,"0x4a23":1206,"0x4a1d":1207,"0x4a16":1208,"0x4a28":1209,"0x4a3d":1210,"0x4a33":1211,"0x4a2c":1212,"0x4a49":1213,"0x4a3a":1214,"0x4a53":1215,"0x4a0f":1216,"0x4a05":1217,"0x4a0a":1218,"0x4a45":1219,"0x49dd":1220,"0x49ee":1221,"0x49f8":1222,"0x49eb":1223,"0x49e6":1224,"0x49d5":1225,"0x49d8":1226,"0x49f3":1227,"0x49d4":1228,"0x49fb":1229,"0x49e1":1230,"0xce25":1231,"0xce3a":1232,"0x8272":1233,"0x825b":1234,"0x8286":1235,"0x827f":1236,"id":1237,"0x4568":1238,"idiv":1239,"0x9673":1240,"0xc9":1241,"0x8270":1242,"0x8258":1243,"0x8275":1244,"0x827a":1245,"0x826c":1246,"0x824d":1247,"0x8262":1248,"0x8266":1249,"0x8269":1250,"0x8254":1251,"0x77da":1252,"0xaef0":1253,"0x9714":1254,"0x9706":1255,"0x6fdf":1256,"0x37c0":1257,"0x834a":1258,"0x69e":1259,"0x9e9":1260,"0x77df":1261,"0xbad0":1262,"0x81c6":1263,"0x40d6":1264,"0xa2f":1265,"0x65dd":1266,"0x65a0":1267,"0x65ce":1268,"0x6590":1269,"0x65dc":1270,"0x65b9":1271,"0x6589":1272,"0x658c":1273,"0x65b6":1274,"0x65c9":1275,"0x65ae":1276,"0x65c4":1277,"0x6593":1278,"0x659c":1279,"0x65e1":1280,"0x65a2":1281,"0x65d3":1282,"0x65b3":1283,"0x65c1":1284,"0xa344":1285,"0xda":1286,"0x7090":1287,"0x70a6":1288,"0x706a":1289,"0x7067":1290,"0x7085":1291,"0x707e":1292,"0x401c":1293,"0x78af":1294,"0x655e":1295,"0x77c0":1296,"0x9f91":1297,"0x416b":1298,"0x830f":1299,"0x8301":1300,"0x77bd":1301,"0x77ce":1302,"0x77d1":1303,"0x77b2":1304,"0x77eb":1305,"0x77d5":1306,"0x77e7":1307,"0x77e4":1308,"0x77c7":1309,"0x77d7":1310,"0x77cb":1311,"0x996":1312,"0x9f85":1313,"0xa27":1314,"0x4048":1315,"0x41f8":1316,"0xb88":1317,"0x4036":1318,"0x5aee":1319,"0x5af8":1320,"0x5af5":1321,"0x5af1":1322,"0x5aed":1323,"0x40c0":1324,"0x40ab":1325,"0x40ae":1326,"0x4053":1327,"0x404f":1328,"0x4097":1329,"0x406a":1330,"0x40ca":1331,"0x40c5":1332,"0x43be":1333,"0x5b18":1334,"0x5b46":1335,"0x5b33":1336,"0x5b13":1337,"0x5b26":1338,"0x5b38":1339,"0x5b3b":1340,"0x5b29":1341,"0x5b42":1342,"0x5b22":1343,"0x5b1e":1344,"0x5b4f":1345,"0x5b0e":1346,"0x5b1b":1347,"0x5b41":1348,"0x5b0b":1349,"0x5b05":1350,"0x5b07":1351,"0x5b2e":1352,"0x5b01":1353,"0x9763":1354,"0x4010":1355,"0x4026":1356,"0x4024":1357,"0xa2a":1358,"0x8ee":1359,"0x6fed":1360,"0x41dc":1361,"0x700d":1362,"0xbb30":1363,"0x419d":1364,"0x41b2":1365,"0x4187":1366,"0x417b":1367,"0x416f":1368,"0x130":1369,"0x131":1370,"0x424d":1371,"0x425f":1372,"0xa32c":1373,"0x8f8":1374,"0x41fd":1375,"0x41f6":1376,"0x41cc":1377,"0x4108":1378,"0x422a":1379,"0x4219":1380,"0x4237":1381,"0x42b7":1382,"0x4279":1383,"0x4202":1384,"0x4148":1385,"0x4139":1386,"0xa175":1387,"0xa1b4":1388,"0x9fd":1389,"0x4388":1390,"0x434b":1391,"0x42ee":1392,"0x42f9":1393,"0x4288":1394,"0x428c":1395,"0x429f":1396,"0x42e3":1397,"0x4358":1398,"0x4390":1399,"0x4375":1400,"0x4335":1401,"0x4319":1402,"0x43a1":1403,"0x432e":1404,"0x41a4":1405,"0x42c0":1406,"0x42f2":1407,"0x423e":1408,"0x6d4f":1409,"0x74a6":1410,"0x430a":1411,"0x4302":1412,"0xf0":1413,"0x4064":1414,"0x40dd":1415,"0x40ee":1416,"0x402d":1417,"0x40a3":1418,"0x4058":1419,"0x40ce":1420,"0x4090":1421,"0x4031":1422,"0x40f2":1423,"0x403d":1424,"0x4075":1425,"0x402a":1426,"0x409e":1427,"0x407a":1428,"0x4038":1429,"0x40b2":1430,"0x40fd":1431,"0x40b9":1432,"0x40e9":1433,"0x4081":1434,"0x4017":1435,"0x4089":1436,"0x40f6":1437,"0x408c":1438,"0x4042":1439,"0x4086":1440,"0x4015":1441,"0x407c":1442,"0x40e4":1443,"0x405f":1444,"0x4093":1445,"0x409c":1446,"0x40fa":1447,"0x4067":1448,"0x40e2":1449,"0x4009":1450,"0x40be":1451,"0x4005":1452,"0x40a8":1453,"0x404c":1454,"0x40b5":1455,"0x40d9":1456,"0x4021":1457,"0x400c":1458,"0x4071":1459,"0x406e":1460,"0x40d2":1461,"0x4045":1462,"0x405a":1463,"0x4320":1464,"0x4360":1465,"0x4316":1466,"0x4336":1467,"0x4344":1468,"0x4328":1469,"0x437d":1470,"0x433d":1471,"0x4311":1472,"0x432f":1473,"0x4327":1474,"0x430d":1475,"0x4312":1476,"0x438e":1477,"0x4386":1478,"0x4315":1479,"0x430e":1480,"0x4384":1481,"0x43a6":1482,"0x438b":1483,"0x435f":1484,"0x439c":1485,"0x4359":1486,"0x437b":1487,"0x4377":1488,"0x4367":1489,"0x4374":1490,"0x431a":1491,"0x434a":1492,"0x4366":1493,"0x4392":1494,"0x436d":1495,"0x4383":1496,"0x43ad":1497,"0x4351":1498,"0x4321":1499,"0x4352":1500,"0x438a":1501,"0x4399":1502,"0x433c":1503,"0x436e":1504,"0x4343":1505,"0x4379":1506,"0x41ea":1507,"0x4164":1508,"0x41ee":1509,"0x41c0":1510,"0x4160":1511,"0x412d":1512,"0x411d":1513,"0x4196":1514,"0x4116":1515,"0x41bd":1516,"0x41ce":1517,"0x4144":1518,"0x4128":1519,"0x417d":1520,"0x413d":1521,"0x415b":1522,"0x412f":1523,"0x4176":1524,"0x41a9":1525,"0x41f1":1526,"0x41b9":1527,"0x410d":1528,"0x4156":1529,"0x4112":1530,"0x41e7":1531,"0x41d8":1532,"0x41ae":1533,"0x414f":1534,"0x418b":1535,"0x4124":1536,"0x41c4":1537,"0x41c7":1538,"0x4182":1539,"0x41e3":1540,"0x4172":1541,"0x414b":1542,"0x4192":1543,"0x41a2":1544,"0x41d3":1545,"0x4121":1546,"0x4199":1547,"0x4154":1548,"0x4101":1549,"0x4106":1550,"0x4134":1551,"0x4220":1552,"0x4268":1553,"0x422d":1554,"0x42ab":1555,"0x42a3":1556,"0x4216":1557,"0x4248":1558,"0x427d":1559,"0x4275":1560,"0x425b":1561,"0x42af":1562,"0x4246":1563,"0x42ba":1564,"0x4225":1565,"0x42f5":1566,"0x4233":1567,"0x42df":1568,"0x42dc":1569,"0x42fd":1570,"0x426c":1571,"0x42eb":1572,"0x423a":1573,"0x42d0":1574,"0x4212":1575,"0x42e7":1576,"0x42d8":1577,"0x421e":1578,"0x429b":1579,"0x4284":1580,"0x42c8":1581,"0x42c4":1582,"0x4293":1583,"0x4255":1584,"0x4297":1585,"0x42d4":1586,"0x4241":1587,"0x4262":1588,"0x426f":1589,"0x42a7":1590,"0x4252":1591,"0x42b3":1592,"0x42cc":1593,"r11":1594,"r10":1595,"0x4306":1596,"0x4309":1597,"0x4301":1598,"0x4305":1599,"0x420b":1600,"0x420f":1601,"0x4205":1602,"0x9609":1603,"0x623":1604,"0x4c50":1605,"0x4c7d":1606,"0x4c7a":1607,"0x4c73":1608,"0x4c5f":1609,"0x4c57":1610,"0x4c6b":1611,"0x3540":1612,"0x99d":1613,"0x5c78":1614,"0x927":1615,"0xffffffff":1616,"0x8f9":1617,"0x495d":1618,"0xae40":1619,"0x900":1620,"0x9997":1621,"0x8f6":1622,"0x6606":1623,"0x4c70":1624,"0x4c48":1625,"0x4c75":1626,"0x4c84":1627,"0x4c5c":1628,"0x4c4b":1629,"0x4c66":1630,"0x4c61":1631,"0x4c69":1632,"0x4c54":1633,"0x4c7f":1634,"##1b7":1635,"shr":1636,"0xaa18":1637,"0xaa1d":1638,"0xaa09":1639,"0xaa06":1640,"0xa3ed":1641,"0x749":1642,"0x5e0":1643,"0x6a5":1644,"0x720":1645,"0x5dd":1646,"0x138":1647,"0x37e0":1648,"0x3550":1649,"0x5e20":1650,"0x70c9":1651,"0x7097":1652,"0x4553":1653,"0x9992":1654,"0x6a0b":1655,"0xa9b":1656,"0xa42d":1657,"0x7aed":1658,"0x107d":1659,"0x3790":1660,"0x4732":1661,"0x8377":1662,"0x7788":1663,"0x7ad4":1664,"0x87d":1665,"0x65fc":1666,"0x78e4":1667,"0x76e7":1668,"0x3dd":1669,"0x65f2":1670,"0x8223":1671,"0x7363":1672,"0x8358":1673,"0x78dc":1674,"0x78e1":1675,"0x78d2":1676,"0x81be":1677,"0x8363":1678,"0x8372":1679,"0x836d":1680,"0x8383":1681,"0xa53":1682,"##642f":1683,"0x8212":1684,"0x7926":1685,"##2f76":1686,"##762f76":1687,"##65642f":1688,"0x585861":1689,"0x7363762f76":1690,"0x7363762f7665642f":1691,"0x66ae":1692,"0x837c":1693,"0x835f":1694,"0x8355":1695,"0x8366":1696,"0x836f":1697,"0x8351":1698,"0x8369":1699,"0x837f":1700,"0x6cab":1701,"0x9f58":1702,"0x8b9":1703,"0x84c6":1704,"0x78bd":1705,"0x78ce":1706,"0x78ba":1707,"0x78b6":1708,"0x78c8":1709,"0x78c4":1710,"0x78d4":1711,"0x78d7":1712,"0x78cb":1713,"0x78e8":1714,"0x8204":1715,"0x9fb":1716,"0x6573":1717,"0x6572":1718,"0xa19f":1719,"0x7723":1720,"0x6c25":1721,"##aaaaaaaa":1722,"0x8f0":1723,"0x6608":1724,"0x6210":1725,"0x701c":1726,"0x500":1727,"0x3d4":1728,"0xb4a0":1729,"0xb4bd":1730,"0xb4af":1731,"0xb4a4":1732,"0xb4a8":1733,"0xb4a1":1734,"0xb4b8":1735,"0xb4b3":1736,"0xaa27":1737,"0x69c":1738,"0xb23b":1739,"0xaa05":1740,"0x7a2b":1741,"##d85":1742,"0x5b6d":1743,"0x751c":1744,"0x74f4":1745,"0x768":1746,"0xa0ce":1747,"0xaa22":1748,"0x3b09":1749,"0xa503":1750,"0x3a6":1751,"0x1ce9":1752,"0xaa0d":1753,"0xaa14":1754,"0xaa1f":1755,"0xa1ab":1756,"0xa190":1757,"0xa1a4":1758,"0xa186":1759,"0xa17c":1760,"0xa19a":1761,"0xa197":1762,"0xa183":1763,"0xa18d":1764,"0x6389":1765,"0xba05":1766,"0x3a3":1767,"0x864":1768,"0xb2a":1769,"0x4b30":1770,"0x6749":1771,"0x6795":1772,"0x673c":1773,"cm":1774,"0x738":1775,"0x956":1776,"0x6747":1777,"cmov":1778,"0x6d9d":1779,"0x6da5":1780,"0x6df1":1781,"0x6de9":1782,"0x6dcf":1783,"0x6dd2":1784,"0x8a0":1785,"0x8b6":1786,"0x9e36":1787,"0x856":1788,"0xb1":1789,"0x5d1":1790,"0x8bd":1791,"0x5cfa":1792,"0x475d":1793,"xm":1794,"0x7a5f":1795,"xmm":1796,"0xbc":1797,"0x2d":1798,"0x37d0":1799,"0x6df9":1800,"0x7af2":1801,"0xc5":1802,"0x5cae":1803,"0xdb":1804,"0x8ea":1805,"0x85b":1806,"0x6eb0":1807,"0x4afb":1808,"0x6cda":1809,"0x36f0":1810,"0x712":1811,"0x449":1812,"0x750":1813,"0x66da":1814,"0x66d5":1815,"0x66cb":1816,"0x446":1817,"0x37b0":1818,"0x3890":1819,"0x95cb":1820,"0x7b0b":1821,"0x623f":1822,"0x92d":1823,"0x5d2d":1824,"0x9d":1825,"0x6e9b":1826,"0x6e5a":1827,"0x864d":1828,"0x90e":1829,"0x7711":1830,"0x6c75":1831,"0x3990":1832,"0x468e":1833,"0x45e4":1834,"0xbbb8":1835,"0x9744":1836,"0xaf36":1837,"0x709e":1838,"##11a":1839,"0xbb16":1840,"0x76c0":1841,"##fac":1842,"0x6a9":1843,"0x8f2":1844,"0x8468":1845,"0x95ab":1846,"0x8395":1847,"0x7803":1848,"##f5c":1849,"##1e2":1850,"0xa9b0":1851,"0x7036":1852,"0x36c0":1853,"0x727":1854,"0x70c0":1855,"0x7088":1856,"0x70c3":1857,"0x70a9":1858,"0x70a4":1859,"0x705e":1860,"0x7073":1861,"0x70bb":1862,"0x70ae":1863,"0x70c8":1864,"0x707b":1865,"0x70b1":1866,"0x70a1":1867,"0x70b8":1868,"0x7061":1869,"0x7071":1870,"0x7095":1871,"0x708d":1872,"0xa8f9":1873,"0xa8fe":1874,"0x996a":1875,"0x96ca":1876,"0x6c4c":1877,"0xa329":1878,"0x6a81":1879,"0xa289":1880,"0xa96f":1881,"0x8c0":1882,"0x9aa":1883,"0x8d85":1884,"0x9a3":1885,"0x65cf":1886,"0x66af":1887,"0x66b2":1888,"0x66dc":1889,"0x66d0":1890,"0x66c6":1891,"0x66c8":1892,"0x66b8":1893,"0x66db":1894,"0x66bf":1895,"0x4996":1896,"0x49a0":1897,"0x499b":1898,"0x4992":1899,"0x49c1":1900,"0x79cd":1901,"0x8db2":1902,"0xb2a4":1903,"0x6a6":1904,"0x87c":1905,"0x65c3":1906,"0x135":1907,"0x83bd":1908,"0x6737":1909,"0x6734":1910,"0x664f":1911,"0xa29b":1912,"0xd9":1913,"0x65e0":1914,"0x65ed":1915,"0x659b":1916,"0x6636":1917,"0x94f9":1918,"0x65f5":1919,"0x65c6":1920,"0x65d8":1921,"0x65fa":1922,"0x65e3":1923,"0x65cc":1924,"0x65db":1925,"0x96c8":1926,"0x662d":1927,"0x661d":1928,"0x6628":1929,"0x6625":1930,"0x660b":1931,"0x6609":1932,"0x6603":1933,"0x94f4":1934,"0x29":1935,"0x82f8":1936,"0x4ff":1937,"0x700f":1938,"0x8389":1939,"0x83e2":1940,"0x5c40":1941,"0x5c30":1942,"0x5c2d":1943,"0x5c1d":1944,"0x5c13":1945,"0x5c17":1946,"0x5c3a":1947,"0x5c35":1948,"0x5c14":1949,"0x5c24":1950,"0x5c41":1951,"0x5c3f":1952,"0x5c2b":1953,"##652":1954,"0x6ac8":1955,"0x6ff6":1956,"0xa96d":1957,"0x9e9f":1958,"0x726":1959,"0x6fe7":1960,"0x6fe4":1961,"0x6fe3":1962,"0x7000":1963,"0x700e":1964,"0x7005":1965,"0x7008":1966,"0x83ab":1967,"0x83a9":1968,"0x83b6":1969,"0x839b":1970,"0x83a6":1971,"0x839f":1972,"0x838f":1973,"0x8398":1974,"0x83b8":1975,"0x83a2":1976,"0x83b3":1977,"0x83c1":1978,"0x83b0":1979,"0x828c":1980,"0x759e":1981,"0x6ff3":1982,"0x6ff9":1983,"0x95cd":1984,"0xac3":1985,"0x82af":1986,"0x829e":1987,"0x82a5":1988,"0x82b9":1989,"0x82b6":1990,"0x829b":1991,"0x82c7":1992,"0x8298":1993,"0x82be":1994,"0x82b1":1995,"0x82a8":1996,"0x82a1":1997,"0x8292":1998,"0x82ac":1999,"0x82bc":2000,"0x7705":2001,"0x7915":2002,"0x8ff":2003,"0x8eb":2004,"0x780d":2005,"0x76d3":2006,"0x8039":2007,"0x8504":2008,"0x9f6e":2009,"0x6af":2010,"0x8bb":2011,"0x654f":2012,"0xaa47":2013,"0x9073":2014,"0x6bd":2015,"0x800":2016,"0x6558":2017,"0x6574":2018,"0x136":2019,"0x78ee":2020,"0x785d":2021,"0x7821":2022,"0x77f1":2023,"0x630a":2024,"0x3f44":2025,"0x7947":2026,"0x62f":2027,"0x3df":2028,"0xaa49":2029,"0x82c5":2030,"0x7800":2031,"0x7823":2032,"0x7816":2033,"0x7828":2034,"0x7811":2035,"0x782c":2036,"0x78fd":2037,"0x78f4":2038,"0x781e":2039,"0x7814":2040,"0x781b":2041,"0x78fa":2042,"0x780a":2043,"0x7806":2044,"0x77fd":2045,"0x77f7":2046,"0x7900":2047,"0x7910":2048,"0x7918":2049,"0x791d":2050,"0x7922":2051,"0x790e":2052,"0x791b":2053,"0x790b":2054,"0x7907":2055,"0x7904":2056,"0x81c8":2057,"##2c1":2058,"0x9f73":2059,"0x9f82":2060,"0x6a59":2061,"0x956a":2062,"0x728":2063,"0xa01b":2064,"0x6e76":2065,"0x36b0":2066,"0x602d":2067,"0x3a5":2068,"0x9f5c":2069,"0x655b":2070,"0x65a5":2071,"0x6549":2072,"0x6565":2073,"0x656a":2074,"0x656d":2075,"0x654c":2076,"0x6552":2077,"0x772d":2078,"0x6dfa":2079,"0x9f64":2080,"0x9f60":2081,"0x9f5d":2082,"0x9f7d":2083,"0x9f7a":2084,"0x9568":2085,"0x9f6b":2086,"0x6ea":2087,"0x85d8":2088,"0x7a69":2089,"##3e8":2090,"0x69f":2091,"0x5ab4":2092,"0x83f8":2093,"0x4706":2094,"0x72d":2095,"0xb89":2096,"0x964":2097,"0x8496":2098,"0x84a0":2099,"0x846c":2100,"0x8482":2101,"0x848a":2102,"0x6718":2103,"0x6748":2104,"0x6746":2105,"0x6717":2106,"0x6724":2107,"0x671b":2108,"0x6741":2109,"0x6732":2110,"0x6721":2111,"0x672b":2112,"0xa41d":2113,"##679":2114,"0x984":2115,"0x45f6":2116,"0x45e8":2117,"0x6c44":2118,"##e3c":2119,"0xa20a":2120,"0x4602":2121,"0x13b":2122,"0x676e":2123,"0xae37":2124,"0xa422":2125,"0x3b2c":2126,"0x7678":2127,"0xaea0":2128,"0xa2fd":2129,"0x7f9":2130,"0x7e7":2131,"0x8fe":2132,"0x23":2133,"0x57":2134,"0x5cab":2135,"0x5c90":2136,"0x5c7d":2137,"0x5c89":2138,"0x5c86":2139,"0x5c7c":2140,"0x5ca6":2141,"0x5c97":2142,"0x5c9c":2143,"0x5ca1":2144,"0x5cad":2145,"0x5cac":2146,"0x5c99":2147,"0x5c80":2148,"0x3560":2149,"0x9838":2150,"0x90e8":2151,"ja":2152,"0x3a4":2153,"0x948":2154,"0xb4e2":2155,"0x37a0":2156,"0x6bc9":2157,"0x91c":2158,"0x12f":2159,"0x3ceb":2160,"0x674d":2161,"0x5cd3":2162,"0x467a":2163,"##24b":2164,"0xb40f":2165,"##da7":2166,"0xae57":2167,"0x713":2168,"0x923":2169,"0xc652":2170,"0xc679":2171,"0x49b2":2172,"0x49b9":2173,"0x498e":2174,"0x49c6":2175,"0x49ae":2176,"0x498b":2177,"0x49cb":2178,"0x49a7":2179,"0x498a":2180,"0x49bc":2181,"0x4578":2182,"0x6bc1":2183,"0xc526":2184,"0x712e":2185,"0x4e6":2186,"0x7ff":2187,"0x7f0":2188,"0x719":2189,"0x95d":2190,"0xb4fe":2191,"0x4b23":2192,"0x4b36":2193,"0x4b33":2194,"0x4b26":2195,"0x4b0d":2196,"0x4b3b":2197,"0x4b17":2198,"0x4b29":2199,"0x4b12":2200,"0x4b15":2201,"0x4b1f":2202,"0x4b05":2203,"0x4b0a":2204,"0x4b02":2205,"0x4a7f":2206,"0xba17":2207,"0xaedc":2208,"0xc4f8":2209,"0xaf20":2210,"0x1120":2211,"0xb4f0":2212,"0xb4dc":2213,"0xb4e9":2214,"0xb4d8":2215,"0xb4e4":2216,"0xb4d4":2217,"0xb4cf":2218,"0xb4d2":2219,"0xaa3d":2220,"0xba37":2221,"0x3510":2222,"0x8e96":2223,"0x8e8a":2224,"0x6642":2225,"0xb18":2226,"0xaa39":2227,"0x6623":2228,"0x6611":2229,"0x6633":2230,"0x6626":2231,"0x663a":2232,"0x6629":2233,"0x6619":2234,"0x4589":2235,"0xba20":2236,"0xba80":2237,"0x5dc6":2238,"0xb3e0":2239,"0xb7f2":2240,"0xb6":2241,"0xaa63":2242,"0x459b":2243,"0x45a8":2244,"0xbabc":2245,"##180":2246,"0x9fdb":2247,"0xa9f":2248,"0x7ea":2249,"0xaa44":2250,"0xaa55":2251,"0xaa41":2252,"0xaa51":2253,"0xaa4e":2254,"0xaa37":2255,"0xaa34":2256,"0x7ad8":2257,"0x7b20":2258,"0x7b2e":2259,"0x6bdd":2260,"0x3490":2261,"0x61d":2262,"0x5bb4":2263,"0x5ba7":2264,"0x45a3":2265,"0x4570":2266,"0x4590":2267,"0x457d":2268,"0x459e":2269,"0x456c":2270,"0x4582":2271,"0x4574":2272,"0x456d":2273,"0x45ad":2274,"0x4594":2275,"0x7a05":2276,"0x6cf6":2277,"0xb3f0":2278,"0xad11":2279,"0x840a":2280,"0x6e64":2281,"0x6e67":2282,"0x6e61":2283,"0x6e78":2284,"0x6e6b":2285,"0x6e71":2286,"0x6e6e":2287,"0x5b88":2288,"0x5b76":2289,"0x5b73":2290,"0x5b8e":2291,"0x5b9b":2292,"0x5b8b":2293,"0x5b9f":2294,"0x5b93":2295,"0x5b7b":2296,"0x5b98":2297,"0x5b85":2298,"0x5b78":2299,"0x5b7e":2300,"0x770f":2301,"0x6df8":2302,"0x6dc3":2303,"0x6df5":2304,"0x6d9e":2305,"0x6da9":2306,"0x6ded":2307,"0x6db6":2308,"0x6dbb":2309,"0x6dc6":2310,"0x6dfb":2311,"0x6de2":2312,"0x6dcb":2313,"0x6db1":2314,"0x6da1":2315,"0x6dad":2316,"0x6dbf":2317,"0x6de5":2318,"0x3f50":2319,"0x75af":2320,"0x75c3":2321,"0x75b2":2322,"0x75c6":2323,"0x75cd":2324,"0x4736":2325,"0x4745":2326,"0xbb69":2327,"0x6dd6":2328,"0x6dda":2329,"0x6dde":2330,"0x8402":2331,"0x7f8":2332,"0x87a":2333,"0x6563":2334,"cmovl":2335,"0x45f9":2336,"0x45fe":2337,"0x45f1":2338,"0x45ec":2339,"0xaf24":2340,"0xaf2c":2341,"0xaf19":2342,"0x4604":2343,"0x3ed":2344,"0x7028":2345,"0x2f":2346,"0x3bb3":2347,"0xbb70":2348,"0x52":2349,"0x925":2350,"0xaf57":2351,"0xaf5a":2352,"0x85c":2353,"0x9d1":2354,"0x96b7":2355,"0x6d12":2356,"0x6d0a":2357,"0x67bb":2358,"0x6cfc":2359,"0xaf9":2360,"0x73d":2361,"0x7f6":2362,"0x14d":2363,"0x6e34":2364,"0x84e5":2365,"0xbaf0":2366,"0xbaf9":2367,"0xbafd":2368,"0xbaf4":2369,"0xbaf6":2370,"0xbafa":2371,"0xbb00":2372,"0xbb96":2373,"0xbb7d":2374,"0xbb75":2375,"0xbb81":2376,"0xbb0f":2377,"0xbb7b":2378,"0xbb8f":2379,"0xbb74":2380,"0xbb98":2381,"0xbb09":2382,"0xbb91":2383,"0xbb78":2384,"0xbb8a":2385,"0xbb04":2386,"0xbb0c":2387,"0xaf89":2388,"0x85d":2389,"0x8f3":2390,"##38a":2391,"0xb85c":2392,"0x842d":2393,"0xae6e":2394,"0xbb36":2395,"0xbb3a":2396,"0xbb4f":2397,"0xbb3e":2398,"0xbb4a":2399,"0xbb52":2400,"0xbb37":2401,"0xbb34":2402,"0xbb47":2403,"0xbb43":2404,"0x56":2405,"0x2000":2406,"0xb11a":2407,"0x9622":2408,"0x6d16":2409,"0x6d15":2410,"0x6d07":2411,"0x6d01":2412,"0x6d0c":2413,"0x6cdd":2414,"0x6cf9":2415,"0x6ce0":2416,"0x6cf2":2417,"0x6ce6":2418,"0x6cef":2419,"0x6ce8":2420,"0xb0ee":2421,"0xb0f9":2422,"0x128":2423,"0xa4c6":2424,"0x8e84":2425,"0xaf10":2426,"0xaf1d":2427,"0xaf16":2428,"0xaf29":2429,"0xaf2f":2430,"0xaf14":2431,"0xaf1a":2432,"0x8ba":2433,"0xb28":2434,"0x479a":2435,"0x1b":2436,"0x70d1":2437,"0x70d8":2438,"0x70f3":2439,"0x84d5":2440,"0xaf72":2441,"0xaf56":2442,"0xaf54":2443,"0xaf5e":2444,"0xaf63":2445,"0xaf67":2446,"0xaf6a":2447,"0xaf6f":2448,"0x9d15":2449,"0x6245":2450,"0x624b":2451,"0x9ce9":2452,"0x3c7f":2453,"0x8133":2454,"0x625b":2455,"0x624d":2456,"0x6242":2457,"0x627b":2458,"0x6277":2459,"0x627a":2460,"0x6271":2461,"0x9cf4":2462,"0x6266":2463,"0x626c":2464,"0x6261":2465,"0x626f":2466,"0x6254":2467,"0x6257":2468,"0x625e":2469,"0x990c":2470,"0x496a":2471,"0x4961":2472,"0x3cd2":2473,"0x8a0e":2474,"0x69b":2475,"0x3dc":2476,"0x8fb":2477,"0xa3e2":2478,"0x8089":2479,"0x7710":2480,"0x7a00":2481,"0x76f1":2482,"0x76fb":2483,"0x76a2":2484,"0xa3b3":2485,"0x743e":2486,"0xa28f":2487,"0xa295":2488,"0xaff":2489,"0x150":2490,"0x76a5":2491,"0x769c":2492,"0x7698":2493,"0x7699":2494,"##1e8":2495,"0xadc1":2496,"0x619":2497,"0x810":2498,"0x7894":2499,"0x7796":2500,"0x3fd8":2501,"0x3f9f":2502,"0x3fd3":2503,"0x46d0":2504,"0x46d3":2505,"0x76da":2506,"0x76e2":2507,"0x76cc":2508,"0x34a0":2509,"0x9275":2510,"0x3ff6":2511,"0x3ff1":2512,"0xafd":2513,"0x55":2514,"0x7018":2515,"0x702a":2516,"0x7022":2517,"0x7015":2518,"0x7014":2519,"0x701f":2520,"0xc4b":2521,"0x7888":2522,"0x788c":2523,"0x7880":2524,"xmm0":2525,"0x9aa8":2526,"0x8a9":2527,"0x94c":2528,"0x823b":2529,"0x84b1":2530,"0x84cc":2531,"0x67a5":2532,"0x67aa":2533,"0x3fbd":2534,"0x3f5c":2535,"0x6c60":2536,"0x6c76":2537,"0x6c56":2538,"0x6c6a":2539,"0x6c74":2540,"0xa464":2541,"0xa45d":2542,"0xa4a3":2543,"0xa431":2544,"0xa449":2545,"0xa455":2546,"0xa43e":2547,"0xa467":2548,"0x8e90":2549,"0xa520":2550,"0x6c01":2551,"0x5e3c":2552,"0x97d":2553,"0x97a":2554,"0x6579":2555,"0x773f":2556,"0x6bfe":2557,"0x6bfd":2558,"##ebe":2559,"0x6c07":2560,"0x6c0a":2561,"0x8589":2562,"0x4ed":2563,"0xad0":2564,"0x715":2565,"0x926":2566,"0x8311":2567,"0x830a":2568,"0x776e":2569,"0x7745":2570,"0x6c31":2571,"0x6c38":2572,"0x6c3f":2573,"0x6c47":2574,"0x7b41":2575,"0x81ee":2576,"0x81d1":2577,"0x81f7":2578,"0x628":2579,"0x73b":2580,"0x7da7":2581,"0x8f7":2582,"0x657d":2583,"0x657a":2584,"0x6581":2585,"0x6587":2586,"0x658f":2587,"0x658d":2588,"0x4aaf":2589,"0x3f60":2590,"0x3f75":2591,"0x3f81":2592,"0x3f7c":2593,"0x4741":2594,"0x68d7":2595,"##d34":2596,"0x8ec3":2597,"0x9490":2598,"0xa538":2599,"0xa402":2600,"0xa25":2601,"0xa55":2602,"0x8c9":2603,"0x857":2604,"0x9685":2605,"0x8388":2606,"0x832f":2607,"0x83c9":2608,"0x83d3":2609,"0x828b":2610,"0x77a0":2611,"0x3c90":2612,"0x3ca4":2613,"0x3cae":2614,"0x3c83":2615,"0x3cb3":2616,"0x3c8d":2617,"0x7a31":2618,"0x7a1b":2619,"0x796c":2620,"0x796f":2621,"0xa311":2622,"0x8f6a":2623,"0xadf":2624,"0x853":2625,"0xb1d":2626,"0x43af":2627,"0x8320":2628,"0x8323":2629,"0x8316":2630,"0x8327":2631,"0x8313":2632,"0x83f1":2633,"0x83fd":2634,"0x830d":2635,"0x83ed":2636,"0x83f4":2637,"0x831b":2638,"0x83fa":2639,"0x8306":2640,"0x8231":2641,"0x823d":2642,"0x822a":2643,"0x8235":2644,"0x7736":2645,"0x7733":2646,"0x3fa2":2647,"0x81ff":2648,"0x81da":2649,"0x81e0":2650,"0x81ce":2651,"0x81c3":2652,"0x81f1":2653,"0x81e4":2654,"0x81fb":2655,"0x81ca":2656,"0x81c2":2657,"0x81de":2658,"0x9fae":2659,"0x820d":2660,"0x8209":2661,"0x8202":2662,"0x8407":2663,"0x840e":2664,"0x4fe":2665,"0xaee":2666,"0xa26":2667,"0x764":2668,"0x8ab":2669,"0x918":2670,"0x9fac":2671,"0x6e46":2672,"0x3660":2673,"0x7a63":2674,"0x79dd":2675,"0x79d1":2676,"0x79d9":2677,"0x7952":2678,"0x7b86":2679,"0x4727":2680,"##14b":2681,"0x711e":2682,"0x6ac":2683,"0x70f5":2684,"0x3c58":2685,"0x3c44":2686,"0x3c21":2687,"0x45df":2688,"0x45dc":2689,"0x45c7":2690,"0x3fdd":2691,"0x3fab":2692,"0x3f96":2693,"0x3fce":2694,"0x3f48":2695,"0x3f7a":2696,"0x3f49":2697,"0x3f89":2698,"0x3fe7":2699,"0x3fd6":2700,"0x3f84":2701,"0x3fc8":2702,"0x3f93":2703,"0x3f55":2704,"0x3f9a":2705,"0x3fe3":2706,"0x3fc5":2707,"0x3f6f":2708,"0x3f6d":2709,"0x3fb8":2710,"0x3f4c":2711,"0x3fb5":2712,"0x3fec":2713,"0x3fa7":2714,"0x3f52":2715,"0x3f4e":2716,"0x3f69":2717,"0x3fc1":2718,"0x3fb0":2719,"0x3f54":2720,"0x3f7f":2721,"0x3fef":2722,"0x3f8d":2723,"0xba1a":2724,"0xae9d":2725,"0x4722":2726,"0xbb2d":2727,"0xbb4b":2728,"##1b1":2729,"0x3ffa":2730,"0x3fff":2731,"0x710d":2732,"0xa2c":2733,"0x7e6":2734,"0x516":2735,"0x8c4":2736,"0xb38a":2737,"0x6556":2738,"0x6559":2739,"0x13d":2740,"0x12c":2741,"0x4b59":2742,"0x78ed":2743,"0x4aee":2744,"0x77f0":2745,"0x84fa":2746,"0x7992":2747,"0x9fc9":2748,"0x9f98":2749,"0x6a61":2750,"0x13a":2751,"0xa002":2752,"0x59c4":2753,"0x6e8f":2754,"0x8294":2755,"0x7876":2756,"0x7842":2757,"0x787b":2758,"0x7872":2759,"0x786f":2760,"0x7885":2761,"0x7878":2762,"0x786b":2763,"0x7764":2764,"0x7760":2765,"0x7728":2766,"0x772f":2767,"0x7727":2768,"0x7749":2769,"0x7756":2770,"0x7753":2771,"0x779a":2772,"0x775c":2773,"0x778f":2774,"0x7767":2775,"0x7772":2776,"0x77a2":2777,"0x772b":2778,"0x7743":2779,"0x8470":2780,"0x8488":2781,"0x847d":2782,"0x84df":2783,"0x84a9":2784,"0x84a4":2785,"0x84b6":2786,"0x84e7":2787,"0x84d8":2788,"0x849b":2789,"0x84e4":2790,"0x8474":2791,"0x846d":2792,"0x84b8":2793,"0x84ec":2794,"0x84ac":2795,"0x8478":2796,"0x84d2":2797,"0x7a0e":2798,"0xae11":2799,"0x795d":2800,"0x7956":2801,"0x7973":2802,"0x795f":2803,"0x7959":2804,"0x7967":2805,"0x7962":2806,"##d47":2807,"0x9fdd":2808,"0x9538":2809,"0x9fe9":2810,"0x9fe5":2811,"0x9fd3":2812,"0x948e":2813,"0x94c1":2814,"0xd3":2815,"0x9a5":2816,"0x59e3":2817,"0xaaaaaaaaaa":2818,"0x8419":2819,"0x7a16":2820,"0xae70":2821,"0xae6b":2822,"0x76b6":2823,"0x76bb":2824,"0x76ac":2825,"0x76b3":2826,"0x35c0":2827,"0xffffffbf":2828,"0x9fda":2829,"0x9fa0":2830,"0x9fce":2831,"0x9fa4":2832,"0x9fc6":2833,"##aaaaa9":2834,"0x9f9b":2835,"0x9fe2":2836,"0xaaaaaaaaaaaaaaa9":2837,"##e85":2838,"0x61b7":2839,"0x4f2":2840,"0x7ed":2841,"0x6521":2842,"0x1e85":2843,"0xa010":2844,"0xa00b":2845,"0xa007":2846,"0x6c52":2847,"0x4763":2848,"0x479f":2849,"0x9fc3":2850,"0xa2ce":2851,"0x9fff":2852,"0x9ff8":2853,"0x9fbc":2854,"0x9fb5":2855,"0x4f3":2856,"0x144":2857,"0x146":2858,"0x133":2859,"0x155":2860,"0x5ac3":2861,"0x5abb":2862,"0x5ac8":2863,"0x5abe":2864,"0x4b7a":2865,"0x4b84":2866,"0xa1e9":2867,"0xa1fa":2868,"0x8426":2869,"0x7a51":2870,"0x80c2":2871,"0xa216":2872,"0xa21e":2873,"0xa20f":2874,"0xa539":2875,"0xa26a":2876,"0x5ff":2877,"0x89d":2878,"0x7a1d":2879,"0x7a44":2880,"0x7a3d":2881,"0x7a11":2882,"0x7a49":2883,"0x7a3a":2884,"0x7a09":2885,"0x7a4c":2886,"0x7a37":2887,"0x79ed":2888,"0x79d5":2889,"0x79e7":2890,"0x79fb":2891,"0x79e2":2892,"0x79d2":2893,"0x79ef":2894,"0x7b5d":2895,"0x7b46":2896,"0x7b89":2897,"0x7b73":2898,"0x7b8e":2899,"0x7b69":2900,"0xa363":2901,"##ce5":2902,"0x808b":2903,"0x80bc":2904,"0x3530":2905,"0xa309":2906,"0x690":2907,"0x733":2908,"0xa120":2909,"0xa128":2910,"0xa14c":2911,"0x4a90":2912,"0xa473":2913,"0x3b47":2914,"0x765c":2915,"0xa318":2916,"0xa33b":2917,"##d62":2918,"0xa2dd":2919,"0xa22d":2920,"0xa225":2921,"0xa219":2922,"0xa54d":2923,"0x9db2":2924,"0xb893":2925,"0x688":2926,"0x684":2927,"0xa40a":2928,"0x729":2929,"0x6402":2930,"0x4c46":2931,"0xa1f0":2932,"0xa110":2933,"0xa116":2934,"0xa1fd":2935,"0xa1f7":2936,"0xa12b":2937,"0x841d":2938,"0x675f":2939,"0x6755":2940,"0x6759":2941,"0x6762":2942,"0x6751":2943,"0x674e":2944,"0x7abc":2945,"0x63f0":2946,"0xa418":2947,"0xa411":2948,"0x3b18":2949,"0x3b11":2950,"0x3bb9":2951,"0x3b0d":2952,"0x3b86":2953,"0x3b0e":2954,"0x3b1b":2955,"0x3bd2":2956,"0xa3ff":2957,"0xa320":2958,"0xa3ce":2959,"0xa3f5":2960,"0xa3df":2961,"0xa3eb":2962,"0xa3d0":2963,"0xa3d8":2964,"0xa3c8":2965,"0xa3e5":2966,"0xa3fc":2967,"0xdd38":2968,"0xa204":2969,"0xa202":2970,"0xa405":2971,"0xa40e":2972,"0x3d1a":2973,"0x3d1f":2974,"0xa304":2975,"0xa30c":2976,"0xb6a5":2977,"0x8a94":2978,"0xa7d":2979,"0xa6c":2980,"0x7e9":2981,"0xb1b7":2982,"0x6e4a":2983,"0x67c0":2984,"0x67b6":2985,"0x67c6":2986,"0x679f":2987,"0x679a":2988,"0x67c7":2989,"0x67c5":2990,"0x67b1":2991,"0x67ac":2992,"0xba6c":2993,"0xba91":2994,"0xae30":2995,"0x47f9":2996,"0x4616":2997,"0x4619":2998,"0x469f":2999,"0x469c":3000,"0xb502":3001,"0x468a":3002,"0x68c":3003,"0x6aa":3004,"0x148":3005,"0x6fc4":3006,"0x4984":3007,"0x4965":3008,"0x4974":3009,"0x4962":3010,"0x496f":3011,"0x4983":3012,"0x4985":3013,"0x497e":3014,"0x4979":3015,"0x455b":3016,"0x45b2":3017,"0x4557":3018,"0x4566":3019,"0x7ac7":3020,"0x7aa1":3021,"0xae44":3022,"0x818e":3023,"0x8070":3024,"0x8076":3025,"0x804d":3026,"0x803f":3027,"0x80a2":3028,"##7b8":3029,"##7be":3030,"0xa2a0":3031,"0x68e":3032,"0x868":3033,"0x870":3034,"0x9a6":3035,"0x4b5d":3036,"0x4b73":3037,"0x6e94":3038,"0x702c":3039,"0x7a88":3040,"0x75df":3041,"0x5cff":3042,"0x5d20":3043,"0x5d16":3044,"0x5d2a":3045,"0x5d25":3046,"0x5d2c":3047,"0x5d0f":3048,"0x5d0a":3049,"0x5d04":3050,"0x5d2b":3051,"0xb89d":3052,"0x34e0":3053,"0x5d1b":3054,"0x5d11":3055,"0x6fbc":3056,"0x6e48":3057,"0x6e31":3058,"0x6e2a":3059,"0x6e3b":3060,"0x6e41":3061,"0x6e3e":3062,"0x6e37":3063,"0x3690":3064,"0x6dae":3065,"0x6da8":3066,"0x84cf":3067,"0x6c2f":3068,"0x75d0":3069,"0x5cba":3070,"0x5cb2":3071,"0x5cb6":3072,"0x5cc4":3073,"0x5cc7":3074,"0x5cbe":3075,"0x5cb3":3076,"ne":3077,"0x617":3078,"0xb00":3079,"0x4b7d":3080,"0x4b82":3081,"0x4b3f":3082,"0x6fc8":3083,"0x6fc1":3084,"0x70ab":3085,"0x70d6":3086,"0xba7d":3087,"0xbae7":3088,"0xaef8":3089,"0xaec5":3090,"0x7bc9":3091,"0x7613":3092,"##f86":3093,"0xc4ae":3094,"0xb8ac":3095,"0x7607":3096,"neg":3097,"0x910":3098,"0x982":3099,"0x15b0":3100,"0x4560":3101,"0x4558":3102,"0x4565":3103,"0x4567":3104,"0x7a70":3105,"0x7a57":3106,"0x7a74":3107,"0xae8c":3108,"0xaeb1":3109,"0xb864":3110,"0xb860":3111,"0x9e68":3112,"0x9e55":3113,"0x9e82":3114,"0x7467":3115,"0xb86b":3116,"0xb861":3117,"0xb86e":3118,"0x9e99":3119,"0x69cc":3120,"0x92d2":3121,"0x6ab":3122,"0x725":3123,"0x8c3":3124,"0x64f6":3125,"0x9ce5":3126,"0x4000":3127,"0x7031":3128,"0xca":3129,"0x4aab":3130,"0x4aa3":3131,"0x4a96":3132,"0x4aa0":3133,"0x4a9e":3134,"0x4aa5":3135,"0x4a8c":3136,"0x4a84":3137,"0x4a93":3138,"0x4a82":3139,"0x4aa8":3140,"0x4a99":3141,"0xba10":3142,"0xba0d":3143,"0xba04":3144,"0xba08":3145,"0xae02":3146,"0x7b30":3147,"0x7b3f":3148,"0x7b34":3149,"0x4664":3150,"0x5d74":3151,"0x5dbf":3152,"##22e":3153,"0x6ffd":3154,"0x7108":3155,"0x5e03":3156,"0x518":3157,"0x92c1":3158,"0x6fc0":3159,"0x6fe6":3160,"0x6fd5":3161,"0x6fe2":3162,"0x6fd9":3163,"0x6fcc":3164,"0x6fdb":3165,"0x7064":3166,"0x70ee":3167,"0x7060":3168,"0x70f9":3169,"0x705d":3170,"0x70a3":3171,"0x7070":3172,"0x70fe":3173,"0x70bd":3174,"0x70ce":3175,"0x703d":3176,"0x70af":3177,"0x7046":3178,"0x702f":3179,"0x7026":3180,"0x70df":3181,"0x70b2":3182,"0x70b9":3183,"0x70eb":3184,"0x7017":3185,"0x7012":3186,"0x70e7":3187,"0x704f":3188,"0x709f":3189,"0x7093":3190,"0x709a":3191,"0x70c7":3192,"0x7082":3193,"0x7057":3194,"0x70fb":3195,"0x7074":3196,"0x70e2":3197,"0x7098":3198,"0x70c2":3199,"0x700b":3200,"0x704a":3201,"0x7039":3202,"0x7021":3203,"0x7052":3204,"0x70bf":3205,"0x708a":3206,"0x7003":3207,"0x7006":3208,"0x7034":3209,"0x7043":3210,"0x70b7":3211,"0x7079":3212,"0xc0":3213,"0x77d8":3214,"0x8438":3215,"0x8463":3216,"0x67d1":3217,"0x7af0":3218,"0x7af9":3219,"0x7af6":3220,"0xba30":3221,"0xba2d":3222,"0xba28":3223,"0xba25":3224,"0xba24":3225,"0x7b00":3226,"0x7b13":3227,"0x7b15":3228,"0x7b0e":3229,"0x7b04":3230,"0x7b08":3231,"0x4738":3232,"0x6b90":3233,"0x6b6c":3234,"0x6b81":3235,"0x6b8d":3236,"0x5d9d":3237,"0x5dbd":3238,"0x5d31":3239,"0x5d3d":3240,"0x5dba":3241,"0x5d4d":3242,"0x5d49":3243,"0x5d53":3244,"0x5d35":3245,"0x5d9f":3246,"0x5d93":3247,"0x5d55":3248,"0x5d9a":3249,"0x5d97":3250,"0x5d41":3251,"0x5d32":3252,"0x5db5":3253,"0x5d39":3254,"0x5db3":3255,"0x5db0":3256,"0x5d45":3257,"0x7127":3258,"0x6ff1":3259,"0x6ff8":3260,"0x6ff5":3261,"0x8a50":3262,"0x8a7d":3263,"0x8a2c":3264,"0x8a63":3265,"0x7119":3266,"0x7114":3267,"0x711a":3268,"0x7111":3269,"0xa6d7":3270,"0x7103":3271,"0x5dad":3272,"0x5da9":3273,"0x5da4":3274,"0x5da7":3275,"0x726c":3276,"0x8ab9":3277,"0xa6c6":3278,"0xd8":3279,"0xaf4":3280,"0xaf7":3281,"0x7f1":3282,"0x3d34":3283,"0x8e9":3284,"0x911":3285,"0x9667":3286,"0xc97":3287,"0x45c1":3288,"0x7ac1":3289,"0xba40":3290,"0xba48":3291,"0xba44":3292,"0xba4b":3293,"0xba4e":3294,"0xba45":3295,"0x7b3a":3296,"0x483e":3297,"0x46d5":3298,"0x4654":3299,"0x46b7":3300,"0x68a4":3301,"0x3d2d":3302,"0xdbd":3303,"0xaf07":3304,"0x733f":3305,"0x600":3306,"0x9ebe":3307,"0x15d":3308,"0x6ed1":3309,"0x6e7a":3310,"0x6e81":3311,"0x6e89":3312,"0x6e8c":3313,"0x6ec6":3314,"0x6eca":3315,"0x6ed9":3316,"0x6e85":3317,"0x6ebf":3318,"0x6e99":3319,"0x6ede":3320,"0xaa5e":3321,"0xaa57":3322,"0xaa61":3323,"0x66fe":3324,"0x45b7":3325,"0x7aea":3326,"0x7aff":3327,"0x7a90":3328,"0x7af8":3329,"0x7a7d":3330,"0x7a5b":3331,"0x7a9e":3332,"0x7a76":3333,"0x7ab2":3334,"0x7a81":3335,"0x7a8c":3336,"0x7aa6":3337,"0x7a93":3338,"0x7a5c":3339,"0x7afb":3340,"0x7aca":3341,"0x7a67":3342,"0x7a98":3343,"0x7acf":3344,"0x7ae1":3345,"0x7aa8":3346,"0x7aad":3347,"0x7acc":3348,"0x7ae5":3349,"0x7ab7":3350,"0x7ade":3351,"0x10ab":3352,"0xbaa0":3353,"0xbaa5":3354,"0xbab2":3355,"0xbaa4":3356,"0xbaaa":3357,"0xbab5":3358,"0xbaad":3359,"0xae2d":3360,"0xae28":3361,"0xae25":3362,"0xae24":3363,"0x7ba3":3364,"0x7b1d":3365,"0x7b96":3366,"0x7b58":3367,"0x7b90":3368,"0x7b7d":3369,"0x7baf":3370,"0x7b11":3371,"0x7b25":3372,"0x7b33":3373,"0x7b9e":3374,"0x7b7a":3375,"0x7bb9":3376,"0x7b6c":3377,"0x7b4d":3378,"0x7b35":3379,"0x7b14":3380,"0x7b19":3381,"0x7b82":3382,"0x7b0f":3383,"0x7bb4":3384,"0x7b3e":3385,"0x7b62":3386,"0x7bc2":3387,"0x7b4a":3388,"0x7b05":3389,"0x7ba8":3390,"0x7bb5":3391,"0x7bac":3392,"0x7b52":3393,"0x7b02":3394,"0x7b94":3395,"0x7b99":3396,"0x7b54":3397,"0x7b2b":3398,"0x7b71":3399,"0x7b5a":3400,"0xbbab":3401,"0xbbb4":3402,"0x4812":3403,"0x4805":3404,"0x7627":3405,"0x69a3":3406,"0x9e31":3407,"0xadd3":3408,"0xadd0":3409,"0xadc6":3410,"0xadc9":3411,"0xadc5":3412,"0x927b":3413,"0xa90":3414,"0x8b2":3415,"0x930":3416,"0x45ba":3417,"0x45d0":3418,"0x45b6":3419,"0x45d6":3420,"0x45d4":3421,"0xbadd":3422,"0xbae0":3423,"0xbad8":3424,"0xbad4":3425,"0xae50":3426,"0xae48":3427,"0xae4d":3428,"0xae45":3429,"0x7547":3430,"0x4718":3431,"0x4711":3432,"0x472c":3433,"0x471f":3434,"0x470a":3435,"0xbb9d":3436,"0xbba4":3437,"0xbb9f":3438,"0xbb9a":3439,"0xbba8":3440,"0x467d":3441,"0x4627":3442,"0x46a9":3443,"0x4612":3444,"0x4622":3445,"0x461e":3446,"0x46c8":3447,"0x46c4":3448,"0x4698":3449,"0x46cb":3450,"0x46a2":3451,"0x46a7":3452,"0x4695":3453,"0x3e8":3454,"0x8518":3455,"0xa98b":3456,"0x4683":3457,"0x4687":3458,"0x4680":3459,"0xb268":3460,"0xb287":3461,"0x33":3462,"0x8fd":3463,"0x12a":3464,"0xae64":3465,"0xae60":3466,"0xae68":3467,"0xae65":3468,"0x349":3469,"0xbf":3470,"0x936":3471,"0x928":3472,"0x7993":3473,"##32e":3474,"##2e5":3475,"0x62d":3476,"0x149":3477,"0xaec0":3478,"0xaefd":3479,"0xaef4":3480,"0xaed5":3481,"0xaec4":3482,"0xaeca":3483,"0xaecd":3484,"0xaed2":3485,"0xaf00":3486,"0x7ee":3487,"0x71d":3488,"0x74d":3489,"0x70cc":3490,"0x665a":3491,"##104":3492,"0x3f00":3493,"0x75f1":3494,"0x75d5":3495,"0x75ec":3496,"0x8043":3497,"0x3ef3":3498,"0x7199":3499,"0x4e7":3500,"0x740":3501,"0x8f4":3502,"0x6631":3503,"0x3b27":3504,"0x48a7":3505,"0x7466":3506,"0x855":3507,"0x8c2":3508,"0x9ed3":3509,"0x412c":3510,"0x6d91":3511,"0x4828":3512,"0x4883":3513,"0x4629":3514,"0x80ae":3515,"0x8087":3516,"##bb0":3517,"0x7370":3518,"0x1150":3519,"0x7f5":3520,"0x9a4":3521,"0x3cda":3522,"0x3cbf":3523,"0x4857":3524,"0x48db":3525,"0x4632":3526,"##f27":3527,"##e7f":3528,"0x9916":3529,"##1c2":3530,"0x3d3e":3531,"0x4646":3532,"0x86c":3533,"0xb485":3534,"0x3c78":3535,"0x63bd":3536,"0xa369":3537,"0x6b59":3538,"0x8068":3539,"0x99b6":3540,"0x99c9":3541,"0x999f":3542,"0x99c2":3543,"0x99b3":3544,"0x99cc":3545,"0x98ea":3546,"0xa96e":3547,"0x8ed":3548,"0x919":3549,"0x65fb":3550,"0x1180":3551,"0x4189":3552,"0x4152":3553,"0x416e":3554,"0x84ed":3555,"0x75ba":3556,"0x75fd":3557,"0x75a4":3558,"0x75e9":3559,"0x75e6":3560,"0x75f6":3561,"0x75fa":3562,"0x75a8":3563,"0x75b5":3564,"0x75db":3565,"0x75bf":3566,"0x4631":3567,"0x4673":3568,"0x4657":3569,"0x7616":3570,"0x8050":3571,"0x807a":3572,"0x8081":3573,"0x805e":3574,"0x808c":3575,"0x8084":3576,"0x809f":3577,"0x8055":3578,"0x8098":3579,"0x80b1":3580,"0x804a":3581,"0x80a7":3582,"0x8061":3583,"0x8091":3584,"0x806b":3585,"0x805a":3586,"0x8095":3587,"0x991d":3588,"0x98f2":3589,"0x7604":3590,"0x760c":3591,"0x6ae":3592,"0x4ee":3593,"0x3ea":3594,"0x98c":3595,"0x6e18":3596,"0x615":3597,"0x44d":3598,"0x72f":3599,"0x72c":3600,"0x3a0":3601,"0x158":3602,"0x5922":3603,"0x6e00":3604,"0x6e28":3605,"0x6e13":3606,"0x6e07":3607,"0x6e03":3608,"0x6dff":3609,"0x6b75":3610,"0x6b78":3611,"0xabc3":3612,"0x62f6":3613,"0x618":3614,"0x612":3615,"0x44b":3616,"0x888":3617,"0x8fa":3618,"0x60ff":3619,"0x60d1":3620,"0x6b9a":3621,"##b69":3622,"0x72a":3623,"0x3d6":3624,"0x4a55":3625,"0x3f36":3626,"0x7452":3627,"0x9a30":3628,"0x72b":3629,"0x8c6":3630,"0x859":3631,"0xbd0":3632,"0x3c71":3633,"0x3f27":3634,"0x3f2e":3635,"0xa4cb":3636,"##f97":3637,"0x48ad":3638,"0x48cc":3639,"0x48b7":3640,"0x1398":3641,"0x4459":3642,"0x3f0e":3643,"xmm1":3644,"0x91cd":3645,"0xd62":3646,"0xb7a":3647,"0x666c":3648,"0x6677":3649,"0x3c10":3650,"0x3c63":3651,"0x3c06":3652,"0x3bff":3653,"0x3b46":3654,"0x3ba5":3655,"0x3b99":3656,"0x46b8":3657,"##b97":3658,"0x99a7":3659,"0x7479":3660,"0xacdd":3661,"0x69d0":3662,"0x6a97":3663,"0x5ffc":3664,"cl":3665,"0x4f6":3666,"0x3da":3667,"0x917":3668,"##64b":3669,"0x665d":3670,"0x66a9":3671,"0x6695":3672,"0x4904":3673,"0x5bc2":3674,"0xa4a5":3675,"0x3b6b":3676,"0x48e1":3677,"0x48e8":3678,"0x8113":3679,"0x8124":3680,"##3b3":3681,"0x693":3682,"0xafe":3683,"0x718":3684,"0x889":3685,"0xbca":3686,"0xbd47":3687,"0xb487":3688,"0xb48f":3689,"0xc3e8":3690,"0x3cff":3691,"0x3cee":3692,"0x3cf0":3693,"0x3cf9":3694,"0x3ce0":3695,"0x3cba":3696,"0x3c9e":3697,"0x3cf1":3698,"0x3ce6":3699,"0x3c86":3700,"0x3caa":3701,"0x3cc4":3702,"0x3c93":3703,"0x3cc7":3704,"0x3cf3":3705,"0x3c98":3706,"0x3ce3":3707,"0x3ce1":3708,"0x3cec":3709,"0x3cac":3710,"0x3cd9":3711,"0x3ccc":3712,"0x3ce8":3713,"0x47a5":3714,"0x46e4":3715,"0x46be":3716,"##d78":3717,"0x3d48":3718,"0x3d46":3719,"0x3d27":3720,"0x3d3b":3721,"0x3d22":3722,"0xdbb0":3723,"0xdb97":3724,"0xd3b3":3725,"0x1590":3726,"0xc3ea":3727,"0xc3f2":3728,"0xabed":3729,"0xbd93":3730,"0xdc8e":3731,"0x3d09":3732,"0x3d07":3733,"0x3d05":3734,"0x3d0e":3735,"0x3d15":3736,"0x3d47":3737,"0x3d41":3738,"0xbcdd":3739,"0xbcf8":3740,"0xdbf1":3741,"0xdbd6":3742,"0xbd03":3743,"0xbcac":3744,"0x4f0":3745,"0xaf3":3746,"0x3e0":3747,"0x916":3748,"0x913":3749,"0x15b":3750,"0xc8f":3751,"0xc66":3752,"0x6caa":3753,"0x7659":3754,"0x6bbe":3755,"##dc2":3756,"##972":3757,"0x97c0":3758,"0xb501":3759,"0x869c":3760,"0xd8b":3761,"0x8da":3762,"0x8e0":3763,"0x886":3764,"0xb4f9":3765,"0xb4f2":3766,"0xb4fc":3767,"0x6650":3768,"0x665c":3769,"0x45c2":3770,"0x3b7a":3771,"##fbc":3772,"##3e1":3773,"0x62c":3774,"0x4f4":3775,"0x4e4":3776,"0xac9":3777,"0x3af":3778,"0xb7b8":3779,"0x950":3780,"0x986":3781,"0x65ff":3782,"0x65f8":3783,"0x65f7":3784,"0x139":3785,"0xc1":3786,"0xcaf":3787,"0x665b":3788,"0x663f":3789,"0x663c":3790,"0x6cce":3791,"0x6cc4":3792,"0x6cb3":3793,"0x6cb7":3794,"0xa444":3795,"0x14a0":3796,"0x664b":3797,"0x6648":3798,"0x840c":3799,"0xb7a6":3800,"0xac2":3801,"0x8af":3802,"0x89c":3803,"0xb19":3804,"0x9a9":3805,"0xaa5c":3806,"0xaa67":3807,"0x5bb5":3808,"0x6ca0":3809,"0xb537":3810,"0xa527":3811,"0x69f3":3812,"0x610":3813,"0x616":3814,"0x3e9":3815,"0x3eb":3816,"0x958":3817,"0x92f":3818,"0x973":3819,"0x25":3820,"0xcf":3821,"0xc23":3822,"0x5b64":3823,"0x5bc0":3824,"0x5b60":3825,"0x5b5d":3826,"0x5ba4":3827,"0x5b5c":3828,"0x5ba1":3829,"0x5bad":3830,"0x5bbf":3831,"0x5bc1":3832,"0x5bb0":3833,"0x5b6b":3834,"0x6cc7":3835,"0x6cb0":3836,"0x7544":3837,"0xb5ff":3838,"0x475f":3839,"0xa3a1":3840,"0xfffffff8":3841,"0xffffffc7":3842,"0x68d0":3843,"0xaf22":3844,"0xaf0c":3845,"0xafd8":3846,"0x698":3847,"0x7eb":3848,"0x3ed3":3849,"0xb13":3850,"0xb245":3851,"0xb1c2":3852,"0x15e":3853,"0x4b66":3854,"0x36d0":3855,"0x6d97":3856,"0xb5f5":3857,"0x98d8":3858,"##ecc":3859,"0x8fb4":3860,"0xad1b":3861,"0xb186":3862,"0x3ed8":3863,"0x73dc":3864,"0xb198":3865,"0x6a7":3866,"0x71a":3867,"0x515":3868,"0x3ae":3869,"0xbed3":3870,"0xb2c1":3871,"0xbf27":3872,"0xbe7f":3873,"0xbdc2":3874,"0x975":3875,"0x83c3":3876,"0x83d8":3877,"0x3c50":3878,"0x3c5d":3879,"0x3c7d":3880,"0x3c3d":3881,"0x3c11":3882,"0x3c2f":3883,"0x3c13":3884,"0x3c3b":3885,"0x3c17":3886,"0x3c29":3887,"0x3c12":3888,"0x3c1e":3889,"0x3c7c":3890,"0x3c35":3891,"0x3c24":3892,"0x3c55":3893,"0x3c6a":3894,"0x3c77":3895,"0x3c74":3896,"0x3c09":3897,"0x3c4b":3898,"0x3c3f":3899,"0x3c7e":3900,"0x3c0c":3901,"0x6787":3902,"0x6361":3903,"0xb541":3904,"0xb539":3905,"0xb5f7":3906,"0x3bea":3907,"0x3be0":3908,"0x3ba0":3909,"0x3bf2":3910,"0x3bf8":3911,"0x3b75":3912,"0x3bb2":3913,"0x3b4d":3914,"0x3b81":3915,"0x3bed":3916,"0x3bd0":3917,"0x3b73":3918,"0x3bb6":3919,"0x3b8e":3920,"0x3baa":3921,"0x3b8b":3922,"0x3b65":3923,"0x3b5f":3924,"0x3bc4":3925,"0x3b93":3926,"0x3b57":3927,"0x3bb4":3928,"0x3bd4":3929,"0x3bca":3930,"0x3bbe":3931,"0x3bad":3932,"0x3bac":3933,"0x3ba7":3934,"0x3bd9":3935,"0x3be5":3936,"0x3b54":3937,"0x3b71":3938,"0x3b5a":3939,"0x47ff":3940,"0x4864":3941,"0x4850":3942,"0x482d":3943,"0x4831":3944,"0x4825":3945,"0x487a":3946,"0x4838":3947,"0x486c":3948,"0x483b":3949,"0x4817":3950,"0x481e":3951,"0x485f":3952,"0x480f":3953,"0x4877":3954,"0x484a":3955,"0x4802":3956,"0x4869":3957,"0x480c":3958,"0x4871":3959,"0x4843":3960,"0x485a":3961,"##233":3962,"0x46f2":3963,"0x98ce":3964,"0xc4c0":3965,"0xc4b6":3966,"##d37":3967,"0x61bd":3968,"0xacfe":3969,"0xacd3":3970,"0x3a26":3971,"0xdd68":3972,"0xbdbd":3973,"0xbd76":3974,"0xbdb9":3975,"0xbd97":3976,"0xdcbd":3977,"0xdc82":3978,"0xdca8":3979,"0xdc71":3980,"0xdcfc":3981,"0xbe40":3982,"0xbe5d":3983,"0xbe8c":3984,"0xbe59":3985,"0xb270":3986,"0x620d":3987,"0x9903":3988,"0xb1a9":3989,"0x7f01":3990,"0xb183":3991,"0xc4b8":3992,"0xb1d4":3993,"0x636170":3994,"0x61e2":3995,"0x61e8":3996,"0x3ecc":3997,"0x129":3998,"0x6e51":3999,"0xc1e2":4000,"0x6da3":4001,"0x3f33":4002,"0x3f12":4003,"0x3f22":4004,"0x3f19":4005,"0x3f1c":4006,"0x3f1f":4007,"0x6c64":4008,"0x6ca3":4009,"0x6c9d":4010,"0x6c96":4011,"0x6c58":4012,"0x6c7d":4013,"0x6ca9":4014,"0x6c89":4015,"0x6c5e":4016,"0x6c8c":4017,"0x6c8f":4018,"0x6c72":4019,"0x6ca8":4020,"0x6c83":4021,"0x6c61":4022,"0x6c78":4023,"0x6c6b":4024,"0x4749":4025,"0x4756":4026,"0x46f9":4027,"0x3eeb":4028,"0x3ee4":4029,"0x3ee1":4030,"##421":4031,"0x99dd":4032,"0x99f0":4033,"0x9930":4034,"0x99f9":4035,"0x99ab":4036,"0x99a3":4037,"0x9996":4038,"0x99bd":4039,"0x99ba":4040,"0x99f5":4041,"0x99ae":4042,"0x999b":4043,"0x999a":4044,"0x99c5":4045,"0x9939":4046,"0x99fc":4047,"##9b5":4048,"0x2420":4049,"0x98f9":4050,"0x9811":4051,"0x3ec0":4052,"0x3ef0":4053,"0x3e1d":4054,"0x3efe":4055,"0x3ed1":4056,"0x3ef8":4057,"0x3ec6":4058,"0x61dd":4059,"0x61ee":4060,"0x61da":4061,"0x61c3":4062,"0x61f1":4063,"0x61f4":4064,"0x61c9":4065,"0x61c6":4066,"0x61fb":4067,"0x739b":4068,"0xd972":4069,"0xd9b5":4070,"0xad35":4071,"0xad3e":4072,"0xabc5":4073,"0x620f":4074,"0x6208":4075,"0x6205":4076,"0x6202":4077,"0x620e":4078,"0x99eb":4079,"0x99e1":4080,"0x99e8":4081,"0x9a04":4082,"0x9a01":4083,"0x9a08":4084,"0x990d":4085,"0x3f04":4086,"0x3f07":4087,"0xad12":4088,"0xda82":4089,"0x99d9":4090,"0x99d1":4091,"0x99d5":4092,"0xd9ba":4093,"0xd987":4094,"0x984b":4095,"0x61d7":4096,"0x61d0":4097,"0x3ede":4098,"0xad08":4099,"0xc1e0":4100,"0xc232":4101,"0x4ea":4102,"0x4e9":4103,"0x896":4104,"0xc2":4105,"0x7895":4106,"0x4ac0":4107,"0x4ac3":4108,"0x4ab2":4109,"0x4ac9":4110,"0x4ab4":4111,"0x4ad3":4112,"0x847b":4113,"0x60ea":4114,"0x60dd":4115,"0x60da":4116,"0x60e0":4117,"0x60f2":4118,"0x60f5":4119,"0x60e9":4120,"0x60e6":4121,"0x60d7":4122,"0x60ec":4123,"0x60db":4124,"0x60ef":4125,"0x6356":4126,"0xa460":4127,"0xa470":4128,"0xa458":4129,"0xa436":4130,"0xa490":4131,"0xa446":4132,"0xa46c":4133,"0xa43a":4134,"0xa442":4135,"0xa486":4136,"0xa47c":4137,"0xa48b":4138,"0xa435":4139,"0xa49f":4140,"0xa497":4141,"0xa49c":4142,"0xa441":4143,"0xa432":4144,"0xa474":4145,"0xa483":4146,"0xa451":4147,"0xa44e":4148,"0xa494":4149,"0xa478":4150,"0x4768":4151,"0x47bd":4152,"0x47af":4153,"0x4776":4154,"0x4786":4155,"0x4797":4156,"0x47b4":4157,"0x476a":4158,"0x477b":4159,"0x47c2":4160,"0x4766":4161,"0x47a8":4162,"0x4794":4163,"0x4778":4164,"0x47c1":4165,"0x4780":4166,"0x4771":4167,"0x47bc":4168,"0x47b7":4169,"0x478d":4170,"0x815d":4171,"0x8144":4172,"0x812c":4173,"0x8147":4174,"0xa3ac":4175,"0x6b76":4176,"0x6b84":4177,"0x6b87":4178,"0x6b7b":4179,"0x6b72":4180,"0x6b85":4181,"0x6b8a":4182,"0x99da":4183,"0x8ec7":4184,"0x8efa":4185,"0x73f5":4186,"0xd104":4187,"0x8f31":4188,"0xadee":4189,"0x6ddc":4190,"0xaddf":4191,"0xd1da":4192,"0xd127":4193,"0xd1bb":4194,"0xd115":4195,"0xd0f1":4196,"0xd0e3":4197,"0x99e9":4198,"0x8eeb":4199,"0x8ee3":4200,"0x8f04":4201,"0x8f2e":4202,"0x2925":4203,"0x8f39":4204,"0xabb":4205,"0x73e8":4206,"0x73e1":4207,"0x5f8":4208,"0x8b5":4209,"0x8ed3":4210,"0x160":4211,"0x7840":4212,"0x7844":4213,"0x785e":4214,"0x784c":4215,"0x7839":4216,"0x783c":4217,"0x6348":4218,"0x6caf":4219,"0x6cbb":4220,"0x6cc9":4221,"0x6cbe":4222,"0x7936":4223,"0x797e":4224,"0x983d":4225,"0x1327":4226,"0x8f8a":4227,"0x8f80":4228,"0x6aac":4229,"0xb13c":4230,"0xabd":4231,"0x73a":4232,"0x8d6":4233,"0x82d1":4234,"0x6dee":4235,"0x6dab":4236,"0x6da0":4237,"0x6dbd":4238,"0x6dba":4239,"0x6de6":4240,"0x6df6":4241,"0x6dc4":4242,"0x6dc7":4243,"0x6de3":4244,"0x6db8":4245,"0x6db5":4246,"0x6dec":4247,"0x6dcc":4248,"0x6dc1":4249,"0x631d":4250,"0xae7d":4251,"0xae7a":4252,"0xae86":4253,"0xae97":4254,"0xa4d3":4255,"0x6b34":4256,"##ec1":4257,"0x69f1":4258,"0x6dd9":4259,"0xabaf":4260,"0xabeb":4261,"0x7dc3":4262,"0xaea5":4263,"0x138c":4264,"cmovs":4265,"0x7e77":4266,"0x715c":4267,"0x4fe6":4268,"0x622e":4269,"0x4f1":4270,"0x89e":4271,"0x865":4272,"0x9d37":4273,"0x6220":4274,"0x6223":4275,"0x6218":4276,"0x622c":4277,"0x6229":4278,"0x6215":4279,"0x6214":4280,"0x621c":4281,"0x6233":4282,"0x982e":4283,"0x8f1":4284,"0x9603":4285,"0x78a3":4286,"0x4ade":4287,"0x66c1":4288,"0x5be8":4289,"0x36a0":4290,"0x6791":4291,"0xa4d9":4292,"0xa4e8":4293,"##2d5":4294,"0x76a7":4295,"0x137e":4296,"0xaf48":4297,"0xa50f":4298,"0xa508":4299,"0xa518":4300,"0x722c":4301,"0x1312":4302,"0x1367":4303,"0x136a":4304,"0x1339":4305,"0x9281":4306,"jae":4307,"0x62a":4308,"0x140":4309,"0x12d":4310,"0x4b40":4311,"0x4b10":4312,"0x4b16":4313,"0x4b13":4314,"0x4b3a":4315,"0x4b35":4316,"0x4b24":4317,"0x4b1b":4318,"0x4b32":4319,"0x4b09":4320,"0x4b51":4321,"0x4b21":4322,"0x4b4e":4323,"0x4b04":4324,"0x4b54":4325,"0x4b2b":4326,"0x4b47":4327,"0xa1d8":4328,"0xa1d3":4329,"0x4af8":4330,"0x4af5":4331,"0x4afd":4332,"0x4ae7":4333,"0x4ae4":4334,"0x4af3":4335,"0x6683":4336,"0xaec9":4337,"0xae72":4338,"0xae7f":4339,"0xbbce":4340,"0x76c7":4341,"0x76ca":4342,"0x95aa":4343,"0xa788":4344,"0x12fc":4345,"0x95db":4346,"0xaf9b":4347,"0xaee5":4348,"0xa7d3":4349,"0x97be":4350,"0x704d":4351,"0x703a":4352,"0x7056":4353,"0x7042":4354,"0x7053":4355,"0x70ca":4356,"0x70cb":4357,"0x704b":4358,"0x703c":4359,"0x7047":4360,"0x7045":4361,"0x8330":4362,"0x82e5":4363,"0x7832":4364,"0x6310":4365,"0x6331":4366,"0x635b":4367,"0x6313":4368,"0x6326":4369,"0x632c":4370,"0x630d":4371,"0x6329":4372,"0x6322":4373,"0x6353":4374,"0x6341":4375,"0x633e":4376,"0x631a":4377,"0x634b":4378,"0x631f":4379,"0x6305":4380,"0x6351":4381,"0x6302":4382,"0x634e":4383,"0x6337":4384,"0x6334":4385,"0x6308":4386,"0x6c20":4387,"0x6c18":4388,"0x6c11":4389,"0x6c1b":4390,"0x7982":4391,"0x97e6":4392,"0x97e8":4393,"##4ac":4394,"0x869a":4395,"0x9519":4396,"0xa91e":4397,"0x820f":4398,"0x6c0c":4399,"0x8507":4400,"0x62fc":4401,"0x97aa":4402,"0xa909":4403,"0x681":4404,"0x697":4405,"0xa56":4406,"0x8ca":4407,"0x981":4408,"0xaa2c":4409,"0x82ee":4410,"0x82f3":4411,"0x3c14":4412,"0x6c2c":4413,"0xa4d4":4414,"0x47bf":4415,"##88b":4416,"0x34c0":4417,"0x9a39":4418,"0x7286":4419,"0x6008":4420,"0xfe":4421,"0x938":4422,"0x65b2":4423,"0x65bb":4424,"0x65aa":4425,"0x659f":4426,"0x65a1":4427,"0x65b8":4428,"0x65ac":4429,"0x65a7":4430,"0x65b0":4431,"0x6630":4432,"0x662f":4433,"0x7ad9":4434,"0x793d":4435,"##247":4436,"##5cc":4437,"##7b1":4438,"0x134c":4439,"0x3dbd":4440,"0x9593":4441,"0xfc6":4442,"0xa2f7":4443,"0x87c7":4444,"0x144b":4445,"0x9504":4446,"0xfef":4447,"0x44ac":4448,"0x7f4":4449,"0x8ce":4450,"0x8dc":4451,"0x949":4452,"0x83dd":4453,"0x83d1":4454,"0x833a":4455,"0x833e":4456,"0x83cc":4457,"0x821d":4458,"0x8216":4459,"0x82df":4460,"0x82e9":4461,"0x82e7":4462,"0x82c9":4463,"0x82d4":4464,"0x82d7":4465,"0x82e2":4466,"0x8221":4467,"0x82db":4468,"0x82cd":4469,"0x6d83":4470,"0x6d39":4471,"0x842f":4472,"0x842e":4473,"0x3b42":4474,"0x76f8":4475,"0x6b95":4476,"0x9956":4477,"##4fc":4478,"0x74a3":4479,"0x7496":4480,"0x749e":4481,"0x7476":4482,"0x74a5":4483,"0x74a4":4484,"0x7473":4485,"0x747c":4486,"0x747f":4487,"##fa1":4488,"0x9055":4489,"0x5413":4490,"0x69ee":4491,"0x69fe":4492,"0x69f8":4493,"0x8c48":4494,"0x3de9":4495,"0x3de4":4496,"0x4e38":4497,"0x12ea":4498,"0x6a03":4499,"0x6a09":4500,"0x6a0a":4501,"0x6a01":4502,"0x6a08":4503,"0x746b":4504,"0x746c":4505,"0x746f":4506,"0x69db":4507,"0x69d4":4508,"0x69d1":4509,"0x69d8":4510,"0x69de":4511,"0x7486":4512,"0x7489":4513,"0x748c":4514,"0x7481":4515,"0x748e":4516,"0x69eb":4517,"0x69e6":4518,"0x69e4":4519,"0x69e1":4520,"0x7493":4521,"0x7499":4522,"0x749c":4523,"0x3ddf":4524,"0x8b6e":4525,"0x69fb":4526,"0x9586":4527,"0xa58":4528,"0xa92":4529,"0x5ea":4530,"0x88e":4531,"0x8ae":4532,"0x8b4":4533,"0x989":4534,"0xa045":4535,"0xa163":4536,"0x3880":4537,"0x7721":4538,"0x84ee":4539,"0xae32":4540,"0x75ce":4541,"0x75a9":4542,"0x75b9":4543,"0x75f4":4544,"0x75a6":4545,"0x75c8":4546,"0x759f":4547,"0x75b4":4548,"0x75cf":4549,"0x75be":4550,"0x75a2":4551,"0x75ac":4552,"0x75bc":4553,"0x79f9":4554,"0xbb28":4555,"0x8129":4556,"0x81bc":4557,"0x6bcc":4558,"##865":4559,"##145":4560,"0x6804":4561,"0x8e86":4562,"0x1310":4563,"0x6900":4564,"0xaf40":4565,"0xaf74":4566,"0xaded":4567,"0xaf81":4568,"0xaf02":4569,"0x1303":4570,"0x1306":4571,"0x1315":4572,"0x729f":4573,"0x1391":4574,"0xa92e":4575,"0x7fb":4576,"0x517":4577,"0x931":4578,"0x987":4579,"0x656b":4580,"0x6571":4581,"0xa023":4582,"0xa041":4583,"0xa032":4584,"0xa01f":4585,"0xa04a":4586,"0xa02e":4587,"0x5931":4588,"0x5927":4589,"0x5935":4590,"0x7858":4591,"0x7836":4592,"0x7853":4593,"0x789f":4594,"0x784a":4595,"0x784e":4596,"0x782e":4597,"0x7847":4598,"0x7786":4599,"0x7782":4600,"0x777b":4601,"0x7774":4602,"##f09":4603,"0x848c":4604,"0x8492":4605,"0x8494":4606,"0x63d0":4607,"0x63c9":4608,"0x63c2":4609,"0x63c5":4610,"0x63cc":4611,"0x63c1":4612,"0x7931":4613,"0x7928":4614,"0x7938":4615,"0x7942":4616,"0x798b":4617,"0x792e":4618,"0x8195":4619,"0x6bbf":4620,"##53f":4621,"0x6ad4":4622,"0x942a":4623,"0x9a73":4624,"0x1130":4625,"0x3a10":4626,"0x6c0f":4627,"0xa294":4628,"0x8506":4629,"0x8505":4630,"0x131f":4631,"0x6acc":4632,"0x9a69":4633,"0x6174":4634,"0x611a":4635,"0x4eb":4636,"0x348":4637,"0x8dd":4638,"0x8df":4639,"0x8e6":4640,"0x8d7":4641,"0x8a7":4642,"0x64df":4643,"0xa030":4644,"0xa036":4645,"0xa03a":4646,"0xa0d7":4647,"0xa04b":4648,"0xa0e5":4649,"0x2f8":4650,"0x96dc":4651,"0x5b57":4652,"0x7a53":4653,"0xbabe":4654,"0x4895":4655,"0xa373":4656,"0xa387":4657,"0x6bb5":4658,"##8f7":4659,"0xa2c0":4660,"0xa2bd":4661,"0xa2eb":4662,"0xa2e4":4663,"0x8b75":4664,"0x8b87":4665,"0xa50d":4666,"0x8519":4667,"0x9ad0":4668,"0x9feb":4669,"0x9fef":4670,"0xa2a4":4671,"0x8b9f":4672,"0x8b95":4673,"0x8bdc":4674,"0x8bdf":4675,"0x1351":4676,"0x8bbf":4677,"0x1289":4678,"0xa254":4679,"0xa2cb":4680,"0x4e98":4681,"0xad5":4682,"0xa2d5":4683,"0x730":4684,"0x5e6":4685,"0x88c":4686,"0x920":4687,"0x5ad0":4688,"0x5ad8":4689,"0x5ad6":4690,"0x5ad7":4691,"0xa0d2":4692,"0x592a":4693,"0x5926":4694,"0x592e":4695,"0x6e0b":4696,"0xa105":4697,"0xa107":4698,"0x3c67":4699,"0x7a6a":4700,"0x7a6b":4701,"0xa48e":4702,"0xa41a":4703,"0xa4cd":4704,"0x79f1":4705,"0x79f7":4706,"0xa37d":4707,"0xa35b":4708,"0xa37a":4709,"0xa38c":4710,"0xa3b6":4711,"0xa3c6":4712,"0xa38f":4713,"0xa34b":4714,"0xa352":4715,"##4d0":4716,"0xa546":4717,"0x8f9a":4718,"0xa535":4719,"0xa552":4720,"0xa68":4721,"0xa23b":4722,"0xa245":4723,"0xa233":4724,"0xa247":4725,"0x8f5":4726,"0x89b":4727,"0x90f":4728,"0x12e":4729,"0xa0f8":4730,"0xa0d6":4731,"0xa0ec":4732,"0xa0d3":4733,"0xa0de":4734,"0x2d1":4735,"0xa1da":4736,"0xa168":4737,"0xa1e0":4738,"0xa170":4739,"0xa1c3":4740,"0xa1b9":4741,"0xa1d0":4742,"0xa1e7":4743,"0xa10e":4744,"0xa1c7":4745,"0xa15c":4746,"0xa1ca":4747,"0xa152":4748,"0xa137":4749,"0xa1cd":4750,"0xa154":4751,"0xa16b":4752,"0xa101":4753,"0xa1bc":4754,"0x4980":4755,"0x843f":4756,"0x8434":4757,"0x6790":4758,"0x677d":4759,"0x6789":4760,"0x6773":4761,"0x6785":4762,"0x6778":4763,"0x677f":4764,"0x678d":4765,"0xba39":4766,"0xa4f9":4767,"0xa4ab":4768,"0xa427":4769,"0xa42a":4770,"0xa49e":4771,"0xa47a":4772,"0xa4df":4773,"0xa438":4774,"0xa44d":4775,"0xa481":4776,"0xa43b":4777,"0xa4e6":4778,"0xa489":4779,"0xa4f6":4780,"0xa453":4781,"0xa49b":4782,"0xa487":4783,"0xa46a":4784,"0xa498":4785,"0xa44b":4786,"0xa4a1":4787,"0xa4b5":4788,"0xa4ad":4789,"0xa491":4790,"0xa4bf":4791,"0xa47e":4792,"0xa434":4793,"0xa471":4794,"0xa4bc":4795,"0xa4ef":4796,"0xa4fc":4797,"0x3b1d":4798,"0x3b36":4799,"0x3b48":4800,"0x3b33":4801,"0x3b38":4802,"0x3b49":4803,"0x3b24":4804,"0x3b3f":4805,"0x7691":4806,"0xa358":4807,"0xa3af":4808,"0xa3a9":4809,"0xa3b9":4810,"0xa384":4811,"0xa3a6":4812,"0xa39f":4813,"0xa3c4":4814,"0xa355":4815,"0xa397":4816,"0xa341":4817,"0xa3bf":4818,"0xa380":4819,"0xa36b":4820,"0xa3bc":4821,"0xa343":4822,"0xa395":4823,"0x6b2d":4824,"##f51":4825,"0x9035":4826,"0x906a":4827,"0x903f":4828,"0x1340":4829,"0x1358":4830,"0xa268":4831,"0xa290":4832,"0xa25b":4833,"0xa2e9":4834,"0xa24d":4835,"0xa2b6":4836,"0xa242":4837,"0xa2e7":4838,"0xaca5":4839,"0xa501":4840,"0xa53d":4841,"0xa511":4842,"0xa51a":4843,"0xa28d":4844,"0xa282":4845,"0xdd25":4846,"0xdd2c":4847,"0xdd19":4848,"0xa29f":4849,"0xa292":4850,"0x736b":4851,"0x8588":4852,"0xa2f1":4853,"0xa276":4854,"0xa274":4855,"0xa271":4856,"0xa27f":4857,"0xa278":4858,"0xa2a6":4859,"0xa2ac":4860,"0xa2a2":4861,"0xa2ae":4862,"0x7684":4863,"0x135c":4864,"0xa25e":4865,"0xa551":4866,"0xa2c7":4867,"0xc979":4868,"0x717":4869,"0x3ab":4870,"0x860":4871,"0x91d":4872,"0x935":4873,"0x120":4874,"0x4b64":4875,"0x4b6c":4876,"0x4b67":4877,"0x3770":4878,"0x96c3":4879,"0x84ff":4880,"0x845f":4881,"0x84f3":4882,"0xba19":4883,"0xaede":4884,"0x3b4a":4885,"0x4775":4886,"0xbbbd":4887,"0xbbc6":4888,"0xbbc8":4889,"0xbbcc":4890,"0xbbcd":4891,"0x819b":4892,"0x8191":4893,"0x816e":4894,"##fec":4895,"0x6b07":4896,"##1b5":4897,"0xb8a4":4898,"0xb8a7":4899,"0x1364":4900,"0x6952":4901,"0x5e3a":4902,"0x9270":4903,"0x7f73":4904,"0x138f":4905,"0x1382":4906,"0x3a36":4907,"0x3a31":4908,"0x3a38":4909,"0x1354":4910,"0x6bdb":4911,"0x6bd8":4912,"0x9234":4913,"0xc4b5":4914,"0x6a8":4915,"0x7f7":4916,"0x8fac":4917,"0xbf86":4918,"0xbfbc":4919,"0xbfa1":4920,"0x159":4921,"0x9604":4922,"0x771a":4923,"0x3cf2":4924,"0x84ea":4925,"0x84f6":4926,"0x84d6":4927,"0x84fb":4928,"0x84e2":4929,"0x84d3":4930,"0x84db":4931,"0x84ef":4932,"0x84de":4933,"0x7520":4934,"0x5cea":4935,"0x5cdd":4936,"0x5cee":4937,"0x5cf2":4938,"0x5cf5":4939,"0x5cd8":4940,"0x5ce4":4941,"0x5ce2":4942,"0x5cec":4943,"##2db":4944,"0x6b23":4945,"0x6b28":4946,"0x6b11":4947,"0x6b33":4948,"0x6b17":4949,"0x6b1e":4950,"0x6b0e":4951,"0x6b14":4952,"0x6b19":4953,"0x6b32":4954,"0x6b0b":4955,"0x6b21":4956,"0x6b04":4957,"0x6b03":4958,"0x6b2b":4959,"0x8037":4960,"##122":4961,"0x99c3":4962,"0x68df":4963,"0x68dc":4964,"0x7149":4965,"0x8511":4966,"0x8f7d":4967,"0x8f76":4968,"0x8fa9":4969,"0x9a7d":4970,"0x3a70":4971,"0x3a58":4972,"0x3a75":4973,"0x3a2c":4974,"0x8502":4975,"0x850e":4976,"0x8f85":4977,"0x8f8e":4978,"0x8f96":4979,"0x8f9d":4980,"0x8f91":4981,"0x8f6e":4982,"0x720f":4983,"0x3a6b":4984,"0x3a66":4985,"0x3a62":4986,"0x3a6e":4987,"0x3a3d":4988,"0x8b69":4989,"0x3a53":4990,"0x3a5c":4991,"0x3a51":4992,"0x3a4c":4993,"0x3a47":4994,"0x3a41":4995,"0x8f79":4996,"0x8f71":4997,"0x8fa2":4998,"0x3e4":4999,"0x85e":5000,"0x8ec1":5001,"0x132e":5002,"0x4b50":5003,"0x4b44":5004,"0x4b56":5005,"0x4b42":5006,"0x4b53":5007,"0x4b4c":5008,"0x4c8e":5009,"0x4c8d":5010,"0xc93":5011,"0xc5cc":5012,"0xc53f":5013,"0x4af9":5014,"0x4ace":5015,"0x4ad1":5016,"0x4af2":5017,"0x4a7d":5018,"0x4a76":5019,"0x4ae9":5020,"0x4ac6":5021,"0x4ad6":5022,"0x4a5f":5023,"0x4a5c":5024,"0x4ae2":5025,"0x4acb":5026,"0x4a6f":5027,"0x4adb":5028,"0x4a69":5029,"0x4abc":5030,"0x8450":5031,"0x8416":5032,"0x8448":5033,"0x8444":5034,"0x845b":5035,"0x842c":5036,"0x849e":5037,"0x8476":5038,"0x8456":5039,"0x8473":5040,"0x8412":5041,"0x8422":5042,"0x841e":5043,"0x8453":5044,"0x8493":5045,"0x849c":5046,"0x848f":5047,"0x844c":5048,"0x8485":5049,"0x8469":5050,"0x843c":5051,"0x108b":5052,"0xba50":5053,"0xba5d":5054,"0xba18":5055,"0xbabd":5056,"0xba88":5057,"0xbaba":5058,"0xba38":5059,"0xbae6":5060,"0xba12":5061,"0xba63":5062,"0xba15":5063,"0xba35":5064,"0xba5f":5065,"0xba7b":5066,"0xba77":5067,"0xba32":5068,"0xba74":5069,"0xbae2":5070,"0xba66":5071,"0xba6f":5072,"0xba85":5073,"0xba69":5074,"0xba7e":5075,"0xbab7":5076,"0xba5a":5077,"0xba79":5078,"0xae59":5079,"0xae09":5080,"0xae0c":5081,"0x794b":5082,"0x4731":5083,"0x4746":5084,"0x472e":5085,"0xbb20":5086,"0xbb64":5087,"0xbb23":5088,"0xbb1d":5089,"0xbb58":5090,"0xbb5b":5091,"0xbb11":5092,"0xbb5e":5093,"0xbb14":5094,"0xbb62":5095,"0xbb1a":5096,"0xbb61":5097,"0xbb21":5098,"0xbb54":5099,"0x8176":5100,"0x81a8":5101,"0x465d":5102,"0x46af":5103,"0x7624":5104,"0x39eb":5105,"0x39e4":5106,"0x5dfc":5107,"0xb896":5108,"0xb87d":5109,"0xb8ae":5110,"0xb87c":5111,"0xb8ad":5112,"0x8eda":5113,"0x8efe":5114,"0x8ebd":5115,"0x8edf":5116,"0x8ef1":5117,"0x8eb9":5118,"0x8ef6":5119,"0x8eca":5120,"0x8ecf":5121,"0x1300":5122,"0x1360":5123,"0x1318":5124,"0x1336":5125,"0x1388":5126,"0x1331":5127,"0x133d":5128,"0x132a":5129,"0x1349":5130,"0x1322":5131,"0x1374":5132,"0x134e":5133,"0x1371":5134,"0x1345":5135,"0x1379":5136,"0x34df":5137,"0x34e6":5138,"0x8b60":5139,"0x7130":5140,"0x71f9":5141,"0x71fe":5142,"0x8f20":5143,"0x8f1d":5144,"0x8f16":5145,"0x8f11":5146,"0x8f3b":5147,"0xad5b":5148,"0x8a29":5149,"0xb88d":5150,"0xb884":5151,"0xb88f":5152,"0xb888":5153,"0xb880":5154,"0x8ee7":5155,"0x8eee":5156,"0x130d":5157,"0x130a":5158,"0x131c":5159,"0x900a":5160,"0x900f":5161,"0x7203":5162,"0x1386":5163,"0x8f07":5164,"0x8f0e":5165,"0xc546":5166,"0x8ead":5167,"0x8f2a":5168,"0x8f25":5169,"0x8eb4":5170,"0x8eb1":5171,"0xb89b":5172,"0x8fe7":5173,"0x8f37":5174,"0x8ed7":5175,"0x4f9":5176,"0xa9d":5177,"0x7c8":5178,"0x8a3":5179,"0x8d1":5180,"0x89a":5181,"0x915":5182,"0x6ee0":5183,"0x6e58":5184,"0x70d0":5185,"0x9690":5186,"0x9631":5187,"0xc2e5":5188,"0xc2db":5189,"0x779e":5190,"0x7ae0":5191,"0x7adc":5192,"0x7aeb":5193,"0x7ae4":5194,"0xae39":5195,"0x7b40":5196,"0x7b23":5197,"0x7b2a":5198,"0x7b38":5199,"0x7b17":5200,"0x7b1c":5201,"0x7b1a":5202,"0x46eb":5203,"0x467e":5204,"0x5dea":5205,"0x5d64":5206,"0x5dce":5207,"0x5d88":5208,"0x5df8":5209,"0x5d7d":5210,"0x5d5b":5211,"0x5ded":5212,"0x5df4":5213,"0x5de6":5214,"0x5d8c":5215,"0x5d5f":5216,"0x5dfa":5217,"0x5d7b":5218,"0x5d8f":5219,"0x5dca":5220,"0x5d62":5221,"0x5de2":5222,"0x5d83":5223,"0x5d91":5224,"0x5d78":5225,"0x9868":5226,"0x9822":5227,"0x980c":5228,"0x8cd7":5229,"0x4460":5230,"0x447c":5231,"0x3dc3":5232,"0x3dec":5233,"0x5e36":5234,"0x5e2f":5235,"0x5e27":5236,"0x5e33":5237,"0x5e13":5238,"0x5e3b":5239,"0x5e17":5240,"0x5e29":5241,"0x5e1e":5242,"0x5e24":5243,"0x5e1b":5244,"0xdb69":5245,"0x460a":5246,"0x9a0c":5247,"0xdac1":5248,"0x5e0b":5249,"0x5e07":5250,"0x5e0f":5251,"0x5ddb":5252,"0x5dd8":5253,"0x5dd5":5254,"0x5dd2":5255,"0x5dde":5256,"0x3dd3":5257,"0x3dd1":5258,"0x3dd8":5259,"0x449c":5260,"0x4498":5261,"0x7504":5262,"0x3df7":5263,"0x3dfa":5264,"0x3df1":5265,"0x7f9f":5266,"0x713c":5267,"0x3dc9":5268,"0x3dcf":5269,"0x74d8":5270,"0xc2dd":5271,"no":5272,"0x696":5273,"0x4640":5274,"0x735":5275,"0x34d0":5276,"0x8b8":5277,"0xb64b":5278,"0x93a":5279,"0x6e16":5280,"0x6ebd":5281,"0x6e25":5282,"0x6e1e":5283,"0x6e0f":5284,"0x6ee2":5285,"0x6eb7":5286,"0x3780":5287,"0x9638":5288,"0x6672":5289,"0x6661":5290,"0x7700":5291,"0x6d3f":5292,"0xaedd":5293,"0xae00":5294,"0xaeda":5295,"0xae58":5296,"0xae13":5297,"0xae9e":5298,"0xae38":5299,"0xae89":5300,"0xae12":5301,"0xae9b":5302,"0xae35":5303,"0xae55":5304,"0xae8f":5305,"0xaed7":5306,"0xae83":5307,"0xae52":5308,"0xae94":5309,"0xae99":5310,"0x755e":5311,"0xb594":5312,"0x473d":5313,"0x474d":5314,"0x475e":5315,"0x4704":5316,"0x46ff":5317,"0x46dd":5318,"0x46da":5319,"0x4610":5320,"0x4668":5321,"0x4630":5322,"0x462d":5323,"0x46e0":5324,"0x46f5":5325,"0x4638":5326,"0x46e7":5327,"0x46d8":5328,"0x46c2":5329,"0x4652":5330,"0x46b3":5331,"0x463c":5332,"0x466b":5333,"0x46bc":5334,"0x46fc":5335,"0x76ae":5336,"0x7428":5337,"0x7413":5338,"##8b5":5339,"##adb":5340,"##d3c":5341,"##db7":5342,"0xaf31":5343,"0xaf3d":5344,"0xaf3a":5345,"0xaf7b":5346,"0x445d":5347,"0x4475":5348,"0x44a5":5349,"0x8b8e":5350,"0x7129":5351,"0xadf2":5352,"0xadf8":5353,"0xade9":5354,"0xade2":5355,"0xade1":5356,"0xade5":5357,"0x7e8b":5358,"0x448b":5359,"0x4483":5360,"0x4486":5361,"0x448f":5362,"0x4480":5363,"0x460e":5364,"0x7107":5365,"0xaea8":5366,"0xaf84":5367,"0xaf82":5368,"0xaf06":5369,"0x464b":5370,"0x4643":5371,"0xdb5e":5372,"0x85be":5373,"0x4497":5374,"0x4492":5375,"0x4469":5376,"0x446c":5377,"0x446f":5378,"0x4465":5379,"0x6ea9":5380,"0x6ea5":5381,"0x6ea2":5382,"0x9646":5383,"0xa9f3":5384,"0xadfb":5385,"0xadf4":5386,"0xaf43":5387,"0xaf41":5388,"0xaf78":5389,"0xaf7e":5390,"0x71d7":5391,"0x3a09":5392,"0x3d6e":5393,"0xaf34":5394,"not":5395,"0x712b":5396,"0x71e2":5397,"0x71e8":5398,"0x7421":5399,"0x890":5400,"0xb2f":5401,"0xb15":5402,"0x6e44":5403,"0x83ee":5404,"0x6690":5405,"0x667d":5406,"0x66a4":5407,"0x668e":5408,"0x6687":5409,"0x6693":5410,"0x669c":5411,"0x6698":5412,"0x66a1":5413,"0x668a":5414,"0x6680":5415,"0x770d":5416,"0x770c":5417,"0x8446":5418,"0x8413":5419,"0x8429":5420,"0x8442":5421,"0x6750":5422,"0x6760":5423,"0x6768":5424,"0x676c":5425,"0x675e":5426,"0x6763":5427,"0x6765":5428,"0x6757":5429,"0x6774":5430,"0x677e":5431,"0x6771":5432,"0x675a":5433,"0x6779":5434,"0x47c8":5435,"##e05":5436,"0x81a0":5437,"0x8188":5438,"0x8131":5439,"0x8138":5440,"0x816c":5441,"0x8149":5442,"0x8156":5443,"0x8173":5444,"0x8122":5445,"0x8163":5446,"0x8119":5447,"0x8193":5448,"0x8182":5449,"0x817b":5450,"0x813e":5451,"0x8198":5452,"0x811f":5453,"0x81b5":5454,"0x81ac":5455,"0x81a7":5456,"0x8151":5457,"0x814e":5458,"0x8169":5459,"0x76e0":5460,"0x76a3":5461,"0x769d":5462,"0x7696":5463,"0x76ce":5464,"0x76d1":5465,"0x76a9":5466,"0x76fd":5467,"0x76ed":5468,"0x76f6":5469,"0x76d8":5470,"0x76c8":5471,"0x76f3":5472,"0x76db":5473,"0x767e":5474,"0x6bed":5475,"0x6bf6":5476,"0x5048":5477,"0x5021":5478,"0x502e":5479,"0x502b":5480,"0x97ce":5481,"0x97fd":5482,"0x973b":5483,"0x97f3":5484,"0x9741":5485,"0x9818":5486,"0x9806":5487,"0x8c25":5488,"0x613d":5489,"0xa85e":5490,"0xd16":5491,"0x7118":5492,"0x7144":5493,"0x71f2":5494,"0x7125":5495,"0x71f5":5496,"0x7133":5497,"0x71eb":5498,"0x71fb":5499,"0x1170":5500,"0x7214":5501,"0x7219":5502,"0x711b":5503,"0x7112":5504,"0xb2f9":5505,"0x720c":5506,"0x7207":5507,"0x7200":5508,"0x7689":5509,"0x7687":5510,"0x768e":5511,"0x7122":5512,"0x9847":5513,"0x7137":5514,"0x713f":5515,"0x14d7":5516,"0x97d8":5517,"0x8c2b":5518,"0x8b5a":5519,"0x440":5520,"0x9f0":5521,"0x4921":5522,"0x488a":5523,"##c3f":5524,"0x3500":5525,"##f7f":5526,"0xac4f":5527,"0x7383":5528,"0x629":5529,"0x723":5530,"0x731":5531,"0x510":5532,"0x31":5533,"0x3a9":5534,"0x8d0":5535,"0x8e4":5536,"0xb33":5537,"0x9ba":5538,"0x157":5539,"0xc8":5540,"0x3c08":5541,"0x6d73":5542,"0x6d59":5543,"0x3b9d":5544,"0x3b3e":5545,"##1bc":5546,"0x9730":5547,"0x972d":5548,"0x9718":5549,"0x973d":5550,"0x9733":5551,"0x9713":5552,"0x9726":5553,"0x9738":5554,"0x971f":5555,"##a8a":5556,"0xac10":5557,"##b79":5558,"0x85a2":5559,"0x1160":5560,"0x7e90":5561,"0xadc7":5562,"0x970b":5563,"0x970e":5564,"0x87d3":5565,"0x8b9a":5566,"0x444":5567,"0x4f7f":5568,"0xac6":5569,"0x7e5":5570,"0x95b":5571,"0x4920":5572,"0x4915":5573,"0x3870":5574,"0x3c18":5575,"0x3c1d":5576,"0x3c36":5577,"0x3c31":5578,"0x3c27":5579,"0x3c2a":5580,"0x3c56":5581,"0x3c19":5582,"0x3c1c":5583,"0x3c3e":5584,"0x3c39":5585,"0x3c51":5586,"0x3c4e":5587,"0x3c47":5588,"0x6d89":5589,"0x3bb5":5590,"0x47ea":5591,"0x47d5":5592,"0x47cf":5593,"0x47db":5594,"##e08":5595,"0x6ba3":5596,"0x5059":5597,"0x7423":5598,"0x68d5":5599,"0xdc3f":5600,"0x4f18":5601,"0x7275":5602,"0x3aeb":5603,"0xdd1c":5604,"0xdd39":5605,"0x95c5":5606,"0x500c":5607,"0x5007":5608,"0xb116":5609,"0x8ea7":5610,"0x4ff6":5611,"0x4ffd":5612,"0x95d2":5613,"0xd3f2":5614,"0x611":5615,"0x682":5616,"0x72e5":5617,"0x5ee":5618,"0x5fe":5619,"0x5e9":5620,"0x5f6":5621,"0x876":5622,"0x897":5623,"0xb1b1":5624,"0x64f0":5625,"0x64e0":5626,"0x64fd":5627,"0x64e4":5628,"0x64f3":5629,"0x64e1":5630,"0x944":5631,"0x95d0":5632,"0x6510":5633,"0x652d":5634,"0x6523":5635,"0x6516":5636,"0x652f":5637,"0x6526":5638,"0x6542":5639,"0x6519":5640,"0x651c":5641,"0x6541":5642,"0x6532":5643,"0x6505":5644,"0x6502":5645,"0x6537":5646,"0x653c":5647,"0x6543":5648,"movsd":5649,"0xc88b":5650,"0xc865":5651,"0x78ff":5652,"0x4913":5653,"0x490f":5654,"0x4909":5655,"0x4901":5656,"0x67e0":5657,"0x3b17":5658,"0x47c3":5659,"0x48c0":5660,"0x48bd":5661,"0x48ce":5662,"0x48f2":5663,"0x48f5":5664,"0x48eb":5665,"0x48d6":5666,"0x48c7":5667,"0x48b4":5668,"0x48ca":5669,"0x48b1":5670,"0x48f7":5671,"0x48d3":5672,"0x48e5":5673,"0x48fc":5674,"0x5030":5675,"0x503d":5676,"0x503a":5677,"0x5042":5678,"0x501e":5679,"0x5035":5680,"0x5014":5681,"0x5024":5682,"0x501a":5683,"0x504c":5684,"0x6835":5685,"##ecd":5686,"##a2b":5687,"0x62be":5688,"0x8730":5689,"0x95ac":5690,"0x72ec":5691,"0xb213":5692,"0xc918":5693,"0xc946":5694,"0x500f":5695,"0x5000":5696,"0x5002":5697,"0x8562":5698,"0xb1ff":5699,"0x4ff3":5700,"0x4ff0":5701,"0xb1df":5702,"0x4fec":5703,"0x13a1":5704,"0xc974":5705,"0x9363":5706,"0x62d8":5707,"0x89cb":5708,"0xb151":5709,"0x687":5710,"0x6adb":5711,"0x744":5712,"0x7cb":5713,"0x5f1":5714,"0x883":5715,"0xb32e":5716,"0x93b":5717,"0x95f":5718,"0x2ff":5719,"movss":5720,"0x6d64":5721,"0x6d5e":5722,"0x6067":5723,"0x10a0":5724,"0x4764":5725,"0x47a3":5726,"0x4789":5727,"0x478c":5728,"0x477c":5729,"0x4767":5730,"0x4792":5731,"0x4783":5732,"0x476b":5733,"0x476e":5734,"0x4743":5735,"0x4795":5736,"##162":5737,"0x6b02":5738,"0x745c":5739,"##e2e":5740,"0x68ce":5741,"0x6aee":5742,"0x8b0b":5743,"0x737a":5744,"0x7377":5745,"0xad64":5746,"0x8a27":5747,"0xa9ff":5748,"0x6af4":5749,"0x6afc":5750,"0x6af1":5751,"0x7ea7":5752,"0x7e6b":5753,"0x1467":5754,"0x7e9c":5755,"0x6ae2":5756,"0x72b7":5757,"0xad59":5758,"0xb333":5759,"0x7e5a":5760,"##736":5761,"0x6a3":5762,"0x614b":5763,"0x6145":5764,"0x716":5765,"0x7d0":5766,"0x5f3":5767,"0x3e6":5768,"0x3e3":5769,"0x89f":5770,"0x87be":5771,"0xb1bc":5772,"0x933":5773,"0x9db7":5774,"0x83eb":5775,"0x4950":5776,"0x6040":5777,"0x6031":5778,"0x604d":5779,"0x6056":5780,"0x6053":5781,"0x6035":5782,"0x605f":5783,"0x6059":5784,"0x6032":5785,"0x6039":5786,"0x6061":5787,"0x6047":5788,"0x6c2d":5789,"0x6c46":5790,"0x6c3e":5791,"0x6c1f":5792,"0x6c39":5793,"0x6c34":5794,"0x6c2b":5795,"0xae82":5796,"0xae78":5797,"0x7924":5798,"0x7995":5799,"##36162":5800,"0x6bff":5801,"0x6be0":5802,"0x6bf2":5803,"0x6be6":5804,"0x6bc4":5805,"0x6bc7":5806,"0x6bca":5807,"0x6be3":5808,"0x6bbc":5809,"0x6be8":5810,"0x6bfc":5811,"##b636162":5812,"0x995f":5813,"0x9954":5814,"0x74ae":5815,"0x74b7":5816,"##9ad":5817,"0x907a":5818,"0xb8bd":5819,"0x6ad0":5820,"0x8c26":5821,"0x6164":5822,"0x6140":5823,"0x61ab":5824,"0x61a3":5825,"0x6136":5826,"0x6148":5827,"0x6190":5828,"0x6131":5829,"0x615b":5830,"0x612f":5831,"0x6126":5832,"0x612c":5833,"0x619e":5834,"0x61a9":5835,"0x614d":5836,"0x6129":5837,"0x6142":5838,"0x86d7":5839,"0x87a0":5840,"0x87bb":5841,"0x87b4":5842,"0x8799":5843,"0x73da":5844,"0x7375":5845,"0xadec":5846,"0x7fdf":5847,"0x7f3a":5848,"0xadc8":5849,"0x99e7":5850,"0x749f":5851,"0x7386":5852,"0x856f":5853,"0x7274":5854,"0x8c09":5855,"0x6afa":5856,"0x6bd1":5857,"0xa9f7":5858,"0x85cf":5859,"0x6199":5860,"0x6194":5861,"0x6192":5862,"0x764c":5863,"0x6acd":5864,"0x8c41":5865,"0x6ae8":5866,"0x6157":5867,"0x6152":5868,"0x6184":5869,"0x618a":5870,"0x6124":5871,"0x6121":5872,"0x6161":5873,"0x636170736":5874,"0x636170736b636162":5875,"0x53":5876,"0xb77":5877,"0xbe05":5878,"0x988":5879,"0x2ce":5880,"0x96a9":5881,"0x778e":5882,"0x3cab":5883,"0x3cbd":5884,"0x3cbb":5885,"0x3c84":5886,"0x3c9f":5887,"0x3c87":5888,"0x3c97":5889,"0x3c9c":5890,"0x3cb5":5891,"0x3f3b":5892,"##237":5893,"0x9064":5894,"0x9050":5895,"0x905d":5896,"0x9059":5897,"0x906f":5898,"##6fc":5899,"0x3e5d":5900,"0x6a73":5901,"0x859b":5902,"0xbd7d":5903,"0xbd49":5904,"0xbe33":5905,"0x9567":5906,"0x72d0":5907,"0x72d2":5908,"0x69b4":5909,"0x73a1":5910,"0x8a7e":5911,"0x44e":5912,"0xada":5913,"0xa75":5914,"0xa57":5915,"0xad78":5916,"0x34b":5917,"0x86d":5918,"0x13e":5919,"##20d":5920,"0x3740":5921,"0x79aa":5922,"0x4658":5923,"0x4675":5924,"0x462f":5925,"0x46a4":5926,"0x4656":5927,"0x4653":5928,"0x4665":5929,"0x465f":5930,"0x465c":5931,"0x466a":5932,"0x463e":5933,"0x4667":5934,"0x4662":5935,"0x4672":5936,"0x466d":5937,"0x4639":5938,"0xa389":5939,"##3d5":5940,"0x14cd":5941,"0x9081":5942,"0x685e":5943,"0x6837":5944,"0x6933":5945,"0x695a":5946,"0x8c7d":5947,"0x8c8b":5948,"0x8bc4":5949,"0x8bcb":5950,"0x73ce":5951,"0xd237":5952,"0xd20d":5953,"0x4f68":5954,"0x4f76":5955,"0x7fa9":5956,"0x72f9":5957,"0x7465":5958,"0xa618":5959,"0x7369":5960,"0xb78e":5961,"0x9a0a":5962,"0x4649":5963,"0x464c":5964,"0x4641":5965,"0x69ca":5966,"0x7f92":5967,"0x7f6b":5968,"0x8c92":5969,"0xd331":5970,"0x7f5a":5971,"0x8c66":5972,"0xa9c":5973,"0x714b":5974,"0x875":5975,"0x8e7":5976,"0x8c7":5977,"0x95b0":5978,"0x96cc":5979,"0x66fc":5980,"0x67dd":5981,"0x67e9":5982,"0x67e6":5983,"0x67d5":5984,"0x67d6":5985,"0x67d9":5986,"0x6706":5987,"0x79ba":5988,"##a4e":5989,"##8bf":5990,"0x97da":5991,"0x6830":5992,"0x682d":5993,"0x6828":5994,"0x6856":5995,"0x68d8":5996,"0x6859":5997,"0x68d4":5998,"0x6851":5999,"0x3e60":6000,"0x6946":6001,"0x694d":6002,"0x6955":6003,"0x8b36":6004,"0x9213":6005,"0x73f0":6006,"0x73ed":6007,"0x7373":6008,"0x73c4":6009,"0x73c7":6010,"0x73cc":6011,"0x85c9":6012,"0x8ae7":6013,"0x7270":6014,"0x72c3":6015,"0x72b5":6016,"0x12c0":6017,"0x8982":6018,"0xa713":6019,"0xb7ed":6020,"0x8586":6021,"0x7380":6022,"0x85b5":6023,"0x85b2":6024,"0x727b":6025,"0x7271":6026,"0x7278":6027,"0x7284":6028,"0x7281":6029,"0x72de":6030,"0x73b1":6031,"0x73bf":6032,"0x73b8":6033,"0x857b":6034,"0x8574":6035,"0x4f39":6036,"0x6843":6037,"0x684a":6038,"0x68e8":6039,"0x68e5":6040,"0x930e":6041,"0x72f4":6042,"0x72f1":6043,"0x72cb":6044,"0x72c8":6045,"0x72bc":6046,"0x693f":6047,"0x8af7":6048,"0x681a":6049,"0x8b47":6050,"0x6821":6051,"0x44ef":6052,"se":6053,"0x4e3c":6054,"0x4f51":6055,"0xa89":6056,"0x7dc":6057,"0x7fd":6058,"0xbf9":6059,"0x98e":6060,"0xaab6":6061,"0x9626":6062,"0x967a":6063,"0x963a":6064,"0x9614":6065,"0x969f":6066,"0x9652":6067,"0x967f":6068,"0x9608":6069,"0xcfec":6070,"0x6d14":6071,"0x79df":6072,"0x79b8":6073,"##2d6":6074,"0x4890":6075,"0x48d1":6076,"0x4897":6077,"0x489c":6078,"0x48d4":6079,"0x48c2":6080,"0x48c5":6081,"0x48a1":6082,"0x48b5":6083,"0x48d9":6084,"0x48b3":6085,"0x48bc":6086,"##fb3":6087,"##d7f":6088,"0x9029":6089,"0x904a":6090,"0x691d":6091,"0x6916":6092,"0x6931":6093,"0x692c":6094,"0x6929":6095,"0x6924":6096,"0x86f0":6097,"0xac1e":6098,"0x7392":6099,"0x4e40":6100,"0x4e44":6101,"0x4e3d":6102,"0x4e73":6103,"0x4e55":6104,"0x4e5c":6105,"0xd09e":6106,"0xb7f5":6107,"0xb7eb":6108,"0x87df":6109,"0xac32":6110,"0x13bb":6111,"0x13b4":6112,"0x13b8":6113,"0x4e6b":6114,"0x4e65":6115,"0x4e62":6116,"0x4e6e":6117,"0x7ff9":6118,"0x7197":6119,"0xaf9e":6120,"0x4ed2":6121,"0x89db":6122,"0xb00a":6123,"0x4e7c":6124,"0x4e78":6125,"0x72a6":6126,"0x15b6":6127,"0x4f4e":6128,"0x4e47":6129,"0x4e4e":6130,"0x3af3":6131,"0xcafa":6132,"0xcaf5":6133,"0xac21":6134,"0xcfa4":6135,"sete":6136,"0x4fd":6137,"0xa60":6138,"0x71c":6139,"0x5f9":6140,"0x5fd":6141,"0x34e":6142,"0x8b79":6143,"0xbf09":6144,"0x9bb":6145,"0xaa20":6146,"0xaa15":6147,"0xaa0e":6148,"0x2e":6149,"0x2f7":6150,"0x2f97":6151,"0x96ee":6152,"0x9610":6153,"0x9630":6154,"0x962d":6155,"0x96ce":6156,"0x96a4":6157,"0x96e9":6158,"0x96e6":6159,"0x96d5":6160,"0x96c9":6161,"0x9684":6162,"0x968b":6163,"0x9635":6164,"0x965f":6165,"0x96c4":6166,"0x9655":6167,"0x961b":6168,"0x96f3":6169,"0x96fa":6170,"0x9677":6171,"0x9674":6172,"0x96e3":6173,"0x96be":6174,"0x9666":6175,"0x9692":6176,"0x966d":6177,"0x96c1":6178,"0x96b0":6179,"0x9699":6180,"0x960c":6181,"0x965a":6182,"0x78da":6183,"0x493b":6184,"0x6df2":6185,"0x6d1a":6186,"0x6dcd":6187,"0x4533":6188,"0x6cf5":6189,"0x79ab":6190,"0x7970":6191,"0x7949":6192,"0x7901":6193,"0x796e":6194,"0x79de":6195,"0x3bda":6196,"0x3b10":6197,"0x3b58":6198,"0x3bbd":6199,"0x3b88":6200,"0x3b5b":6201,"0x3bc3":6202,"0x3bba":6203,"0x3b76":6204,"0x3bf1":6205,"0x3be9":6206,"0x3beb":6207,"0x3b29":6208,"0x3bd5":6209,"0x3bc6":6210,"0x3b4f":6211,"0x3be4":6212,"0x3bf3":6213,"0x3b6a":6214,"0x3b67":6215,"0x3b62":6216,"0x3b0b":6217,"0x3b1a":6218,"0x3b1f":6219,"0x3b6f":6220,"0x3be1":6221,"0x3b21":6222,"0x3b52":6223,"0x3b4e":6224,"0x3b80":6225,"0x3b7e":6226,"0x3bcd":6227,"0x3b03":6228,"0x3b79":6229,"0x3b08":6230,"0x47c7":6231,"##9e9":6232,"0x301e":6233,"0x14b7":6234,"0x3523":6235,"##d69":6236,"0x7470":6237,"##7b5":6238,"0x9033":6239,"##1a7":6240,"0x34ca":6241,"0x8c23":6242,"0x8ca3":6243,"0x8c70":6244,"0x8c9d":6245,"0x8c58":6246,"0x8ca4":6247,"0x8c29":6248,"0x8c73":6249,"0x8c15":6250,"0x8c53":6251,"0x8c84":6252,"0x8c5f":6253,"0x8c1c":6254,"0xac28":6255,"0xac46":6256,"0xac17":6257,"0x8bf0":6258,"0x8bfe":6259,"0x8bba":6260,"0x8be9":6261,"0x8be4":6262,"0x8b8b":6263,"0x8bf7":6264,"0x8b71":6265,"0xde08":6266,"0x8516":6267,"0x9ae7":6268,"0x6dd3":6269,"0xa9f8":6270,"0x3af0":6271,"0x3af9":6272,"0xddda":6273,"0xdd0e":6274,"0xdd32":6275,"0xbdef":6276,"0xbedd":6277,"0xbe13":6278,"0xbefd":6279,"0xbecf":6280,"0x9701":6281,"0x9708":6282,"0x21ee":6283,"0x8b92":6284,"0x8b6d":6285,"0x8bd9":6286,"0x8bd2":6287,"0x8c04":6288,"0x8c01":6289,"0x8c0e":6290,"0x726a":6291,"0xac3a":6292,"0xac3f":6293,"0xac35":6294,"0x8bb4":6295,"0x8bb7":6296,"0x9641":6297,"0x964f":6298,"0x9648":6299,"0xa9fb":6300,"0x2fe0":6301,"0x2fb2":6302,"0x2fc5":6303,"0x85df":6304,"0x8ba6":6305,"0x8bad":6306,"0x8fb1":6307,"0x8c98":6308,"0x8c95":6309,"0x9182":6310,"0x8c4b":6311,"0x8c4e":6312,"0x4f2a":6313,"0x4f2f":6314,"0x4f34":6315,"0x8c33":6316,"0x8c3a":6317,"0x349c":6318,"0x3491":6319,"0xbfc7":6320,"0x855c":6321,"0x8c2e":6322,"0x8c6d":6323,"0x3afc":6324,"0xac2b":6325,"0x973f":6326,"0x973e":6327,"0x3aef":6328,"0x8ca2":6329,"0x3483":6330,"0x2f8c":6331,"0x12ef":6332,"0x8b80":6333,"0x2ffb":6334,"0x34b7":6335,"0x8c78":6336,"0xbf99":6337,"0x34e5":6338,"0x2f7e":6339,"0x33d5":6340,"0x32d6":6341,"0xb76":6342,"0x946":6343,"0x914":6344,"0x923b":6345,"0x6e30":6346,"0x6e23":6347,"0x6e3d":6348,"0x6e17":6349,"0x6e19":6350,"0x6e1c":6351,"0x6e1f":6352,"0x6e0a":6353,"0x6e2b":6354,"0x37db":6355,"0xca3":6356,"0xca0":6357,"0xcf6":6358,"0xcf86":6359,"0xcf97":6360,"0xc9e9":6361,"0x4918":6362,"0x491d":6363,"0x4912":6364,"0x490b":6365,"0x38da":6366,"0x38c6":6367,"0x38ec":6368,"0x48f9":6369,"0x48fe":6370,"0x48f4":6371,"0x48e6":6372,"0x48f6":6373,"0x48e4":6374,"0x4865":6375,"0x48ef":6376,"0x9030":6377,"0x9023":6378,"0x9016":6379,"0x9036":6380,"0x903d":6381,"0x9025":6382,"0x904d":6383,"0x903b":6384,"0x9019":6385,"0x901c":6386,"0x9057":6387,"0x9067":6388,"0x9021":6389,"0x9071":6390,"0x9043":6391,"0x341b":6392,"0x44bb":6393,"0x86f1":6394,"0x7c56":6395,"0x8550":6396,"0x85a0":6397,"0x85af":6398,"0x85a4":6399,"0x855f":6400,"0x85a8":6401,"0x854c":6402,"0x4f60":6403,"0x4f2d":6404,"0x4f58":6405,"0x4f36":6406,"0x4f48":6407,"0x4f5b":6408,"0x4f73":6409,"0x1190":6410,"0xd05c":6411,"0x858a":6412,"0x8581":6413,"0x858e":6414,"0xc958":6415,"0xc936":6416,"0xc948":6417,"0xc95e":6418,"0x9006":6419,"0x9004":6420,"0x9002":6421,"0x856b":6422,"0x8569":6423,"0x8567":6424,"0x85bc":6425,"0x85ba":6426,"0x8ffd":6427,"0x8ff7":6428,"0x8ffa":6429,"0x8ff0":6430,"0x8008":6431,"0x8feb":6432,"0x91cb":6433,"0x85cc":6434,"0x85c2":6435,"0x85d6":6436,"0x85d4":6437,"0x857e":6438,"0x4f24":6439,"0x4f3c":6440,"0xca18":6441,"0x33e7":6442,"0x33c1":6443,"0x8555":6444,"0x8598":6445,"0x8595":6446,"0x4f6d":6447,"0x4f65":6448,"0x4f42":6449,"0xcfa9":6450,"0x4f1e":6451,"0xca32":6452,"0xca0e":6453,"0xcf65":6454,"0x7ce":6455,"0x7d1":6456,"0x71b7":6457,"0x71b5":6458,"0x884":6459,"0x877":6460,"0x866":6461,"0xb27":6462,"0x934":6463,"0x4948":6464,"##f2e":6465,"0x80da":6466,"0x7432":6467,"##3f7":6468,"##cc1":6469,"0x698b":6470,"0x71bd":6471,"0x8544":6472,"0x1520":6473,"0x6a0f":6474,"0x9274":6475,"0x3d4e":6476,"0xac0":6477,"0xa81":6478,"0xa5f":6479,"0xab69":6480,"0x7e0":6481,"0x9b9":6482,"0x977":6483,"0x91b1":6484,"0x1f":6485,"0x11d":6486,"0x6e6f":6487,"0x66b0":6488,"0x66e8":6489,"0x495c":6490,"0x67cf":6491,"0x6780":6492,"0x7569":6493,"0x14eb":6494,"##4f3":6495,"##24c":6496,"0x68f4":6497,"##4cd":6498,"0x9264":6499,"0x925d":6500,"0x9249":6501,"0x11a9":6502,"0x721b":6503,"0xaf12":6504,"0x927a":6505,"0x9253":6506,"0x926e":6507,"0x918b":6508,"0x155c":6509,"0x7256":6510,"0x9172":6511,"0x7183":6512,"0x7178":6513,"0x6a85":6514,"0x442":6515,"0xace":6516,"0xa98":6517,"0x71b1":6518,"0x9245":6519,"0x924c":6520,"0x70ea":6521,"0x70f0":6522,"0x70e4":6523,"0x70d4":6524,"0x70db":6525,"0x70e8":6526,"0x6665":6527,"0x6662":6528,"0x6669":6529,"0x5bee":6530,"0x5bfe":6531,"0x5bce":6532,"0x5bd1":6533,"0x5bf1":6534,"0x5bdc":6535,"0x5bc6":6536,"0x5bc7":6537,"0x5bfa":6538,"0x5bd7":6539,"0x5bca":6540,"0x5bf7":6541,"0x5bfc":6542,"0x6716":6543,"0x6725":6544,"0x670d":6545,"0x6722":6546,"0x671c":6547,"0x671a":6548,"0x670a":6549,"0x6702":6550,"0x6703":6551,"0xa42f":6552,"0x757a":6553,"0x7632":6554,"0xa372":6555,"0x6b24":6556,"0x80ba":6557,"0x809b":6558,"##124":6559,"0x9990":6560,"0x35e0":6561,"##d4b":6562,"0x9f5b":6563,"0x3e36":6564,"0x13c0":6565,"0x9268":6566,"0x9242":6567,"0x924f":6568,"0x71c0":6569,"0x719d":6570,"0x719e":6571,"0x71a5":6572,"0x5c0d":6573,"0x5c08":6574,"0x5c05":6575,"0x5c0e":6576,"0xabf7":6577,"0xa99a":6578,"0x664d":6579,"0x93ce":6580,"0x9279":6581,"0x9272":6582,"0x69fa":6583,"0x13b1":6584,"0x7e7f":6585,"0x9233":6586,"0x9237":6587,"0x923f":6588,"0x7f85":6589,"0x9256":6590,"0x9259":6591,"0x925f":6592,"0x926b":6593,"0x9262":6594,"0x149b":6595,"0x71a1":6596,"0x71a8":6597,"0xa89c":6598,"0xb76e":6599,"##697":6600,"##sd":6601,"0x6640":6602,"0xaba":6603,"0xa7b5":6604,"0x7fe":6605,"0x74fc":6606,"0x513":6607,"0x862":6608,"0xb8c":6609,"0x940":6610,"0x9f1":6611,"0x9122":6612,"0x144f":6613,"0x4a10":6614,"0x4a18":6615,"0x4a70":6616,"0x4a48":6617,"0x4a31":6618,"0x4a13":6619,"0x4a4d":6620,"0x4a73":6621,"0x4a24":6622,"0x4a41":6623,"0x4a0b":6624,"0x4a1f":6625,"0x4a66":6626,"0x4a6d":6627,"0x4a61":6628,"0x4a52":6629,"0x4a2e":6630,"0x4a06":6631,"0x4a2b":6632,"0x4a5a":6633,"0x66a3":6634,"0x66a0":6635,"0x6658":6636,"0x663d":6637,"0x6689":6638,"0x668c":6639,"0x6635":6640,"0x6655":6641,"0x6697":6642,"0x66a8":6643,"0x6692":6644,"0x6639":6645,"0x6699":6646,"0x49ff":6647,"0x49e5":6648,"0x63697":6649,"0x7513":6650,"0x7524":6651,"0x798d":6652,"0x46ab":6653,"0x46b5":6654,"0x6b97":6655,"0x80e7":6656,"0x8015":6657,"0x80e4":6658,"0x80f3":6659,"##2656":6660,"##e656":6661,"0x14a4":6662,"0x1453":6663,"0x50ff":6664,"0x74f9":6665,"0x74bd":6666,"0x74c8":6667,"0x3e85":6668,"0xafaf":6669,"0xafc8":6670,"0xb507":6671,"0x8716":6672,"0x852d":6673,"0x8525":6674,"0x7fbb":6675,"0x91f8":6676,"0x6649":6677,"0xb360":6678,"0xa7ec":6679,"0x750b":6680,"0x7509":6681,"0x750e":6682,"0x6a92":6683,"0xaff1":6684,"0x8104":6685,"0x853c":6686,"0x853f":6687,"0x3eb5":6688,"0x9497":6689,"0xb777":6690,"0x636972656":6691,"##e6567":6692,"0x636972656e6567":6693,"0xab9":6694,"0x87b8":6695,"0x87b1":6696,"0xb96":6697,"0x123":6698,"0x26":6699,"0x49bd":6700,"0x49af":6701,"0x49a5":6702,"0x49dc":6703,"0x498c":6704,"0x49b6":6705,"0x49d6":6706,"0x49aa":6707,"0x49c8":6708,"0x49c4":6709,"0x49cf":6710,"0x49cc":6711,"0x4994":6712,"0x4613":6713,"0x46ed":6714,"0x7630":6715,"0x7623":6716,"0x7628":6717,"0x7615":6718,"0x761c":6719,"0x763e":6720,"0x7651":6721,"0x7654":6722,"0x762b":6723,"0x6b88":6724,"0x6b7a":6725,"0x6bb9":6726,"0x6b5e":6727,"0x6bb6":6728,"0x6baa":6729,"0x6bb1":6730,"0x6b61":6731,"0x904c":6732,"0x3e58":6733,"0x3e44":6734,"0x13ab":6735,"0x13a9":6736,"0x13a4":6737,"0x139c":6738,"0x6ac6":6739,"0x3d9c":6740,"0x87e0":6741,"0x87c9":6742,"0x879c":6743,"0x8798":6744,"0x85e6":6745,"0x1140":6746,"0xa7ee":6747,"0xa7f6":6748,"0x87d9":6749,"0x87d7":6750,"0x87d0":6751,"0x87d5":6752,"0x87de":6753,"0x87cd":6754,"0x87c4":6755,"0x87c2":6756,"0x87a4":6757,"0x87a7":6758,"0x87aa":6759,"0x87ae":6760,"0xaffb":6761,"0x7645":6762,"0x13ae":6763,"0x9a5a":6764,"0xb002":6765,"0xafe2":6766,"0x1609":6767,"0x93ac":6768,"0x877e":6769,"##6d6":6770,"0x44f3":6771,"0xa9e":6772,"0xac4":6773,"0xa97":6774,"0x7ecd":6775,"0x73f7":6776,"0x5f0":6777,"0x5f5":6778,"0x5eb":6779,"0x8cf":6780,"0xb29":6781,"0xb0e":6782,"0x9b6":6783,"0x6570":6784,"0xaa78":6785,"0xaa80":6786,"0x3cfe":6787,"0x3cf6":6788,"0x3cfa":6789,"0x3cf7":6790,"0x6d44":6791,"0x6d6d6":6792,"0x607d":6793,"0x7a3e":6794,"0x3f58":6795,"0x3f53":6796,"0x3f59":6797,"0x3f41":6798,"0x3f4b":6799,"0x3f5a":6800,"##7073":6801,"0x46bb":6802,"0x46d6":6803,"0x46ae":6804,"0x46c5":6805,"0x46b1":6806,"0x46e1":6807,"0x46cc":6808,"0x46db":6809,"0x46c1":6810,"0x7677":6811,"##365":6812,"0x6b18":6813,"0x8013":6814,"##f63":6815,"0x14c8":6816,"0x14e8":6817,"##d8f":6818,"##e41":6819,"0x74ea":6820,"0x74ee":6821,"0x742d":6822,"0x7425":6823,"0x74e7":6824,"0x741a":6825,"0x74e1":6826,"0x7437":6827,"0x743c":6828,"0x13cb":6829,"##37365":6830,"0x617073":6831,"0x86bd":6832,"0x3d24":6833,"0x8b77":6834,"0x73e0":6835,"0x73fe":6836,"0x73f1":6837,"0x73e4":6838,"0x851e":6839,"0x450e":6840,"0x7f7c":6841,"0x7ec0":6842,"0x7ec3":6843,"0x7e8c":6844,"0x7ec8":6845,"0x7e83":6846,"0xdc58":6847,"0xd1a4":6848,"0xd19b":6849,"0xd1b5":6850,"0x3d0b":6851,"0x3d08":6852,"0x3d02":6853,"0x3d17":6854,"0x3d12":6855,"0xda1f":6856,"0xd955":6857,"0x7e7b":6858,"0x7e7c":6859,"0x7ea0":6860,"0x7eae":6861,"0x7f89":6862,"0x7f82":6863,"0x150c":6864,"0x7ed9":6865,"0x7ed7":6866,"0x7ed2":6867,"0x7e99":6868,"0x7e92":6869,"0x74de":6870,"0x740c":6871,"0x7405":6872,"0x8afd":6873,"0x61637365":6874,"0x7ebc":6875,"0x7eb5":6876,"0x63617073":6877,"0x8f14":6878,"0x7f79":6879,"0x6d6d6f63":6880,"0x6170735e":6881,"0xa5d":6882,"0xab6":6883,"0x7dd":6884,"0x7da":6885,"0x7c4":6886,"0x893":6887,"0x9ee":6888,"0x974":6889,"0x127":6890,"0xb463":6891,"0x4c05":6892,"0xaa36":6893,"0x4946":6894,"0x4925":6895,"0x492c":6896,"0x495a":6897,"0x3630":6898,"##10f":6899,"0x7565":6900,"0x755c":6901,"0x756f":6902,"0x7561":6903,"0x7622":6904,"0x14a8":6905,"0x505e":6906,"0x507f":6907,"0x9949":6908,"0x9974":6909,"0x998d":6910,"0x98d3":6911,"0x8e26":6912,"0x8e73":6913,"0x44dd":6914,"0x44c3":6915,"0x44e9":6916,"0x7f58":6917,"0x7fa6":6918,"0x7f35":6919,"0x159d":6920,"0x1531":6921,"0x15a4":6922,"0x159a":6923,"0xa9c8":6924,"0x12e1":6925,"0x746d":6926,"0x515d":6927,"0x996c":6928,"0x9962":6929,"0x9a37":6930,"0x7f97":6931,"cmovle":6932,"0x7f66":6933,"0x7f6e":6934,"0x4ed8":6935,"0x4ede":6936,"0x7f1b":6937,"0x98cc":6938,"0x4f03":6939,"0x4f12":6940,"0xb8c7":6941,"0x69ad":6942,"0x44cd":6943,"0xaca":6944,"0x7df":6945,"0x7c9":6946,"0x7c6":6947,"0x7d6":6948,"0x3d5":6949,"0x892":6950,"0xb30":6951,"0xb8bf":6952,"0x9bd":6953,"0x2d0":6954,"0x83f0":6955,"0x83f3":6956,"0x83fb":6957,"0x83f7":6958,"0x83ef":6959,"0xc10f":6960,"0x66dd":6961,"0x495b":6962,"0xaebd":6963,"0x7b66":6964,"0x47f0":6965,"0x47f3":6966,"0x47e3":6967,"0x47cb":6968,"0x47e1":6969,"0x47e5":6970,"0x14c0":6971,"##1a1":6972,"0x8e9d":6973,"0x8e8e":6974,"0x8e8b":6975,"0x6975":6976,"0x6a2d":6977,"0x44c0":6978,"0x44ed":6979,"0x44c7":6980,"0x44e2":6981,"0xacaf":6982,"0x4ef0":6983,"0x4efd":6984,"0x4ef7":6985,"0xa5fd":6986,"0xad98":6987,"0x1544":6988,"0xadd6":6989,"0x9130":6990,"0x9133":6991,"0x8405":6992,"0xc996":6993,"0xc98b":6994,"0x8f6b":6995,"0x8ea0":6996,"0x8ea5":6997,"0x8fbc":6998,"0xaffc":6999,"0x4edb":7000,"0x7e66":7001,"0x148c":7002,"0xca88":7003,"0x8e92":7004,"0x8f4f":7005,"0x4eeb":7006,"0x4ee8":7007,"0x4ee5":7008,"0x44db":7009,"0x44d3":7010,"0x44d9":7011,"0x44bf":7012,"0x4f05":7013,"0x8d6a":7014,"0x6978":7015,"0x2d14":7016,"0xd16c":7017,"0xa579":7018,"0xaca7":7019,"0x44fc":7020,"0xa63":7021,"0xa9a":7022,"0x5180":7023,"0x3d8":7024,"0x8aa":7025,"0x9d6":7026,"0x9a7":7027,"0x9a8a":7028,"0xb4f4":7029,"0xaa93":7030,"0xaa6e":7031,"0x4a9f":7032,"0x4500":7033,"0x4518":7034,"0x451d":7035,"0x4513":7036,"0x4529":7037,"0x4515":7038,"0x4524":7039,"0x4521":7040,"0x452e":7041,"0x4800":7042,"0x4818":7043,"0x480d":7044,"0x481b":7045,"0x480a":7046,"##f55":7047,"0x5081":7048,"0x9805":7049,"0x13c4":7050,"0x6aab":7051,"0x6aa3":7052,"##545":7053,"0x44fe":7054,"0x44f5":7055,"0xac50":7056,"0x8722":7057,"0x8714":7058,"0x4507":7059,"0x4505":7060,"0x4502":7061,"0x9aa5":7062,"0x9a8e":7063,"0x9a82":7064,"0x12b8":7065,"0xd060":7066,"0xd098":7067,"0x9a91":7068,"0x5179":7069,"0x920a":7070,"0x85e4":7071,"0xa9a2":7072,"0xa74":7073,"0x7d5":7074,"0x7c7":7075,"0x550":7076,"0x560":7077,"0x55d":7078,"0x523":7079,"0x55e":7080,"0x529":7081,"0x8ad":7082,"0x8b0":7083,"0xb2c":7084,"0xb0b":7085,"0x94d":7086,"0x97c":7087,"0x126":7088,"0xaaab":7089,"0xaa9d":7090,"0xaa7d":7091,"0xaa75":7092,"0xaa33":7093,"0xaa3b":7094,"0xaa84":7095,"0xaaa6":7096,"0xaa9a":7097,"0xaa3f":7098,"0xaaa2":7099,"0x67c8":7100,"0x793b":7101,"0x8038":7102,"##ed6":7103,"0x14f0":7104,"0x145a":7105,"0x50e0":7106,"0x50b1":7107,"##947":7108,"0x8523":7109,"0x8875":7110,"0x95a6":7111,"0x151d":7112,"0x1596":7113,"0x15a0":7114,"0x15af":7115,"0x15a9":7116,"0x15ac":7117,"0x9a7a":7118,"0x7290":7119,"0xa9a9":7120,"0x12dd":7121,"0xa623":7122,"0x7603":7123,"0x8f67":7124,"0x7f8c":7125,"0x13d5":7126,"0x9a5c":7127,"0x1555":7128,"0x1587":7129,"0x8883":7130,"0x515a":7131,"0x1599":7132,"0x1594":7133,"0x8ad3":7134,"0x3d78":7135,"0x8a4e":7136,"0x90d":7137,"0x95e":7138,"0x9a2b":7139,"0x1545":7140,"0x4be3":7141,"0x4a36":7142,"0x494d":7143,"0x4957":7144,"0x4966":7145,"0x494c":7146,"0x4954":7147,"0x3855":7148,"0x77ff":7149,"0x6d2a":7150,"0x6d8b":7151,"0x6d3e":7152,"0x28f2":7153,"0x635e":7154,"0xae5f":7155,"0xae61":7156,"0xa4be":7157,"0xa4ac":7158,"0xa4b3":7159,"0xa4c1":7160,"0xa4b7":7161,"0xbb5":7162,"0x81ad":7163,"0x6b4d":7164,"0x6b74":7165,"0x8011":7166,"0x80d3":7167,"0x1450":7168,"0x145d":7169,"0x14a5":7170,"0x14ad":7171,"0x14b0":7172,"##222":7173,"0x9820":7174,"0x8ef2":7175,"##2e8":7176,"0x86e7":7177,"0xac16":7178,"0x7358":7179,"0x735b":7180,"0x851d":7181,"0x8546":7182,"0x8529":7183,"0x8521":7184,"0x88dc":7185,"0x8fc0":7186,"0x8fda":7187,"0x8fdf":7188,"0x8fb9":7189,"0x8fc8":7190,"0x8fc4":7191,"0x8fcd":7192,"0x15da":7193,"0x9a23":7194,"0x9a18":7195,"0x9a11":7196,"0x9a26":7197,"0x9a1c":7198,"0x736a":7199,"0x5f68":7200,"0xa53e":7201,"0x8a09":7202,"0x8a02":7203,"0xac3c":7204,"0x8fe1":7205,"0x23ed":7206,"0x12f6":7207,"0x85cb":7208,"0x8fb8":7209,"0x8539":7210,"0x8532":7211,"0x1552":7212,"0x15de":7213,"0x3350":7214,"0x8fd4":7215,"0x8fd7":7216,"0x86c4":7217,"0x916b":7218,"0x89c2":7219,"0x15e7":7220,"0x5f87":7221,"0x89e2":7222,"0x7f41":7223,"0x89b0":7224,"0x7355":7225,"0x6295":7226,"0x86db":7227,"0xa9cd":7228,"0xac47":7229,"jb":7230,"0x6a4":7231,"0x4f8":7232,"0xa88":7233,"0x511":7234,"0x5104":7235,"0x88b":7236,"0x85f":7237,"0x9f2":7238,"0x92c":7239,"0x65d0":7240,"0x15d0":7241,"0x13fc":7242,"0xa04c":7243,"0x4295":7244,"0xaa64":7245,"0xaa50":7246,"0xaa69":7247,"0x238a":7248,"0x6d30":7249,"0x6d23":7250,"0x6d27":7251,"0x6d33":7252,"0x6d76":7253,"0x6d4d":7254,"0x6d81":7255,"0x6d8e":7256,"0x6d65":7257,"0x6d5f":7258,"0x6d1c":7259,"0x6d1b":7260,"0x6d7b":7261,"0x6d67":7262,"0x6d1f":7263,"0x6d4a":7264,"0x6d85":7265,"0x6d3c":7266,"0x6d79":7267,"0x3f3d":7268,"0x4758":7269,"0x472f":7270,"0x766f":7271,"0x1430":7272,"0x14c4":7273,"0x14c5":7274,"0x5065":7275,"0x506a":7276,"0x5074":7277,"0x506f":7278,"##1b8":7279,"##d74":7280,"0x68ae":7281,"##cde":7282,"0xac25":7283,"0x9223":7284,"0xb08e":7285,"0x73ab":7286,"0x15ea":7287,"0x15f2":7288,"0x5118":7289,"0x511d":7290,"0x512c":7291,"0x8b67":7292,"0x8bb5":7293,"0x14d0":7294,"0x85dc":7295,"0x7293":7296,"0x15d6":7297,"0x15d4":7298,"0x15d7":7299,"0x9135":7300,"0x15e3":7301,"0x15ef":7302,"0xabdf":7303,"0xabd5":7304,"0x62a9":7305,"0x4f91":7306,"0x510e":7307,"0x6879":7308,"0x13e3":7309,"0xa5f3":7310,"0x62e8":7311,"0x4e0":7312,"0x4d0":7313,"0xad8":7314,"0x7c3":7315,"0x520":7316,"0x527":7317,"0x5e7":7318,"0x887":7319,"0x9ea":7320,"0x93d":7321,"0x9b5":7322,"0x152":7323,"0x12b":7324,"0x42c3":7325,"0xaae7":7326,"0x66f5":7327,"0x66e5":7328,"0x67d0":7329,"0x635f":7330,"0x753a":7331,"0x7594":7332,"0x7664":7333,"0x7673":7334,"0x802f":7335,"0x14ee":7336,"0x14e0":7337,"0x1496":7338,"0x1425":7339,"0x14e4":7340,"0x14e5":7341,"##632":7342,"##d41":7343,"0x90fd":7344,"##e2b":7345,"0x97f2":7346,"0x9842":7347,"0x9837":7348,"##395":7349,"0x3e2a":7350,"0x3efd":7351,"0x3ef4":7352,"0x3efb":7353,"0x3ef7":7354,"0x62ea":7355,"0x62f0":7356,"0x62e0":7357,"0x62a3":7358,"0x6288":7359,"0x62af":7360,"0x629e":7361,"0x62b2":7362,"0x62e6":7363,"0xa81d":7364,"0x8b55":7365,"0x9246":7366,"0x8792":7367,"0x7350":7368,"0x7324":7369,"0x7c2c":7370,"0x1540":7371,"0x1570":7372,"0xb94f":7373,"0x72a3":7374,"0x9128":7375,"0xa66c":7376,"0x3f03":7377,"0x3f06":7378,"0x3f09":7379,"0x3f0c":7380,"0x927e":7381,"0x7381":7382,"0x92d3":7383,"0x92d4":7384,"0x62f3":7385,"0x728d":7386,"0x128e":7387,"0x97d0":7388,"0x6284":7389,"0x628c":7390,"0x6281":7391,"0x628f":7392,"0x6280":7393,"0x7299":7394,"0x910e":7395,"0x7255":7396,"0x12a9":7397,"0x62db":7398,"0x62de":7399,"0x1493":7400,"0x62c4":7401,"0x62cc":7402,"0x62ca":7403,"0x1291":7404,"0x62a1":7405,"0x90f7":7406,"0x90fa":7407,"0x89a2":7408,"0x6298":7409,"0x7fd5":7410,"0x5fd8":7411,"0x892b":7412,"0xa639":7413,"cv":7414,"0xa64b":7415,"0xad69":7416,"0x568":7417,"0x51d":7418,"0x5f2":7419,"0x575":7420,"0x5f4":7421,"0x3a7":7422,"0x86a":7423,"0x885":7424,"0xb38":7425,"0x9da":7426,"0x1401":7427,"0x13e8":7428,"0xb435":7429,"0x4018":7430,"0x4c31":7431,"0x4c28":7432,"0x4c0d":7433,"0x4c17":7434,"0x4c12":7435,"0x4c1c":7436,"0x4c32":7437,"0x4c09":7438,"0x4c0a":7439,"0x4c21":7440,"0x4c2b":7441,"0x2f9":7442,"0xc6e":7443,"0x7834":7444,"0xa4f2":7445,"0xa4ba":7446,"0xa4c7":7447,"0xa482":7448,"0xa46f":7449,"0xa480":7450,"0xa46e":7451,"0xa45a":7452,"0x7536":7453,"0x7531":7454,"0x7546":7455,"0x7511":7456,"0x7527":7457,"0x7533":7458,"0x7519":7459,"0x751b":7460,"0x753e":7461,"0x751a":7462,"0x7539":7463,"0x7521":7464,"0x752e":7465,"0x753c":7466,"0x7545":7467,"0x4750":7468,"0x472d":7469,"0x470d":7470,"0x473a":7471,"0x4709":7472,"0x474b":7473,"0x4702":7474,"0x473c":7475,"0x4734":7476,"0x8127":7477,"0x813a":7478,"0x8153":7479,"0x8141":7480,"0x811a":7481,"0x814c":7482,"0x8121":7483,"0x46fb":7484,"0x765d":7485,"0x80dd":7486,"0x80f8":7487,"0x80fa":7488,"0x80e1":7489,"0x80ec":7490,"##b21":7491,"0x141b":7492,"##42e":7493,"0x74ff":7494,"0x7464":7495,"0x74c0":7496,"0x74ab":7497,"0x74f8":7498,"0x7475":7499,"0x74a9":7500,"0x74b2":7501,"0x74c6":7502,"0x74aa":7503,"0x74c7":7504,"0x74b4":7505,"0x74b1":7506,"0x747e":7507,"##8b8":7508,"##f32":7509,"##5c1":7510,"0x90c2":7511,"0x9740":7512,"0x680a":7513,"##b8d":7514,"##834":7515,"0xb873":7516,"0x3e6c":7517,"0x13f9":7518,"0x69dd":7519,"0x69da":7520,"0x69c3":7521,"0x69bb":7522,"0x69c9":7523,"0x69c6":7524,"0x86f8":7525,"0x8698":7526,"0x86b8":7527,"0x3d56":7528,"0x92ed":7529,"0x92e6":7530,"0x921e":7531,"0x7368":7532,"0x7cd0":7533,"0x717a":7534,"0x88a2":7535,"0xa53a":7536,"0x95c0":7537,"0x95e9":7538,"0x95ed":7539,"0x7f10":7540,"0x7f44":7541,"0x7f4d":7542,"0x7f49":7543,"0x154d":7544,"0x154a":7545,"0xb946":7546,"0xb95e":7547,"0x7240":7548,"0x72af":7549,"0x724d":7550,"0xabe7":7551,"0x7e64":7552,"0xa665":7553,"0xd177":7554,"0x9331":7555,"0x5f20":7556,"0x5f23":7557,"0x5f48":7558,"0x5f28":7559,"0x5f35":7560,"0x69e3":7561,"0xb885":7562,"0x130b":7563,"0x1319":7564,"0xa534":7565,"0x69cd":7566,"0x7506":7567,"0x6a9c":7568,"0x7f0b":7569,"0x7f07":7570,"0x7f08":7571,"0x95d6":7572,"0x69be":7573,"0x1509":7574,"0x810c":7575,"0x8107":7576,"0x8101":7577,"0xafd4":7578,"0x9267":7579,"0x7642":7580,"0x516a":7581,"0x5161":7582,"0x516f":7583,"0x5165":7584,"0x5162":7585,"0x12cc":7586,"0x12c5":7587,"0x9a57":7588,"0x68cd":7589,"0x5183":7590,"0x5189":7591,"0x518a":7592,"0x5188":7593,"0x7f19":7594,"0x7f14":7595,"0x6001":7596,"0x9284":7597,"0x7f52":7598,"0x3ea9":7599,"0x3da4":7600,"0x8866":7601,"0x9a99":7602,"0x3eb3":7603,"0xabb4":7604,"0x8ae2":7605,"0x5174":7606,"0xd16e":7607,"0x440b":7608,"0x95b6":7609,"0x5f19":7610,"0x716d":7611,"0x5f3f":7612,"0x5f32":7613,"0xb96f":7614,"cvt":7615,"0x5f2b":7616,"0x5f42":7617,"0xc6e8":7618,"0x68f7":7619,"0x68b5":7620,"0x6a2b":7621,"0x68b8":7622,"0xacb":7623,"0xa6fc":7624,"0x744f":7625,"0x7395":7626,"0x3d85":7627,"0x3d3c":7628,"0x3d7f":7629,"0x8cb":7630,"0x8a8a":7631,"0x8cc1":7632,"0x9eb":7633,"0x914b":7634,"0x9421":7635,"0x6e57":7636,"0x6e32":7637,"0x2b":7638,"0x2da":7639,"0x3750":7640,"0x966f":7641,"0x9602":7642,"0x9601":7643,"0x84b4":7644,"0x84a8":7645,"0x67fe":7646,"0x67f2":7647,"0x67f8":7648,"0x67f5":7649,"0x67eb":7650,"0x67fb":7651,"0x45ff":7652,"0x45ee":7653,"0x45eb":7654,"0x45d5":7655,"0x45c6":7656,"0x45f3":7657,"0x45ca":7658,"0x45cf":7659,"0x45cb":7660,"0x45e1":7661,"0x45e5":7662,"0x45d2":7663,"0x45fc":7664,"0x7a17":7665,"0x7a3c":7666,"0x3b2b":7667,"0x4725":7668,"0x4717":7669,"0x47ae":7670,"0x4715":7671,"0x471c":7672,"0x470f":7673,"0x4861":7674,"0x7618":7675,"0x6b4c":7676,"0x6b39":7677,"0x6b47":7678,"##284":7679,"##7d7":7680,"0x149d":7681,"0x14b8":7682,"0x14b5":7683,"0x7420":7684,"0x7410":7685,"0x7448":7686,"0x7426":7687,"0x7419":7688,"0x7457":7689,"0x7454":7690,"0x745a":7691,"##7bc":7692,"##8fc":7693,"0x90b5":7694,"##c54":7695,"0x9858":7696,"0x9836":7697,"0x9833":7698,"0x9809":7699,"0x68ea":7700,"0x68c0":7701,"0x6868":7702,"0x68bd":7703,"0x68c3":7704,"0x68ba":7705,"0x6811":7706,"0x68f1":7707,"0x687c":7708,"0x68fa":7709,"0x683e":7710,"0x6808":7711,"0x3e10":7712,"0x3e2d":7713,"0x3e16":7714,"0x3e2f":7715,"0x3e33":7716,"0x3e13":7717,"0x3e42":7718,"0x3e24":7719,"0x3e55":7720,"0x3e1b":7721,"0x3e52":7722,"0x1344":7723,"0x13cf":7724,"0x134a":7725,"0x6964":7726,"0x6910":7727,"0x6988":7728,"0x693d":7729,"0x69b9":7730,"0x693a":7731,"0x6a10":7732,"0x6a16":7733,"0x6a25":7734,"0x6a13":7735,"0x6a2c":7736,"0x6a22":7737,"0x6a19":7738,"0x6a1c":7739,"0x8cf1":7740,"0x8cf4":7741,"0x8cd6":7742,"0x3d7d":7743,"0x3d75":7744,"0x3d2a":7745,"0x3d26":7746,"0x3db2":7747,"0x3d3a":7748,"0x3d32":7749,"0x3d98":7750,"0x3db5":7751,"0x9488":7752,"0x94af":7753,"0x8b40":7754,"0x8bee":7755,"0x8b10":7756,"0x8b68":7757,"0x8b30":7758,"0x8bce":7759,"0x8bf8":7760,"0x8b33":7761,"0x8b13":7762,"0x8b3b":7763,"0x8b17":7764,"0x8be7":7765,"0x8b7c":7766,"0x8bc7":7767,"0x8b82":7768,"0x8b0f":7769,"0x8b1b":7770,"0x8b5c":7771,"0x8b59":7772,"0x8be2":7773,"0x8bc2":7774,"0x8b7f":7775,"0x9260":7776,"0x73ff":7777,"0x7360":7778,"0x731d":7779,"0x7327":7780,"0x7349":7781,"0x735e":7782,"0x7329":7783,"0x7353":7784,"0x739f":7785,"0xdb21":7786,"0xd284":7787,"0x71e0":7788,"0x7190":7789,"0x71c9":7790,"0x71c6":7791,"0xa550":7792,"0xa570":7793,"0x95bd":7794,"0x95ce":7795,"0x95f4":7796,"0x9573":7797,"0x95ae":7798,"0x95c4":7799,"0xadbb":7800,"0x157d":7801,"0x1517":7802,"0x151e":7803,"0x15c8":7804,"0xb98b":7805,"0x8d46":7806,"0x8d63":7807,"0x7296":7808,"0x721f":7809,"0xa997":7810,"0x9164":7811,"0x9156":7812,"0xaf61":7813,"0x898e":7814,"0xdc26":7815,"0x7462":7816,"0x4608":7817,"0x4605":7818,"0xa675":7819,"0xd15a":7820,"0x7366":7821,"0x736f":7822,"0xda90":7823,"0xda25":7824,"0xda67":7825,"0xda4c":7826,"0xda4e":7827,"0x8b9c":7828,"0x69cb":7829,"0x69c7":7830,"0x69c1":7831,"0x738c":7832,"0x738f":7833,"0x7385":7834,"0x8b66":7835,"0x8b61":7836,"0x8bd5":7837,"0xdb36":7838,"0xdb3b":7839,"0x7263":7840,"0x8bbc":7841,"0x3dfc":7842,"0x72d9":7843,"0x72dc":7844,"0x9845":7845,"0x95d1":7846,"0x73d8":7847,"0x73d5":7848,"0x8ba7":7849,"0x8ba2":7850,"0x8bae":7851,"0x69bc":7852,"0x69b7":7853,"0x69bf":7854,"0x1503":7855,"0xafd3":7856,"0x9188":7857,"0x12cf":7858,"0xd364":7859,"0x6906":7860,"0x690d":7861,"0x6904":7862,"0x6889":7863,"0x688c":7864,"0x6882":7865,"0x688e":7866,"0x6841":7867,"0x68cb":7868,"0x68cf":7869,"0x68c5":7870,"0x148a":7871,"0x1485":7872,"0x1482":7873,"0x8683":7874,"0xdbdb":7875,"0x8b29":7876,"0x8b22":7877,"0x3495":7878,"0x71d2":7879,"0x7409":7880,"0x1580":7881,"0x72ac":7882,"0x72a5":7883,"0x3da2":7884,"0x9174":7885,"0x7182":7886,"0x3e09":7887,"0x3e02":7888,"0x8da5":7889,"0x8e03":7890,"0x8e0d":7891,"0x986e":7892,"0x92f7":7893,"0x698d":7894,"0x6985":7895,"0x8b52":7896,"0x73a8":7897,"0x6814":7898,"0x697e":7899,"0xa569":7900,"0x8cad":7901,"0x9819":7902,"0x981c":7903,"0x8ced":7904,"0xa58d":7905,"0xa587":7906,"0x8b4e":7907,"0x348c":7908,"0x2f87":7909,"0x7303":7910,"0x730d":7911,"0xa683":7912,"0xa689":7913,"0x3e4b":7914,"0x696e":7915,"0x7314":7916,"0x7317":7917,"0x1574":7918,"0x1578":7919,"0x95b2":7920,"0x6872":7921,"0x95fc":7922,"0x95f7":7923,"0x3e39":7924,"0x3e3f":7925,"0x3d87":7926,"0x8b04":7927,"0x95e2":7928,"0x2f90":7929,"0xff":7930,"0x7c0":7931,"0x7180":7932,"0x742e":7933,"0x528":7934,"0x55b":7935,"0x525":7936,"0x526":7937,"0x553":7938,"0x54b":7939,"0x881":7940,"0xb26":7941,"0xb1a7":7942,"0x9ae":7943,"0xc89":7944,"0x66e7":7945,"0x4936":7946,"0x4931":7947,"0x492f":7948,"0x493e":7949,"0x4943":7950,"0x3675":7951,"0x4830":7952,"0x481d":7953,"0x4832":7954,"0x4837":7955,"0x483c":7956,"0x482b":7957,"0x8096":7958,"0x8090":7959,"0x80a9":7960,"0x8073":7961,"0x8042":7962,"0x8093":7963,"0x8082":7964,"0x8057":7965,"0x805c":7966,"0x807b":7967,"0x8062":7968,"0x80ac":7969,"0x8069":7970,"0x8054":7971,"0x8047":7972,"0x5068":7973,"0x50ab":7974,"0x507c":7975,"0x5077":7976,"0x9946":7977,"0x9927":7978,"0x993a":7979,"0x9937":7980,"0x9947":7981,"0x742c":7982,"0x907d":7983,"0x907f":7984,"0x98f0":7985,"0x98f4":7986,"0x98d6":7987,"##d95":7988,"0xafbb":7989,"##803":7990,"0x6a64":7991,"0x6a5d":7992,"0x6a70":7993,"0x6a96":7994,"0x6a48":7995,"0x6a9e":7996,"0x6a76":7997,"0x6aa9":7998,"0x6a89":7999,"0x6a8c":8000,"0x6a86":8001,"0x8ca5":8002,"0x86f6":8003,"0xacc0":8004,"0xacb9":8005,"0xac84":8006,"0x8b1d":8007,"0x8b16":8008,"0x8b44":8009,"0x8b31":8010,"0x8b3d":8011,"0x8b11":8012,"0x8b0e":8013,"0x4fc0":8014,"0x4fda":8015,"0xadfe":8016,"0x1100":8017,"0x8d0d":8018,"0x8d89":8019,"0x8d93":8020,"0x8de1":8021,"0x8add":8022,"0x8ada":8023,"0x8af2":8024,"0xabcb":8025,"0x7e75":8026,"0x7eca":8027,"0x893a":8028,"0xaf0e":8029,"0x6a5e":8030,"0xb1b9":8031,"0x6a9b":8032,"0x6a93":8033,"0x6a98":8034,"0x727f":8035,"0x6a6b":8036,"0x6a6e":8037,"0x8006":8038,"0xad05":8039,"0x6aaa":8040,"0x6aa1":8041,"0x8b2b":8042,"0x8b24":8043,"0x8b2e":8044,"0x12ae":8045,"0xafe8":8046,"0x889c":8047,"0xac9f":8048,"0xac95":8049,"0x6a7f":8050,"0x6a78":8051,"0x6a7e":8052,"0x4ea8":8053,"0x4eae":8054,"0x896e":8055,"0x8dcb":8056,"0x8aef":8057,"0x8ae8":8058,"0x9879":8059,"0x8dd7":8060,"0x8dde":8061,"0x6a80":8062,"0x7c83":8063,"0xc833":8064,"0xa75a":8065,"0xb0e4":8066,"0x7d67":8067,"cq":8068,"0x4dd":8069,"0x4d5":8070,"0xa86":8071,"0xada7":8072,"0x7f3":8073,"0x7f27":8074,"0x7f2e":8075,"0x8e7f":8076,"0x8e2e":8077,"0xb8e":8078,"0x922e":8079,"0x988b":8080,"0x98f7":8081,"0x98b5":8082,"0x91a7":8083,"0x91a1":8084,"0x98fc":8085,"0x11e":8086,"0x70fc":8087,"0xcab":8088,"0xc7c":8089,"0xc9a":8090,"0xcf55":8091,"0x824":8092,"0x7807":8093,"0x4aba":8094,"0x4ad0":8095,"0x4aa6":8096,"0x4ad7":8097,"0x4ac5":8098,"0x4aac":8099,"0x4ab7":8100,"0x6675":8101,"0x4958":8102,"0x4944":8103,"0x4953":8104,"0x4941":8105,"0x494b":8106,"0x77f5":8107,"0x7757":8108,"0x67ba":8109,"0xae88":8110,"0xae90":8111,"0xae73":8112,"0xae63":8113,"0xae9a":8114,"0xaeb3":8115,"0xae69":8116,"0xae80":8117,"0xa419":8118,"0x7564":8119,"0x7570":8120,"0x75dc":8121,"0x7517":8122,"0x754f":8123,"0x7559":8124,"0x7567":8125,"0x754b":8126,"0x754c":8127,"0x7552":8128,"0x7571":8129,"0x47dd":8130,"0x47e0":8131,"0x47f2":8132,"0x47ed":8133,"0x47e7":8134,"0x47c9":8135,"0x47d8":8136,"0x4844":8137,"0x4849":8138,"0x485c":8139,"0x4859":8140,"0x484b":8141,"0x4852":8142,"0x4847":8143,"0x762d":8144,"0x76c5":8145,"0x6b6a":8146,"##311":8147,"0x1411":8148,"0x5096":8149,"0x5090":8150,"0x99ea":8151,"0x9900":8152,"0x9950":8153,"0x99ee":8154,"0x995d":8155,"0x99f8":8156,"0x993d":8157,"0x99af":8158,"0x9911":8159,"0x9933":8160,"0x992c":8161,"0x99f1":8162,"0x99a4":8163,"0x99b9":8164,"0x99f6":8165,"0x9942":8166,"0x9986":8167,"0x9924":8168,"0x999c":8169,"0x997b":8170,"0x9998":8171,"0x99cf":8172,"0x99be":8173,"0x991a":8174,"0x99a8":8175,"0x9983":8176,"0x9921":8177,"0x994e":8178,"0x997e":8179,"0x9971":8180,"0x995a":8181,"0x9995":8182,"0x9088":8183,"0x9840":8184,"0x9848":8185,"0x98ba":8186,"0x989e":8187,"0x98b2":8188,"0x980d":8189,"0x98ed":8190,"0x98ae":8191,"0x984f":8192,"0x987c":8193,"0x980e":8194,"0x98a6":8195,"0x985f":8196,"0x9824":8197,"0x98a8":8198,"0x98a1":8199,"0x980a":8200,"0x98db":8201,"0x9854":8202,"0x98de":8203,"0x8e40":8204,"0x8e70":8205,"0x8ece":8206,"0x8e31":8207,"0x8ed1":8208,"0x8ef5":8209,"0x8e13":8210,"0x8e76":8211,"0x8e38":8212,"0x8efd":8213,"0x8e6c":8214,"0x8e4d":8215,"0x8e3b":8216,"0x8e17":8217,"0x8e89":8218,"0x8e29":8219,"0x8e8c":8220,"0x8e55":8221,"0x8e5c":8222,"0x8e59":8223,"0x8ec2":8224,"0x8e1a":8225,"0x8e1f":8226,"0x8e52":8227,"0xac9d":8228,"0xacaa":8229,"0xac8b":8230,"0xacc8":8231,"0xacb4":8232,"0x9228":8233,"0xb010":8234,"0x871a":8235,"0x73b2":8236,"0x73c1":8237,"0x857d":8238,"0x85eb":8239,"0x4ec0":8240,"0x4ec3":8241,"0x4eb9":8242,"0x4ec6":8243,"0x4ecb":8244,"0x8f40":8245,"0x8f5d":8246,"0x8f23":8247,"0x8f18":8248,"0x8f44":8249,"0x8f5b":8250,"0xad9f":8251,"0xadb3":8252,"0x7f20":8253,"0x7f40":8254,"0x7f60":8255,"0x7f18":8256,"0x7f5b":8257,"0x7f38":8258,"0x7f3b":8259,"0x7f77":8260,"0x155e":8261,"0x8d21":8262,"0xabc0":8263,"0xabab":8264,"0xabc6":8265,"0x3a1d":8266,"0x3a11":8267,"0x3a15":8268,"0x3a1b":8269,"0xaf52":8270,"0x12bb":8271,"0x12b1":8272,"0x12b0":8273,"0x91af":8274,"0x91a5":8275,"0x89f0":8276,"0x89a9":8277,"0x89f6":8278,"0x89b6":8279,"0x89bb":8280,"0x89c9":8281,"0xb2e7":8282,"0xa7c0":8283,"0x9310":8284,"0x932f":8285,"0xd046":8286,"0xd01f":8287,"0xd034":8288,"0x99e5":8289,"0x99e2":8290,"0x990b":8291,"0x9907":8292,"0x990e":8293,"0xaea9":8294,"0xaeac":8295,"0x9969":8296,"0x8ee8":8297,"0x8ee0":8298,"0x99db":8299,"0x99d4":8300,"0x99df":8301,"0x8f0d":8302,"0x8f09":8303,"0x8f01":8304,"0x8a0c":8305,"0x8eab":8306,"0x8ea2":8307,"0x8eae":8308,"0x8f27":8309,"0x8ebb":8310,"0x8eb3":8311,"0x8ebf":8312,"0x8eb5":8313,"0x984c":8314,"0x7f9d":8315,"0x91c1":8316,"0x7f0e":8317,"0x7f86":8318,"0x73d2":8319,"0x7f67":8320,"0x8f34":8321,"0x89d3":8322,"0x89d6":8323,"0x89d0":8324,"0x982b":8325,"0x9821":8326,"0xcaae":8327,"0x7f15":8328,"0x8e9c":8329,"0x8e91":8330,"0x8e9f":8331,"0x8e98":8332,"0xbfd1":8333,"0x8f47":8334,"0x8f4a":8335,"0x7f55":8336,"0x8ed6":8337,"0x8ed9":8338,"0x9191":8339,"0x98c9":8340,"0x98c4":8341,"0x98c1":8342,"0x3a0d":8343,"0x3a0e":8344,"0x6932":8345,"0x8899":8346,"0xac98":8347,"0xac92":8348,"0x9863":8349,"0x9866":8350,"0x9869":8351,"0x6980":8352,"0x975f":8353,"0x4ea2":8354,"0xabbb":8355,"0xabb1":8356,"0x89e9":8357,"0x89e1":8358,"0x8f1b":8359,"0x8f1e":8360,"0x9812":8361,"0x7f47":8362,"0x7f4e":8363,"0x989a":8364,"0x9895":8365,"0x9892":8366,"0x7fb3":8367,"0x7fb7":8368,"0x9317":8369,"0x987f":8370,"0x9872":8371,"0x4eb6":8372,"0x4eb4":8373,"0x4eb1":8374,"0x8e61":8375,"0x8e65":8376,"0x8f53":8377,"0x8f56":8378,"0x89b3":8379,"0x12e8":8380,"0x8604":8381,"0x7f71":8382,"0x7c80":8383,"0x735a":8384,"0xb2f1":8385,"0x8e43":8386,"0x8e4a":8387,"0x876b":8388,"0x89fb":8389,"0x89f3":8390,"0x9884":8391,"0x988f":8392,"0xada4":8393,"0xadac":8394,"0x8e7b":8395,"0x98e8":8396,"0x98e5":8397,"0x7d19":8398,"0x9345":8399,"0xa81c":8400,"0x8621":8401,"0xa74c":8402,"0xa88d":8403,"0x12bc":8404,"0xacb1":8405,"cqo":8406,"0x7f3f":8407,"0xcab8":8408,"0xc9a8":8409,"0x7245":8410,"0x724b":8411,"0x71c2":8412,"0x7222":8413,"0x5145":8414,"0x5122":8415,"0x878":8416,"0x8fa3":8417,"0xbee":8418,"0xb3b":8419,"0x9dd":8420,"0x9ed":8421,"0x9180":8422,"0x91b5":8423,"0x91b8":8424,"0x1ea":8425,"0x1f0":8426,"0x1f1":8427,"0x1a6":8428,"0x1e8":8429,"0x1f2e":8430,"0xa0ae":8431,"0x70ff":8432,"0x4c02":8433,"0xaa8a":8434,"0xaacd":8435,"0x2d5":8436,"0x4a78":8437,"0x6664":8438,"0x66ba":8439,"0x66df":8440,"0x66fd":8441,"0x66b4":8442,"0x666a":8443,"0x66d7":8444,"0x6667":8445,"0x66ec":8446,"0x66bc":8447,"0x66d2":8448,"0x66b7":8449,"0x49ea":8450,"0x779b":8451,"0x6731":8452,"0x6727":8453,"0x67b2":8454,"0x673a":8455,"0x678c":8456,"0x6742":8457,"0x679b":8458,"0x6784":8459,"0x67b8":8460,"0x67ad":8461,"0x67a2":8462,"0x67a7":8463,"0x67bf":8464,"0x672e":8465,"0x678a":8466,"0x67b0":8467,"0x6745":8468,"0x63c3":8469,"0x6c12":8470,"0xa42b":8471,"0x75fc":8472,"0x6b35":8473,"0x14ff":8474,"0x1420":8475,"0x1416":8476,"0x14fa":8477,"0x50c6":8478,"0x50ca":8479,"0x50c1":8480,"0x50bc":8481,"0x50b7":8482,"##243":8483,"0x902e":8484,"##72b":8485,"0x97fe":8486,"0x977d":8487,"0x97b9":8488,"0x9781":8489,"0x978f":8490,"0x1320":8491,"0x1370":8492,"##695":8493,"0x6ae0":8494,"0x866a":8495,"0x9417":8496,"0x94c7":8497,"0xa826":8498,"0xa809":8499,"0x8b1e":8500,"0x73cb":8501,"0x71dd":8502,"0x7110":8503,"0x7170":8504,"0x7175":8505,"0x714f":8506,"0x8802":8507,"0x9ac9":8508,"0x9c18":8509,"0x8dff":8510,"0x8df0":8511,"0x8dbd":8512,"0x8dce":8513,"0x8d90":8514,"0x8db9":8515,"0x8de9":8516,"0x8d81":8517,"0x8d73":8518,"0x8d86":8519,"0x8d9b":8520,"0x8de4":8521,"0x8db4":8522,"0x8d98":8523,"0x8db1":8524,"0x7248":8525,"0x7227":8526,"0x7225":8527,"0x7242":8528,"0xab49":8529,"0x9150":8530,"0x9158":8531,"0x91bd":8532,"0x917d":8533,"0x9146":8534,"0x91c3":8535,"0x912f":8536,"0x919e":8537,"0x9176":8538,"0x9149":8539,"0x9142":8540,"0x91bb":8541,"0x91c6":8542,"0x91aa":8543,"0x8958":8544,"0x8989":8545,"0x5140":8546,"0x5136":8547,"0x5131":8548,"0x5127":8549,"0x5149":8550,"0xa6b3":8551,"0xa736":8552,"0x7105":8553,"0x7102":8554,"0x9374":8555,"0xa9b1":8556,"0x92d7":8557,"0x9aac":8558,"0x726b":8559,"0x800d":8560,"0x8fec":8561,"0x91cc":8562,"0x7ffc":8563,"0x7198":8564,"0x128d":8565,"0x97d3":8566,"0x97d7":8567,"0x97df":8568,"0x7157":8569,"0x7155":8570,"0x7152":8571,"0x918e":8572,"0x6ac1":8573,"0x868d":8574,"0x868a":8575,"0x7253":8576,"0x725a":8577,"0x12a6":8578,"0x9366":8579,"0x936d":8580,"0x7eee":8581,"0x71d5":8582,"0x9193":8583,"0x919c":8584,"0x9197":8585,"0x919a":8586,"0x9179":8587,"0x7187":8588,"0x9163":8589,"0x9166":8590,"0x9169":8591,"0x913b":8592,"0x9137":8593,"0x913f":8594,"0x8dad":8595,"0x8daa":8596,"0x8da2":8597,"0x8e0b":8598,"0x8e06":8599,"0x8d6f":8600,"0x8d6e":8601,"0x865c":8602,"0x12d4":8603,"0x9383":8604,"0x8dc4":8605,"0x8dc8":8606,"0x8dd3":8607,"0x8df4":8608,"0x8df7":8609,"0x8dfa":8610,"0x8d77":8611,"0x8d72":8612,"0x8d7e":8613,"0x7172":8614,"0x935f":8615,"0x9355":8616,"0x120e":8617,"0x9153":8618,"0x915c":8619,"0x915f":8620,"0x7236":8621,"0x723d":8622,"0x5109":8623,"0x7cb7":8624,"0x93bb":8625,"0x7166":8626,"0x71cc":8627,"0x71cf":8628,"0x914c":8629,"0x9347":8630,"0x513b":8631,"0x9404":8632,"0x9d6f":8633,"0x97cf":8634,"0x5113":8635,"0xc7c5":8636,"0x1f06":8637,"0x1f1a":8638,"mul":8639,"##7e0":8640,"0x6a2":8641,"0x4da":8642,"0xab4":8643,"0x7fec":8644,"0x570":8645,"0x588":8646,"0x581":8647,"0x586":8648,"0x565":8649,"0x587":8650,"0x358":8651,"0x87e":8652,"0x8652":8653,"0x86fc":8654,"0x872b":8655,"0x8695":8656,"0xb07":8657,"0xb94":8658,"0xb834":8659,"0x92a":8660,"0x94b":8661,"0x9ef":8662,"0x4ba4":8663,"0x4bc9":8664,"0x4bc6":8665,"0x4baa":8666,"0x4b9f":8667,"0x4bb4":8668,"0x4bcf":8669,"0x4bbe":8670,"0x4bad":8671,"0x4bd9":8672,"0x4bdb":8673,"0x4b99":8674,"0x4bd2":8675,"0x4bde":8676,"0xc7e0":8677,"0x49fd":8678,"0x49ed":8679,"0x49f4":8680,"0x49fa":8681,"0x7793":8682,"0x3600":8683,"0x63ab":8684,"0x6c13":8685,"0xae5c":8686,"0xaefa":8687,"0x75f9":8688,"0x75f8":8689,"0x7535":8690,"0x7600":8691,"0x7610":8692,"0x765b":8693,"0x7639":8694,"0x763c":8695,"0x765a":8696,"0xa3d2":8697,"0x6bc0":8698,"0x6b68":8699,"0x6b5d":8700,"0x6b9e":8701,"0x6b65":8702,"0x6ba1":8703,"0x6b6e":8704,"##7a1":8705,"0x14b9":8706,"0x509e":8707,"0x5089":8708,"0x5086":8709,"0x509c":8710,"0x5085":8711,"0x508d":8712,"0x99fe":8713,"0x74ac":8714,"0x9011":8715,"0x902a":8716,"0x9014":8717,"0x90c1":8718,"0x13dd":8719,"0x13ed":8720,"0x1393":8721,"0x699e":8722,"0xafee":8723,"0x6ace":8724,"0x6ac3":8725,"0x6ad5":8726,"0x6ac9":8727,"0x6ad6":8728,"0x86ff":8729,"0x86ab":8730,"0x86a0":8731,"0x86ce":8732,"0x86a4":8733,"0x86bb":8734,"0x86ae":8735,"0x86f3":8736,"0x86e2":8737,"0x86b1":8738,"0x86b5":8739,"0x8694":8740,"0x86e5":8741,"0xa833":8742,"0xa849":8743,"0xa807":8744,"0xb0c2":8745,"0x8720":8746,"0x871d":8747,"0x8731":8748,"0x8728":8749,"0x8726":8750,"0x7cf0":8751,"0xa553":8752,"0x8fab":8753,"0x8fe0":8754,"0x8fce":8755,"0x8fa4":8756,"0x8fbb":8757,"0x8f7b":8758,"0x8fca":8759,"0x8f74":8760,"0x8fc2":8761,"0x8fc5":8762,"0x6279":8763,"0x1530":8764,"0xb925":8765,"0x9a60":8766,"0x9a2d":8767,"0x9a5d":8768,"0x9a70":8769,"0x9a16":8770,"0x9a46":8771,"0x9a2a":8772,"0x9a25":8773,"0x9a13":8774,"0x9a9e":8775,"0x9a76":8776,"0x9a22":8777,"0x9a87":8778,"0x9a1b":8779,"0x9a7b":8780,"0x11a0":8781,"0x11f8":8782,"0x9ef5":8783,"0x9ef1":8784,"0xa98c":8785,"0x12b4":8786,"0x12b3":8787,"0x2cd9":8788,"0xb2ce":8789,"0xb2e4":8790,"0xb2b8":8791,"0x9a0f":8792,"0x9a05":8793,"0x9a02":8794,"0x7609":8795,"0x8f87":8796,"0x8f8f":8797,"0x8f99":8798,"0x8f9c":8799,"0x8f92":8800,"0x9003":8801,"0x9007":8802,"0x9000":8803,"0x8f63":8804,"0x8f6f":8805,"0x6a54":8806,"0x6a57":8807,"0xb2a2":8808,"0x9aaa":8809,"0x9aa2":8810,"0x9a34":8811,"0x9a3c":8812,"0x9a3f":8813,"0x8ff3":8814,"0x8ff6":8815,"0x8fe4":8816,"0x8fef":8817,"0x12fa":8818,"0x8fbf":8819,"0x8fb0":8820,"0x8f78":8821,"0xaeed":8822,"0x7e63":8823,"0x13d8":8824,"0x13a8":8825,"0x9a56":8826,"0x146b":8827,"0x688b":8828,"0xa7d2":8829,"0x68c7":8830,"0x8703":8831,"0x8706":8832,"0x870c":8833,"0x870a":8834,"0x8701":8835,"0x870f":8836,"0x9a65":8837,"0x6178":8838,"0xb004":8839,"0x6ab4":8840,"0x6ab7":8841,"0x6ab1":8842,"0x6ab0":8843,"0x6abe":8844,"0x8fdb":8845,"0x8fd8":8846,"0x8fd5":8847,"0xbf76":8848,"0x936f":8849,"0x149c":8850,"0x9a4b":8851,"0x9a43":8852,"0x9a4f":8853,"0x86cb":8854,"0x86c1":8855,"0x86c8":8856,"0x8fa1":8857,"0x8fa8":8858,"0x9a9b":8859,"0x1299":8860,"0x1407":8861,"0x9f0e":8862,"0x8834":8863,"0x93b8":8864,"0x86de":8865,"0x9f15":8866,"0x9a7f":8867,"0x6a4a":8868,"0x92cf":8869,"0x152e":8870,"0x86a7":8871,"0x2da6":8872,"0xb26d":8873,"0x878a":8874,"0x3580":8875,"0x9efc":8876,"0x686":8877,"0x6a4e":8878,"0x6947":8879,"0xa73":8880,"0xab0":8881,"0x7cc1":8882,"0x5f7":8883,"0x5ebe":8884,"0x5f86":8885,"0x5fbc":8886,"0x5ec1":8887,"0x5f09":8888,"0x5ecd":8889,"0x5fb3":8890,"0x5ed6":8891,"0x8a6":8892,"0x880":8893,"0x8d34":8894,"0x8d3c":8895,"0xb09":8896,"0xb95":8897,"0xb7b1":8898,"0xb7d7":8899,"0x9c0":8900,"0x9c3":8901,"0x9dc":8902,"0x97b1":8903,"0x97bc":8904,"0x113":8905,"0x153":8906,"0x40e0":8907,"0x41a6":8908,"0x6e7d":8909,"0x4c8f":8910,"0xaae0":8911,"0xaad1":8912,"0xaacb":8913,"0xc00":8914,"0x7837":8915,"0x777a":8916,"0x7722":8917,"0x773e":8918,"0x60a3":8919,"0x6096":8920,"0x60af":8921,"0x60c3":8922,"0x609e":8923,"0x60a5":8924,"0x60fd":8925,"0x6089":8926,"0x608c":8927,"0x60c9":8928,"0x60c6":8929,"0x609b":8930,"0x6084":8931,"0x6087":8932,"0x60b4":8933,"0x60fa":8934,"0x608f":8935,"0x60cb":8936,"0x60be":8937,"0x60b1":8938,"0x60a1":8939,"0x60ac":8940,"0x60f7":8941,"0x60c1":8942,"0x6099":8943,"0x602b":8944,"0x60b7":8945,"0x7a07":8946,"0x63e2":8947,"0x6c16":8948,"0x6c19":8949,"0xae81":8950,"0xa4f4":8951,"0xa4a6":8952,"0xa4e2":8953,"0xa4b8":8954,"0x7994":8955,"0x7676":8956,"ebp":8957,"##16c":8958,"0x6b64":8959,"0x6b40":8960,"0x6b9d":8961,"0x6ba0":8962,"0x6b36":8963,"0x6b31":8964,"0x6b27":8965,"0x6b2a":8966,"0x6ba9":8967,"0x6b22":8968,"0x6bae":8969,"0x6b4f":8970,"0x6ba6":8971,"0x6b5c":8972,"0x6b3e":8973,"0x6b98":8974,"0x6b1f":8975,"0x6b4a":8976,"0x6b66":8977,"0x6b92":8978,"0x6bac":8979,"0x6b52":8980,"0x6bb0":8981,"0x6b3c":8982,"0x142a":8983,"0x143a":8984,"##197":8985,"##c87":8986,"##934":8987,"##d71":8988,"##e37":8989,"##cfc":8990,"0x9788":8991,"0x9748":8992,"0x9775":8993,"0x97c3":8994,"0x974d":8995,"0x9749":8996,"0x978c":8997,"0x97c9":8998,"0x979b":8999,"0x9797":9000,"0x97b4":9001,"0x97e1":9002,"0x9792":9003,"##1fc":9004,"0x68bb":9005,"0xb8f9":9006,"0xb8ab":9007,"0xb846":9008,"##780":9009,"0x6940":9010,"0x6968":9011,"0x6930":9012,"0x692d":9013,"0x6923":9014,"0x6926":9015,"0x69a9":9016,"0x69fd":9017,"0x69a4":9018,"0x698e":9019,"0x6986":9020,"0x691e":9021,"0x694f":9022,"0x697c":9023,"0x6935":9024,"0x6914":9025,"0x691b":9026,"0x695c":9027,"0x6959":9028,"0x6998":9029,"0x694a":9030,"0x6995":9031,"0x6a88":9032,"0x6a7d":9033,"0x6a5b":9034,"0x6a46":9035,"0x6a7a":9036,"0x6a6c":9037,"0x6a15":9038,"0x6a1b":9039,"0x6a8f":9040,"0x6a77":9041,"0x6a1f":9042,"0x8cdd":9043,"0x8cda":9044,"0x8cce":9045,"0x8c36":9046,"0x8ca9":9047,"0x8cb2":9048,"0x8cb9":9049,"0x8cae":9050,"0x8caa":9051,"0x8cc4":9052,"0x8ccb":9053,"0x8cd3":9054,"0x5ef0":9055,"0x5e88":9056,"0x5ed1":9057,"0x5efd":9058,"0x5e8b":9059,"0x5ec7":9060,"0x5ef3":9061,"0x5efa":9062,"0x5e83":9063,"0x5e80":9064,"0xb02f":9065,"0xb03b":9066,"0xa50e":9067,"0x7cf9":9068,"0x7cc6":9069,"0x7ccb":9070,"0xa5a0":9071,"0x1525":9072,"0xb913":9073,"0x9a7c":9074,"0x8d00":9075,"0x8d16":9076,"0x8d44":9077,"0x8d28":9078,"0x8d25":9079,"0x8d38":9080,"0x8d3f":9081,"0x8d2e":9082,"0x7e38":9083,"0x12e6":9084,"0x6a0c":9085,"0x6a05":9086,"0x6a02":9087,"0x7dec":9088,"0x5fea":9089,"0x5fc0":9090,"0x5fab":9091,"0x5f58":9092,"0x5fce":9093,"0x5fd1":9094,"0x5faf":9095,"0x5f7a":9096,"0x5fdf":9097,"0x5fdc":9098,"0x5fb9":9099,"0x5f4d":9100,"0x5fb6":9101,"0x5fc4":9102,"0x5fc7":9103,"0x5f74":9104,"0x9766":9105,"0x9769":9106,"0x976e":9107,"0x69e8":9108,"0x6a51":9109,"0x6a5f":9110,"0x8c08":9111,"0x6a69":9112,"0x6a62":9113,"0x8000":9114,"0xa9fc":9115,"0x14d9":9116,"0x97ad":9117,"0x97a8":9118,"0x97a5":9119,"0x97a2":9120,"0x12c4":9121,"0x155a":9122,"0x5ff4":9123,"0x5ff7":9124,"0x690a":9125,"0x617b":9126,"0x617e":9127,"0x8c3c":9128,"0x8887":9129,"0x3d67":9130,"0x610b":9131,"0x6108":9132,"0x6105":9133,"0x6102":9134,"0x610e":9135,"0x6983":9136,"0x6a71":9137,"0x9754":9138,"0x975c":9139,"0x9757":9140,"0x5f84":9141,"0x5f80":9142,"0x6971":9143,"0x8ce6":9144,"0x8ce2":9145,"0x5eac":9146,"0x5eaf":9147,"0x5ea5":9148,"0x5e6f":9149,"0x88c4":9150,"0x8d19":9151,"0x8d12":9152,"0x8d1e":9153,"0x696c":9154,"0x6962":9155,"0x8d07":9156,"0x8d0a":9157,"0x6113":9158,"0x6111":9159,"0x6115":9160,"0x5eeb":9161,"0x5ee1":9162,"0x5ee8":9163,"0x5fe6":9164,"0x5fed":9165,"0x5fe2":9166,"0x5e9a":9167,"0x5e95":9168,"0x5e92":9169,"0x5f67":9170,"0x5f6a":9171,"0x5f62":9172,"0x7cbe":9173,"0x7d05":9174,"0x875c":9175,"0x5fd6":9176,"0x9771":9177,"0x9778":9178,"0x1238":9179,"0x5f03":9180,"0x5f0e":9181,"0x5f5f":9182,"0x5eb4":9183,"0x5eb7":9184,"0x8cfc":9185,"0x8cf7":9186,"0x9745":9187,"0x5e79":9188,"0x8cbc":9189,"0xb8e7":9190,"0x6a21":9191,"0xb943":9192,"0x5f71":9193,"0xd7":9194,"0x689":9195,"0x4fb":9196,"0x4fb3":9197,"0xac7":9198,"0xa9ad":9199,"0xad4b":9200,"0x7d4":9201,"0x7e2e":9202,"0x52a":9203,"0x5e4":9204,"0x514b":9205,"0x5e41":9206,"0x39d":9207,"0x3124":9208,"0x316c":9209,"0x3197":9210,"0x8a5":9211,"0x8d5":9212,"0x894":9213,"0x9e0":9214,"0x9df":9215,"0x9e7":9216,"0x91e":9217,"0x9f32":9218,"0x122":9219,"0x15f":9220,"0xb448":9221,"0xb444":9222,"0xb43d":9223,"0xb45b":9224,"0xb43a":9225,"0xb453":9226,"0xb441":9227,"0xb44c":9228,"0xb439":9229,"0xb451":9230,"0x6eb4":9231,"0x4cb1":9232,"0xaae5":9233,"0x2cc":9234,"0x2d85":9235,"0x2da7":9236,"0x2d47":9237,"0x2d3c":9238,"0x2d69":9239,"0x2d4b":9240,"0x2d8f":9241,"0x2d74":9242,"0x2cde":9243,"0x2c87":9244,"0x2cfc":9245,"0x787d":9246,"0x7871":9247,"0x362d":9248,"0x3629":9249,"0x369c":9250,"0x36a2":9251,"0x3671":9252,"0x454f":9253,"0x4539":9254,"0x453c":9255,"0x3f42":9256,"0x7543":9257,"0x797c":9258,"0x7bad":9259,"0x8128":9260,"0x39e0":9261,"0x80aa":9262,"0x80cc":9263,"0x80e8":9264,"0x1431":9265,"0x142f":9266,"0x14fd":9267,"0x147e":9268,"0x5080":9269,"##221":9270,"0x3590":9271,"0x9031":9272,"0x9038":9273,"0x68f0":9274,"0x68fd":9275,"0x68f6":9276,"0x68db":9277,"0x132d":9278,"0x13e0":9279,"0x13bd":9280,"0x13f2":9281,"0x135b":9282,"0x13af":9283,"0x134d":9284,"0x1353":9285,"0x139a":9286,"0x1377":9287,"0x94a0":9288,"0x94df":9289,"0x5e40":9290,"0x5e48":9291,"0x5e44":9292,"0x5e5b":9293,"0x5e55":9294,"0x5e59":9295,"0x922d":9296,"0x92f8":9297,"0x92e2":9298,"0x7c22":9299,"0x7c7c":9300,"0x8517":9301,"0x8840":9302,"0x885d":9303,"0x88bd":9304,"0x889e":9305,"0x8838":9306,"0x88a5":9307,"0x88e6":9308,"0x8856":9309,"0x88b6":9310,"0x88ae":9311,"0x887c":9312,"0x88aa":9313,"0x88d9":9314,"0x8852":9315,"0x88d2":9316,"0x4fb6":9317,"0x15bd":9318,"0x15c3":9319,"0x1527":9320,"0xa9c0":9321,"0xa99e":9322,"0xa9b6":9323,"0xa9bb":9324,"0xa9a6":9325,"0xa99f":9326,"0x7edd":9327,"0x7e9d":9328,"0x7e96":9329,"0x7ebd":9330,"0x7e3d":9331,"0x7ec4":9332,"0x7ec7":9333,"0x7ecf":9334,"0x12da":9335,"0x12ab":9336,"0x8931":9337,"0x8938":9338,"0x8942":9339,"0x895f":9340,"0x894a":9341,"0x8951":9342,"0x2ca0":9343,"0x2cf2":9344,"0x2c25":9345,"0x2cc7":9346,"0x2cd3":9347,"0x9340":9348,"0x9358":9349,"0x933d":9350,"0x9325":9351,"0x932c":9352,"0x9349":9353,"0x937c":9354,"0x9377":9355,"0x934c":9356,"0x7d20":9357,"0x7d26":9358,"0x1304":9359,"0x1385":9360,"0xa9b8":9361,"0x8648":9362,"0x2d50":9363,"0x2d68":9364,"0x2d5d":9365,"0x2d88":9366,"0x2d31":9367,"0x2d75":9368,"0x2d25":9369,"0x2d33":9370,"0x2d3a":9371,"0x2d89":9372,"0x2d8e":9373,"0x2d9b":9374,"0x2d9a":9375,"0x2d2b":9376,"0x7503":9377,"0x92db":9378,"0x1359":9379,"0x1361":9380,"0x13b6":9381,"0x12fd":9382,"0x7ea4":9383,"0x7eaa":9384,"0x7eaf":9385,"0x7649":9386,"0x7e6e":9387,"0x13d9":9388,"0x13d2":9389,"0x7ed6":9390,"0x146f":9391,"0x1333":9392,"0x133e":9393,"0x6901":9394,"0x6905":9395,"0x68e3":9396,"0x68e7":9397,"0x9108":9398,"0x9309":9399,"0x9304":9400,"0x9301":9401,"0x12ad":9402,"0x7ee0":9403,"0x7ee2":9404,"0x888a":9405,"0x8880":9406,"0x8894":9407,"0x8891":9408,"0x8869":9409,"0x8862":9410,"0x886e":9411,"0x92fd":9412,"0x92f1":9413,"0x92f5":9414,"0x7eb6":9415,"0x515c":9416,"0x5155":9417,"0x5152":9418,"0x1295":9419,"0x896a":9420,"0x8965":9421,"0x8962":9422,"0x140c":9423,"0x12d3":9424,"0x9381":9425,"0x9382":9426,"0x88e7":9427,"0x88e1":9428,"0x88e8":9429,"0x931b":9430,"0x931e":9431,"0x5e66":9432,"0x5e6a":9433,"0x5e62":9434,"0x88cb":9435,"0x88c9":9436,"0x88c8":9437,"0x2d1c":9438,"0x2d1a":9439,"0x3ab8":9440,"0x9351":9441,"0x8a38":9442,"0x3170":9443,"0x319d":9444,"0x3128":9445,"0xac6e":9446,"0x897b":9447,"0x8971":9448,"0x8978":9449,"0x8839":9450,"0x883c":9451,"0x9339":9452,"0x9334":9453,"0x2ceb":9454,"0x2ced":9455,"0x2cec":9456,"0x4fd2":9457,"0x884b":9458,"0x8847":9459,"0xa983":9460,"0x893f":9461,"0x2d04":9462,"0x2d0e":9463,"0x88b1":9464,"0x7c33":9465,"0x885a":9466,"0x2d5c":9467,"0x8a6a":9468,"0x4fbe":9469,"0x5e4c":9470,"0x8945":9471,"0x2ccd":9472,"0xa70":9473,"0xa6a":9474,"0xa77":9475,"0xa62":9476,"0x7e4":9477,"0x519":9478,"0x54a":9479,"0x3a8":9480,"0x874":9481,"0x8632":9482,"0x9f4":9483,"0x9c6":9484,"0x9e41":9485,"0x110":9486,"0x15c1":9487,"0x4030":9488,"0x43d4":9489,"0x6f9d":9490,"0x6fa0":9491,"0x6e45":9492,"0xaaba":9493,"0xaadc":9494,"0xaae6":9495,"0xaad5":9496,"0xaa86":9497,"0xaac9":9498,"0xaac5":9499,"0xaabe":9500,"0x2bb":9501,"0x8386":9502,"0x78fb":9503,"0x6ccb":9504,"0xa4ce":9505,"0xa417":9506,"0xa412":9507,"0xa424":9508,"0xa41b":9509,"0xa4d2":9510,"0x3bd1":9511,"0x7b50":9512,"0x7b70":9513,"0x7b49":9514,"0x7b9b":9515,"0x7b5f":9516,"0x7b9f":9517,"0x7b93":9518,"0x7b97":9519,"0x7b59":9520,"0x7b78":9521,"0x7b7f":9522,"0x7b45":9523,"0xa3ea":9524,"0xa3ee":9525,"0xa3fd":9526,"0xa3e6":9527,"0xa3e7":9528,"0xa319":9529,"0xa3fb":9530,"0xa3f7":9531,"0x8041":9532,"0x14b2":9533,"0x1473":9534,"0x147c":9535,"0x1477":9536,"0x1432":9537,"0x5026":9538,"0x9080":9539,"##e21":9540,"##cf7":9541,"##b80":9542,"0x3ece":9543,"0x8e12":9544,"0x13c9":9545,"0x13c7":9546,"0x8636":9547,"0x8613":9548,"0x863a":9549,"0x8629":9550,"0x8624":9551,"0x861a":9552,"0x3d90":9553,"0x9218":9554,"0x921a":9555,"0x877d":9556,"0x878b":9557,"0x7cd5":9558,"0x85e0":9559,"0x85f8":9560,"0x85f4":9561,"0x88e9":9562,"0x884d":9563,"0x7fcf":9564,"0x15c0":9565,"0x155d":9566,"0x15fe":9567,"0x1528":9568,"0x15f8":9569,"0x15f4":9570,"0x1514":9571,"0x1519":9572,"0x151b":9573,"0x9c20":9574,"0xa9e0":9575,"0x12f8":9576,"0x12af":9577,"0x12ed":9578,"0x91ea":9579,"0x91f5":9580,"0x91f1":9581,"0x8910":9582,"0x7db2":9583,"0xa40b":9584,"0xa407":9585,"0xa40f":9586,"0xa9bc":9587,"0x9a33":9588,"0x9a38":9589,"0x12f1":9590,"0x12f5":9591,"0x14d8":9592,"0x14d5":9593,"0x14d2":9594,"0x1506":9595,"0x150f":9596,"0x13dc":9597,"0x12cb":9598,"0x12c7":9599,"0x146c":9600,"0x1557":9601,"0x12a1":9602,"0x1586":9603,"0x1582":9604,"0x15b4":9605,"0x15ba":9606,"0x15b1":9607,"0x3ae3":9608,"0x3ae8":9609,"0x1604":9610,"0x1601":9611,"0x1602":9612,"0x9201":9613,"0x860b":9614,"0x860e":9615,"0x91d1":9616,"0x85e1":9617,"0x85e5":9618,"0xa9d2":9619,"0x8909":9620,"0x8905":9621,"0x4409":9622,"0x9143":9623,"0xb271":9624,"0xaba9":9625,"0x862e":9626,"0xa97e":9627,"0x9bde":9628,"0x85fa":9629,"0x9f21":9630,"0x15fb":9631,"0xe0":9632,"0xad6":9633,"0xabe":9634,"0x7ce9":9635,"0x7cf7":9636,"0x56c":9637,"0x51b":9638,"0x3e7":9639,"0x3aa":9640,"0x3e2e":9641,"0x8a8":9642,"0x8679":9643,"0xb04":9644,"0xb311":9645,"0x6416":9646,"0x9ab":9647,"0x9af":9648,"0x9b8":9649,"0x9bb0":9650,"0x91fc":9651,"0x11c":9652,"0x4040":9653,"0x4b5b":9654,"0x43ee":9655,"0x43f2":9656,"0x43eb":9657,"0x43e1":9658,"0x6f4d":9659,"0x41dd":9660,"0x6eb1":9661,"0x4c3e":9662,"0x2a":9663,"0x244":9664,"0x83ea":9665,"0x83c0":9666,"0x83a3":9667,"0x8390":9668,"0x8381":9669,"0x83d0":9670,"0x83aa":9671,"0x838b":9672,"0x839c":9673,"0x83e3":9674,"0x83b5":9675,"0x837e":9676,"0x83e8":9677,"0x83de":9678,"0x82cf":9679,"0x7851":9680,"0x6602":9681,"0x7791":9682,"0x7734":9683,"0x6d68":9684,"0x7a82":9685,"0x7a85":9686,"0x3f16":9687,"0x3f13":9688,"0x3f2c":9689,"0x3f1e":9690,"0x3f24":9691,"0x3f1b":9692,"0x3f21":9693,"0x3f43":9694,"0x7589":9695,"0x7556":9696,"0x758c":9697,"0x7587":9698,"0x7572":9699,"0x3b31":9700,"0x3b13":9701,"0x5c42":9702,"0x7660":9703,"0x7668":9704,"0x7658":9705,"0x7675":9706,"0x76fa":9707,"0x7661":9708,"0x6bda":9709,"0x6bc6":9710,"0x6bc5":9711,"0x6bcd":9712,"##f57":9713,"0x14bd":9714,"0x14f5":9715,"0x1474":9716,"0x14e1":9717,"0x992f":9718,"##4f7":9719,"0x74ce":9720,"##fad":9721,"##fa8":9722,"0x90f0":9723,"0x90ed":9724,"0x90f4":9725,"0x90e6":9726,"0x9f18":9727,"0x98c0":9728,"0x9876":9729,"0x98df":9730,"0x98e6":9731,"0x98ad":9732,"##999":9733,"0x4410":9734,"0x44ba":9735,"0x867d":9736,"0x8676":9737,"0x8673":9738,"0x8667":9739,"0x8662":9740,"0xa8f3":9741,"0x9211":9742,"0x9226":9743,"0x9215":9744,"0xb090":9745,"0x87a3":9746,"0x87c6":9747,"0x8784":9748,"0x7cfe":9749,"0x7c90":9750,"0x7caf":9751,"0x8520":9752,"0xa52f":9753,"0xa5f5":9754,"0xa529":9755,"0x7fcd":9756,"0x9eff":9757,"0x8ac7":9758,"0xa99d":9759,"0xa990":9760,"0x3a8e":9761,"0x7e36":9762,"0x1258":9763,"0x91ff":9764,"0x91dd":9765,"0x91ee":9766,"0x91e0":9767,"0x9118":9768,"0x912a":9769,"0x9125":9770,"0x9129":9771,"0x91e7":9772,"0x89bd":9773,"0x8926":9774,"0x7d2d":9775,"0x7d23":9776,"0x7d0d":9777,"0x7d2b":9778,"0x9b81":9779,"0x9b5c":9780,"0x9b59":9781,"0x9b77":9782,"0x9b72":9783,"0xa9b3":9784,"0x90ec":9785,"0x87c1":9786,"0x87c8":9787,"0x6bd4":9788,"0x6bdc":9789,"0x87ad":9790,"0x87a8":9791,"0x7f69":9792,"0x8687":9793,"0x868f":9794,"0x8680":9795,"0x868e":9796,"0x910a":9797,"0x9101":9798,"0x9105":9799,"0x911b":9800,"0x9114":9801,"0x9111":9802,"0x911e":9803,"0x3eab":9804,"0x3eaf":9805,"0x44b3":9806,"0x44b0":9807,"0x9a94":9808,"0x8659":9809,"0x8651":9810,"0x865f":9811,"0x8655":9812,"0xa563":9813,"0x920e":9814,"0x91d9":9815,"0x91d5":9816,"0x91d2":9817,"0x89a8":9818,"0x9f07":9819,"0x9f02":9820,"0x3a9f":9821,"0x3a98":9822,"0x9bad":9823,"0x9ba9":9824,"0x9ba1":9825,"0x4446":9826,"0x4449":9827,"0x8766":9828,"0x8761":9829,"0x9443":9830,"0x7cb0":9831,"0x7d08":9832,"0x13ef":9833,"0x9bb7":9834,"0x9bbf":9835,"0x7ce2":9836,"0x7d12":9837,"0x8666":9838,"0x866d":9839,"0x866f":9840,"0x1f44":9841,"0x9b6f":9842,"0xa5de":9843,"0x7df3":9844,"0xb0bc":9845,"0x94d3":9846,"0x90d7":9847,"0x9b51":9848,"0xb38e":9849,"0x91e4":9850,"0xa621":9851,"0x51be":9852,"0x2449":9853,"div":9854,"jbe":9855,"px":9856,"##2sd":9857,"##sd2":9858,"##tsd2":9859,"0x4d1":9860,"0x4401":9861,"0xa84":9862,"0xa65":9863,"0xad47":9864,"0xad7f":9865,"0xad41":9866,"0xab8d":9867,"0xac54":9868,"0x7f2":9869,"0x71e":9870,"0x7fa":9871,"0x7ca":9872,"0x7f5c":9873,"0x7d71":9874,"0x74f7":9875,"0x57d":9876,"0x556":9877,"0x57c":9878,"0x584":9879,"0x58b":9880,"0x567":9881,"0x566":9882,"0x5803":9883,"0x3ebe":9884,"0x8a4":9885,"0x867":9886,"0x88d":9887,"0x88f7":9888,"0x88b5":9889,"0x8e2b":9890,"0x8e37":9891,"0x8e21":9892,"0xbfe":9893,"0xbc3":9894,"0xbd62":9895,"0xb233":9896,"0x9c8":9897,"0x957":9898,"0x9b4":9899,"0x9d9":9900,"0x9124":9901,"##si2sd":9902,"0x6555":9903,"0x6598":9904,"0x65b1":9905,"0x654e":9906,"0x656e":9907,"0x118":9908,"0x125":9909,"0xb497":9910,"0x409d":9911,"0x402f":9912,"0x40a4":9913,"0x4056":9914,"0x405e":9915,"0x40b6":9916,"0x40bb":9917,"0x4065":9918,"0x4059":9919,"0x40d4":9920,"0x408f":9921,"0x4074":9922,"0x4062":9923,"0x40cf":9924,"0x40b1":9925,"0x406f":9926,"0x4092":9927,"0x4085":9928,"0x408a":9929,"0x407e":9930,"0x4079":9931,"0x43da":9932,"0x43f9":9933,"0x43ce":9934,"0x43d1":9935,"0x43c3":9936,"0x43f6":9937,"0x43d7":9938,"0x43ca":9939,"0x43c5":9940,"0x43e5":9941,"0x43e8":9942,"0x43fc":9943,"0x43de":9944,"0x6f22":9945,"0x6fb5":9946,"0x6e3f":9947,"0x4270":9948,"0x42a9":9949,"0x4c64":9950,"0x4ca0":9951,"0x4caf":9952,"0x4c4d":9953,"0x4c8c":9954,"0x4c9b":9955,"0x4caa":9956,"0x4c82":9957,"0x4c98":9958,"0x4ca7":9959,"0x4c91":9960,"0x4cb0":9961,"0x4c6e":9962,"0x4c43":9963,"0x4c5a":9964,"0xc29":9965,"0x7848":9966,"0x7890":9967,"0x7875":9968,"0x78f5":9969,"0x7838":9970,"0x7856":9971,"0x7884":9972,"0x7893":9973,"0x786a":9974,"0x7866":9975,"0x786d":9976,"0x7861":9977,"0x785a":9978,"0x7879":9979,"0x4945":9980,"0x38c0":9981,"0x3cce":9982,"0x3c76":9983,"0x3cd0":9984,"0x3cc9":9985,"0x3cc6":9986,"0x3cd8":9987,"0x3c6e":9988,"##c0c":9989,"0x84da":9990,"0x84ce":9991,"0x84bb":9992,"0x84c7":9993,"0x84e1":9994,"0x84bf":9995,"0x7a50":9996,"0x7a6c":9997,"0x7a1f":9998,"0x63a6":9999}}}