[PAD]
[UNK]
[CLS]
[SEP]
[MASK]
[EOI]
[LOOK]
*
+
,
-
0
1
2
3
4
5
6
7
8
9
:
[
]
a
b
c
d
e
f
g
h
i
j
k
l
m
n
o
p
q
r
s
t
u
v
w
x
y
z
##x
##8
##f
##4
##c
##5
##a
##3
##2
##1
##d
##7
##e
##9
##b
##6
##0
##n
##i
##p
##m
##o
##v
##l
##u
##w
##r
##s
##y
##t
##q
##h
##g
##z
##k
0x
eo
eoi
##ov
mov
##ax
pt
ptr
##or
0x6
##ord
##word
0x4
lo
##ok
look
rax
eax
ri
rip
rb
rbp
dword
0xa
qword
0x7
rd
0x5
0x3
ca
##ll
call
0x8
0xb
ed
0x64
rdx
0x9
##si
##te
by
byte
rdi
##ea
edx
##ff
0x65
0x1
lea
0xb4
##cx
esi
edi
0x5a
0xa0
##zx
movzx
0x59
0x40
##20
0x4b
al
pu
##sh
push
##64
rcx
##mp
0x43
rs
rsp
0x6f
##nd
rsi
##dd
0x41
0x6e
0x70
0x42
0x4c
0xaa
0x2
movs
movsx
0x37
cmp
0x96
end
##br
endbr
endbr64
0xa1
rbx
0x83
##op
0xc
0x82
0x78
0x4a
0x66
ecx
0x49
0x5b
su
sub
0x38
0x77
r1
##00
0x36
add
je
##ne
te
##st
test
##40
##50
jne
##ffff
##ee
0x3c
0x6d
0x28
##c0
##60
##f0
0x84
##et
movsxd
0x67
0x60
0x45
0x7a
0x63
ret
0x10
##da
##10
0x3f
0xba
0x6c
0x18
0x20
0xae
0xa4
##ul
im
imul
0x75
0xb5
0x79
0x3b
##68
##30
jmp
0x7b
nop
0x5c
0x47
##2d
0xbb
##f9
0x48
##ab
##e0
##5d
0x81
##23
##a3
##18
##70
##1d
0x46
##9d
0x76
and
eb
ebx
0xa3
##96
##a0
##58
##fe
##16
##bd
##ce
##88
##36
##48
##90
##44
0x6b
##31
##28
##d1
0xffff
##f2
##f8
##7d
##3d
0x39
##75
##5b
##af
##46
##c3
##ba
##11
##2f
##27
##2a
0x5d
##25
0x647
##f5
0x80
##33
0x3ee
pop
##13
##26
##2c
##9e
##7a
##76
##df
##38
0x30
0x3eef
##a9
##a5
##b2
##f1
##dc
##fd
##a4
##b9
##6c
##0d
##e9
##4d
##49
##dq
cdq
##eb
##81
##ed
##3b
##17
##f4
##e6
##3a
##89
0x3700
##56
##f6
##d0
##5e
##29
##8c
##73
##b6
cdqe
##12
0x14
0x50
##d5
##8e
##42
##86
##bb
##e7
##ve
leave
##c9
##c6
0x99
##22
##63
0x35
##d8
##1e
##d6
##ae
##15
##53
##4f
##7c
##0e
##9b
0x3620
##84
##a6
##e4
##aa
0x74
0xffffff
##8b
0x24
##35
r8
##65
##14
##5f
##24
##19
##c8
##9f
##c4
##87
fs
##93
##55
##9a
##97
##1c
##9c
##c7
##82
##57
##0f
##1b
##b4
0x36e0
0x3760
##f3
##5c
##59
##fa
##d4
##6a
##fb
##7b
##8f
0x430
##41
##d7
##3e
##77
##ca
##67
##32
##74
##62
0x90
##e2
##98
##c2
##e3
##640
r12
##cf
##0b
##72
##09
0x97
##cb
##c5
##be
0x37f0
0x3640
##1a
##4b
##1f
##b1
##3f
##4a
##66
0x9f
##05
##07
##6f
0x98
##e1
0xc4
0x68
##a8
##a1
##92
##0a
##6d
##b8
##4c
##83
##b5
##ec
##ad
##39
##a2
##ac
##f7
##a7
##61
##d3
##51
##d9
##21
##91
##52
##02
0xb8
##b3
0x3e
##85
##cc
0x8e
xor
##4e
0x54
##db
0x13
##94
##bf
##78
0x69
##2e
0xaf
##69
##c1
0x420
##8a
##b0
0xb50
##99
##5d0
##80
or
##40a
##7e
##37
0x35d0
0x3670
0x34
0x6a
##cd
0x8c
##04
##3c
##e5
##54
##6b
0xb4a3
0xa2
jl
##03
##01
##06
##fa3
##34
0x44
##7f
0x540a
##2b
0xfffffa3
0xfffffffe
0xfffffff5
0xfffffa3c
0x1a
##0c
0x61
##47
0x86
##71
r8d
##6e
0xac
0xa09e
0x58
0x3d
0x94
0x62
##bc
##d2
##43
##b7
##45
0x3910
0xa8
##5a
r10d
0x646c
0x64c0
0x64ab
0x6423
0x6488
0x8b
r11d
##95
0x5e
##ef
0x92
0xb0
0x1c
0x87
sh
0x73
0xd
##79
0xa50
0x6584
0x7c
##8d
##e8
##fc
0x3830
0x71
0x85
0x88
##08
0x4f
0x4e
0xa5
0x3570
jg
0x8f
0x34f0
shl
0xb4ab
0xb4ba
0xb4c2
0x5ae9
0x450
0x95
0xad
0x627
0x7f
0x15
word
0x6548
0xb9
0x3820
0xb4df
0xb4ec
0x6ff
r9d
0x9a
0x6536
0x434
0x5c0
0x9c
0xb4f7
0x64dc
0x6ee1
0x6568
0x64ea
0x650a
0xaa10
0xa130
0xa125
0xa119
0x3720
0x6dd
0x11
0x17
jle
0x16
0xb456
r12d
r15d
r13d
r14d
0xa28
0x66aa
0x9617
0x38f0
0xb468
0xb47b
0xb46d
0x3920
0x63f9
0xb48b
0xb503
0xb4d6
0xb52a
0x6478
0x6472
0x653b
0x6464
0x6400
0x64f9
0x649d
0x6496
0x64fe
0x64ce
0x6444
0x6431
0x645b
0x642a
0x6438
0x64b2
0x64f1
0x64a4
0x64b9
0x6481
0x64f4
0x645e
0x64d5
0x6415
0x644f
0x640e
0x6455
0x641c
0x64c7
0x646a
0x648f
0x643e
0x64e3
0x644a
0x6407
0x6540
0x6518
0x651d
0x6531
0x6546
0x6527
0x652c
0x650d
0x654d
0x6512
0x6522
0x6503
0xb4c0
0xb4da
0xb49d
0xb416
0xb4f8
0xb42f
0xb47a
0xb4a9
0xb4eb
0xb481
0xb4c9
0xb47c
0xb493
0xb4b4
0xb45c
0xb462
0xb4cb
0x63dd
0x63f2
0x63eb
0x63d6
0x63e4
0xb518
0xb51d
0xb536
0xb529
0xb51e
0xb535
0xb514
0xa3da
0x3940
0x647b
0xb504
0xb910
0x9e
0xa02a
0x5acd
0xa0f2
0x3860
0xc3
0x3ff
0x8d
0x3840
0x5c0f
0x8a
0xae20
0x72
0xa077
0xa075
0xa051
0xa068
0xa063
0xadd
0xa0fe
0xa0d1
0x97f9
0xa0a6
0xa098
0x3800
0x5988
0x59af
0x59ba
0x5942
0xa0bd
0xa0af
0xa0d5
0xa08e
0xa0c6
0xa07c
0xa057
0xa0f3
0xa0b5
0x59d1
0x59e6
0xa118
0xa124
0x5a10
0x5a68
0x5aab
0x5a96
0x5aa0
0x5a48
0x5a7d
0x5a25
0x5a33
0x5a2c
0x5aa5
0x5ab2
0x5a17
0x5a3a
0x5a56
0x5a5e
0x5a8c
0x5a63
0x5a1e
0x5a4f
0x5a9b
0x5a87
0x5a82
0x5a59
0x5a41
0x5a77
0x5a72
0x5a09
0x5a6f
0x5aad
0x5a91
0x5a02
0xa0ff
0xa0da
0xa05d
0xa011
0xa076
0xa0a4
0xa0e6
0xa086
0xa0bb
0xa0e7
0xa0c4
0x59dd
0x5950
0x59c0
0x59e0
0x59a3
0x599d
0x5996
0x59c3
0x597a
0x59a9
0x596c
0x5949
0x5981
0x59ed
0x593b
0x59f4
0x595e
0x5973
0x59c9
0x5965
0x5957
0x59b4
0x59fb
0x598f
0x59d7
0x59cf
0xa131
0xa113
0xa10f
0xa50b
0xab
0xa9
0x3a
0x9687
0x6ece
0x6ed4
0xaa8e
0x4c3d
0xaf5
0x27
0xaa66
0x820
0x3730
0x7e
0x12
0x65f3
0x6eba
0x4c89
##44f
##de
0x65bd
0x5b58
0x4d
0x458
##401
0xaf2
0x6a0
0x9ff
0x4bc0
##3fc
0xaa8c
0x6eb6
0x4c30
0x6ed7
0x38a0
0x6efa
0xaa68
0x6f74
0x6f00
0x6f53
0x6f0c
0xaaa1
0xaabf
0x4bb9
0x4bb6
0x4ba2
0x3930
##5b0
0x6f32
0x9663
0x6f20
0x6f40
0x6f60
0x6f2d
0x6f23
0x6f58
0x6f75
0x6f5b
0x6f46
0x6f26
0x6f76
0x6f49
0x6f3a
0x6f35
0x6f14
0x6f0f
0x6f6a
0x6f1a
0x6f07
0x6f4c
0x6eee
0x6eda
0x6ec3
0x6efd
0x6ee9
0x6ef4
0x6ee6
0x6ebb
0x6ec8
0x6ebe
0xaa40
0xaa16
0xaa42
0xaa65
0xaa1c
0xaa1a
0xaa83
0x711
0x468
0x4c42
0x8690
0x4bfd
0x4b8e
0x4c04
0x969c
0xce
0x4c33
0x4c38
0x4bea
0x4b9d
0x4b96
0x4bd1
0x4baf
0x4bc3
0x4bdf
0x4ba5
0x4bf6
0x4bbb
0x4bd8
0x4b9a
0x4bca
0x4be2
0x4bc5
0x4bb1
0x4bac
0x4ba7
0x4b91
0x4b8a
0x4be5
0x4bef
0x4c2d
0x4c18
0x4c13
0x4c26
0x4c0e
0x4c0b
0x4c1f
0xc44f
0xc401
0xc3fc
0x7523
0x7529
0x7522
0xc423
0xc428
0xc432
0xc3da
0x91
js
0x8282
0x922f
0x641b
0x96ba
0x9660
0x9689
0xdd
0x6420
0x64da
0x642d
0x64bd
0x6428
0x6446
0x6433
0x64a5
0x64ae
0x6453
0x648b
0x6465
0x645f
0x649f
0x649a
0x6497
0x6459
0x6462
0x64cf
0x64c5
0x644b
0x641f
0x64b1
0x643f
0x6492
0x64b8
0x6439
0x64d9
0x6485
0x644e
0x64db
0x643c
0x963d
0x9611
0x963b
0x9615
0x960b
0x9661
0x967e
0x647f
0x6474
0x6471
0x6479
##aaaa
0xba00
0xaf6
0x664
0x9f9
0x8794
0x626
0xb3
0xadc
0x448
0x3520
0xbd
0x35a0
0xa20
0x6c0
0xa29
0x89
0x840
0xdc
0xbe
0x6d17
##5d8
0xa96
0x746
0x970
0x9f8
0x35b0
0x850
0x65ea
0x65d6
0x5858
0xaf1
0x759a
0x9fe
0x65a6
0x627c
##12b
0x21
0xb4ca
0x2c
0x460
0x51
0xf
0xaa2f
##878
movab
movabs
0xb2
0x38d0
0x76df
0xb878
0xb49c
0x620
0x95c
0xaddd
0xaa01
0x8302
0xa6
0x400
0x38b0
0x7010
sa
0xd1
sar
0x625
0xa7
0x736
0x3d0
0x912b
0x6588
r13
0x710
0x93
0x7d
0x5da
0x6575
0x7867
r14
r15
0x9ff3
0x662e
0xa5b
0x3850
0x1d
jge
0x5f
ax
0x69d
0x6713
0xa40
0x7058
0x3680
set
0x3650
setne
0xd0
0x83e9
0x8243
0x76c2
##ce9
0xaf50
0x99e
0x4c44
0x3d1
0xb7
0x3980
0x4a64
0x9f6
0x9a0
0x82c3
0x65f1
0x794e
0x6aff
0x4986
0x77a8
0x6d99
bl
0x5b56
0x35f0
jn
0xd5
0x9b
jns
0x858
0x6613
0xa30
0x7694
0x748
0x49d9
0x6620
0x6616
0x660e
0x990
0x3970
0x976
0x6544
0x6bf9
0xaea
0x428
0x454
0x760
0xaf8
0xe
##23b
0x3900
0x3f0
0xb86
0x65a9
##iv
0xaf0
0xad1
0x464
##245
0x49d0
0x7076
dl
0x77b9
##ed3
0xc5d8
0x4a20
0x4a00
0x4a40
0x4a50
0x4a23
0x4a1d
0x4a16
0x4a28
0x4a3d
0x4a33
0x4a2c
0x4a49
0x4a3a
0x4a53
0x4a0f
0x4a05
0x4a0a
0x4a45
0x49dd
0x49ee
0x49f8
0x49eb
0x49e6
0x49d5
0x49d8
0x49f3
0x49d4
0x49fb
0x49e1
0xce25
0xce3a
0x8272
0x825b
0x8286
0x827f
id
0x4568
idiv
0x9673
0xc9
0x8270
0x8258
0x8275
0x827a
0x826c
0x824d
0x8262
0x8266
0x8269
0x8254
0x77da
0xaef0
0x9714
0x9706
0x6fdf
0x37c0
0x834a
0x69e
0x9e9
0x77df
0xbad0
0x81c6
0x40d6
0xa2f
0x65dd
0x65a0
0x65ce
0x6590
0x65dc
0x65b9
0x6589
0x658c
0x65b6
0x65c9
0x65ae
0x65c4
0x6593
0x659c
0x65e1
0x65a2
0x65d3
0x65b3
0x65c1
0xa344
0xda
0x7090
0x70a6
0x706a
0x7067
0x7085
0x707e
0x401c
0x78af
0x655e
0x77c0
0x9f91
0x416b
0x830f
0x8301
0x77bd
0x77ce
0x77d1
0x77b2
0x77eb
0x77d5
0x77e7
0x77e4
0x77c7
0x77d7
0x77cb
0x996
0x9f85
0xa27
0x4048
0x41f8
0xb88
0x4036
0x5aee
0x5af8
0x5af5
0x5af1
0x5aed
0x40c0
0x40ab
0x40ae
0x4053
0x404f
0x4097
0x406a
0x40ca
0x40c5
0x43be
0x5b18
0x5b46
0x5b33
0x5b13
0x5b26
0x5b38
0x5b3b
0x5b29
0x5b42
0x5b22
0x5b1e
0x5b4f
0x5b0e
0x5b1b
0x5b41
0x5b0b
0x5b05
0x5b07
0x5b2e
0x5b01
0x9763
0x4010
0x4026
0x4024
0xa2a
0x8ee
0x6fed
0x41dc
0x700d
0xbb30
0x419d
0x41b2
0x4187
0x417b
0x416f
0x130
0x131
0x424d
0x425f
0xa32c
0x8f8
0x41fd
0x41f6
0x41cc
0x4108
0x422a
0x4219
0x4237
0x42b7
0x4279
0x4202
0x4148
0x4139
0xa175
0xa1b4
0x9fd
0x4388
0x434b
0x42ee
0x42f9
0x4288
0x428c
0x429f
0x42e3
0x4358
0x4390
0x4375
0x4335
0x4319
0x43a1
0x432e
0x41a4
0x42c0
0x42f2
0x423e
0x6d4f
0x74a6
0x430a
0x4302
0xf0
0x4064
0x40dd
0x40ee
0x402d
0x40a3
0x4058
0x40ce
0x4090
0x4031
0x40f2
0x403d
0x4075
0x402a
0x409e
0x407a
0x4038
0x40b2
0x40fd
0x40b9
0x40e9
0x4081
0x4017
0x4089
0x40f6
0x408c
0x4042
0x4086
0x4015
0x407c
0x40e4
0x405f
0x4093
0x409c
0x40fa
0x4067
0x40e2
0x4009
0x40be
0x4005
0x40a8
0x404c
0x40b5
0x40d9
0x4021
0x400c
0x4071
0x406e
0x40d2
0x4045
0x405a
0x4320
0x4360
0x4316
0x4336
0x4344
0x4328
0x437d
0x433d
0x4311
0x432f
0x4327
0x430d
0x4312
0x438e
0x4386
0x4315
0x430e
0x4384
0x43a6
0x438b
0x435f
0x439c
0x4359
0x437b
0x4377
0x4367
0x4374
0x431a
0x434a
0x4366
0x4392
0x436d
0x4383
0x43ad
0x4351
0x4321
0x4352
0x438a
0x4399
0x433c
0x436e
0x4343
0x4379
0x41ea
0x4164
0x41ee
0x41c0
0x4160
0x412d
0x411d
0x4196
0x4116
0x41bd
0x41ce
0x4144
0x4128
0x417d
0x413d
0x415b
0x412f
0x4176
0x41a9
0x41f1
0x41b9
0x410d
0x4156
0x4112
0x41e7
0x41d8
0x41ae
0x414f
0x418b
0x4124
0x41c4
0x41c7
0x4182
0x41e3
0x4172
0x414b
0x4192
0x41a2
0x41d3
0x4121
0x4199
0x4154
0x4101
0x4106
0x4134
0x4220
0x4268
0x422d
0x42ab
0x42a3
0x4216
0x4248
0x427d
0x4275
0x425b
0x42af
0x4246
0x42ba
0x4225
0x42f5
0x4233
0x42df
0x42dc
0x42fd
0x426c
0x42eb
0x423a
0x42d0
0x4212
0x42e7
0x42d8
0x421e
0x429b
0x4284
0x42c8
0x42c4
0x4293
0x4255
0x4297
0x42d4
0x4241
0x4262
0x426f
0x42a7
0x4252
0x42b3
0x42cc
r11
r10
0x4305
0x4301
0x4309
0x4306
0x420f
0x4205
0x420b
0x9609
0x623
0x4c50
0x4c7d
0x4c7a
0x4c73
0x4c5f
0x4c57
0x4c6b
0x3540
0x99d
0x5c78
0x927
0xffffffff
0x8f9
0x495d
0xae40
0x900
0x9997
0x8f6
0x6606
0x4c70
0x4c48
0x4c75
0x4c84
0x4c5c
0x4c4b
0x4c66
0x4c61
0x4c69
0x4c54
0x4c7f
##1b7
shr
0xaa18
0xaa1d
0xaa09
0xaa06
0xa3ed
0x749
0x5e0
0x6a5
0x720
0x5dd
0x138
0x37e0
0x3550
0x5e20
0x70c9
0x7097
0x4553
0x9992
0x6a0b
0xa9b
0xa42d
0x7aed
0x107d
0x3790
0x4732
0x8377
0x7788
0x7ad4
0x87d
0x65fc
0x78e4
0x76e7
0x3dd
0x65f2
0x8223
0x7363
0x8358
0x78dc
0x78e1
0x78d2
0x81be
0x8363
0x8372
0x836d
0x8383
0xa53
##642f
0x8212
0x7926
##2f76
##762f76
##65642f
0x585861
0x7363762f76
0x7363762f7665642f
0x66ae
0x837c
0x835f
0x8355
0x8366
0x836f
0x8351
0x8369
0x837f
0x6cab
0x9f58
0x8b9
0x84c6
0x78bd
0x78ce
0x78ba
0x78b6
0x78c8
0x78c4
0x78d4
0x78d7
0x78cb
0x78e8
0x8204
0x9fb
0x6573
0x6572
0xa19f
0x7723
0x6c25
##aaaaaaaa
0x8f0
0x6608
0x6210
0x701c
0x500
0x3d4
0xb4a0
0xb4bd
0xb4af
0xb4a4
0xb4a8
0xb4a1
0xb4b8
0xb4b3
0xaa27
0x69c
0xb23b
0xaa05
0x7a2b
##d85
0x5b6d
0x751c
0x74f4
0x768
0xa0ce
0xaa22
0x3b09
0xa503
0x3a6
0x1ce9
0xaa0d
0xaa14
0xaa1f
0xa1ab
0xa190
0xa1a4
0xa186
0xa17c
0xa19a
0xa197
0xa183
0xa18d
0x6389
0xba05
0x3a3
0x864
0xb2a
0x4b30
0x6749
0x6795
0x673c
cm
0x738
0x956
0x6747
cmov
0x6d9d
0x6da5
0x6df1
0x6de9
0x6dcf
0x6dd2
0x8a0
0x8b6
0x9e36
0x856
0xb1
0x5d1
0x8bd
0x5cfa
0x475d
xm
0x7a5f
xmm
0xbc
0x2d
0x37d0
0x6df9
0x7af2
0xc5
0x5cae
0xdb
0x8ea
0x85b
0x6eb0
0x4afb
0x6cda
0x36f0
0x712
0x449
0x750
0x66da
0x66d5
0x66cb
0x446
0x37b0
0x3890
0x95cb
0x7b0b
0x623f
0x92d
0x5d2d
0x9d
0x6e9b
0x6e5a
0x864d
0x90e
0x7711
0x6c75
0x3990
0x468e
0x45e4
0xbbb8
0x9744
0xaf36
0x709e
##11a
0xbb16
0x76c0
##fac
0x6a9
0x8f2
0x8468
0x95ab
0x8395
0x7803
##f5c
##1e2
0xa9b0
0x7036
0x36c0
0x727
0x70c0
0x7088
0x70c3
0x70a9
0x70a4
0x705e
0x7073
0x70bb
0x70ae
0x70c8
0x707b
0x70b1
0x70a1
0x70b8
0x7061
0x7071
0x7095
0x708d
0xa8f9
0xa8fe
0x996a
0x96ca
0x6c4c
0xa329
0x6a81
0xa289
0xa96f
0x8c0
0x9aa
0x8d85
0x9a3
0x65cf
0x66af
0x66b2
0x66dc
0x66d0
0x66c6
0x66c8
0x66b8
0x66db
0x66bf
0x4996
0x49a0
0x499b
0x4992
0x49c1
0x79cd
0x8db2
0xb2a4
0x6a6
0x87c
0x65c3
0x135
0x83bd
0x6737
0x6734
0x664f
0xa29b
0xd9
0x65e0
0x65ed
0x659b
0x6636
0x94f9
0x65f5
0x65c6
0x65d8
0x65fa
0x65e3
0x65cc
0x65db
0x96c8
0x662d
0x661d
0x6628
0x6625
0x660b
0x6609
0x6603
0x94f4
0x29
0x82f8
0x4ff
0x700f
0x8389
0x83e2
0x5c40
0x5c30
0x5c2d
0x5c1d
0x5c13
0x5c17
0x5c3a
0x5c35
0x5c14
0x5c24
0x5c41
0x5c3f
0x5c2b
##652
0x6ac8
0x6ff6
0xa96d
0x9e9f
0x726
0x6fe7
0x6fe4
0x6fe3
0x7000
0x700e
0x7005
0x7008
0x83ab
0x83a9
0x83b6
0x839b
0x83a6
0x839f
0x838f
0x8398
0x83b8
0x83a2
0x83b3
0x83c1
0x83b0
0x828c
0x759e
0x6ff3
0x6ff9
0x95cd
0xac3
0x82af
0x829e
0x82a5
0x82b9
0x82b6
0x829b
0x82c7
0x8298
0x82be
0x82b1
0x82a8
0x82a1
0x8292
0x82ac
0x82bc
0x7705
0x7915
0x8ff
0x8eb
0x780d
0x76d3
0x8039
0x8504
0x9f6e
0x6af
0x8bb
0x654f
0xaa47
0x9073
0x6bd
0x800
0x6558
0x6574
0x136
0x78ee
0x785d
0x7821
0x77f1
0x630a
0x3f44
0x7947
0x62f
0x3df
0xaa49
0x82c5
0x7800
0x7823
0x7816
0x7828
0x7811
0x782c
0x78fd
0x78f4
0x781e
0x7814
0x781b
0x78fa
0x780a
0x7806
0x77fd
0x77f7
0x7900
0x7910
0x7918
0x791d
0x7922
0x790e
0x791b
0x790b
0x7907
0x7904
0x81c8
##2c1
0x9f73
0x9f82
0x6a59
0x956a
0x728
0xa01b
0x6e76
0x36b0
0x602d
0x3a5
0x9f5c
0x655b
0x65a5
0x6549
0x6565
0x656a
0x656d
0x654c
0x6552
0x772d
0x6dfa
0x9f64
0x9f60
0x9f5d
0x9f7d
0x9f7a
0x9568
0x9f6b
0x6ea
0x85d8
0x7a69
##3e8
0x69f
0x5ab4
0x83f8
0x4706
0x72d
0xb89
0x964
0x8496
0x84a0
0x846c
0x8482
0x848a
0x6718
0x6748
0x6746
0x6717
0x6724
0x671b
0x6741
0x6732
0x6721
0x672b
0xa41d
##679
0x984
0x45f6
0x45e8
0x6c44
##e3c
0xa20a
0x4602
0x13b
0x676e
0xae37
0xa422
0x3b2c
0x7678
0xaea0
0xa2fd
0x7f9
0x7e7
0x8fe
0x23
0x57
0x5cab
0x5c90
0x5c7d
0x5c89
0x5c86
0x5c7c
0x5ca6
0x5c97
0x5c9c
0x5ca1
0x5cad
0x5cac
0x5c99
0x5c80
0x3560
0x9838
0x90e8
ja
0x3a4
0x948
0xb4e2
0x37a0
0x6bc9
0x91c
0x12f
0x3ceb
0x674d
0x5cd3
0x467a
##24b
0xb40f
##da7
0xae57
0x713
0x923
0xc652
0xc679
0x49b2
0x49b9
0x498e
0x49c6
0x49ae
0x498b
0x49cb
0x49a7
0x498a
0x49bc
0x4578
0x6bc1
0xc526
0x712e
0x4e6
0x7ff
0x7f0
0x719
0x95d
0xb4fe
0x4b23
0x4b36
0x4b33
0x4b26
0x4b0d
0x4b3b
0x4b17
0x4b29
0x4b12
0x4b15
0x4b1f
0x4b05
0x4b0a
0x4b02
0x4a7f
0xba17
0xaedc
0xc4f8
0xaf20
0x1120
0xb4f0
0xb4dc
0xb4e9
0xb4d8
0xb4e4
0xb4d4
0xb4cf
0xb4d2
0xaa3d
0xba37
0x3510
0x8e96
0x8e8a
0x6642
0xb18
0xaa39
0x6623
0x6611
0x6633
0x6626
0x663a
0x6629
0x6619
0x4589
0xba20
0xba80
0x5dc6
0xb3e0
0xb7f2
0xb6
0xaa63
0x459b
0x45a8
0xbabc
##180
0x9fdb
0xa9f
0x7ea
0xaa44
0xaa55
0xaa41
0xaa51
0xaa4e
0xaa37
0xaa34
0x7ad8
0x7b20
0x7b2e
0x6bdd
0x3490
0x61d
0x5bb4
0x5ba7
0x45a3
0x4570
0x4590
0x457d
0x459e
0x456c
0x4582
0x4574
0x456d
0x45ad
0x4594
0x7a05
0x6cf6
0xb3f0
0xad11
0x840a
0x6e64
0x6e67
0x6e61
0x6e78
0x6e6b
0x6e71
0x6e6e
0x5b88
0x5b76
0x5b73
0x5b8e
0x5b9b
0x5b8b
0x5b9f
0x5b93
0x5b7b
0x5b98
0x5b85
0x5b78
0x5b7e
0x770f
0x6df8
0x6dc3
0x6df5
0x6d9e
0x6da9
0x6ded
0x6db6
0x6dbb
0x6dc6
0x6dfb
0x6de2
0x6dcb
0x6db1
0x6da1
0x6dad
0x6dbf
0x6de5
0x3f50
0x75af
0x75c3
0x75b2
0x75c6
0x75cd
0x4736
0x4745
0xbb69
0x6dda
0x6dde
0x6dd6
0x8402
0x7f8
0x87a
0x6563
cmovl
0x45f9
0x45fe
0x45f1
0x45ec
0xaf24
0xaf2c
0xaf19
0x4604
0x3ed
0x7028
0x2f
0x3bb3
0xbb70
0x52
0x925
0xaf5a
0xaf57
0x85c
0x9d1
0x96b7
0x6d12
0x6d0a
0x67bb
0x6cfc
0xaf9
0x73d
0x7f6
0x14d
0x6e34
0x84e5
0xbaf0
0xbaf9
0xbafd
0xbaf4
0xbaf6
0xbafa
0xbb00
0xbb96
0xbb7d
0xbb75
0xbb81
0xbb0f
0xbb7b
0xbb8f
0xbb74
0xbb98
0xbb09
0xbb91
0xbb78
0xbb8a
0xbb04
0xbb0c
0xaf89
0x85d
0x8f3
##38a
0xb85c
0x842d
0xae6e
0xbb36
0xbb3a
0xbb4f
0xbb3e
0xbb4a
0xbb52
0xbb37
0xbb34
0xbb47
0xbb43
0x56
0x2000
0xb11a
0x9622
0x6d16
0x6d15
0x6d07
0x6d01
0x6d0c
0x6cdd
0x6cf9
0x6ce0
0x6cf2
0x6ce6
0x6cef
0x6ce8
0xb0ee
0xb0f9
0x128
0xa4c6
0x8e84
0xaf10
0xaf1d
0xaf16
0xaf2f
0xaf29
0xaf14
0xaf1a
0x8ba
0xb28
0x479a
0x1b
0x70d1
0x70d8
0x70f3
0x84d5
0xaf72
0xaf54
0xaf5e
0xaf56
0xaf6f
0xaf6a
0xaf63
0xaf67
0x9d15
0x6245
0x624b
0x9ce9
0x3c7f
0x8133
0x625b
0x624d
0x6242
0x627a
0x6271
0x6277
0x627b
0x9cf4
0x626f
0x626c
0x6261
0x6266
0x6254
0x6257
0x625e
0x990c
0x496a
0x4961
0x3cd2
0x8a0e
0x69b
0x3dc
0x8fb
0xa3e2
0x8089
0x7710
0x7a00
0x76f1
0x76fb
0x76a2
0xa3b3
0x743e
0xa28f
0xa295
0xaff
0x150
0x76a5
0x769c
0x7698
0x7699
##1e8
0xadc1
0x619
0x810
0x7894
0x7796
0x3fd8
0x3f9f
0x3fd3
0x46d0
0x46d3
0x76da
0x76e2
0x76cc
0x34a0
0x9275
0x3ff1
0x3ff6
0xafd
0x55
0x7018
0x702a
0x7022
0x7015
0x7014
0x701f
0xc4b
0x7888
0x788c
0x7880
xmm0
0x9aa8
0x8a9
0x94c
0x823b
0x84b1
0x84cc
0x67a5
0x67aa
0x3fbd
0x3f5c
0x6c60
0x6c76
0x6c56
0x6c6a
0x6c74
0xa464
0xa45d
0xa4a3
0xa431
0xa449
0xa455
0xa43e
0xa467
0x8e90
0xa520
0x6c01
0x5e3c
0x97d
0x97a
0x6579
0x773f
0x6bfe
0x6bfd
##ebe
0x6c0a
0x6c07
0x8589
0x4ed
0xad0
0x715
0x926
0x8311
0x830a
0x776e
0x7745
0x6c31
0x6c38
0x6c3f
0x6c47
0x7b41
0x81ee
0x81d1
0x81f7
0x628
0x73b
0x7da7
0x8f7
0x657d
0x657a
0x6581
0x6587
0x658f
0x658d
0x4aaf
0x3f60
0x3f75
0x3f81
0x3f7c
0x4741
0x68d7
##d34
0x8ec3
0x9490
0xa538
0xa402
0xa25
0xa55
0x8c9
0x857
0x9685
0x8388
0x832f
0x83c9
0x83d3
0x828b
0x77a0
0x3c90
0x3ca4
0x3cae
0x3c83
0x3cb3
0x3c8d
0x7a31
0x7a1b
0x796c
0x796f
0xa311
0x8f6a
0xadf
0x853
0xb1d
0x43af
0x8320
0x8323
0x8316
0x8327
0x8313
0x83f1
0x83fd
0x830d
0x83ed
0x83f4
0x831b
0x83fa
0x8306
0x8231
0x823d
0x822a
0x8235
0x7736
0x7733
0x3fa2
0x81ff
0x81da
0x81e0
0x81ce
0x81c3
0x81f1
0x81e4
0x81fb
0x81ca
0x81c2
0x81de
0x9fae
0x8202
0x820d
0x8209
0x8407
0x840e
0x4fe
0xaee
0xa26
0x764
0x8ab
0x918
0x9fac
0x6e46
0x3660
0x7a63
0x79dd
0x79d1
0x79d9
0x7952
0x7b86
0x4727
##14b
0x711e
0x6ac
0x70f5
0x3c58
0x3c44
0x3c21
0x45df
0x45dc
0x45c7
0x3fdd
0x3fab
0x3f96
0x3fce
0x3f48
0x3f7a
0x3f49
0x3f89
0x3fe7
0x3fd6
0x3f84
0x3fc8
0x3f93
0x3f55
0x3f9a
0x3fe3
0x3fc5
0x3f6f
0x3f6d
0x3fb8
0x3f4c
0x3fb5
0x3fec
0x3fa7
0x3f52
0x3f4e
0x3f69
0x3fc1
0x3fb0
0x3f54
0x3f7f
0x3fef
0x3f8d
0xba1a
0xae9d
0x4722
0xbb2d
0xbb4b
##1b1
0x3fff
0x3ffa
0x710d
0xa2c
0x7e6
0x516
0x8c4
0xb38a
0x6556
0x6559
0x13d
0x12c
0x4b59
0x78ed
0x4aee
0x77f0
0x84fa
0x7992
0x9fc9
0x9f98
0x6a61
0x13a
0xa002
0x59c4
0x6e8f
0x8294
0x7876
0x7842
0x787b
0x7872
0x786f
0x7885
0x7878
0x786b
0x7764
0x7760
0x7728
0x772f
0x7727
0x7749
0x7756
0x7753
0x779a
0x775c
0x778f
0x7767
0x7772
0x77a2
0x772b
0x7743
0x8470
0x8488
0x847d
0x84df
0x84a9
0x84a4
0x84b6
0x84e7
0x84d8
0x849b
0x84e4
0x8474
0x846d
0x84b8
0x84ec
0x84ac
0x8478
0x84d2
0x7a0e
0xae11
0x795d
0x7956
0x7973
0x795f
0x7959
0x7967
0x7962
##d47
0x9fdd
0x9538
0x9fe5
0x9fe9
0x9fd3
0x948e
0x94c1
0xd3
0x9a5
0x59e3
0xaaaaaaaaaa
0x8419
0x7a16
0xae70
0xae6b
0x76b6
0x76bb
0x76ac
0x76b3
0x35c0
0xffffffbf
0x9fda
0x9fa0
0x9fce
0x9fa4
0x9fc6
##aaaaa9
0x9f9b
0x9fe2
0xaaaaaaaaaaaaaaa9
##e85
0x61b7
0x4f2
0x7ed
0x6521
0x1e85
0xa010
0xa00b
0xa007
0x6c52
0x4763
0x479f
0x9fc3
0xa2ce
0x9ff8
0x9fff
0x9fbc
0x9fb5
0x4f3
0x144
0x146
0x133
0x155
0x5ac3
0x5abb
0x5ac8
0x5abe
0x4b7a
0x4b84
0xa1e9
0xa1fa
0x8426
0x7a51
0x80c2
0xa216
0xa21e
0xa20f
0xa539
0xa26a
0x5ff
0x89d
0x7a1d
0x7a44
0x7a3d
0x7a11
0x7a49
0x7a3a
0x7a09
0x7a4c
0x7a37
0x79ed
0x79d5
0x79e7
0x79fb
0x79e2
0x79d2
0x79ef
0x7b5d
0x7b46
0x7b89
0x7b73
0x7b8e
0x7b69
0xa363
##ce5
0x808b
0x80bc
0x3530
0xa309
0x690
0x733
0xa120
0xa128
0xa14c
0x4a90
0xa473
0x3b47
0x765c
0xa318
0xa33b
##d62
0xa2dd
0xa22d
0xa225
0xa219
0xa54d
0x9db2
0xb893
0x688
0x684
0xa40a
0x729
0x6402
0x4c46
0xa1f0
0xa110
0xa116
0xa1fd
0xa1f7
0xa12b
0x841d
0x675f
0x6755
0x6759
0x6762
0x6751
0x674e
0x7abc
0x63f0
0xa418
0xa411
0x3b18
0x3b11
0x3bb9
0x3b0d
0x3b86
0x3b0e
0x3b1b
0x3bd2
0xa3ff
0xa320
0xa3ce
0xa3f5
0xa3df
0xa3eb
0xa3d0
0xa3d8
0xa3c8
0xa3e5
0xa3fc
0xdd38
0xa204
0xa202
0xa405
0xa40e
0x3d1f
0x3d1a
0xa304
0xa30c
0xb6a5
0x8a94
0xa7d
0xa6c
0x7e9
0xb1b7
0x6e4a
0x67c0
0x67b6
0x67c6
0x679f
0x679a
0x67c7
0x67c5
0x67b1
0x67ac
0xba6c
0xba91
0xae30
0x47f9
0x4616
0x4619
0x469f
0x469c
0xb502
0x468a
0x68c
0x6aa
0x148
0x6fc4
0x4984
0x4965
0x4974
0x4962
0x496f
0x4983
0x4985
0x497e
0x4979
0x455b
0x45b2
0x4557
0x4566
0x7ac7
0x7aa1
0xae44
0x818e
0x8070
0x8076
0x804d
0x803f
0x80a2
##7b8
##7be
0xa2a0
0x68e
0x868
0x870
0x9a6
0x4b5d
0x4b73
0x6e94
0x702c
0x7a88
0x75df
0x5cff
0x5d20
0x5d16
0x5d2a
0x5d25
0x5d2c
0x5d0f
0x5d0a
0x5d04
0x5d2b
0xb89d
0x34e0
0x5d11
0x5d1b
0x6fbc
0x6e48
0x6e31
0x6e2a
0x6e3b
0x6e41
0x6e3e
0x6e37
0x3690
0x6dae
0x6da8
0x84cf
0x6c2f
0x75d0
0x5cba
0x5cb2
0x5cb6
0x5cc4
0x5cc7
0x5cbe
0x5cb3
ne
0x617
0xb00
0x4b7d
0x4b82
0x4b3f
0x6fc8
0x6fc1
0x70ab
0x70d6
0xba7d
0xbae7
0xaef8
0xaec5
0x7bc9
0x7613
##f86
0xc4ae
0xb8ac
0x7607
neg
0x910
0x982
0x15b0
0x4560
0x4558
0x4565
0x4567
0x7a70
0x7a57
0x7a74
0xae8c
0xaeb1
0xb864
0xb860
0x9e68
0x9e55
0x9e82
0x7467
0xb861
0xb86e
0xb86b
0x9e99
0x69cc
0x92d2
0x6ab
0x725
0x8c3
0x64f6
0x9ce5
0x4000
0x7031
0xca
0x4aab
0x4aa3
0x4a96
0x4aa0
0x4a9e
0x4aa5
0x4a8c
0x4a84
0x4a93
0x4a82
0x4aa8
0x4a99
0xba10
0xba0d
0xba04
0xba08
0xae02
0x7b30
0x7b3f
0x7b34
0x4664
0x5d74
0x5dbf
##22e
0x6ffd
0x7108
0x5e03
0x518
0x92c1
0x6fc0
0x6fe6
0x6fd5
0x6fe2
0x6fd9
0x6fcc
0x6fdb
0x7064
0x70ee
0x7060
0x70f9
0x705d
0x70a3
0x7070
0x70fe
0x70bd
0x70ce
0x703d
0x70af
0x7046
0x702f
0x7026
0x70df
0x70b2
0x70b9
0x70eb
0x7017
0x7012
0x70e7
0x704f
0x709f
0x7093
0x709a
0x70c7
0x7082
0x7057
0x70fb
0x7074
0x70e2
0x7098
0x70c2
0x700b
0x704a
0x7039
0x7021
0x7052
0x70bf
0x708a
0x7003
0x7006
0x7034
0x7043
0x70b7
0x7079
0xc0
0x77d8
0x8438
0x8463
0x67d1
0x7af0
0x7af9
0x7af6
0xba30
0xba2d
0xba28
0xba25
0xba24
0x7b00
0x7b13
0x7b15
0x7b0e
0x7b04
0x7b08
0x4738
0x6b90
0x6b6c
0x6b81
0x6b8d
0x5d9d
0x5dbd
0x5d31
0x5d3d
0x5dba
0x5d4d
0x5d49
0x5d53
0x5d35
0x5d9f
0x5d93
0x5d55
0x5d9a
0x5d97
0x5d41
0x5d32
0x5db5
0x5d39
0x5db3
0x5db0
0x5d45
0x7127
0x6ff8
0x6ff5
0x6ff1
0x8a50
0x8a7d
0x8a2c
0x8a63
0x7114
0x711a
0x7111
0x7119
0xa6d7
0x7103
0x5da4
0x5dad
0x5da7
0x5da9
0x726c
0x8ab9
0xa6c6
0xd8
0xaf4
0xaf7
0x7f1
0x3d34
0x8e9
0x911
0x9667
0xc97
0x45c1
0x7ac1
0xba40
0xba48
0xba44
0xba4b
0xba4e
0xba45
0x7b3a
0x483e
0x46d5
0x4654
0x46b7
0x68a4
0x3d2d
0xdbd
0xaf07
0x733f
0x600
0x9ebe
0x15d
0x6ed1
0x6e7a
0x6e81
0x6e89
0x6e8c
0x6ec6
0x6eca
0x6ed9
0x6e85
0x6ebf
0x6e99
0x6ede
0xaa5e
0xaa57
0xaa61
0x66fe
0x45b7
0x7aea
0x7aff
0x7a90
0x7af8
0x7a7d
0x7a5b
0x7a9e
0x7a76
0x7ab2
0x7a81
0x7a8c
0x7aa6
0x7a93
0x7a5c
0x7afb
0x7aca
0x7a67
0x7a98
0x7acf
0x7ae1
0x7aa8
0x7aad
0x7acc
0x7ae5
0x7ab7
0x7ade
0x10ab
0xbaa0
0xbaa5
0xbab2
0xbaa4
0xbaaa
0xbab5
0xbaad
0xae2d
0xae28
0xae25
0xae24
0x7ba3
0x7b1d
0x7b96
0x7b58
0x7b90
0x7b7d
0x7baf
0x7b11
0x7b25
0x7b33
0x7b9e
0x7b7a
0x7bb9
0x7b6c
0x7b4d
0x7b35
0x7b14
0x7b19
0x7b82
0x7b0f
0x7bb4
0x7b3e
0x7b62
0x7bc2
0x7b4a
0x7b05
0x7ba8
0x7bb5
0x7bac
0x7b52
0x7b02
0x7b94
0x7b99
0x7b54
0x7b2b
0x7b71
0x7b5a
0xbbab
0xbbb4
0x4812
0x4805
0x7627
0x69a3
0x9e31
0xadd3
0xadd0
0xadc5
0xadc9
0xadc6
0x927b
0xa90
0x8b2
0x930
0x45ba
0x45d0
0x45b6
0x45d6
0x45d4
0xbadd
0xbae0
0xbad8
0xbad4
0xae50
0xae48
0xae4d
0xae45
0x7547
0x4718
0x4711
0x472c
0x471f
0x470a
0xbb9d
0xbba4
0xbb9f
0xbb9a
0xbba8
0x467d
0x4627
0x46a9
0x4612
0x4622
0x461e
0x46c8
0x46c4
0x4698
0x46cb
0x46a2
0x46a7
0x4695
0x3e8
0x8518
0xa98b
0x4683
0x4687
0x4680
0xb268
0xb287
0x33
0x8fd
0x12a
0xae64
0xae60
0xae68
0xae65
0x349
0xbf
0x936
0x928
0x7993
##32e
##2e5
0x62d
0x149
0xaec0
0xaefd
0xaef4
0xaed5
0xaec4
0xaeca
0xaecd
0xaed2
0xaf00
0x7ee
0x71d
0x74d
0x70cc
0x665a
##104
0x3f00
0x75f1
0x75d5
0x75ec
0x8043
0x3ef3
0x7199
0x4e7
0x740
0x8f4
0x6631
0x3b27
0x48a7
0x7466
0x855
0x8c2
0x9ed3
0x412c
0x6d91
0x4828
0x4883
0x4629
0x80ae
0x8087
##bb0
0x7370
0x1150
0x7f5
0x9a4
0x3cda
0x3cbf
0x4857
0x48db
0x4632
##f27
##e7f
0x9916
##1c2
0x3d3e
0x4646
0x86c
0xb485
0x3c78
0x63bd
0xa369
0x6b59
0x8068
0x99b6
0x99c9
0x999f
0x99c2
0x99b3
0x99cc
0x98ea
0xa96e
0x8ed
0x919
0x65fb
0x1180
0x4189
0x4152
0x416e
0x84ed
0x75ba
0x75fd
0x75a4
0x75e9
0x75e6
0x75f6
0x75fa
0x75a8
0x75b5
0x75db
0x75bf
0x4631
0x4673
0x4657
0x7616
0x8050
0x807a
0x8081
0x805e
0x808c
0x8084
0x809f
0x8055
0x8098
0x80b1
0x804a
0x80a7
0x8061
0x8091
0x806b
0x805a
0x8095
0x991d
0x98f2
0x7604
0x760c
0x6ae
0x4ee
0x3ea
0x98c
0x6e18
0x615
0x44d
0x72f
0x72c
0x3a0
0x158
0x5922
0x6e00
0x6e28
0x6e13
0x6e07
0x6e03
0x6dff
0x6b75
0x6b78
0xabc3
0x62f6
0x618
0x612
0x44b
0x888
0x8fa
0x60ff
0x60d1
0x6b9a
##b69
0x72a
0x3d6
0x4a55
0x3f36
0x7452
0x9a30
0x72b
0x8c6
0x859
0xbd0
0x3c71
0x3f27
0x3f2e
0xa4cb
##f97
0x48ad
0x48cc
0x48b7
0x1398
0x4459
0x3f0e
xmm1
0x91cd
0xd62
0xb7a
0x666c
0x6677
0x3c10
0x3c63
0x3c06
0x3bff
0x3b46
0x3ba5
0x3b99
0x46b8
##b97
0x99a7
0x7479
0xacdd
0x69d0
0x6a97
0x5ffc
cl
0x4f6
0x3da
0x917
##64b
0x665d
0x66a9
0x6695
0x4904
0x5bc2
0xa4a5
0x3b6b
0x48e1
0x48e8
0x8113
0x8124
##3b3
0x693
0xafe
0x718
0x889
0xbca
0xbd47
0xb487
0xb48f
0xc3e8
0x3cff
0x3cee
0x3cf0
0x3cf9
0x3ce0
0x3cba
0x3c9e
0x3cf1
0x3ce6
0x3c86
0x3caa
0x3cc4
0x3c93
0x3cc7
0x3cf3
0x3c98
0x3ce3
0x3ce1
0x3cec
0x3cac
0x3cd9
0x3ccc
0x3ce8
0x47a5
0x46e4
0x46be
##d78
0x3d48
0x3d46
0x3d27
0x3d3b
0x3d22
0xdbb0
0xdb97
0xd3b3
0x1590
0xc3ea
0xc3f2
0xabed
0xbd93
0xdc8e
0x3d05
0x3d07
0x3d0e
0x3d09
0x3d15
0x3d41
0x3d47
0xbcdd
0xbcf8
0xdbf1
0xdbd6
0xbd03
0xbcac
0x4f0
0xaf3
0x3e0
0x916
0x913
0x15b
0xc8f
0xc66
0x6caa
0x7659
0x6bbe
##dc2
##972
0x97c0
0xb501
0x869c
0xd8b
0x8da
0x8e0
0x886
0xb4f9
0xb4f2
0xb4fc
0x6650
0x665c
0x45c2
0x3b7a
##fbc
##3e1
0x62c
0x4f4
0x4e4
0xac9
0x3af
0xb7b8
0x950
0x986
0x65ff
0x65f8
0x65f7
0x139
0xc1
0xcaf
0x665b
0x663f
0x663c
0x6cce
0x6cc4
0x6cb3
0x6cb7
0xa444
0x14a0
0x6648
0x664b
0x840c
0xb7a6
0xac2
0x8af
0x89c
0xb19
0x9a9
0xaa5c
0xaa67
0x5bb5
0x6ca0
0xb537
0xa527
0x69f3
0x610
0x616
0x3e9
0x3eb
0x958
0x92f
0x973
0x25
0xcf
0xc23
0x5b64
0x5bc0
0x5b60
0x5b5d
0x5ba4
0x5b5c
0x5ba1
0x5bad
0x5bbf
0x5bc1
0x5bb0
0x5b6b
0x6cc7
0x6cb0
0x7544
0xb5ff
0x475f
0xa3a1
0xfffffff8
0xffffffc7
0x68d0
0xaf22
0xaf0c
0xafd8
0x698
0x7eb
0x3ed3
0xb13
0xb245
0xb1c2
0x15e
0x4b66
0x36d0
0x6d97
0xb5f5
0x98d8
##ecc
0x8fb4
0xad1b
0xb186
0x3ed8
0x73dc
0xb198
0x6a7
0x71a
0x515
0x3ae
0xbed3
0xb2c1
0xbf27
0xbe7f
0xbdc2
0x975
0x83c3
0x83d8
0x3c50
0x3c5d
0x3c7d
0x3c3d
0x3c11
0x3c2f
0x3c13
0x3c3b
0x3c17
0x3c29
0x3c12
0x3c1e
0x3c7c
0x3c35
0x3c24
0x3c55
0x3c6a
0x3c77
0x3c74
0x3c09
0x3c4b
0x3c3f
0x3c7e
0x3c0c
0x6787
0x6361
0xb541
0xb539
0xb5f7
0x3bea
0x3be0
0x3ba0
0x3bf2
0x3bf8
0x3b75
0x3bb2
0x3b4d
0x3b81
0x3bed
0x3bd0
0x3b73
0x3bb6
0x3b8e
0x3baa
0x3b8b
0x3b65
0x3b5f
0x3bc4
0x3b93
0x3b57
0x3bb4
0x3bd4
0x3bca
0x3bbe
0x3bad
0x3bac
0x3ba7
0x3bd9
0x3be5
0x3b54
0x3b71
0x3b5a
0x47ff
0x4864
0x4850
0x482d
0x4831
0x4825
0x487a
0x4838
0x486c
0x483b
0x4817
0x481e
0x485f
0x480f
0x4877
0x484a
0x4802
0x4869
0x480c
0x4871
0x4843
0x485a
##233
0x46f2
0x98ce
0xc4c0
0xc4b6
##d37
0x61bd
0xacfe
0xacd3
0x3a26
0xdd68
0xbdbd
0xbd76
0xbdb9
0xbd97
0xdcbd
0xdc82
0xdca8
0xdc71
0xdcfc
0xbe40
0xbe5d
0xbe8c
0xbe59
0xb270
0x620d
0x9903
0xb1a9
0x7f01
0xb183
0xc4b8
0xb1d4
0x636170
0x61e2
0x61e8
0x3ecc
0x129
0x6e51
0xc1e2
0x6da3
0x3f33
0x3f12
0x3f22
0x3f19
0x3f1c
0x3f1f
0x6c64
0x6ca3
0x6c9d
0x6c96
0x6c58
0x6c7d
0x6ca9
0x6c89
0x6c5e
0x6c8c
0x6c8f
0x6c72
0x6ca8
0x6c83
0x6c61
0x6c78
0x6c6b
0x4749
0x4756
0x46f9
0x3ee4
0x3ee1
0x3eeb
##421
0x99dd
0x99f0
0x9930
0x99f9
0x99ab
0x99a3
0x9996
0x99bd
0x99ba
0x99f5
0x99ae
0x999b
0x999a
0x99c5
0x9939
0x99fc
##9b5
0x2420
0x98f9
0x9811
0x3ec0
0x3ef0
0x3e1d
0x3efe
0x3ed1
0x3ef8
0x3ec6
0x61dd
0x61ee
0x61da
0x61c3
0x61f1
0x61f4
0x61c9
0x61c6
0x61fb
0x739b
0xd972
0xd9b5
0xad35
0xad3e
0xabc5
0x6208
0x620f
0x6205
0x6202
0x620e
0x99e8
0x99e1
0x99eb
0x9a08
0x9a04
0x9a01
0x990d
0x3f04
0x3f07
0xad12
0xda82
0x99d5
0x99d1
0x99d9
0xd9ba
0xd987
0x984b
0x61d7
0x61d0
0x3ede
0xad08
0xc1e0
0xc232
0x4ea
0x4e9
0x896
0xc2
0x7895
0x4ac0
0x4ac3
0x4ab2
0x4ac9
0x4ab4
0x4ad3
0x847b
0x60ea
0x60dd
0x60da
0x60e0
0x60f2
0x60f5
0x60e9
0x60e6
0x60d7
0x60ec
0x60db
0x60ef
0x6356
0xa460
0xa470
0xa458
0xa436
0xa490
0xa446
0xa46c
0xa43a
0xa442
0xa486
0xa47c
0xa48b
0xa435
0xa49f
0xa497
0xa49c
0xa441
0xa432
0xa474
0xa483
0xa451
0xa44e
0xa494
0xa478
0x4768
0x47bd
0x47af
0x4776
0x4786
0x4797
0x47b4
0x476a
0x477b
0x47c2
0x4766
0x47a8
0x4794
0x4778
0x47c1
0x4780
0x4771
0x47bc
0x47b7
0x478d
0x815d
0x8144
0x812c
0x8147
0xa3ac
0x6b76
0x6b84
0x6b87
0x6b7b
0x6b72
0x6b85
0x6b8a
0x99da
0x8ec7
0x8efa
0x73f5
0xd104
0x8f31
0xadee
0x6ddc
0xaddf
0xd1da
0xd127
0xd1bb
0xd115
0xd0f1
0xd0e3
0x99e9
0x8ee3
0x8eeb
0x8f04
0x8f2e
0x2925
0x8f39
0xabb
0x73e8
0x73e1
0x5f8
0x8b5
0x8ed3
0x160
0x7840
0x7844
0x785e
0x784c
0x7839
0x783c
0x6348
0x6caf
0x6cbb
0x6cc9
0x6cbe
0x7936
0x797e
0x983d
0x1327
0x8f8a
0x8f80
0x6aac
0xb13c
0xabd
0x73a
0x8d6
0x82d1
0x6dee
0x6dab
0x6da0
0x6dbd
0x6dba
0x6de6
0x6df6
0x6dc4
0x6dc7
0x6de3
0x6db8
0x6db5
0x6dec
0x6dcc
0x6dc1
0x631d
0xae7d
0xae7a
0xae86
0xae97
0xa4d3
0x6b34
##ec1
0x69f1
0x6dd9
0xabaf
0xabeb
0x7dc3
0xaea5
0x138c
cmovs
0x7e77
0x715c
0x4fe6
0x622e
0x4f1
0x89e
0x865
0x9d37
0x6220
0x6223
0x6218
0x622c
0x6229
0x6215
0x6214
0x621c
0x6233
0x982e
0x8f1
0x9603
0x78a3
0x4ade
0x66c1
0x5be8
0x36a0
0x6791
0xa4d9
0xa4e8
##2d5
0x76a7
0x137e
0xaf48
0xa508
0xa50f
0xa518
0x722c
0x1312
0x136a
0x1367
0x1339
0x9281
jae
0x62a
0x140
0x12d
0x4b40
0x4b10
0x4b16
0x4b13
0x4b3a
0x4b35
0x4b24
0x4b1b
0x4b32
0x4b09
0x4b51
0x4b21
0x4b4e
0x4b04
0x4b54
0x4b2b
0x4b47
0xa1d8
0xa1d3
0x4af8
0x4af5
0x4afd
0x4ae7
0x4ae4
0x4af3
0x6683
0xaec9
0xae72
0xae7f
0xbbce
0x76c7
0x76ca
0x95aa
0xa788
0x12fc
0x95db
0xaf9b
0xaee5
0xa7d3
0x97be
0x704d
0x703a
0x7056
0x7042
0x7053
0x70ca
0x70cb
0x704b
0x703c
0x7047
0x7045
0x8330
0x82e5
0x7832
0x6310
0x6331
0x635b
0x6313
0x6326
0x632c
0x630d
0x6329
0x6322
0x6353
0x6341
0x633e
0x631a
0x634b
0x631f
0x6305
0x6351
0x6302
0x634e
0x6337
0x6334
0x6308
0x6c20
0x6c18
0x6c11
0x6c1b
0x7982
0x97e6
0x97e8
##4ac
0x869a
0x9519
0xa91e
0x820f
0x6c0c
0x8507
0x62fc
0x97aa
0xa909
0x681
0x697
0xa56
0x8ca
0x981
0xaa2c
0x82ee
0x82f3
0x3c14
0x6c2c
0xa4d4
0x47bf
##88b
0x34c0
0x9a39
0x7286
0x6008
0xfe
0x938
0x65b2
0x65bb
0x65aa
0x659f
0x65a1
0x65b8
0x65ac
0x65a7
0x65b0
0x6630
0x662f
0x7ad9
0x793d
##247
##5cc
##7b1
0x134c
0x3dbd
0x9593
0xfc6
0xa2f7
0x87c7
0x144b
0x9504
0xfef
0x44ac
0x7f4
0x8ce
0x8dc
0x949
0x83dd
0x83d1
0x833a
0x833e
0x83cc
0x821d
0x8216
0x82df
0x82e9
0x82e7
0x82c9
0x82d4
0x82d7
0x82e2
0x8221
0x82db
0x82cd
0x6d83
0x6d39
0x842f
0x842e
0x3b42
0x76f8
0x6b95
0x9956
##4fc
0x74a3
0x7496
0x749e
0x7476
0x74a5
0x74a4
0x7473
0x747c
0x747f
##fa1
0x9055
0x5413
0x69ee
0x69fe
0x69f8
0x8c48
0x3de9
0x3de4
0x4e38
0x12ea
0x6a08
0x6a0a
0x6a03
0x6a01
0x6a09
0x746f
0x746c
0x746b
0x69d8
0x69d4
0x69d1
0x69de
0x69db
0x748c
0x7481
0x748e
0x7489
0x7486
0x69e4
0x69e1
0x69eb
0x69e6
0x749c
0x7493
0x7499
0x3ddf
0x8b6e
0x69fb
0x9586
0xa58
0xa92
0x5ea
0x88e
0x8ae
0x8b4
0x989
0xa045
0xa163
0x3880
0x7721
0x84ee
0xae32
0x75ce
0x75a9
0x75b9
0x75f4
0x75a6
0x75c8
0x759f
0x75b4
0x75cf
0x75be
0x75a2
0x75ac
0x75bc
0x79f9
0xbb28
0x8129
0x81bc
0x6bcc
##865
##145
0x6804
0x8e86
0x1310
0x6900
0xaf40
0xaf74
0xaded
0xaf81
0xaf02
0x1303
0x1306
0x1315
0x729f
0x1391
0xa92e
0x7fb
0x517
0x931
0x987
0x656b
0x6571
0xa023
0xa041
0xa032
0xa01f
0xa04a
0xa02e
0x5931
0x5927
0x5935
0x7858
0x7836
0x7853
0x789f
0x784a
0x784e
0x782e
0x7847
0x7786
0x7782
0x777b
0x7774
##f09
0x848c
0x8492
0x8494
0x63d0
0x63c9
0x63c2
0x63c5
0x63cc
0x63c1
0x7931
0x7928
0x7938
0x7942
0x798b
0x792e
0x8195
0x6bbf
##53f
0x6ad4
0x942a
0x9a73
0x1130
0x3a10
0x6c0f
0xa294
0x8505
0x8506
0x131f
0x6acc
0x9a69
0x6174
0x611a
0x4eb
0x348
0x8dd
0x8df
0x8e6
0x8d7
0x8a7
0x64df
0xa030
0xa036
0xa03a
0xa0d7
0xa04b
0xa0e5
0x2f8
0x96dc
0x5b57
0x7a53
0xbabe
0x4895
0xa373
0xa387
0x6bb5
##8f7
0xa2c0
0xa2bd
0xa2eb
0xa2e4
0x8b75
0x8b87
0xa50d
0x8519
0x9ad0
0x9fef
0x9feb
0xa2a4
0x8b9f
0x8b95
0x8bdf
0x8bdc
0x1351
0x8bbf
0x1289
0xa254
0xa2cb
0x4e98
0xad5
0xa2d5
0x730
0x5e6
0x88c
0x920
0x5ad0
0x5ad8
0x5ad6
0x5ad7
0xa0d2
0x592a
0x5926
0x592e
0x6e0b
0xa105
0xa107
0x3c67
0x7a6a
0x7a6b
0xa48e
0xa41a
0xa4cd
0x79f1
0x79f7
0xa37d
0xa35b
0xa37a
0xa38c
0xa3b6
0xa3c6
0xa38f
0xa34b
0xa352
##4d0
0xa546
0x8f9a
0xa535
0xa552
0xa68
0xa23b
0xa245
0xa233
0xa247
0x8f5
0x89b
0x90f
0x12e
0xa0f8
0xa0d6
0xa0ec
0xa0d3
0xa0de
0x2d1
0xa1da
0xa168
0xa1e0
0xa170
0xa1c3
0xa1b9
0xa1d0
0xa1e7
0xa10e
0xa1c7
0xa15c
0xa1ca
0xa152
0xa137
0xa1cd
0xa154
0xa16b
0xa101
0xa1bc
0x4980
0x843f
0x8434
0x6790
0x677d
0x6789
0x6773
0x6785
0x6778
0x677f
0x678d
0xba39
0xa4f9
0xa4ab
0xa427
0xa42a
0xa49e
0xa47a
0xa4df
0xa438
0xa44d
0xa481
0xa43b
0xa4e6
0xa489
0xa4f6
0xa453
0xa49b
0xa487
0xa46a
0xa498
0xa44b
0xa4a1
0xa4b5
0xa4ad
0xa491
0xa4bf
0xa47e
0xa434
0xa471
0xa4bc
0xa4ef
0xa4fc
0x3b1d
0x3b36
0x3b48
0x3b33
0x3b38
0x3b49
0x3b24
0x3b3f
0x7691
0xa358
0xa3af
0xa3a9
0xa3b9
0xa384
0xa3a6
0xa39f
0xa3c4
0xa355
0xa397
0xa341
0xa3bf
0xa380
0xa36b
0xa3bc
0xa343
0xa395
0x6b2d
##f51
0x9035
0x906a
0x903f
0x1340
0x1358
0xa268
0xa290
0xa25b
0xa2e9
0xa24d
0xa2b6
0xa242
0xa2e7
0xaca5
0xa501
0xa53d
0xa511
0xa51a
0xa282
0xa28d
0xdd25
0xdd2c
0xdd19
0xa29f
0xa292
0x736b
0x8588
0xa2f1
0xa278
0xa27f
0xa274
0xa271
0xa276
0xa2ac
0xa2a2
0xa2ae
0xa2a6
0x7684
0x135c
0xa25e
0xa551
0xa2c7
0xc979
0x717
0x3ab
0x860
0x91d
0x935
0x120
0x4b64
0x4b6c
0x4b67
0x3770
0x96c3
0x84ff
0x845f
0x84f3
0xba19
0xaede
0x3b4a
0x4775
0xbbbd
0xbbc6
0xbbc8
0xbbcc
0xbbcd
0x819b
0x8191
0x816e
##fec
0x6b07
##1b5
0xb8a4
0xb8a7
0x1364
0x6952
0x5e3a
0x9270
0x7f73
0x138f
0x1382
0x3a38
0x3a31
0x3a36
0x1354
0x6bd8
0x6bdb
0x9234
0xc4b5
0x6a8
0x7f7
0x8fac
0xbf86
0xbfbc
0xbfa1
0x159
0x9604
0x771a
0x3cf2
0x84ea
0x84f6
0x84d6
0x84fb
0x84e2
0x84d3
0x84db
0x84ef
0x84de
0x7520
0x5cea
0x5cdd
0x5cee
0x5cf2
0x5cf5
0x5cd8
0x5ce4
0x5ce2
0x5cec
##2db
0x6b23
0x6b28
0x6b11
0x6b33
0x6b17
0x6b1e
0x6b0e
0x6b14
0x6b19
0x6b32
0x6b0b
0x6b21
0x6b04
0x6b03
0x6b2b
0x8037
##122
0x99c3
0x68df
0x68dc
0x7149
0x8511
0x8f7d
0x8f76
0x8fa9
0x9a7d
0x3a70
0x3a58
0x3a75
0x3a2c
0x8502
0x850e
0x8f85
0x8f8e
0x8f91
0x8f9d
0x8f96
0x8f6e
0x720f
0x3a62
0x3a6e
0x3a6b
0x3a66
0x3a3d
0x8b69
0x3a5c
0x3a53
0x3a51
0x3a4c
0x3a41
0x3a47
0x8f71
0x8f79
0x8fa2
0x3e4
0x85e
0x8ec1
0x132e
0x4b50
0x4b44
0x4b56
0x4b42
0x4b53
0x4b4c
0x4c8e
0x4c8d
0xc93
0xc5cc
0xc53f
0x4af9
0x4ace
0x4ad1
0x4af2
0x4a7d
0x4a76
0x4ae9
0x4ac6
0x4ad6
0x4a5f
0x4a5c
0x4ae2
0x4acb
0x4a6f
0x4adb
0x4a69
0x4abc
0x8450
0x8416
0x8448
0x8444
0x845b
0x842c
0x849e
0x8476
0x8456
0x8473
0x8412
0x8422
0x841e
0x8453
0x8493
0x849c
0x848f
0x844c
0x8485
0x8469
0x843c
0x108b
0xba50
0xba5d
0xba18
0xbabd
0xba88
0xbaba
0xba38
0xbae6
0xba12
0xba63
0xba15
0xba35
0xba5f
0xba7b
0xba77
0xba32
0xba74
0xbae2
0xba66
0xba6f
0xba85
0xba69
0xba7e
0xbab7
0xba5a
0xba79
0xae59
0xae09
0xae0c
0x794b
0x4731
0x4746
0x472e
0xbb20
0xbb64
0xbb23
0xbb1d
0xbb58
0xbb5b
0xbb11
0xbb5e
0xbb14
0xbb62
0xbb1a
0xbb61
0xbb21
0xbb54
0x8176
0x81a8
0x465d
0x46af
0x7624
0x39eb
0x39e4
0x5dfc
0xb896
0xb87d
0xb8ae
0xb87c
0xb8ad
0x8eda
0x8efe
0x8ebd
0x8edf
0x8ef1
0x8eb9
0x8ef6
0x8eca
0x8ecf
0x1300
0x1360
0x1318
0x1388
0x1336
0x1331
0x133d
0x132a
0x1349
0x1322
0x1374
0x134e
0x1371
0x1345
0x1379
0x34df
0x34e6
0x8b60
0x7130
0x71f9
0x71fe
0x8f20
0x8f1d
0x8f16
0x8f11
0x8f3b
0xad5b
0x8a29
0xb888
0xb88f
0xb884
0xb88d
0xb880
0x8ee7
0x8eee
0x130a
0x130d
0x131c
0x900f
0x900a
0x7203
0x1386
0x8f07
0x8f0e
0xc546
0x8ead
0x8f25
0x8f2a
0x8eb4
0x8eb1
0xb89b
0x8fe7
0x8f37
0x8ed7
0x4f9
0xa9d
0x7c8
0x8a3
0x8d1
0x89a
0x915
0x6ee0
0x6e58
0x70d0
0x9690
0x9631
0xc2e5
0xc2db
0x779e
0x7ae0
0x7adc
0x7aeb
0x7ae4
0xae39
0x7b40
0x7b23
0x7b2a
0x7b38
0x7b17
0x7b1c
0x7b1a
0x46eb
0x467e
0x5dea
0x5d64
0x5dce
0x5d88
0x5df8
0x5d7d
0x5d5b
0x5ded
0x5df4
0x5de6
0x5d8c
0x5d5f
0x5dfa
0x5d7b
0x5d8f
0x5dca
0x5d62
0x5de2
0x5d83
0x5d91
0x5d78
0x9868
0x9822
0x980c
0x8cd7
0x4460
0x447c
0x3dc3
0x3dec
0x5e36
0x5e2f
0x5e27
0x5e33
0x5e13
0x5e3b
0x5e17
0x5e29
0x5e1e
0x5e24
0x5e1b
0xdb69
0x460a
0x9a0c
0xdac1
0x5e0f
0x5e07
0x5e0b
0x5dd8
0x5dd5
0x5dd2
0x5dde
0x5ddb
0x3dd8
0x3dd3
0x3dd1
0x4498
0x449c
0x7504
0x3dfa
0x3df1
0x3df7
0x7f9f
0x713c
0x3dcf
0x3dc9
0x74d8
0xc2dd
no
0x696
0x4640
0x735
0x34d0
0x8b8
0xb64b
0x93a
0x6e16
0x6ebd
0x6e25
0x6e1e
0x6e0f
0x6ee2
0x6eb7
0x3780
0x9638
0x6672
0x6661
0x7700
0x6d3f
0xaedd
0xae00
0xaeda
0xae58
0xae13
0xae9e
0xae38
0xae89
0xae12
0xae9b
0xae35
0xae55
0xae8f
0xaed7
0xae83
0xae52
0xae94
0xae99
0x755e
0xb594
0x473d
0x474d
0x475e
0x4704
0x46ff
0x46dd
0x46da
0x4610
0x4668
0x4630
0x462d
0x46e0
0x46f5
0x4638
0x46e7
0x46d8
0x46c2
0x4652
0x46b3
0x463c
0x466b
0x46bc
0x46fc
0x76ae
0x7428
0x7413
##8b5
##adb
##d3c
##db7
0xaf31
0xaf3d
0xaf3a
0xaf7b
0x445d
0x4475
0x44a5
0x8b8e
0x7129
0xadf2
0xadf8
0xade9
0xade2
0xade1
0xade5
0x7e8b
0x448f
0x4483
0x448b
0x4486
0x4480
0x460e
0x7107
0xaea8
0xaf84
0xaf82
0xaf06
0x4643
0x464b
0xdb5e
0x85be
0x4492
0x4497
0x446f
0x446c
0x4465
0x4469
0x6ea5
0x6ea2
0x6ea9
0x9646
0xa9f3
0xadf4
0xadfb
0xaf43
0xaf41
0xaf78
0xaf7e
0x71d7
0x3a09
0x3d6e
0xaf34
not
0x712b
0x71e2
0x71e8
0x7421
0x890
0xb2f
0xb15
0x6e44
0x83ee
0x6690
0x667d
0x66a4
0x668e
0x6687
0x6693
0x669c
0x6698
0x66a1
0x668a
0x6680
0x770d
0x770c
0x8446
0x8413
0x8429
0x8442
0x6750
0x6760
0x6768
0x676c
0x675e
0x6763
0x6765
0x6757
0x6774
0x677e
0x6771
0x675a
0x6779
0x47c8
##e05
0x81a0
0x8188
0x8131
0x8138
0x816c
0x8149
0x8156
0x8173
0x8122
0x8163
0x8119
0x8193
0x8182
0x817b
0x813e
0x8198
0x811f
0x81b5
0x81ac
0x81a7
0x8151
0x814e
0x8169
0x76e0
0x76a3
0x769d
0x7696
0x76ce
0x76d1
0x76a9
0x76fd
0x76ed
0x76f6
0x76d8
0x76c8
0x76f3
0x76db
0x767e
0x6bed
0x6bf6
0x5048
0x5021
0x502e
0x502b
0x97ce
0x97fd
0x973b
0x97f3
0x9741
0x9818
0x9806
0x8c25
0x613d
0xa85e
0xd16
0x7118
0x7144
0x71f2
0x7125
0x71f5
0x7133
0x71eb
0x71fb
0x1170
0x7214
0x7219
0x7112
0x711b
0xb2f9
0x720c
0x7207
0x7200
0x7687
0x768e
0x7689
0x7122
0x9847
0x713f
0x7137
0x14d7
0x97d8
0x8c2b
0x8b5a
0x440
0x9f0
0x4921
0x488a
##c3f
0x3500
##f7f
0xac4f
0x7383
0x629
0x723
0x731
0x510
0x31
0x3a9
0x8d0
0x8e4
0xb33
0x9ba
0x157
0xc8
0x3c08
0x6d73
0x6d59
0x3b9d
0x3b3e
##1bc
0x9730
0x972d
0x9718
0x973d
0x9733
0x9713
0x9726
0x9738
0x971f
##a8a
0xac10
##b79
0x85a2
0x1160
0x7e90
0xadc7
0x970e
0x970b
0x87d3
0x8b9a
0x444
0x4f7f
0xac6
0x7e5
0x95b
0x4920
0x4915
0x3870
0x3c18
0x3c1d
0x3c36
0x3c31
0x3c27
0x3c2a
0x3c56
0x3c19
0x3c1c
0x3c3e
0x3c39
0x3c51
0x3c4e
0x3c47
0x6d89
0x3bb5
0x47ea
0x47d5
0x47cf
0x47db
##e08
0x6ba3
0x5059
0x7423
0x68d5
0xdc3f
0x4f18
0x7275
0x3aeb
0xdd1c
0xdd39
0x95c5
0x500c
0x5007
0xb116
0x8ea7
0x4ffd
0x4ff6
0x95d2
0xd3f2
0x611
0x682
0x72e5
0x5ee
0x5fe
0x5e9
0x5f6
0x876
0x897
0xb1b1
0x64f0
0x64e0
0x64fd
0x64e4
0x64f3
0x64e1
0x944
0x95d0
0x6510
0x652d
0x6523
0x6516
0x652f
0x6526
0x6542
0x6519
0x651c
0x6541
0x6532
0x6505
0x6502
0x6537
0x653c
0x6543
movsd
0xc88b
0xc865
0x78ff
0x4913
0x490f
0x4909
0x4901
0x67e0
0x3b17
0x47c3
0x48c0
0x48bd
0x48ce
0x48f2
0x48f5
0x48eb
0x48d6
0x48c7
0x48b4
0x48ca
0x48b1
0x48f7
0x48d3
0x48e5
0x48fc
0x5030
0x503d
0x503a
0x5042
0x501e
0x5035
0x5014
0x5024
0x501a
0x504c
0x6835
##ecd
##a2b
0x62be
0x8730
0x95ac
0x72ec
0xb213
0xc918
0xc946
0x500f
0x5002
0x5000
0x8562
0xb1ff
0x4ff3
0x4ff0
0xb1df
0x4fec
0x13a1
0xc974
0x9363
0x62d8
0x89cb
0xb151
0x687
0x6adb
0x744
0x7cb
0x5f1
0x883
0xb32e
0x93b
0x95f
0x2ff
movss
0x6d64
0x6d5e
0x6067
0x10a0
0x4764
0x47a3
0x4789
0x478c
0x477c
0x4767
0x4792
0x4783
0x476b
0x476e
0x4743
0x4795
##162
0x6b02
0x745c
##e2e
0x68ce
0x6aee
0x8b0b
0x737a
0x7377
0xad64
0x8a27
0xa9ff
0x6af4
0x6afc
0x6af1
0x7ea7
0x7e6b
0x1467
0x7e9c
0x6ae2
0x72b7
0xad59
0xb333
0x7e5a
##736
0x6a3
0x614b
0x6145
0x716
0x7d0
0x5f3
0x3e6
0x3e3
0x89f
0x87be
0xb1bc
0x933
0x9db7
0x83eb
0x4950
0x6040
0x6031
0x604d
0x6056
0x6053
0x6035
0x605f
0x6059
0x6032
0x6039
0x6061
0x6047
0x6c2d
0x6c46
0x6c3e
0x6c1f
0x6c39
0x6c34
0x6c2b
0xae82
0xae78
0x7924
0x7995
##36162
0x6bff
0x6be0
0x6bf2
0x6be6
0x6bc4
0x6bc7
0x6bca
0x6be3
0x6bbc
0x6be8
0x6bfc
##b636162
0x995f
0x9954
0x74ae
0x74b7
##9ad
0x907a
0xb8bd
0x6ad0
0x8c26
0x6164
0x6140
0x61ab
0x61a3
0x6136
0x6148
0x6190
0x6131
0x615b
0x612f
0x6126
0x612c
0x619e
0x61a9
0x614d
0x6129
0x6142
0x86d7
0x87a0
0x87bb
0x87b4
0x8799
0x73da
0x7375
0xadec
0x7fdf
0x7f3a
0xadc8
0x99e7
0x749f
0x7386
0x856f
0x7274
0x8c09
0x6afa
0x6bd1
0xa9f7
0x85cf
0x6194
0x6192
0x6199
0x764c
0x6acd
0x8c41
0x6ae8
0x6152
0x6157
0x6184
0x618a
0x6124
0x6121
0x6161
0x636170736
0x636170736b636162
0x53
0xb77
0xbe05
0x988
0x2ce
0x96a9
0x778e
0x3cab
0x3cbd
0x3cbb
0x3c84
0x3c9f
0x3c87
0x3c97
0x3c9c
0x3cb5
0x3f3b
##237
0x9064
0x9050
0x905d
0x9059
0x906f
##6fc
0x3e5d
0x6a73
0x859b
0xbd7d
0xbd49
0xbe33
0x9567
0x72d2
0x72d0
0x69b4
0x73a1
0x8a7e
0x44e
0xada
0xa75
0xa57
0xad78
0x34b
0x86d
0x13e
##20d
0x3740
0x79aa
0x4658
0x4675
0x462f
0x46a4
0x4656
0x4653
0x4665
0x465f
0x465c
0x466a
0x463e
0x4667
0x4662
0x4672
0x466d
0x4639
0xa389
##3d5
0x14cd
0x9081
0x685e
0x6837
0x6933
0x695a
0x8c7d
0x8c8b
0x8bc4
0x8bcb
0x73ce
0xd237
0xd20d
0x4f68
0x4f76
0x7fa9
0x72f9
0x7465
0xa618
0x7369
0xb78e
0x9a0a
0x464c
0x4641
0x4649
0x69ca
0x7f92
0x7f6b
0x8c92
0xd331
0x7f5a
0x8c66
0xa9c
0x714b
0x875
0x8e7
0x8c7
0x95b0
0x96cc
0x66fc
0x67dd
0x67e9
0x67e6
0x67d5
0x67d6
0x67d9
0x6706
0x79ba
##a4e
##8bf
0x97da
0x6830
0x682d
0x6828
0x6856
0x68d8
0x6859
0x68d4
0x6851
0x3e60
0x6946
0x694d
0x6955
0x8b36
0x9213
0x73f0
0x73ed
0x7373
0x73c4
0x73c7
0x73cc
0x85c9
0x8ae7
0x7270
0x72c3
0x72b5
0x12c0
0x8982
0xa713
0xb7ed
0x8586
0x7380
0x85b5
0x85b2
0x7278
0x7271
0x727b
0x7284
0x7281
0x72de
0x73b8
0x73bf
0x73b1
0x8574
0x857b
0x4f39
0x684a
0x6843
0x68e8
0x68e5
0x930e
0x72f4
0x72f1
0x72c8
0x72cb
0x72bc
0x693f
0x8af7
0x681a
0x8b47
0x6821
0x44ef
se
0x4e3c
0x4f51
0xa89
0x7dc
0x7fd
0xbf9
0x98e
0xaab6
0x9626
0x967a
0x963a
0x9614
0x969f
0x9652
0x967f
0x9608
0xcfec
0x6d14
0x79df
0x79b8
##2d6
0x4890
0x48d1
0x4897
0x489c
0x48d4
0x48c2
0x48c5
0x48a1
0x48b5
0x48d9
0x48b3
0x48bc
##fb3
##d7f
0x9029
0x904a
0x691d
0x6916
0x6931
0x692c
0x6929
0x6924
0x86f0
0xac1e
0x7392
0x4e40
0x4e44
0x4e3d
0x4e73
0x4e55
0x4e5c
0xd09e
0xb7f5
0xb7eb
0x87df
0xac32
0x13b8
0x13b4
0x13bb
0x4e65
0x4e62
0x4e6e
0x4e6b
0x7ff9
0x7197
0xaf9e
0x4ed2
0x89db
0xb00a
0x4e78
0x4e7c
0x72a6
0x15b6
0x4f4e
0x4e47
0x4e4e
0x3af3
0xcaf5
0xcafa
0xac21
0xcfa4
sete
0x4fd
0xa60
0x71c
0x5f9
0x5fd
0x34e
0x8b79
0xbf09
0x9bb
0xaa20
0xaa15
0xaa0e
0x2e
0x2f7
0x2f97
0x96ee
0x9610
0x9630
0x962d
0x96ce
0x96a4
0x96e9
0x96e6
0x96d5
0x96c9
0x9684
0x968b
0x9635
0x965f
0x96c4
0x9655
0x961b
0x96f3
0x96fa
0x9677
0x9674
0x96e3
0x96be
0x9666
0x9692
0x966d
0x96c1
0x96b0
0x9699
0x960c
0x965a
0x78da
0x493b
0x6df2
0x6d1a
0x6dcd
0x4533
0x6cf5
0x79ab
0x7970
0x7949
0x7901
0x796e
0x79de
0x3bda
0x3b10
0x3b58
0x3bbd
0x3b88
0x3b5b
0x3bc3
0x3bba
0x3b76
0x3bf1
0x3be9
0x3beb
0x3b29
0x3bd5
0x3bc6
0x3b4f
0x3be4
0x3bf3
0x3b6a
0x3b67
0x3b62
0x3b0b
0x3b1a
0x3b1f
0x3b6f
0x3be1
0x3b21
0x3b52
0x3b4e
0x3b80
0x3b7e
0x3bcd
0x3b03
0x3b79
0x3b08
0x47c7
##9e9
0x301e
0x14b7
0x3523
##d69
0x7470
##7b5
0x9033
##1a7
0x34ca
0x8c23
0x8ca3
0x8c70
0x8c9d
0x8c58
0x8ca4
0x8c29
0x8c73
0x8c15
0x8c53
0x8c84
0x8c5f
0x8c1c
0xac28
0xac46
0xac17
0x8bf0
0x8bfe
0x8bba
0x8be9
0x8be4
0x8b8b
0x8bf7
0x8b71
0xde08
0x8516
0x9ae7
0x6dd3
0xa9f8
0x3af0
0x3af9
0xddda
0xdd0e
0xdd32
0xbdef
0xbedd
0xbe13
0xbefd
0xbecf
0x9708
0x9701
0x21ee
0x8b92
0x8b6d
0x8bd2
0x8bd9
0x8c04
0x8c01
0x8c0e
0x726a
0xac3f
0xac35
0xac3a
0x8bb4
0x8bb7
0x9648
0x964f
0x9641
0xa9fb
0x2fe0
0x2fb2
0x2fc5
0x85df
0x8bad
0x8ba6
0x8fb1
0x8c98
0x8c95
0x9182
0x8c4e
0x8c4b
0x4f2f
0x4f2a
0x4f34
0x8c3a
0x8c33
0x349c
0x3491
0xbfc7
0x855c
0x8c2e
0x8c6d
0x3afc
0xac2b
0x973f
0x973e
0x3aef
0x8ca2
0x3483
0x2f8c
0x12ef
0x8b80
0x2ffb
0x34b7
0x8c78
0xbf99
0x34e5
0x2f7e
0x33d5
0x32d6
0xb76
0x946
0x914
0x923b
0x6e30
0x6e23
0x6e3d
0x6e17
0x6e19
0x6e1c
0x6e1f
0x6e0a
0x6e2b
0x37db
0xca3
0xca0
0xcf6
0xcf86
0xcf97
0xc9e9
0x4918
0x491d
0x4912
0x490b
0x38da
0x38c6
0x38ec
0x48f9
0x48fe
0x48f4
0x48e6
0x48f6
0x48e4
0x4865
0x48ef
0x9030
0x9023
0x9016
0x9036
0x903d
0x9025
0x904d
0x903b
0x9019
0x901c
0x9057
0x9067
0x9021
0x9071
0x9043
0x341b
0x44bb
0x86f1
0x7c56
0x8550
0x85a0
0x85af
0x85a4
0x855f
0x85a8
0x854c
0x4f60
0x4f2d
0x4f58
0x4f36
0x4f48
0x4f5b
0x4f73
0x1190
0xd05c
0x858a
0x8581
0x858e
0xc958
0xc936
0xc948
0xc95e
0x9004
0x9002
0x9006
0x8567
0x8569
0x856b
0x85bc
0x85ba
0x8ffa
0x8ffd
0x8ff7
0x8ff0
0x8008
0x8feb
0x91cb
0x85cc
0x85c2
0x85d4
0x85d6
0x857e
0x4f24
0x4f3c
0xca18
0x33e7
0x33c1
0x8555
0x8598
0x8595
0x4f65
0x4f6d
0x4f42
0xcfa9
0x4f1e
0xca32
0xca0e
0xcf65
0x7ce
0x7d1
0x71b7
0x71b5
0x884
0x877
0x866
0xb27
0x934
0x4948
##f2e
0x80da
0x7432
##3f7
##cc1
0x698b
0x71bd
0x8544
0x1520
0x6a0f
0x9274
0x3d4e
0xac0
0xa81
0xa5f
0xab69
0x7e0
0x9b9
0x977
0x91b1
0x1f
0x11d
0x6e6f
0x66b0
0x66e8
0x495c
0x67cf
0x6780
0x7569
0x14eb
##4f3
##24c
0x68f4
##4cd
0x9264
0x925d
0x9249
0x11a9
0x721b
0xaf12
0x927a
0x9253
0x926e
0x918b
0x155c
0x7256
0x9172
0x7183
0x7178
0x6a85
0x442
0xace
0xa98
0x71b1
0x9245
0x924c
0x70ea
0x70f0
0x70e4
0x70d4
0x70db
0x70e8
0x6665
0x6662
0x6669
0x5bee
0x5bfe
0x5bce
0x5bd1
0x5bf1
0x5bdc
0x5bc6
0x5bc7
0x5bfa
0x5bd7
0x5bca
0x5bf7
0x5bfc
0x6716
0x6725
0x670d
0x6722
0x671c
0x671a
0x670a
0x6702
0x6703
0xa42f
0x757a
0x7632
0xa372
0x6b24
0x80ba
0x809b
##124
0x9990
0x35e0
##d4b
0x9f5b
0x3e36
0x13c0
0x9268
0x9242
0x924f
0x71c0
0x719d
0x719e
0x71a5
0x5c08
0x5c05
0x5c0d
0x5c0e
0xabf7
0xa99a
0x664d
0x93ce
0x9272
0x9279
0x69fa
0x13b1
0x7e7f
0x923f
0x9233
0x9237
0x7f85
0x925f
0x9259
0x9256
0x9262
0x926b
0x149b
0x71a8
0x71a1
0xa89c
0xb76e
##697
##sd
0x6640
0xaba
0xa7b5
0x7fe
0x74fc
0x513
0x862
0xb8c
0x940
0x9f1
0x9122
0x144f
0x4a10
0x4a18
0x4a70
0x4a48
0x4a31
0x4a13
0x4a4d
0x4a73
0x4a24
0x4a41
0x4a0b
0x4a1f
0x4a66
0x4a6d
0x4a61
0x4a52
0x4a2e
0x4a06
0x4a2b
0x4a5a
0x66a3
0x66a0
0x6658
0x663d
0x6689
0x668c
0x6635
0x6655
0x6697
0x66a8
0x6692
0x6639
0x6699
0x49ff
0x49e5
0x63697
0x7513
0x7524
0x798d
0x46ab
0x46b5
0x6b97
0x80e7
0x8015
0x80e4
0x80f3
##2656
##e656
0x14a4
0x1453
0x50ff
0x74f9
0x74bd
0x74c8
0x3e85
0xafaf
0xafc8
0xb507
0x8716
0x852d
0x8525
0x7fbb
0x91f8
0x6649
0xb360
0xa7ec
0x750e
0x7509
0x750b
0x6a92
0xaff1
0x8104
0x853f
0x853c
0x3eb5
0x9497
0xb777
0x636972656
##e6567
0x636972656e6567
0xab9
0x87b8
0x87b1
0xb96
0x123
0x26
0x49bd
0x49af
0x49a5
0x49dc
0x498c
0x49b6
0x49d6
0x49aa
0x49c8
0x49c4
0x49cf
0x49cc
0x4994
0x4613
0x46ed
0x7630
0x7623
0x7628
0x7615
0x761c
0x763e
0x7651
0x7654
0x762b
0x6b88
0x6b7a
0x6bb9
0x6b5e
0x6bb6
0x6baa
0x6bb1
0x6b61
0x904c
0x3e58
0x3e44
0x13ab
0x13a9
0x13a4
0x139c
0x6ac6
0x3d9c
0x87e0
0x87c9
0x879c
0x8798
0x85e6
0x1140
0xa7ee
0xa7f6
0x87d5
0x87d7
0x87de
0x87d9
0x87d0
0x87c4
0x87c2
0x87cd
0x87a4
0x87aa
0x87a7
0x87ae
0xaffb
0x7645
0x13ae
0x9a5a
0xb002
0xafe2
0x1609
0x93ac
0x877e
##6d6
0x44f3
0xa9e
0xac4
0xa97
0x7ecd
0x73f7
0x5f0
0x5f5
0x5eb
0x8cf
0xb29
0xb0e
0x9b6
0x6570
0xaa78
0xaa80
0x3cfe
0x3cf6
0x3cfa
0x3cf7
0x6d44
0x6d6d6
0x607d
0x7a3e
0x3f58
0x3f53
0x3f59
0x3f41
0x3f4b
0x3f5a
##7073
0x46bb
0x46d6
0x46ae
0x46c5
0x46b1
0x46e1
0x46cc
0x46db
0x46c1
0x7677
##365
0x6b18
0x8013
##f63
0x14c8
0x14e8
##d8f
##e41
0x74ea
0x74ee
0x742d
0x7425
0x74e7
0x741a
0x74e1
0x7437
0x743c
0x13cb
##37365
0x617073
0x86bd
0x3d24
0x8b77
0x73e0
0x73fe
0x73f1
0x73e4
0x851e
0x450e
0x7f7c
0x7ec0
0x7ec3
0x7e8c
0x7ec8
0x7e83
0xdc58
0xd1a4
0xd19b
0xd1b5
0x3d08
0x3d02
0x3d0b
0x3d12
0x3d17
0xda1f
0xd955
0x7e7c
0x7e7b
0x7eae
0x7ea0
0x7f82
0x7f89
0x150c
0x7ed2
0x7ed7
0x7ed9
0x7e92
0x7e99
0x74de
0x740c
0x7405
0x8afd
0x61637365
0x7ebc
0x7eb5
0x63617073
0x8f14
0x7f79
0x6d6d6f63
0x6170735e
0xa5d
0xab6
0x7dd
0x7da
0x7c4
0x893
0x9ee
0x974
0x127
0xb463
0x4c05
0xaa36
0x4946
0x4925
0x492c
0x495a
0x3630
##10f
0x7565
0x755c
0x756f
0x7561
0x7622
0x14a8
0x505e
0x507f
0x9949
0x9974
0x998d
0x98d3
0x8e26
0x8e73
0x44dd
0x44c3
0x44e9
0x7f58
0x7fa6
0x7f35
0x159d
0x1531
0x15a4
0x159a
0xa9c8
0x12e1
0x746d
0x515d
0x996c
0x9962
0x9a37
0x7f97
cmovle
0x7f6e
0x7f66
0x4ed8
0x4ede
0x7f1b
0x98cc
0x4f03
0x4f12
0xb8c7
0x69ad
0x44cd
0xaca
0x7df
0x7c9
0x7c6
0x7d6
0x3d5
0x892
0xb30
0xb8bf
0x9bd
0x2d0
0x83f0
0x83f3
0x83fb
0x83f7
0x83ef
0xc10f
0x66dd
0x495b
0xaebd
0x7b66
0x47f0
0x47f3
0x47e3
0x47cb
0x47e1
0x47e5
0x14c0
##1a1
0x8e9d
0x8e8e
0x8e8b
0x6975
0x6a2d
0x44c0
0x44ed
0x44c7
0x44e2
0xacaf
0x4ef0
0x4efd
0x4ef7
0xa5fd
0xad98
0x1544
0xadd6
0x9130
0x9133
0x8405
0xc996
0xc98b
0x8f6b
0x8ea5
0x8ea0
0x8fbc
0xaffc
0x4edb
0x7e66
0x148c
0xca88
0x8e92
0x8f4f
0x4ee8
0x4ee5
0x4eeb
0x44d3
0x44d9
0x44db
0x44bf
0x4f05
0x8d6a
0x6978
0x2d14
0xd16c
0xa579
0xaca7
0x44fc
0xa63
0xa9a
0x5180
0x3d8
0x8aa
0x9d6
0x9a7
0x9a8a
0xb4f4
0xaa93
0xaa6e
0x4a9f
0x4500
0x4518
0x451d
0x4513
0x4529
0x4515
0x4524
0x4521
0x452e
0x4800
0x4818
0x480d
0x481b
0x480a
##f55
0x5081
0x9805
0x13c4
0x6aab
0x6aa3
##545
0x44fe
0x44f5
0xac50
0x8722
0x8714
0x4505
0x4502
0x4507
0x9aa5
0x9a8e
0x9a82
0x12b8
0xd060
0xd098
0x9a91
0x5179
0x920a
0x85e4
0xa9a2
0xa74
0x7d5
0x7c7
0x550
0x560
0x55d
0x523
0x55e
0x529
0x8ad
0x8b0
0xb2c
0xb0b
0x94d
0x97c
0x126
0xaaab
0xaa9d
0xaa7d
0xaa75
0xaa33
0xaa3b
0xaa84
0xaaa6
0xaa9a
0xaa3f
0xaaa2
0x67c8
0x793b
0x8038
##ed6
0x14f0
0x145a
0x50e0
0x50b1
##947
0x8523
0x8875
0x95a6
0x151d
0x1596
0x15a0
0x15af
0x15a9
0x15ac
0x9a7a
0x7290
0xa9a9
0x12dd
0xa623
0x7603
0x8f67
0x7f8c
0x13d5
0x9a5c
0x1555
0x1587
0x8883
0x515a
0x1594
0x1599
0x8ad3
0x3d78
0x8a4e
0x90d
0x95e
0x9a2b
0x1545
0x4be3
0x4a36
0x494d
0x4957
0x4966
0x494c
0x4954
0x3855
0x77ff
0x6d2a
0x6d8b
0x6d3e
0x28f2
0x635e
0xae5f
0xae61
0xa4be
0xa4ac
0xa4b3
0xa4c1
0xa4b7
0xbb5
0x81ad
0x6b4d
0x6b74
0x8011
0x80d3
0x1450
0x145d
0x14a5
0x14ad
0x14b0
##222
0x9820
0x8ef2
##2e8
0x86e7
0xac16
0x7358
0x735b
0x851d
0x8546
0x8529
0x8521
0x88dc
0x8fc0
0x8fda
0x8fdf
0x8fb9
0x8fc8
0x8fc4
0x8fcd
0x15da
0x9a23
0x9a18
0x9a11
0x9a26
0x9a1c
0x736a
0x5f68
0xa53e
0x8a02
0x8a09
0xac3c
0x8fe1
0x23ed
0x12f6
0x85cb
0x8fb8
0x8532
0x8539
0x1552
0x15de
0x3350
0x8fd4
0x8fd7
0x86c4
0x916b
0x89c2
0x15e7
0x5f87
0x89e2
0x7f41
0x89b0
0x7355
0x6295
0x86db
0xa9cd
0xac47
jb
0x6a4
0x4f8
0xa88
0x511
0x5104
0x88b
0x85f
0x9f2
0x92c
0x65d0
0x15d0
0x13fc
0xa04c
0x4295
0xaa64
0xaa50
0xaa69
0x238a
0x6d30
0x6d23
0x6d27
0x6d33
0x6d76
0x6d4d
0x6d81
0x6d8e
0x6d65
0x6d5f
0x6d1c
0x6d1b
0x6d7b
0x6d67
0x6d1f
0x6d4a
0x6d85
0x6d3c
0x6d79
0x3f3d
0x4758
0x472f
0x766f
0x1430
0x14c4
0x14c5
0x5065
0x506a
0x5074
0x506f
##1b8
##d74
0x68ae
##cde
0xac25
0x9223
0xb08e
0x73ab
0x15ea
0x15f2
0x5118
0x511d
0x512c
0x8b67
0x8bb5
0x14d0
0x85dc
0x7293
0x15d4
0x15d7
0x15d6
0x9135
0x15ef
0x15e3
0xabdf
0xabd5
0x62a9
0x4f91
0x510e
0x6879
0x13e3
0xa5f3
0x62e8
0x4e0
0x4d0
0xad8
0x7c3
0x520
0x527
0x5e7
0x887
0x9ea
0x93d
0x9b5
0x152
0x12b
0x42c3
0xaae7
0x66f5
0x66e5
0x67d0
0x635f
0x753a
0x7594
0x7664
0x7673
0x802f
0x14ee
0x14e0
0x1496
0x1425
0x14e4
0x14e5
##632
##d41
0x90fd
##e2b
0x97f2
0x9842
0x9837
##395
0x3e2a
0x3efd
0x3ef4
0x3efb
0x3ef7
0x62ea
0x62f0
0x62e0
0x62a3
0x6288
0x62af
0x629e
0x62b2
0x62e6
0xa81d
0x8b55
0x9246
0x8792
0x7350
0x7324
0x7c2c
0x1540
0x1570
0xb94f
0x72a3
0x9128
0xa66c
0x3f0c
0x3f03
0x3f09
0x3f06
0x927e
0x7381
0x92d4
0x92d3
0x62f3
0x728d
0x128e
0x97d0
0x628f
0x6284
0x628c
0x6281
0x6280
0x7299
0x910e
0x7255
0x12a9
0x62de
0x62db
0x1493
0x62c4
0x62cc
0x62ca
0x1291
0x62a1
0x90fa
0x90f7
0x89a2
0x6298
0x7fd5
0x5fd8
0x892b
0xa639
cv
0xa64b
0xad69
0x568
0x51d
0x5f2
0x575
0x5f4
0x3a7
0x86a
0x885
0xb38
0x9da
0x1401
0x13e8
0xb435
0x4018
0x4c31
0x4c28
0x4c0d
0x4c17
0x4c12
0x4c1c
0x4c32
0x4c09
0x4c0a
0x4c21
0x4c2b
0x2f9
0xc6e
0x7834
0xa4f2
0xa4ba
0xa4c7
0xa482
0xa46f
0xa480
0xa46e
0xa45a
0x7536
0x7531
0x7546
0x7511
0x7527
0x7533
0x7519
0x751b
0x753e
0x751a
0x7539
0x7521
0x752e
0x753c
0x7545
0x4750
0x472d
0x470d
0x473a
0x4709
0x474b
0x4702
0x473c
0x4734
0x8127
0x813a
0x8153
0x8141
0x811a
0x814c
0x8121
0x46fb
0x765d
0x80dd
0x80f8
0x80fa
0x80e1
0x80ec
##b21
0x141b
##42e
0x74ff
0x7464
0x74c0
0x74ab
0x74f8
0x7475
0x74a9
0x74b2
0x74c6
0x74aa
0x74c7
0x74b4
0x74b1
0x747e
##8b8
##f32
##5c1
0x90c2
0x9740
0x680a
##b8d
##834
0xb873
0x3e6c
0x13f9
0x69dd
0x69da
0x69c3
0x69bb
0x69c9
0x69c6
0x86f8
0x8698
0x86b8
0x3d56
0x92ed
0x92e6
0x921e
0x7368
0x7cd0
0x717a
0x88a2
0xa53a
0x95c0
0x95e9
0x95ed
0x7f10
0x7f44
0x7f4d
0x7f49
0x154d
0x154a
0xb946
0xb95e
0x7240
0x72af
0x724d
0xabe7
0x7e64
0xa665
0xd177
0x9331
0x5f20
0x5f23
0x5f48
0x5f28
0x5f35
0x69e3
0xb885
0x130b
0x1319
0xa534
0x69cd
0x7506
0x6a9c
0x7f08
0x7f07
0x7f0b
0x95d6
0x69be
0x1509
0x810c
0x8101
0x8107
0xafd4
0x9267
0x7642
0x516f
0x5165
0x516a
0x5162
0x5161
0x12cc
0x12c5
0x9a57
0x68cd
0x5188
0x518a
0x5183
0x5189
0x7f14
0x7f19
0x6001
0x9284
0x7f52
0x3ea9
0x3da4
0x8866
0x9a99
0x3eb3
0xabb4
0x8ae2
0x5174
0xd16e
0x440b
0x95b6
0x5f19
0x716d
0x5f3f
0x5f32
0xb96f
cvt
0x5f2b
0x5f42
0xc6e8
0x68f7
0x68b5
0x6a2b
0x68b8
0xacb
0xa6fc
0x744f
0x7395
0x3d85
0x3d3c
0x3d7f
0x8cb
0x8a8a
0x8cc1
0x9eb
0x914b
0x9421
0x6e57
0x6e32
0x2b
0x2da
0x3750
0x966f
0x9602
0x9601
0x84b4
0x84a8
0x67fe
0x67f2
0x67f8
0x67f5
0x67eb
0x67fb
0x45ff
0x45ee
0x45eb
0x45d5
0x45c6
0x45f3
0x45ca
0x45cf
0x45cb
0x45e1
0x45e5
0x45d2
0x45fc
0x7a17
0x7a3c
0x3b2b
0x4725
0x4717
0x47ae
0x4715
0x471c
0x470f
0x4861
0x7618
0x6b4c
0x6b39
0x6b47
##284
##7d7
0x149d
0x14b8
0x14b5
0x7420
0x7410
0x7448
0x7426
0x7419
0x7457
0x7454
0x745a
##7bc
##8fc
0x90b5
##c54
0x9858
0x9836
0x9833
0x9809
0x68ea
0x68c0
0x6868
0x68bd
0x68c3
0x68ba
0x6811
0x68f1
0x687c
0x68fa
0x683e
0x6808
0x3e10
0x3e2d
0x3e16
0x3e2f
0x3e33
0x3e13
0x3e42
0x3e24
0x3e55
0x3e1b
0x3e52
0x1344
0x13cf
0x134a
0x6964
0x6910
0x6988
0x693d
0x69b9
0x693a
0x6a10
0x6a16
0x6a25
0x6a13
0x6a2c
0x6a22
0x6a19
0x6a1c
0x8cf1
0x8cf4
0x8cd6
0x3d7d
0x3d75
0x3d2a
0x3d26
0x3db2
0x3d3a
0x3d32
0x3d98
0x3db5
0x9488
0x94af
0x8b40
0x8bee
0x8b10
0x8b68
0x8b30
0x8bce
0x8bf8
0x8b33
0x8b13
0x8b3b
0x8b17
0x8be7
0x8b7c
0x8bc7
0x8b82
0x8b0f
0x8b1b
0x8b5c
0x8b59
0x8be2
0x8bc2
0x8b7f
0x9260
0x73ff
0x7360
0x731d
0x7327
0x7349
0x735e
0x7329
0x7353
0x739f
0xdb21
0xd284
0x71e0
0x7190
0x71c9
0x71c6
0xa550
0xa570
0x95bd
0x95ce
0x95f4
0x9573
0x95ae
0x95c4
0xadbb
0x157d
0x1517
0x151e
0x15c8
0xb98b
0x8d46
0x8d63
0x7296
0x721f
0xa997
0x9164
0x9156
0xaf61
0x898e
0xdc26
0x7462
0x4608
0x4605
0xa675
0xd15a
0x736f
0x7366
0xda90
0xda25
0xda67
0xda4c
0xda4e
0x8b9c
0x69c1
0x69c7
0x69cb
0x738f
0x738c
0x7385
0x8b61
0x8b66
0x8bd5
0xdb36
0xdb3b
0x7263
0x8bbc
0x3dfc
0x72dc
0x72d9
0x9845
0x95d1
0x73d8
0x73d5
0x8ba2
0x8ba7
0x8bae
0x69bf
0x69bc
0x69b7
0x1503
0xafd3
0x9188
0x12cf
0xd364
0x6904
0x690d
0x6906
0x688c
0x6882
0x688e
0x6889
0x6841
0x68cf
0x68c5
0x68cb
0x1485
0x148a
0x1482
0x8683
0xdbdb
0x8b22
0x8b29
0x3495
0x71d2
0x7409
0x1580
0x72ac
0x72a5
0x3da2
0x9174
0x7182
0x3e02
0x3e09
0x8da5
0x8e03
0x8e0d
0x986e
0x92f7
0x6985
0x698d
0x8b52
0x73a8
0x6814
0x697e
0xa569
0x8cad
0x981c
0x9819
0x8ced
0xa58d
0xa587
0x8b4e
0x348c
0x2f87
0x7303
0x730d
0xa683
0xa689
0x3e4b
0x696e
0x7314
0x7317
0x1578
0x1574
0x95b2
0x6872
0x95fc
0x95f7
0x3e3f
0x3e39
0x3d87
0x8b04
0x95e2
0x2f90
0xff
0x7c0
0x7180
0x742e
0x528
0x55b
0x525
0x526
0x553
0x54b
0x881
0xb26
0xb1a7
0x9ae
0xc89
0x66e7
0x4936
0x4931
0x492f
0x493e
0x4943
0x3675
0x4830
0x481d
0x4832
0x4837
0x483c
0x482b
0x8096
0x8090
0x80a9
0x8073
0x8042
0x8093
0x8082
0x8057
0x805c
0x807b
0x8062
0x80ac
0x8069
0x8054
0x8047
0x5068
0x50ab
0x507c
0x5077
0x9946
0x9927
0x993a
0x9937
0x9947
0x742c
0x907d
0x907f
0x98f0
0x98f4
0x98d6
##d95
0xafbb
##803
0x6a64
0x6a5d
0x6a70
0x6a96
0x6a48
0x6a9e
0x6a76
0x6aa9
0x6a89
0x6a8c
0x6a86
0x8ca5
0x86f6
0xacc0
0xacb9
0xac84
0x8b1d
0x8b16
0x8b44
0x8b31
0x8b3d
0x8b11
0x8b0e
0x4fc0
0x4fda
0xadfe
0x1100
0x8d0d
0x8d89
0x8d93
0x8de1
0x8add
0x8ada
0x8af2
0xabcb
0x7e75
0x7eca
0x893a
0xaf0e
0x6a5e
0xb1b9
0x6a98
0x6a93
0x6a9b
0x727f
0x6a6e
0x6a6b
0x8006
0xad05
0x6aaa
0x6aa1
0x8b24
0x8b2e
0x8b2b
0x12ae
0xafe8
0x889c
0xac9f
0xac95
0x6a78
0x6a7f
0x6a7e
0x4ea8
0x4eae
0x896e
0x8dcb
0x8ae8
0x8aef
0x9879
0x8dd7
0x8dde
0x6a80
0x7c83
0xc833
0xa75a
0xb0e4
0x7d67
cq
0x4dd
0x4d5
0xa86
0xada7
0x7f3
0x7f27
0x7f2e
0x8e7f
0x8e2e
0xb8e
0x922e
0x988b
0x98f7
0x98b5
0x91a7
0x91a1
0x98fc
0x11e
0x70fc
0xcab
0xc7c
0xc9a
0xcf55
0x824
0x7807
0x4aba
0x4ad0
0x4aa6
0x4ad7
0x4ac5
0x4aac
0x4ab7
0x6675
0x4958
0x4944
0x4953
0x4941
0x494b
0x77f5
0x7757
0x67ba
0xae88
0xae90
0xae73
0xae63
0xae9a
0xaeb3
0xae69
0xae80
0xa419
0x7564
0x7570
0x75dc
0x7517
0x754f
0x7559
0x7567
0x754b
0x754c
0x7552
0x7571
0x47dd
0x47e0
0x47f2
0x47ed
0x47e7
0x47c9
0x47d8
0x4844
0x4849
0x485c
0x4859
0x484b
0x4852
0x4847
0x762d
0x76c5
0x6b6a
##311
0x1411
0x5096
0x5090
0x99ea
0x9900
0x9950
0x99ee
0x995d
0x99f8
0x993d
0x99af
0x9911
0x9933
0x992c
0x99f1
0x99a4
0x99b9
0x99f6
0x9942
0x9986
0x9924
0x999c
0x997b
0x9998
0x99cf
0x99be
0x991a
0x99a8
0x9983
0x9921
0x994e
0x997e
0x9971
0x995a
0x9995
0x9088
0x9840
0x9848
0x98ba
0x989e
0x98b2
0x980d
0x98ed
0x98ae
0x984f
0x987c
0x980e
0x98a6
0x985f
0x9824
0x98a8
0x98a1
0x980a
0x98db
0x9854
0x98de
0x8e40
0x8e70
0x8ece
0x8e31
0x8ed1
0x8ef5
0x8e13
0x8e76
0x8e38
0x8efd
0x8e6c
0x8e4d
0x8e3b
0x8e17
0x8e89
0x8e29
0x8e8c
0x8e55
0x8e5c
0x8e59
0x8ec2
0x8e1a
0x8e1f
0x8e52
0xac9d
0xacaa
0xac8b
0xacc8
0xacb4
0x9228
0xb010
0x871a
0x73b2
0x73c1
0x857d
0x85eb
0x4ec0
0x4ec3
0x4eb9
0x4ec6
0x4ecb
0x8f40
0x8f5d
0x8f23
0x8f18
0x8f44
0x8f5b
0xad9f
0xadb3
0x7f20
0x7f40
0x7f60
0x7f18
0x7f5b
0x7f38
0x7f3b
0x7f77
0x155e
0x8d21
0xabc0
0xabab
0xabc6
0x3a1d
0x3a11
0x3a15
0x3a1b
0xaf52
0x12bb
0x12b1
0x12b0
0x91af
0x91a5
0x89f0
0x89a9
0x89f6
0x89b6
0x89bb
0x89c9
0xb2e7
0xa7c0
0x9310
0x932f
0xd046
0xd01f
0xd034
0x99e5
0x99e2
0x9907
0x990e
0x990b
0xaeac
0xaea9
0x9969
0x8ee8
0x8ee0
0x99df
0x99d4
0x99db
0x8f01
0x8f0d
0x8f09
0x8a0c
0x8ea2
0x8eae
0x8eab
0x8f27
0x8ebf
0x8eb5
0x8eb3
0x8ebb
0x984c
0x7f9d
0x91c1
0x7f0e
0x7f86
0x73d2
0x7f67
0x8f34
0x89d3
0x89d6
0x89d0
0x9821
0x982b
0xcaae
0x7f15
0x8e98
0x8e9f
0x8e9c
0x8e91
0xbfd1
0x8f4a
0x8f47
0x7f55
0x8ed9
0x8ed6
0x9191
0x98c4
0x98c1
0x98c9
0x3a0d
0x3a0e
0x6932
0x8899
0xac98
0xac92
0x9863
0x9869
0x9866
0x6980
0x975f
0x4ea2
0xabb1
0xabbb
0x89e1
0x89e9
0x8f1e
0x8f1b
0x9812
0x7f47
0x7f4e
0x9895
0x989a
0x9892
0x7fb3
0x7fb7
0x9317
0x987f
0x9872
0x4eb4
0x4eb1
0x4eb6
0x8e65
0x8e61
0x8f53
0x8f56
0x89b3
0x12e8
0x8604
0x7f71
0x7c80
0x735a
0xb2f1
0x8e4a
0x8e43
0x876b
0x89f3
0x89fb
0x988f
0x9884
0xada4
0xadac
0x8e7b
0x98e8
0x98e5
0x7d19
0x9345
0xa81c
0x8621
0xa74c
0xa88d
0x12bc
0xacb1
cqo
0x7f3f
0xcab8
0xc9a8
0x7245
0x724b
0x71c2
0x7222
0x5145
0x5122
0x878
0x8fa3
0xbee
0xb3b
0x9dd
0x9ed
0x9180
0x91b5
0x91b8
0x1ea
0x1f0
0x1f1
0x1a6
0x1e8
0x1f2e
0xa0ae
0x70ff
0x4c02
0xaa8a
0xaacd
0x2d5
0x4a78
0x6664
0x66ba
0x66df
0x66fd
0x66b4
0x666a
0x66d7
0x6667
0x66ec
0x66bc
0x66d2
0x66b7
0x49ea
0x779b
0x6731
0x6727
0x67b2
0x673a
0x678c
0x6742
0x679b
0x6784
0x67b8
0x67ad
0x67a2
0x67a7
0x67bf
0x672e
0x678a
0x67b0
0x6745
0x63c3
0x6c12
0xa42b
0x75fc
0x6b35
0x14ff
0x1420
0x1416
0x14fa
0x50c6
0x50ca
0x50c1
0x50bc
0x50b7
##243
0x902e
##72b
0x97fe
0x977d
0x97b9
0x9781
0x978f
0x1320
0x1370
##695
0x6ae0
0x866a
0x9417
0x94c7
0xa826
0xa809
0x8b1e
0x73cb
0x71dd
0x7110
0x7170
0x7175
0x714f
0x8802
0x9ac9
0x9c18
0x8dff
0x8df0
0x8dbd
0x8dce
0x8d90
0x8db9
0x8de9
0x8d81
0x8d73
0x8d86
0x8d9b
0x8de4
0x8db4
0x8d98
0x8db1
0x7248
0x7227
0x7225
0x7242
0xab49
0x9150
0x9158
0x91bd
0x917d
0x9146
0x91c3
0x912f
0x919e
0x9176
0x9149
0x9142
0x91bb
0x91c6
0x91aa
0x8958
0x8989
0x5140
0x5136
0x5131
0x5127
0x5149
0xa6b3
0xa736
0x7105
0x7102
0x9374
0xa9b1
0x92d7
0x9aac
0x726b
0x800d
0x8fec
0x91cc
0x7ffc
0x7198
0x128d
0x97df
0x97d3
0x97d7
0x7155
0x7152
0x7157
0x918e
0x6ac1
0x868a
0x868d
0x725a
0x7253
0x12a6
0x936d
0x9366
0x7eee
0x71d5
0x919c
0x919a
0x9193
0x9197
0x9179
0x7187
0x9163
0x9169
0x9166
0x913f
0x9137
0x913b
0x8daa
0x8da2
0x8dad
0x8e0b
0x8e06
0x8d6f
0x8d6e
0x865c
0x12d4
0x9383
0x8dc8
0x8dc4
0x8dd3
0x8df4
0x8dfa
0x8df7
0x8d72
0x8d77
0x8d7e
0x7172
0x935f
0x9355
0x120e
0x915f
0x915c
0x9153
0x723d
0x7236
0x5109
0x7cb7
0x93bb
0x7166
0x71cf
0x71cc
0x914c
0x9347
0x513b
0x9404
0x9d6f
0x97cf
0x5113
0xc7c5
0x1f06
0x1f1a
mul
##7e0
0x6a2
0x4da
0xab4
0x7fec
0x570
0x588
0x581
0x586
0x565
0x587
0x358
0x87e
0x8652
0x86fc
0x872b
0x8695
0xb07
0xb94
0xb834
0x92a
0x94b
0x9ef
0x4ba4
0x4bc9
0x4bc6
0x4baa
0x4b9f
0x4bb4
0x4bcf
0x4bbe
0x4bad
0x4bd9
0x4bdb
0x4b99
0x4bd2
0x4bde
0xc7e0
0x49fd
0x49ed
0x49f4
0x49fa
0x7793
0x3600
0x63ab
0x6c13
0xae5c
0xaefa
0x75f9
0x75f8
0x7535
0x7600
0x7610
0x765b
0x7639
0x763c
0x765a
0xa3d2
0x6bc0
0x6b68
0x6b5d
0x6b9e
0x6b65
0x6ba1
0x6b6e
##7a1
0x14b9
0x509e
0x5089
0x5086
0x509c
0x5085
0x508d
0x99fe
0x74ac
0x9011
0x902a
0x9014
0x90c1
0x13dd
0x13ed
0x1393
0x699e
0xafee
0x6ace
0x6ac3
0x6ad5
0x6ac9
0x6ad6
0x86ff
0x86ab
0x86a0
0x86ce
0x86a4
0x86bb
0x86ae
0x86f3
0x86e2
0x86b1
0x86b5
0x8694
0x86e5
0xa833
0xa849
0xa807
0xb0c2
0x8720
0x871d
0x8731
0x8728
0x8726
0x7cf0
0xa553
0x8fab
0x8fe0
0x8fce
0x8fa4
0x8fbb
0x8f7b
0x8fca
0x8f74
0x8fc2
0x8fc5
0x6279
0x1530
0xb925
0x9a60
0x9a2d
0x9a5d
0x9a70
0x9a16
0x9a46
0x9a2a
0x9a25
0x9a13
0x9a9e
0x9a76
0x9a22
0x9a87
0x9a1b
0x9a7b
0x11a0
0x11f8
0x9ef5
0x9ef1
0xa98c
0x12b4
0x12b3
0x2cd9
0xb2ce
0xb2e4
0xb2b8
0x9a0f
0x9a05
0x9a02
0x7609
0x8f8f
0x8f87
0x8f9c
0x8f92
0x8f99
0x9003
0x9007
0x9000
0x8f6f
0x8f63
0x6a54
0x6a57
0xb2a2
0x9aaa
0x9aa2
0x9a3f
0x9a34
0x9a3c
0x8ff3
0x8ff6
0x8fef
0x8fe4
0x12fa
0x8fbf
0x8fb0
0x8f78
0xaeed
0x7e63
0x13d8
0x13a8
0x9a56
0x146b
0x688b
0xa7d2
0x68c7
0x870f
0x870c
0x870a
0x8703
0x8701
0x8706
0x9a65
0x6178
0xb004
0x6ab4
0x6ab1
0x6ab7
0x6abe
0x6ab0
0x8fd8
0x8fd5
0x8fdb
0xbf76
0x936f
0x149c
0x9a4f
0x9a43
0x9a4b
0x86c8
0x86c1
0x86cb
0x8fa8
0x8fa1
0x9a9b
0x1299
0x1407
0x9f0e
0x8834
0x93b8
0x86de
0x9f15
0x9a7f
0x6a4a
0x92cf
0x152e
0x86a7
0x2da6
0xb26d
0x878a
0x3580
0x9efc
0x686
0x6a4e
0x6947
0xa73
0xab0
0x7cc1
0x5f7
0x5ebe
0x5f86
0x5fbc
0x5ec1
0x5f09
0x5ecd
0x5fb3
0x5ed6
0x8a6
0x880
0x8d34
0x8d3c
0xb09
0xb95
0xb7b1
0xb7d7
0x9c0
0x9c3
0x9dc
0x97b1
0x97bc
0x113
0x153
0x40e0
0x41a6
0x6e7d
0x4c8f
0xaae0
0xaad1
0xaacb
0xc00
0x7837
0x777a
0x7722
0x773e
0x60a3
0x6096
0x60af
0x60c3
0x609e
0x60a5
0x60fd
0x6089
0x608c
0x60c9
0x60c6
0x609b
0x6084
0x6087
0x60b4
0x60fa
0x608f
0x60cb
0x60be
0x60b1
0x60a1
0x60ac
0x60f7
0x60c1
0x6099
0x602b
0x60b7
0x7a07
0x63e2
0x6c16
0x6c19
0xae81
0xa4f4
0xa4a6
0xa4e2
0xa4b8
0x7994
0x7676
ebp
##16c
0x6b64
0x6b40
0x6b9d
0x6ba0
0x6b36
0x6b31
0x6b27
0x6b2a
0x6ba9
0x6b22
0x6bae
0x6b4f
0x6ba6
0x6b5c
0x6b3e
0x6b98
0x6b1f
0x6b4a
0x6b66
0x6b92
0x6bac
0x6b52
0x6bb0
0x6b3c
0x142a
0x143a
##197
##c87
##934
##d71
##e37
##cfc
0x9788
0x9748
0x9775
0x97c3
0x974d
0x9749
0x978c
0x97c9
0x979b
0x9797
0x97b4
0x97e1
0x9792
##1fc
0x68bb
0xb8f9
0xb8ab
0xb846
##780
0x6940
0x6968
0x6930
0x692d
0x6923
0x6926
0x69a9
0x69fd
0x69a4
0x698e
0x6986
0x691e
0x694f
0x697c
0x6935
0x6914
0x691b
0x695c
0x6959
0x6998
0x694a
0x6995
0x6a88
0x6a7d
0x6a5b
0x6a46
0x6a7a
0x6a6c
0x6a15
0x6a1b
0x6a8f
0x6a77
0x6a1f
0x8cdd
0x8cda
0x8cce
0x8c36
0x8ca9
0x8cb2
0x8cb9
0x8cae
0x8caa
0x8cc4
0x8ccb
0x8cd3
0x5ef0
0x5e88
0x5ed1
0x5efd
0x5e8b
0x5ec7
0x5ef3
0x5efa
0x5e83
0x5e80
0xb02f
0xb03b
0xa50e
0x7cf9
0x7cc6
0x7ccb
0xa5a0
0x1525
0xb913
0x9a7c
0x8d00
0x8d16
0x8d44
0x8d28
0x8d25
0x8d38
0x8d3f
0x8d2e
0x7e38
0x12e6
0x6a0c
0x6a05
0x6a02
0x7dec
0x5fea
0x5fc0
0x5fab
0x5f58
0x5fce
0x5fd1
0x5faf
0x5f7a
0x5fdf
0x5fdc
0x5fb9
0x5f4d
0x5fb6
0x5fc4
0x5fc7
0x5f74
0x976e
0x9769
0x9766
0x69e8
0x6a5f
0x6a51
0x8c08
0x6a62
0x6a69
0x8000
0xa9fc
0x14d9
0x97a8
0x97a5
0x97a2
0x97ad
0x12c4
0x155a
0x5ff4
0x5ff7
0x690a
0x617e
0x617b
0x8c3c
0x8887
0x3d67
0x6108
0x6105
0x6102
0x610e
0x610b
0x6983
0x6a71
0x9754
0x975c
0x9757
0x5f84
0x5f80
0x6971
0x8ce2
0x8ce6
0x5eaf
0x5eac
0x5ea5
0x5e6f
0x88c4
0x8d12
0x8d1e
0x8d19
0x696c
0x6962
0x8d0a
0x8d07
0x6115
0x6113
0x6111
0x5ee8
0x5ee1
0x5eeb
0x5fe2
0x5fed
0x5fe6
0x5e95
0x5e9a
0x5e92
0x5f6a
0x5f62
0x5f67
0x7cbe
0x7d05
0x875c
0x5fd6
0x9778
0x9771
0x1238
0x5f03
0x5f0e
0x5f5f
0x5eb4
0x5eb7
0x8cfc
0x8cf7
0x9745
0x5e79
0x8cbc
0xb8e7
0x6a21
0xb943
0x5f71
0xd7
0x689
0x4fb
0x4fb3
0xac7
0xa9ad
0xad4b
0x7d4
0x7e2e
0x52a
0x5e4
0x514b
0x5e41
0x39d
0x3124
0x316c
0x3197
0x8a5
0x8d5
0x894
0x9e0
0x9df
0x9e7
0x91e
0x9f32
0x122
0x15f
0xb448
0xb444
0xb43d
0xb45b
0xb43a
0xb453
0xb441
0xb44c
0xb439
0xb451
0x6eb4
0x4cb1
0xaae5
0x2cc
0x2d85
0x2da7
0x2d47
0x2d3c
0x2d69
0x2d4b
0x2d8f
0x2d74
0x2cde
0x2c87
0x2cfc
0x787d
0x7871
0x362d
0x3629
0x369c
0x36a2
0x3671
0x454f
0x4539
0x453c
0x3f42
0x7543
0x797c
0x7bad
0x8128
0x39e0
0x80aa
0x80cc
0x80e8
0x1431
0x142f
0x14fd
0x147e
0x5080
##221
0x3590
0x9031
0x9038
0x68f0
0x68fd
0x68f6
0x68db
0x132d
0x13e0
0x13bd
0x13f2
0x135b
0x13af
0x134d
0x1353
0x139a
0x1377
0x94a0
0x94df
0x5e40
0x5e48
0x5e44
0x5e5b
0x5e55
0x5e59
0x922d
0x92f8
0x92e2
0x7c22
0x7c7c
0x8517
0x8840
0x885d
0x88bd
0x889e
0x8838
0x88a5
0x88e6
0x8856
0x88b6
0x88ae
0x887c
0x88aa
0x88d9
0x8852
0x88d2
0x4fb6
0x15bd
0x15c3
0x1527
0xa9c0
0xa99e
0xa9b6
0xa9bb
0xa9a6
0xa99f
0x7edd
0x7e9d
0x7e96
0x7ebd
0x7e3d
0x7ec4
0x7ec7
0x7ecf
0x12da
0x12ab
0x8931
0x8938
0x8942
0x895f
0x894a
0x8951
0x2ca0
0x2cf2
0x2c25
0x2cc7
0x2cd3
0x9340
0x9358
0x933d
0x9325
0x932c
0x9349
0x937c
0x9377
0x934c
0x7d20
0x7d26
0x1304
0x1385
0xa9b8
0x8648
0x2d50
0x2d68
0x2d5d
0x2d88
0x2d31
0x2d75
0x2d25
0x2d33
0x2d3a
0x2d89
0x2d8e
0x2d9b
0x2d9a
0x2d2b
0x7503
0x92db
0x1359
0x1361
0x13b6
0x12fd
0x7eaf
0x7ea4
0x7eaa
0x7649
0x7e6e
0x13d2
0x13d9
0x7ed6
0x146f
0x1333
0x133e
0x6905
0x6901
0x68e3
0x68e7
0x9108
0x9304
0x9301
0x9309
0x12ad
0x7ee2
0x7ee0
0x888a
0x8880
0x8894
0x8891
0x8862
0x886e
0x8869
0x92f5
0x92f1
0x92fd
0x7eb6
0x515c
0x5155
0x5152
0x1295
0x8965
0x896a
0x8962
0x140c
0x12d3
0x9382
0x9381
0x88e8
0x88e1
0x88e7
0x931e
0x931b
0x5e6a
0x5e62
0x5e66
0x88c8
0x88c9
0x88cb
0x2d1c
0x2d1a
0x3ab8
0x9351
0x8a38
0x3170
0x319d
0x3128
0xac6e
0x8978
0x8971
0x897b
0x883c
0x8839
0x9334
0x9339
0x2cec
0x2ced
0x2ceb
0x4fd2
0x8847
0x884b
0xa983
0x893f
0x2d04
0x2d0e
0x88b1
0x7c33
0x885a
0x2d5c
0x8a6a
0x4fbe
0x5e4c
0x8945
0x2ccd
0xa70
0xa6a
0xa77
0xa62
0x7e4
0x519
0x51b
0x54a
0x3a8
0x874
0x8632
0x9f4
0x9c6
0x9e41
0x110
0x15c1
0x4030
0x43d4
0x6f9d
0x6fa0
0x6e45
0xaaba
0xaadc
0xaae6
0xaad5
0xaa86
0xaac9
0xaac5
0xaabe
0x2bb
0x8386
0x78fb
0x6ccb
0xa4ce
0xa417
0xa412
0xa424
0xa41b
0xa4d2
0x3bd1
0x7b50
0x7b70
0x7b49
0x7b9b
0x7b5f
0x7b9f
0x7b93
0x7b97
0x7b59
0x7b78
0x7b7f
0x7b45
0xa3ea
0xa3ee
0xa3fd
0xa3e6
0xa3e7
0xa319
0xa3fb
0xa3f7
0x8041
0x14b2
0x1473
0x147c
0x1477
0x1432
0x5026
0x9080
##e21
##cf7
##b80
0x3ece
0x8e12
0x13c9
0x13c7
0x8636
0x8613
0x863a
0x8629
0x8624
0x861a
0x3d90
0x9218
0x921a
0x877d
0x878b
0x7cd5
0x85e0
0x85f8
0x85f4
0x88e9
0x884d
0x7fcf
0x15c0
0x155d
0x15fe
0x1528
0x15f8
0x15f4
0x1514
0x1519
0x151b
0x9c20
0xa9e0
0x12f8
0x12af
0x12ed
0x91ea
0x91f5
0x91f1
0x8910
0x7db2
0xa40f
0xa407
0xa40b
0xa9bc
0x9a38
0x9a33
0x12f5
0x12f1
0x14d8
0x14d5
0x14d2
0x150f
0x1506
0x13dc
0x12c7
0x12cb
0x146c
0x1557
0x12a1
0x1582
0x1586
0x15b4
0x15ba
0x15b1
0x3ae8
0x3ae3
0x1604
0x1602
0x1601
0x9201
0x860e
0x860b
0x91d1
0x85e5
0x85e1
0xa9d2
0x8905
0x8909
0x4409
0x9143
0xb271
0xaba9
0x862e
0xa97e
0x9bde
0x85fa
0x9f21
0x15fb
0xe0
0xad6
0xabe
0x7ce9
0x7cf7
0x56c
0x3e7
0x3aa
0x3e2e
0x8a8
0x8679
0xb04
0xb311
0x6416
0x9ab
0x9af
0x9b8
0x9bb0
0x91fc
0x11c
0x4040
0x4b5b
0x43ee
0x43f2
0x43eb
0x43e1
0x6f4d
0x41dd
0x6eb1
0x4c3e
0x2a
0x244
0x83ea
0x83c0
0x83a3
0x8390
0x8381
0x83d0
0x83aa
0x838b
0x839c
0x83e3
0x83b5
0x837e
0x83e8
0x83de
0x82cf
0x7851
0x6602
0x7791
0x7734
0x6d68
0x7a82
0x7a85
0x3f16
0x3f13
0x3f2c
0x3f1e
0x3f24
0x3f1b
0x3f21
0x3f43
0x7589
0x7556
0x758c
0x7587
0x7572
0x3b31
0x3b13
0x5c42
0x7660
0x7668
0x7658
0x7675
0x76fa
0x7661
0x6bda
0x6bc6
0x6bc5
0x6bcd
##f57
0x14bd
0x14f5
0x1474
0x14e1
0x992f
##4f7
0x74ce
##fa8
##fad
0x90f0
0x90ed
0x90f4
0x90e6
0x9f18
0x98c0
0x9876
0x98df
0x98e6
0x98ad
##999
0x4410
0x44ba
0x867d
0x8676
0x8673
0x8667
0x8662
0xa8f3
0x9211
0x9226
0x9215
0xb090
0x87a3
0x87c6
0x8784
0x7cfe
0x7c90
0x7caf
0x8520
0xa52f
0xa5f5
0xa529
0x7fcd
0x9eff
0x8ac7
0xa99d
0xa990
0x3a8e
0x7e36
0x1258
0x91ff
0x91dd
0x91ee
0x91e0
0x9118
0x912a
0x9125
0x9129
0x91e7
0x89bd
0x8926
0x7d2d
0x7d23
0x7d0d
0x7d2b
0x9b81
0x9b5c
0x9b59
0x9b77
0x9b72
0xa9b3
0x90ec
0x87c8
0x87c1
0x6bd4
0x6bdc
0x87a8
0x87ad
0x7f69
0x868f
0x8687
0x868e
0x8680
0x9105
0x910a
0x9101
0x9114
0x9111
0x911e
0x911b
0x3eaf
0x3eab
0x44b3
0x44b0
0x9a94
0x865f
0x8655
0x8651
0x8659
0xa563
0x920e
0x91d5
0x91d2
0x91d9
0x89a8
0x9f02
0x9f07
0x3a98
0x3a9f
0x9ba1
0x9bad
0x9ba9
0x4449
0x4446
0x8761
0x8766
0x9443
0x7cb0
0x7d08
0x13ef
0x9bbf
0x9bb7
0x7ce2
0x7d12
0x866f
0x866d
0x8666
0x1f44
0x9b6f
0xa5de
0x7df3
0xb0bc
0x94d3
0x90d7
0x9b51
0xb38e
0x91e4
0xa621
0x51be
0x2449
div
jbe
px
##2sd
##sd2
##tsd2
0x4d1
0x4401
0xa84
0xa65
0xad47
0xad7f
0xad41
0xab8d
0xac54
0x7f2
0x71e
0x7fa
0x7ca
0x7f5c
0x7d71
0x74f7
0x57d
0x556
0x57c
0x584
0x58b
0x567
0x566
0x5803
0x3ebe
0x8a4
0x867
0x88d
0x88f7
0x88b5
0x8e2b
0x8e37
0x8e21
0xbfe
0xbc3
0xbd62
0xb233
0x9c8
0x957
0x9b4
0x9d9
0x9124
##si2sd
0x6555
0x6598
0x65b1
0x654e
0x656e
0x118
0x125
0xb497
0x409d
0x402f
0x40a4
0x4056
0x405e
0x40b6
0x40bb
0x4065
0x4059
0x40d4
0x408f
0x4074
0x4062
0x40cf
0x40b1
0x406f
0x4092
0x4085
0x408a
0x407e
0x4079
0x43da
0x43f9
0x43ce
0x43d1
0x43c3
0x43f6
0x43d7
0x43ca
0x43c5
0x43e5
0x43e8
0x43fc
0x43de
0x6f22
0x6fb5
0x6e3f
0x4270
0x42a9
0x4c64
0x4ca0
0x4caf
0x4c4d
0x4c8c
0x4c9b
0x4caa
0x4c82
0x4c98
0x4ca7
0x4c91
0x4cb0
0x4c6e
0x4c43
0x4c5a
0xc29
0x7848
0x7890
0x7875
0x78f5
0x7838
0x7856
0x7884
0x7893
0x786a
0x7866
0x786d
0x7861
0x785a
0x7879
0x4945
0x38c0
0x3cce
0x3c76
0x3cd0
0x3cc9
0x3cc6
0x3cd8
0x3c6e
##c0c
0x84da
0x84ce
0x84bb
0x84c7
0x84e1
0x84bf
0x7a50
0x7a6c
0x7a1f
0x63a6
0xae22
0xaeb5
0xa4f0
0xa4e0
0xa4fe
0xa4dc
0xa4d8
0xa4e4
0xa4fa
0xa4f7
0x7568
0x752d
0x7518
0x7548
0x752f
0x7526
0x7538
0x7563
0x751e
0x7515
0x7553
0x7532
0x754a
0x7592
0x756d
0x7551
0x7578
0x7580
0x757e
0x79bd
0x79e8
0x3b2a
##688
##2d8
0xbba3
0xbba5
0xbb4e
0xbb7f
0x81bd
##1db
0x4623
0x4626
0x467c
0x4697
0x461b
0x4677
0x4621
0x4691
0x4694
0x4699
0x7670
0x7631
0x763d
0x7633
0x763a
0x7655
0x7667
0x761f
0x762e
0x7669
##8888
##3d2
0x80ff
0x80f0
0x802d
0x80bd
0x80ce
0x8027
0x80e9
0x80d5
0x80c9
0x8022
0x80d8
0x8024
0x8019
0x801b
0x80b3
##263
##81b
0x143e
0x50a0
0x507e
##bbe
0x9960
0x9970
0x9989
0x9953
0x994f
0x997c
0x995c
0x9977
0x994b
0x994c
0x9980
##7cc
0x7440
0x7450
0x7460
0x74f0
0x7488
0x74b9
0x7456
0x7459
0x74cb
0x74c1
##141
0x90d1
0x90df
0x90b2
0x90dc
0x90b9
0x90eb
0x90b6
0x90c8
0x90c5
0x90be
0x90cd
0x97ea
0x98b9
0x3e64
0x3e50
0x3e68
0x3ebd
0x3e88
0x3e7d
0x3e3d
0x3e9e
0x3e7a
0x3e76
0x3e5e
0x3e73
0x3e8e
0x3e53
0x3e8b
0x3e5f
0x3ec2
0x3e8a
0x3e80
0x8e64
0x8e50
0x8e30
0x8e5b
0x8e5e
0x8e19
0x8e1c
0x8e3e
0x8e83
0x8e85
0xaf68
##547
0x4431
0x4428
0x4425
0x4438
0x44b9
0x443b
0x4417
0x4412
0x441e
0x4435
0x4419
0x443e
0x4451
0x4454
0x86be
0xacf9
0x3d64
0x3d5d
0x3d6c
0x3d89
0x3d42
0x3d93
0x3d9a
0x3db8
0x945d
0x9473
0x9453
0xa85d
0xa82c
0xa853
0x8ba0
0x8b32
0x8b39
0x8744
0x873d
0x8733
0x8738
0x8729
0x871b
0xdc0c
0xd1db
0xd3d2
0xd263
0xd81b
0xdbbe
0xd7cc
0xa50c
0xa505
0xa502
0x7c9d
0x7c3d
0x7ca9
0x7c29
0x7c8e
0x8560
0x852a
0x88f0
0x88fe
0x88df
0x88d0
0x88d8
0x88d3
0x4e87
0xa540
0xa51d
0xa525
0xa52c
0xa512
0xa515
0xa541
0xa51f
0xa521
0x9529
0xad70
0xad36
0xad3d
0xad3a
0xad92
0x7fee
0x7f30
0x7f2d
0x7f23
0x7fa4
0x7fb9
0x7fae
0x7fc8
0x7fca
0x7fc1
0x9aa3
0x9a9d
0x9aa4
0x9a86
0x9a63
0x9a84
0x9aa6
0x9a77
0x9a74
0x8aff
0x8a60
0xabfe
0xab12
0xab72
0xa9f0
0x3a00
0x3ac5
0x7efe
0x7e44
0x7e7d
0x7edf
0x7ef1
0x7e49
0x7ef4
0x7e35
0x7e55
0x7e5c
0x7efb
0x7ef7
0x4688
0x4685
0xbde8
0x8918
0x7463
0x7d18
0x9b60
0x9b68
0x9b9d
0x9bce
0x9bc3
0x9bba
0x9b7a
0x9b6c
0x9b4d
0x9b8e
0x9b86
0x9bc6
0x9bcb
0x9b7e
0x748f
0x7484
0x7480
0xdaa5
0xda0f
0xdabe
0x9965
0x9967
0x7495
0x749a
0x7492
0xa53f
0xa53c
0x8b9b
0x3d4c
0x3d45
0x3d4a
0xbca6
0xdb20
0xdb13
0xdb05
0x7502
0x7507
0x90ef
0x90e3
0x9aa1
0x9a3d
0x9a3e
0x800a
0x8003
0x7f94
0x7ff1
0x7ff7
0x7ffe
0x7f8b
0x7f63
0x8102
0x810e
0x810b
0xafd0
0xad0f
0x764e
0x7e69
0x9a5f
0x9a55
0x7edb
0x1463
0x148f
0x9a6a
0x9a6d
0x9a67
0x9102
0x9109
0x9106
0xd8c3
0xd821
0x7f1f
0x911f
0x911c
0x9115
0x9112
0x9119
0x7ee8
0x7ee4
0x7eed
0x7eeb
0x74d3
0x7f54
0x9a45
0x9a41
0x9a4d
0x9a49
0x3ea4
0x3ea3
0x3eae
0x3ea0
0x44b5
0x44b1
0x44b7
0x3d61
0x3dab
0x3e98
0x3e9f
0x3e9c
0x3e92
0x3e91
0x3e99
0x3e9b
0x3eb8
0x3ebb
0x4e92
0xc2b4
0x88e4
0x7fbf
0x7fb0
0x8e6e
0x8e6b
0xad51
0x90f3
0x3e4c
0x3e41
0x3e47
0x7c87
0x8b8d
0x93a6
0x8904
0x8901
0x4404
0x8e45
0x9ba4
0x444c
0x4442
0xac62
0x944b
0x7444
0x744d
0x7447
0x7449
0x3e6f
0x3e65
0x3e62
0x3e67
0x8752
0x8759
0x8e7e
0x8e79
0x7fd3
0x9bb4
0x9461
0x9466
0x7cef
0x9b98
0x9b95
0x9b92
0x4422
0x442e
0x442b
0x7fe5
0x7fe3
0x9b63
0xab6e
0x7c45
0x7c98
0x7c95
0x3d54
0x9a71
0x7c79
0x90d4
0x4e0b
0x9b54
0x3a79
cvttsd2
cvtsi2sd
0x55b9
mulsd
0xb079
0xd7f5
0x39d0
0x7e4e
0x874b
0x56c9
0x3e78
0x9b8a
divsd
pxor
0x7f2a
0x7fa2
0x7ca2
0x88de
0xbc35
cvttsd2si
##ss
0x4f5
0x4d8
0x4fa3
0x4f97
0x4fbc
0x4fad
0xa5e
0xac8
0xa93
0xafb
0xa7e
0xafac
0xad62
0xab79
0xafb3
0xa947
0xab80
0xafa8
0x564b
0x396
0x8f5c
0xbdd
0xbf0
0xb1a1
0xb221
0xbf57
0x9d0
0x942
0x9d8
0x94a
0x11b
0xb47d
0xb475
0xb489
0xb4aa
0xb482
0xb478
0xb46b
0xb471
0xa03b
0x4013
0x402c
0x400b
0x401f
0x402e
0x4004
0x4001
0x6fa3
0x6f96
0x6f6c
0x6f8c
0x6f84
0x6faa
0x6f87
0x6f8f
0x6fa8
0x6f99
0x6f80
0x6e68
0x6e97
0x6e66
0x6e8d
0x4243
0x4cc1
0xaa6c
0xaa97
0x2ba
0x2b8d
0x2688
0x96ea
0x96d1
0x96fd
0x96f6
0x96d8
0x96e2
0x96db
0x96e5
0x96ef
0xa1dd
0xa1ce
0xa17d
0xa1ba
0xa176
0xa1a9
0xa16c
0xa173
0xa1ae
0xa1a6
0xa165
0xa1c8
0xa198
0xa1cb
0xa191
0xa1b3
0xa185
0xa1c1
0xa18a
0xa180
0x838
0xc9d
0xc88
0xc90
0xc28
0xcb2
0xc9c
0xcf51
0xc7a1
0x826b
0x4927
0x492a
0x491e
0x491b
0x4939
0x492e
0x4937
0x4934
0x4947
0x77c8
##002
0x3c60
0x3c0e
0x3c65
0x3c04
0x3c5a
0x84bd
0x84c9
0x84aa
0x84c5
0x84ad
0x84a2
0x84c1
0x84b7
0x4550
0x4546
0x454d
0x4549
0x453f
0x4551
0x4552
0x7a27
0x7a2a
0x7a38
0x7a3b
0x7a22
0x7a34
0x7ad2
0x7a43
0x7a45
0x63bb
0x10f0
0x3fee
0x3fc0
0x3fe0
0x3faf
0x3fdc
0x3feb
0x3fd0
0x3fe4
0x3faa
0x3fc4
0x3fc7
0x3fb4
0x3fcc
0x3fbc
0x3fb7
0x6cf8
0x6cd5
0x6c98
0xaeff
0xae18
0xae27
0xae2a
0xaedf
0xae3a
0xaed6
0xae15
0xae0e
0xae1b
0xae41
0xaec2
0xaecf
0xae1f
0xae4a
0xaed3
0xae51
0xaed9
0xaecc
0xae4e
0xae04
0xae54
0xae06
0xae47
0xae5a
0xb532
0xb583
0x79c4
0x79cb
0x3ba3
0x3b44
0x3bf5
0x3b3a
0x3b9b
0x3b35
0x3b32
0x3b91
0x3b94
0x3b8a
0x3b3c
0x3bfc
0x47ab
0x47b9
0x47b6
0x47c5
0x47b0
0xbbe7
0x4823
0x4870
0x4888
0x487d
0x4826
0x489e
0x4876
0x4889
0x488c
0x4886
0x489b
0x487b
0x486b
0x486e
0x4879
##3d3
0x80e6
##0d9
##0d6
0x14ce
0x1448
0x1455
0x1437
0x1434
0x5057
0x504e
0x5054
##63e
##5cf
0x90a5
0x909b
0x90aa
0x909f
0x9097
0x9742
0x9f30
0xb803
0x3e12
0x3e14
0x3e1c
0x3e1a
0xafa3
0xaf46
0xaf33
0xaf7a
0xafaa
0xafc2
0x8c2f
0x86ee
0xac68
0xace0
0xacce
0xac75
0xacf6
0xac5e
0xac73
0xacd6
0xac57
0x3df9
0x3d9d
0x3dfe
0x3dce
0x3df2
0x3dba
0x3dbe
0x3def
0x94d1
0xa816
0xa83d
0xa83a
0xa824
0xd865
0xd934
0xd002
0xd0d9
0x7c15
0x8830
0x4f10
0x4fab
0x4fe0
0x4fce
0x4f88
0x4fa9
0x4fc9
0x4fc6
0x4fcb
0x4e9e
0x4e89
0x4e84
0x4e8f
0xa558
0xa55b
0x8f64
0x8f60
0x8f58
0x8f48
0x8f3d
0x8fb2
0xadf0
0xad2d
0xad1d
0xad58
0xad28
0xad2f
0xad49
0xade6
0xad8c
0xad86
0xad24
0xad3f
0xad2b
0x1512
0x151a
0x9c1a
0xa285
0x9e6c
0x3ffb
0x8d6c
0x8a1d
0x72f8
0xaddc
0xadde
0xab23
0xaba0
0xab87
0xab71
0xa9ea
0xa9dd
0xa9ee
0xa9da
0xa911
0x3a9d
0x3aaf
0x3ac3
0x3a7a
0x3aa9
0x3aa5
0x1218
0xdd00
0xddbd
0xdd17
0xaf6e
0x9f9f
0xb35b
0xbeb2
0xa967
0x9704
0x9f87
0xaf1c
0xaf15
0x625a
0x7de0
0x7db9
0x7d4f
0x7de8
0xd028
0xd059
0xaf8a
0xaf83
0xaf05
0xad1a
0xad13
0xc9a9
0x3ddc
0x3dd2
0x3dd9
0x8a08
0x856d
0xbcd1
0xd95f
0x3a57
0x948c
0x9485
0x5288
0xaf94
0xaf9c
0xaf91
0xaf97
0x3dca
0x3dc1
0x3dc6
0x8fb3
0xaff3
0xaff2
0xaffe
0xaff6
0x150d
0xad0c
0xad03
0x6283
0xa557
0xadf3
0xadf6
0xaee8
0xaee4
0xaeee
0xaee6
0x13de
0x12c8
0x13ac
0x1441
0x1449
0xcad1
0xcad8
0xc0ff
0xbf7c
0x4e7e
0x740d
0x8f4c
0x8f45
0x8f43
0x3da5
0x3daa
0x3dae
0x917f
0xafec
0xafe1
0xafed
0x4f0d
0x4f07
0xaf3c
0xaf3e
0xaf39
0x3e0a
0x3e01
0x3e0d
0x3e06
0x62c7
0x4ea0
0xabd2
0x62a8
0x62a2
0x1403
0x140d
0xa561
0x9495
0x8f5a
0x8f52
0x3ab2
0x3abe
0x3ab9
0x3abb
0x4f9c
0x4f9a
0xa9d6
0xa9d0
0x3a95
0x8d06
0xc864
0xc8a8
0xac65
0xac6b
0x7dcd
0x7dcb
0x4fd8
0x4fd0
0xac03
0xac0b
0xac06
0xace8
0xacef
0xace2
0xa98a
0xaba2
0xab9c
0xab93
0x269d
0x2676
0x26b3
0xa9e2
0xa9e7
0xab6d
0xb30a
0x523e
0x4f85
0xad84
0xad82
0x5277
0x527e
0x2b7b
0x5252
0xc89a
0xc89b
0xbeee
0x94b3
0xc00d
0xac7b
0x122b
0x2bb8
0xad66
0xabef
0x3aa7
0xac82
0xafb5
0xbdd4
0xbf0b
0x2ba2
0xc9d7
0xc888
0xc908
0xcb22
0xc9c5
##ap
movap
0x4df
0x4dc
0x4d6
0xa7a
0xa76
0xa59
0xa8f7
0xa803
0xa780
0xa999
0x558
0x52c
0x58c
0x58e
0x51e
0x5640
0x55d8
0x55cc
0x5632
0x55c1
0x563e
0x55cf
0x8ce5
0x88bf
0xb68
0xb70
0xb3a
0xbf6
0xb3e
0xb2d5
0xbed6
0xb2d8
0xb3d3
0x9ce
0x9d5
0x9c9
0x9c7
0x9f55
0x111
0x119
0xb42d
0xb428
0xb425
0xb433
0xb41e
0xb414
0xb419
0xb432
0xb405
0xb40a
0xb402
0xb434
0xa0dd
0xa088
0x590b
0x4070
0x4b70
0x4b75
0x4bf1
0x4bed
0x4b89
0x4b97
0x4bf3
0x4bfa
0x4b94
0x4b6b
0x4b7f
0x4be8
0x6ee3
0x4c03
0xaa72
0x2ea
0x2e0
0x2f1
0xc25
0x824b
0x824a
0x4a81
0x4a87
0x4a3f
0x4a7e
0x4a3c
0x4a8d
0x38e0
0x7770
##ffffff
0x6d8c
0x6d7e
0x7ac3
0x6cb5
0x7be8
0x815f
0x766a
0x39a0
0x1468
0x1479
0x50a9
0x50e9
0x50e6
0x50a6
0x501b
0x50e8
##fa7
##d7e
0x6842
##d94
##dbf
0xaf28
0x6a44
0x86e0
0x86d1
0x86d8
0x9414
0x94ec
0xa850
0xa858
0xa831
0xa8f8
0xa811
0xa827
0xa842
0xa80e
0xa8fb
0x8bfa
0xb03e
0xb080
0x8770
0x87fd
0x7c40
0x7c36
0x7c31
0x7c53
0x855e
0x8823
0x5c0b
0x11ea
0xc390
0x72be
0xab2a
0xa900
0xa960
0xa95b
0xa933
0xa938
0xa956
0xa929
0xa942
0xa953
0xa914
0xa924
0xa998
0xa91a
0xa91f
0xa992
0xa94c
0x3a7b
0x7e24
0x1250
0x12e3
0xb3dd
0xb3ee
0xb3da
0xb396
0xb3a0
0xb3ce
0xb3af
0xb3ba
0xb3a9
0xb3a5
0xb3f1
0xb3f6
0xb3e7
0xb3c9
0xb39b
0xb3c4
0xb393
0xb3fb
0xb392
0xa96a
0x515b
0xb2dd
0xb2ee
0xb2f8
0xb2eb
0xb2b6
0xb2e2
0xb2b1
0xb2bf
0xa6f2
0xa6eb
0xa7f1
0xa7fd
0xb2ac
0xb2a9
0x14d3
0x562d
0x5623
0x562a
0x5638
0x5617
0x5612
0x561e
0x1287
0x55da
0x55f9
0x55fe
0x55e9
0x55f6
0x55c6
0x1444
0xa7d7
0x518b
0xa905
0xa90a
0xa90e
0x930b
0x86cc
0x86c7
0x1399
0xc210
0xb2f3
0xc876
0x6a33
0x6a36
0x933a
0xa60d
0xa81b
0xa5fa
0xa98d
0xa974
0xa979
0x7c4c
0x893c
0x7d57
0x5608
0x560f
0x5605
0x55d4
0x55d1
0x55d6
0x55ef
0x55e4
0x55e1
0xb2cc
0xb2c2
0xb2c7
0x9eaf
0x55bf
0x4d5a
0xa861
0xb3bf
0xb3b5
0x9dd5
0x87e5
0x6861
0xa734
0x1138
0x7d4a
0xa847
0xc292
0xa93f
0xc281
0xb3ac
0xbf66
0xb3e2
0xc255
hl
r9
##d75
##796
movd
0x4d4
0xa64
0x71b
0x7c5
0x7cd
0x7fac
0x7d47
0x7d62
0x7d8f
0x7d95
0x538
0x53b
0x589
0x555
0x51c
0x5fa1
0x5f51
0x5fa7
0x8a2
0x8878
0x8547
0xbff
0xbf3
0xb74
0xb0a
0x649e
0x6403
0x6406
0x9cb
0x9b0
0x9d7f
0x9e2b
0x116
0x140a
0x122e
0x13e1
0xa082
0xa07b
0xa08f
0xa066
0xa06d
0xa085
0xa0cc
0xa00c
0xa08d
0x4019
##20796
0x6f30
0x6f36
0x6f33
0x6f2c
0x6f3b
0x6f29
0x6f42
0x6f3e
0x41f0
0x4170
0x41ba
0x41e9
0x418c
0x4173
0x41b6
0x41e4
0x41aa
0x41c8
0x418f
0x4177
0x41ca
0x4198
0x41c2
0x41c5
0x41be
0x41e1
0x4183
0x41ec
0x41ad
0x4194
0x417f
0x6e9e
0x6e56
0x6e5e
0x6e63
0x6e87
0x6e59
0x6e6a
0x6e4b
0x6e6d
0x6e83
0x6e52
0x6e4e
0x6e8a
0x6e80
0x6efc
0x4cce
0x4cdb
0xaaec
0xaabc
0x2df
0x3710
0xa1e2
0xa109
0x78d6
0x78e3
0x78cf
0x78c5
0x78d9
0x78cc
0x78e5
0x78fc
0x77ee
0x775d
0x7758
0x7726
0x772c
0x775f
0x7766
0x7752
0x774e
0x7769
0x7747
0x775a
0x6010
0x602c
0x6017
0x6024
0x601b
0x451c
0x7a9d
0x7aa4
0x7aae
0x7a92
0x7aac
0x7aa7
0x7a8a
0x7a99
0x6390
0x63af
0x6327
0x63f4
0x63c8
0x63cf
0x63be
0x63ec
0x6321
0x63b3
0x6394
0x63b0
0x63e5
0x63d2
0x63b7
0x63ef
0x63e8
0x63fc
0x1080
0x3fea
0x3fd4
0x3fe8
0x6cbd
0x6ca4
0x6cc2
0x6cac
0x6cd3
0x6cbf
0xb52
0x79ce
0x7911
0x7913
0x79d6
0x7997
0x79c7
0x7909
0x7902
0x7906
0x790c
0x3b14
0x7bf8
0x7ba5
0x7bcf
0x7be1
0x7bf7
0x7bb7
0x5c75
0x803a
0x8052
0x1460
0x14da
0x142d
0x14f9
0x1436
0x14df
0x1417
0x14c9
0x14c6
0x1457
0x145c
0x147b
0x14b1
0x14ac
0x14a7
0x1421
0x1452
0x14bf
0x1454
0x1471
0x14fc
0x50f0
0x50f5
##d6d75
##5320796
0x7455
0x745320796
##24e
##6666
0x3ec4
0x549d
0x139d
0x1396
0x137a
0x13f6
0x13ca
0x13c5
0x697a
0x69b2
0x6912
##699
0xb50e
0x6a30
0x6aa0
0x6a26
0x6aa5
0x6a29
0x6ac7
0xa860
0xa85f
0x5edd
0x5eda
0x5e9e
0x5edf
0x5e73
0xb0ae
0xb09f
0xb09c
0xb098
0xb0a8
0x87ea
0x87dd
0x87d1
0x87f6
0x87e2
0x7c1d
0x7c17
0x8538
0x8549
0x8542
0x8868
0x882d
0x8848
0x8828
0x885b
0x88ba
0x882a
0x883a
0x885e
0x884f
0x8835
0x88ac
0x88a7
0xa5f9
0xa5aa
0xa5c8
0x7fa0
0x7fa5
0x7fb6
0x1118
0x8a40
0xab20
0xab1d
0xab16
0xab28
0xab0b
0x3acf
0x7e18
0x7e11
0x7e1f
0x12ff
0x1212
0x12e7
0x4d31
0x914f
0x51c3
0xb288
0xb275
0xb29e
0xa6da
0xa633
0xa613
0xa6d8
0xa615
0xa7ff
0xa7da
0xa7f9
0xa758
0xa7eb
0xa7ed
0xa7e7
0xa7f3
0xa7e1
0xa7f7
0x93fe
0x9390
0x935b
0x93e7
0x93cd
0x7dea
0x7dc0
0x7d30
0x7d88
0x7d36
0x7d44
0x7d3d
0x7d75
0x7d5b
0x7d2f
0x7d7a
0x7d81
0x7d9f
0x7d9a
0x7de3
0x7db1
0x7d92
0x5fa9
0x5fa4
0x9bea
0x69ef
0x69ec
0x130e
0x131a
0x131b
0x927c
0xffffffffffffff
0x87d8
0x92d5
0x9d73
0x8c07
0x87ca
0x6ea1
0x7f9a
0x7f93
0x12f4
0x12fb
0x7ff2
0x5216
0x1282
0xb28c
0xb282
0xb28e
0xb286
0xb280
0x69b0
0x150a
0x1501
0x8534
0x13d4
0x13d7
0x13db
0x13aa
0x13a6
0x1443
0x144e
0x146d
0x690e
0xa7de
0xa7d6
0x6abf
0x6ab2
0x6ab6
0x6005
0x600a
0xa904
0x1492
0x8885
0x888e
0x693c
0x693e
0x6939
0x889f
0x8895
0x886a
0x8861
0x1395
0x3ae5
0x5f8e
0x5f8b
0x1405
0x12dc
0x12d2
0x12d7
0x12de
0xa56f
0x938d
0xa580
0x5ea3
0x5ea1
0x88ec
0x8a35
0x8a3b
0xb2fc
0xb2fa
0xb2fb
0x3a9a
0x5f15
0x5f12
0x5f17
0x6a3f
0x6a3c
0x6a39
0x7d07
0xb77e
0x7dcf
0x7dc6
0xa604
0xa601
0xa607
0x5f98
0x5f95
0x5f92
0x5f9e
0x5f9b
0x8841
0xb27c
0xb272
0xb279
0x7e04
0x7e0c
0x7e01
0x7e07
0x5137
0xab99
0x5f54
0x5f56
0xb298
0xb294
0xb29a
0xb292
0x7ddd
0x7dd6
0x7dad
0x7da6
0x7c43
0x9747
0x7dfa
0x7c62
0x8aac
0x7d54
0xb0b0
0x6a42
0x88b3
0x5e77
0x8871
0x887e
0x887b
0x51d2
0x8854
0x2bff
0x881c
0x8815
0x87ef
0xab08
0x8804
0xb094
0xb095
0x8a51
0x9df6
0x5195
0x3a80
0x8a8d
0xa65a
0x71e5
0x5562
0x8a47
0xa7e5
movapd
0xa594
hlt
0x7cd2
0x8a2e
0xb0a2
##d6d7544
0x745320796d6d7544
0xfffffffffffffff0
0xd4
0xa2d
0xa23
0xa7c
0xa8b
0x530
0x54d
0x5652
0x51e8
0x54d0
0x54cd
0x5124
0x5243
0x3ad
0x8d8
0x8c8
0x898
0xb64
0xb9e
0xb05
0xb0d6
0x64ad
0x9e6
0x929
0x9e4
0x955
0x93e
0x947
0x944f
0x9dc2
0x9d74
0x117
0x156
0x132
0x11a
0x1233
0x153f
0x11b8
0x1243
0xb49a
0xa050
0xa070
0xa058
0xa05c
0xa054
0x5916
0x6fba
0x6f65
0x6f7b
0x41fe
0x6e10
0x6e3a
0x6e12
0x6e0c
0x6e43
0x42ca
0x426b
0x4cfb
0xaafe
0xaaeb
0xaaf3
0xaaf7
0xaaef
0x96a1
0xa13c
0xc7f
0x8288
0x82ba
0x82fc
0x78b2
0x7801
0x77f9
0x775b
0x77e9
0x77e6
0x7712
0x77bb
0x779f
0x7755
0x77f3
0x7785
0x7799
0x6d20
0x6d58
0x6d53
0x6d4b
0x6d66
0x6d4e
0x7a7c
0x7a55
0x6350
0x6388
0x63a9
0x638e
0x639a
0x636f
0x637e
0x638d
0x3f5b
0xbae1
0xbae8
0x6c77
0x799c
0x7979
0x7bb1
0x7b51
0x81c5
0x767d
0x767c
0x7693
0x7692
0x6bf0
0x6bf8
0x6be9
0x6be2
0x6be1
0x6bf7
0x6be5
0x39c0
0x39b8
0x802a
##12e
0x14af
0x14c3
0x50ee
0x50fc
0x7427
0x7429
0x9f44
0x6823
0x689e
0x680f
0x685a
##839
0x54ee
0x54da
0x54f8
0x54f5
0x54df
0x54fd
0x54e9
0x54c6
0x54ae
0x54e4
##78d
##7e8
0x34f8
0x8c60
##345
0x617d
0x3d49
0x94c0
0x9468
0x949d
0x9458
0x9448
0x9428
0x947d
0x9475
0x94c3
0x94b2
0x94a4
0x94b9
0x94b6
0x94c8
0x9457
0x9434
0x6270
0xa8ea
0xa80b
0xa802
0xb016
0xb025
0xb05e
0xb063
0xb04f
0xb014
0xb01b
0xb059
0xb077
0xb04a
0xb06d
0xb039
0x7310
0x7c55
0x85da
0x8809
0xa5af
0xa5c3
0xa59e
0xa5f4
0xa5e6
0x153a
0x1553
0x154b
0x154e
0xb956
0x9aeb
0x9c30
0x1158
0xc3f3
0xc3fa
0x8d97
0x8a2d
0x8a18
0x8a28
0x8a25
0x8a17
0x8a1e
0x8a14
0x8a1b
0x8a1a
0x721c
0xab10
0xa9ba
0x3ace
0x3acb
0x7e48
0x1230
0x1223
0x1270
0x89ea
0x89ee
0x89da
0x89f8
0x89f5
0x897a
0x89f1
0x89c6
0x51f9
0x51fe
0x512a
0x51ed
0x51f4
0x51c8
0xa62d
0xa731
0x93ab
0x93b2
0x93a4
0xa5b4
0xa5be
0xa5b9
0x9b1d
0x9b1a
0x7688
0x768b
0x7680
0x8a0d
0x9db8
0x727e
0x800f
0x800c
0x8001
0x8007
0x800e
0x9481
0x9489
0x5220
0x5270
0x5258
0x5248
0x5290
0x522f
0x5225
0x522c
0x524d
0x521b
0x9255
0x552d
0x5523
0x5548
0x552a
0x551e
0x554f
0x5514
0x5519
0x5541
0x8a9c
0x8a97
0x94cd
0x1334
0x133c
0x1337
0x89d8
0x89d4
0x89de
0xb00f
0xb005
0xb000
0x89cd
0x1298
0x89e6
0xa565
0xa56a
0x9493
0xa58a
0xa681
0x89b8
0x89b4
0x120d
0x1200
0xa9d5
0x8a32
0x8a37
0x8a36
0x89ac
0x89ad
0x510b
0x157e
0x9447
0x9446
0x2ff3
0x89fa
0xa75f
0xa752
0xa574
0xa57b
0xa9cb
0x946f
0xa814
0x11d0
0x513e
0xa5dc
0xa5d2
0xab67
0x7dab
0x9ee1
0x1272
0x8aa8
0x8aaa
0x8aa2
0x550f
0x550c
0x5502
0x5507
0x5234
0x5239
0x529f
0x529c
0x5295
0x94d2
0x1265
0x5115
0x520f
0x5205
0x520a
0x152b
0x51dc
0x51d7
0x5285
0x528b
0x525a
0x5265
0x5261
0x553c
0x5532
0x5539
0x54bf
0x54bc
0x54b5
0x11e3
0x94b5
0xab03
0x1537
0x8d55
0xa774
0x54a2
0x54a7
0x9f41
0xb045
0x2ad5
0x9d91
0xa5e4
0x942b
0x94a8
0x51e3
0x5552
0x51cd
0x54d5
0xb054
0x9479
##dec
0x4d78
0x4d41
0xa87
0x7d8
0x7d78
0x7d94
0x52d
0x531
0x57a
0x576
0x573
0x57b
0x577
0x572
0x56d
0x580
0x56fc
0x57b5
0x5834
0x57d7
0x57bc
0x57a1
0x5780
0x5141
0x5699
0x5839
0x578d
0x57e8
0x317
0x8ac
0x85b0
0x8d37
0x8d4b
0x8cde
0x8d41
0xb23
0xb31
0xb75
0xbfd
0xb81
0xb17
0xbf32
0xb934
0x9f5
0x953
0x98b
0x9c4
0x9d8f
0x9c54
0x100
0x1247
0x124e
0xb490
0xb49b
0xb492
0xb495
0xa004
0xa03c
0x4077
0x406b
0x4120
0x41fc
0x6ef9
0x6ef2
0x6eeb
0x6ee7
0x6efb
0x6ee8
0x7068
0x42f8
0x4257
0x425c
0x424a
0x4254
0x4ce7
0xaa00
0xaac8
0xaab1
0xaa95
0x2dc
0x2c7
0xa140
0x8331
0xc0b
0xc141
0xcdec
0x8250
0x8260
0x822d
0x82ab
0x82a3
0x8218
0x8296
0x8248
0x8226
0x8256
0x82f6
0x8222
0x82a6
0x8214
0x829c
0x821b
0x8259
0x828f
0x823e
0x8267
0x82b5
0x8252
0x82b0
0x8234
0x7896
0x66ee
0x66eb
0x66e2
0x66e1
0x3810
0x77ab
0x77a5
0x774d
0x7787
0x7797
0x7798
0x7709
0x774c
0x77ad
0x776b
0x3610
0x363d
0x3677
0x6d00
0x6d10
0x6d05
0x8465
0x67ee
0x67f0
0x6710
0x6711
0x67dc
0x6712
0x67d8
0x67e4
0x67d4
0x670b
0x67cc
0x67cd
0x6701
0x67e8
0x7abe
0x6364
0x6360
0x6382
0x10f8
0x6cfd
0x6c14
0x6c9c
0x6c32
0xa433
0x75dd
0x75f2
0x75e7
0x75d8
0x75f3
0x75d4
0x75e2
0x7920
0x7996
0x792f
0x7927
0x792a
0x7986
0x79ae
0x7965
0x791c
0x79ca
0x7974
0x7983
0x7961
0x7969
0x7934
0x795a
0x3b7c
0x3b72
0x3b66
0x7bf2
0x7bdc
0x7bfd
0x7be6
0x7bd6
0x7bc8
0x7bfb
0x7bca
0x7bd9
0x7bc1
0x7bef
0x5c50
0x5c70
0x5c46
0x5c76
0x5c63
0x5c53
0x5c77
0x5c4a
0x5c66
0x5c61
0x5c6b
0x5c47
0x5c5a
0x8175
0x8186
0x81a6
0x818b
0x8165
0x8197
0x8167
0x8183
0x81a2
0x8194
0x8180
0x816b
0x8179
0x76ea
0x6b58
0x6b3d
0x6b3a
0x6b56
0x6b42
0x6b57
0x6b51
0x39f0
0x3978
0x39b0
0x8023
0x8031
0x8017
0x801c
0x50ad
0x745e
##14e
0x90c0
0x9068
0x90af
0x9089
0x9086
0x9082
0x90b4
0x9077
0x9092
0x9051
0x9085
0x9054
0x90bc
0x90b7
0x908d
0x6850
0x6858
0x6848
0x6844
0x6838
0x683a
0x6855
0x6832
0x683f
0x1375
0x8c00
0x8c10
0x8ca0
0x8cbd
0x8c3d
0x8caf
0x8c2c
0x8c6c
0x8cb6
0x8c1e
0x8c14
0x8cc8
0x8c1b
0x8cfb
0x8ccf
0x8cd9
0x44ea
0x8600
0x8696
0x8625
0x8626
0x8663
0x867c
0x86a6
0x8614
0x8619
0x869f
0x861c
0x86fb
0x8677
0x8692
0x86b3
0x86b0
0x5840
0x5860
0x5823
0x58a3
0x589d
0x5828
0x585b
0x582f
0x58f5
0x58b2
0x580d
0x5856
0x58aa
0x58ad
0x5851
0x94f0
0x929d
0x92b1
0xb081
0xb08f
0xb041
0x8700
0x8712
0x73c8
0x7c60
0x7c5d
0x7c18
0x7c70
0x7c4d
0x7c12
0x712f
0x7126
0x85ea
0x85ee
0x85a3
0x85f2
0x85a9
0x85ae
0x85a6
0x859f
0x8811
0x8813
0x4e1e
0xa5a6
0xa5a8
0x959c
0x7fdd
0xb938
0x9aff
0x9af0
0x9af8
0x9c60
0x9c88
0x9c46
0x9c25
0x9c9e
0x9c73
0x9c42
0x9c5c
0x11f0
0x9e28
0x9e76
0x8d50
0x8d23
0x8d31
0x8d2a
0x8d3e
0x8a87
0x8a82
0x8ac5
0xabe9
0xa9f5
0x3ae0
0x3a89
0x3a8c
0x3ad4
0x3ad7
0x820c
0x8205
0x7ef0
0x7ed1
0x7e1e
0x125d
0x121d
0x1296
0x12a0
0x1216
0x1275
0x1213
0x1249
0x4d20
0x4d64
0x4d23
0x8996
0x8981
0x8924
0x891a
0x895a
0x9f8b
0x2c75
0x5164
0x5146
0xa6ab
0x9388
0x93c6
0x93f3
0x93fa
0x7d76
0x9b12
0x9b15
0x9b0e
0x9b0a
0x858d
0x858b
0xb86d
0x9e95
0xa2f5
0xdab
0xa9b5
0xdb0
0x9deb
0x9d7b
0x8c02
0x8c06
0x136b
0x72d6
0xb89c
0x984e
0x5764
0x5760
0x57f0
0x57da
0x5710
0x572d
0x57ab
0x5723
0x5770
0x5731
0x5728
0x573d
0x57c3
0x57ba
0x57f5
0x579e
0x574d
0x5749
0x57eb
0x5717
0x5786
0x577c
0x579b
0x57e4
0x578b
0x571c
0x5741
0x5783
0x57f7
0x5794
0xa9fa
0x7ea3
0x61d6
0x52b8
0x14d4
0x56ff
0x56dd
0x56ee
0x56da
0x5670
0x5696
0x56a0
0x56ce
0x56f5
0x56e9
0x56e6
0x5673
0x56e2
0x5691
0x8ab7
0x8abe
0x516e
0x516b
0x684e
0x684b
0x7e98
0x8681
0x8705
0x870b
0x8c32
0x8c37
0x5185
0xc058
0xc033
0xc08e
0xc04f
0xc06a
0xc061
0x12ac
0x12a7
0xbfdf
0x4e72
0x8559
0x8c21
0x8594
0x8591
0xc15b
0x2573
0x515f
0x129b
0xabb7
0x8ca7
0x8ce3
0x8ceb
0x5173
0x517b
0x8a78
0x8a7f
0x8a71
0x730b
0x860f
0x860a
0x317a
0x8d02
0x682e
0x7d0b
0x13e2
0x7fd6
0x11d1
0x7fe4
0x7fe7
0x9402
0x123a
0x9b61
0x7dd0
0x127a
0x7c65
0x7c6a
0x7d6e
0x8921
0x7c77
0x126a
0x85fc
0x85f7
0x4e0f
0x4d0f
0x4d0a
0x568c
0x568a
0x5682
0x5687
0x5754
0x575c
0x5751
0x5757
0x3a78
0x3a7f
0x86ad
0x9dab
0x8cb3
0x7c04
0x7c0b
0x9aef
0x9aec
0x4ddf
0x4d57
mulss
0x5708
0x5704
0x570b
0x5888
0x5883
0x588d
0x5812
0x5817
0x581e
0x586f
0x586a
0x5867
0x565f
0x5655
0x565a
0x5874
0x587e
0x5879
0xb07f
0x880c
0x9dcc
0xc001
0x9e7e
0xa6a2
0xa6ad
0x3a83
0x9c63
0xb043
0x9af4
0x4d19
0x57df
0x57d0
0x57ca
0x57cd
0x5845
0x584a
0x58bc
0x58b7
0x5678
0x567f
0x5669
0x5666
0x8674
0x8671
0xbfe8
0xbfe5
0x4f5e
0x71bf
0x7c5a
0x5897
0xbff5
0x9b03
0x3ade
0x9e62
0x57a8
0x576c
0x5735
0x57b0
0x5778
0x5721
0x56d3
0x5808
0x3177
0x8acc
0xbfd5
0x10000
0x2dc5
0x2c72
0xc0b5
0x4fac
0xa8c
0xa67
0xa972
0x722
0x737
0x722e
0x7e05
0x7e08
0x7cde
0x7243
0x546
0x52f
0x53a
0x557
0x8adb
0xb20
0xb60
0xb9d
0xb36
0xb7d
0xb6c
0xb84
0xb1c
0xb6a
0xb6d
0xb345
0x6414
0x6419
0x640f
0x641a
0x6408
0x97b
0x9d7
0x9e3
0x939
0x9f09
0x9d95
0x9dbf
0x124b
0x11b1
0x1222
0x112e
0xa0dc
0xa0fd
0xa00f
0xa034
0x5920
0x40ea
0x40f9
0x40fe
0x40f4
0x40e5
0x40ef
0x6f73
0x6fac
0x41da
0x41f2
0x41d0
0x415c
0x41d4
0x41d7
0x410b
0x4109
0x410a
0x4103
0x6e7b
0x6eb5
0x421d
0x422f
0x4227
0x42a5
0x4215
0x42aa
0x4224
0x42b4
0x42be
0x42b1
0x42a1
0x4234
0x42bc
0x4cdf
0x4cc9
0x4cd6
0x4cc5
0x4ce1
0x4cd3
0xaa70
0xaa7c
0xaaaa
0xaa87
0xaa8f
0xaa74
0xaa0b
0xaa6d
0xaaad
0xaa85
0x2ee
0x2b6
0x2e3
0x9633
0x96a5
0x96b2
0x96a6
0x96b8
0x96b5
0x96ad
0x96bf
0xa150
0xa148
0xa144
0xa14d
0xa15e
0xa153
0xa155
0xa141
0xa15a
0x832b
0xce4
0xce3
0xce2b
0x782d
0x78aa
0x78f3
0x78ec
0x7720
0x7730
0x7716
0x773d
0x7776
0x773b
0x7717
0x7729
0x7792
0x777f
0x7779
##000
0x6d92
0x4536
0x4548
0x452f
0x4527
0x4525
0x4522
0x455f
0x4555
0x4541
0x4569
0x4571
0x456e
0x45bc
0x7ab9
0x7ab6
0x7a0f
0x7ab4
0x7acb
0x7a83
0x7ad3
0x7a78
0x7ab0
0x7a47
0x7a71
0x6368
0x63e0
0x637a
0x636c
0x6381
0x637c
0x6384
0x63aa
0x6365
0x6319
0x63d4
0x63a2
0x63db
0x6378
0x6399
0x6395
0x1090
0x3f6c
0x3f63
0x3f5f
0x3f67
0x3f85
0x3f8a
0x3f71
0x3f79
0xba8f
0xba8a
0x6cea
0x6ced
0x6c8e
0x6c7c
0x6c9b
0x6ce4
0x6c87
0x6cf3
0x6c7b
0x6c92
0x6ca2
0x6cf7
0x6c85
0x6cdb
0x6c7f
0x6c95
0x6cde
0xa42c
0xb520
0xb568
0xb525
0xb513
0xb517
0xb522
0xb51b
0x797b
0x7be4
0x3950
0x3960
0x14a3
0x1488
0x145b
0x14dc
0x14e6
0x14b6
0x14a6
0x14a2
0x1451
0x5050
0x5088
0x5031
0x505f
0x5055
0x508f
0x5041
0x504b
0x5083
0x5037
0x503c
0x505a
0x5079
0x9991
0x908c
0x908f
0x90a2
0x90ac
0x9094
##c2b
0x97ff
0x97ab
0x97e3
##666
0x9f31
0x9fba
0x985a
##dbc
0x137d
0x139e
0x137f
0x420a
0x4203
0x420e
0x4206
0xb508
0xb50f
0xb50b
##6bc
0xa246
##347
0x3d4d
0x3d73
0x3d63
0x947a
0x9412
0x9477
0x945a
0x62f9
0xa8f0
0xa8aa
0x92f0
0x92e0
0x92fe
0x92e7
0x92e4
0xb0bd
0x739d
0x7388
0x7374
0xd311
0x7cc3
0x7cf4
0x7cc9
0x7caa
0x7cd7
0x7cdb
0x8513
0x854f
0x854b
0x88ad
0x4fdd
0x4fa0
0x4f7d
0x4fa5
0x4fb9
0x4fca
0x4fc5
0x4fcd
0x4e36
0x9511
0x9576
0x152f
0x157c
0x154c
0x9c40
0x9ca0
0x9c28
0x9caf
0x9c2c
0x9c76
0x9cb2
0x9c4f
0x9c24
0x9c57
0x11da
0x11fe
0x11a4
0x11ed
0x11f4
0x11e7
0x11ae
0x9e64
0x9e23
0x9ef2
0x9ef8
0x9e46
0x9edf
0x9e4d
0x9e49
0x9e5e
0x9e19
0x9e51
0x9e85
0x7250
0x7230
0x7223
0x7228
0x7246
0x7226
0x72bf
0xab3b
0xab53
0xa97a
0xa976
0xa973
0x7e31
0x7e12
0x7e15
0x7e1c
0x7e1a
0x1244
0x1211
0x12b6
0x1214
0x121c
0x121f
0x4df8
0x4d93
0x4db1
0xce1c
0x9170
0x850f
0x850c
0x850b
0xf000
0xa65d
0xa6b6
0xa622
0xa710
0xa717
0x7361
0x736d
0x93ea
0x9350
0x931d
0x9348
0x93d1
0x93c3
0x93ba
0x9327
0x932a
0x93c9
0x9324
0x93c7
0x934b
0x7df0
0x7dfe
0x7ded
0x9b40
0x9b23
0x9b36
0x9bf8
0x9b3d
0x9b2f
0x9b27
0x9b2a
0x9bf1
0x9b3a
0x9b32
0x1384
0x1389
0x856e
0x8566
0x2d81
0x2d98
0x92d8
0x92dc
0x92d9
0x9de0
0x9d9e
0x9ded
0x9de6
0x9d56
0x9db4
0x9de3
0x29f2
0x7265
0x6eaf
0x6eaa
0x6ea3
0x52bf
0x1504
0xa25f
0x4fe3
0x8ab6
0xd318
0xd32a
0x148d
0x725e
0x7259
0x9308
0x9303
0x62d0
0x1495
0x1491
0x1499
0x8554
0x8551
0x8557
0x72f3
0x1583
0x158d
0x3d6f
0x3d6a
0x4f6f
0x4f63
0x92f4
0x92fa
0x92f6
0x129f
0x4ea1
0xabd4
0xabdb
0x140f
0x8dc6
0x9314
0x9312
0x9319
0x7307
0x9352
0x1208
0x1207
0x4f9b
0x4f96
0x7352
0x93aa
0x93ae
0x9f01
0x9f06
0x723c
0x723a
0x7237
0x9441
0x9449
0x93b6
0x933e
0xa9cc
0xa894
0x4fd7
0x2e32
0x2ef7
0x946e
0x946b
0x7ce8
0x7ce1
0x7ceb
0x7e0f
0x11d7
0x11de
0x940d
0x9f12
0xa9e3
0x7da2
0x9ee8
0x9ee4
0x9ee3
0x9eee
0x9ee6
0x1278
0x7dfc
0x7df6
0x3d5f
0x3d55
0x3d5a
0x3d51
0x7d5a
0x8b01
0xb0be
0x97c4
0x1267
0x4f87
0x4f8e
0x4f80
0x7c32
0x9ead
0x9eae
0x93de
0x93db
0x93d6
0x12b7
0x9daf
0x9da3
0x9da6
0x7c08
0x11ef
0x11e1
0x9dd9
0x9ed8
0x9ed7
0x9edb
0x4daf
0xab47
0x92a8
0x92a6
0x9c03
0x9c3c
0x9c33
0x9dc5
0x9dca
0x6897
0x9e71
0x9e79
0x1224
0x2a10
0x9c8a
0x9574
0x9b45
0x9b47
0x9d99
##88888888
0x9d82
0x9d8b
0x11bf
0x11b3
0x4df1
0x4dfb
0x9ce1
0x9c71
0x2e02
0x2e09
0x2f15
0x53bc
0x2df6
0x9e45
0x9551
0x93e3
0x11ad
0x9c4a
0x722b
0x737f
0x9d77
0x9e3f
0x2b61
0x2e39
0x6865
0x68bf
0x44f
0x4d85
0x4da7
0x4d34
0x4d47
0x4e05
0x4d74
0x4d71
0x4d7e
0x4d94
0xa24
0xa640
0x7e3c
0x7e41
0x7d7e
0x7c2b
0x7347
0x540
0x536
0x548
0x533
0x50d
0x549
0x559
0x524b
0x522e
0x5221
0x50d6
0x310
0x35d
0x873
0x863
0x899
0x8d78
0x8972
0x8db7
0x8999
0x8dbc
0xb10
0xb90
0xb63
0xb1e
0xb7c
0xb9b
0xb65
0xb97
0xb67
0x64c6
0x64e5
0x912
0x9f3
0x9d4
0x941
0x9bf
0x937
0x94ac
0x9e08
0x93d5
0x93f7
0x94f3
0x6586
0x19
0x114b
0x11fc
0x114e
0x5ad9
0xa0a0
0xa044
0xa0ba
0xa022
0xa09b
0xa0b8
0xa0ac
0xa091
0xa0b3
0xa0cd
0xa071
0xa079
0x5958
##20f
0x6fdd
0x6fab
0x6f16
0x6f13
0x6fa5
0x6fdc
0x6f5e
0x6f8e
0x6fbb
0x6f7c
0x6f8b
0x6fb4
0x6fd7
0x6f77
0x6fca
0x6f98
0x6fbe
0x6fb1
0x6f6f
0x6f51
0x6f91
0x6f85
0x6f7e
0x6fcd
0x6f04
0x6f01
0x6f7f
0x6fd2
0x6fb7
0x6f5a
0x6f08
0x6fde
0x4130
0x4158
0x4136
0x4127
0x412a
0x4133
0x413e
0x414a
0x4151
0x414e
0x4145
0x70ed
0x70d2
0x705a
0x4274
0x42c5
0x4cff
0x4cdd
0x4cba
0x4c9e
0x4cb2
0x4cf1
0x4ca4
0x4cb9
0x4cf6
0x4cb6
0x4c93
0x4c97
0x4cc7
0x4cf3
0x4cd7
0x4cad
0x4cb3
0x4c94
0x4cbc
0x4cb7
0x4cef
0xaaa9
0xaaa5
0xaad0
0xaabb
0xaa9f
0xaa9c
0xaa4b
0xaab8
0xaab3
0xaab0
0xaa08
0x2dd
0x2b9
0x2b80
0x9694
0xa1f9
0xa1f8
0xa12f
0xa1f1
0xa1e6
0xa1fb
0xa1ec
0x8360
0x8368
0x835d
0x8348
0x8326
0x8317
0x8356
0x834f
0x8314
0x831c
0x8321
0x8303
0xcbd
0xc78
0xc20f
0x82ea
0x82dd
0x82e0
0x8236
0x82d0
0x82d5
0x82bb
0x82d6
0x82c8
0x82ec
0x82d9
0x82bf
0x8279
0x78c0
0x781d
0x78c3
0x7833
0x789e
0x78b9
0x7817
0x7812
0x78ae
0x789b
0x78a6
0x789a
0x7877
0x781f
0x78b1
0x78a2
0x78b3
0x7808
0x6632
0x666666
addss
0x6d7c
0x6d84
0x6d82
0x6d77
0x6d98
0x6d72
0x6d6d
0x285a
0x8433
0x843b
0x8437
0x8447
0x8445
0x67ff
0x67fd
0x67f6
0x67fa
0x4510
0x4596
0x458c
0x4586
0x451a
0x4591
0x4599
0x457f
0x7a56
0x7a19
0x7a0a
0x6333
0x63a4
0x636a
0x10d0
0xb540
0xb548
0xb544
0xb53a
0xb556
0xb553
0xb5c2
0xb54b
0xb54e
0xb53c
0xb56b
0xb55a
0xb595
0xb5ef
0x7940
0x79ee
0x79a3
0x79a0
0x7958
0x7944
0x797d
0x79f5
0x79a4
0x799b
0x799f
0x7955
0x79d4
0x7998
0x79b1
0x79ec
0x79ac
0x79a7
0x7999
0x3b9a
0x3b04
0x7bcb
0x7bbf
0x7b95
0x81f0
0x81fe
0x81df
0x81f4
0x81b4
0x81d4
0x81e2
0x81cb
0x81db
0x81cd
0x81e8
0x762a
0x7695
0xa310
0x8097
0x80c5
0x80b8
0x80b5
0x8080
0x8071
0x3085
0x3099
0x3079
##739
0x14ab
0x1470
0x147d
0x1476
0x145f
0x14a1
0x1439
0x142e
0x50d1
0x50b9
0x35ff
0x359e
0x357e
0x742f
##d4c
0x9046
0x9760
0x975d
##be5
##1f7
0x9f23
0x9f36
0x9f3d
0x9f33
0x9f6c
0x9f3a
0x9f35
0x9875
0x6818
0x6870
0x6816
0x68d1
0x687d
0x6827
0x682a
0x6813
0x682c
0x6876
0x68b2
0x68b9
0x6873
0x68b6
0x68d6
0x68a6
0x68aa
0x68a2
0x13ea
0x1330
0x1323
0x13ce
0x1348
0x1328
0x13ba
0x132f
0x132c
0x1324
0x13c8
0x1341
0x134b
0x13c1
0x1347
0x8c68
0x8c1d
0x8c9e
0x8c7a
0x8c76
0x8c89
0x8c4f
0x44ee
0x44f2
0xac49
0x58f9
0x9420
0x9410
0x9430
0x94e0
0x9418
0x94bd
0x94ba
0x9476
0x9438
0x94a9
0x94fd
0x943a
0x941e
0x9415
0x947c
0x94a6
0x9419
0x94c4
0x941c
0x9437
0x943c
0xa876
0xa805
0xa8a8
0xa8d2
0x8b50
0x8b49
0x8b53
0x92dd
0x9258
0x92bb
0x92be
0x73a5
0x73cf
0xd739
0x7c64
0x7c9e
0x7ca5
0x7cdc
0x7cbb
0x7cfb
0x71f8
0x8573
0x4e00
0x4e1f
0xa526
0xa5f1
0x450a
0x4501
0x9540
0x9560
0x957d
0x952f
0x954a
0x7f00
0x7f68
0x155b
0x152a
0x1538
0x15a5
0x153b
0x154f
0x155f
0x159f
0x1593
0x1597
0x151f
0x15a2
0x9ad4
0x9c10
0x9cdc
0x9c15
0x9c8b
0x1110
0x1144
0x11c9
0x11c6
0x11c4
0xa28c
0x9e40
0x9e16
0x9ec3
0x9e26
0x9edc
0x9ec6
0x9e1e
0x9e87
0x9ecf
0x8dea
0x8d70
0x8dfe
0x8df8
0x8d9e
0x8d56
0x8d7b
0x8de3
0x8a20
0x8aa5
0x8a19
0x8a74
0x72ee
0x7260
0x72e9
0x72e2
0x72e3
0xab68
0xab9d
0xab36
0xab33
0xab2c
0xab9e
0xabb2
0xabc9
0xab55
0xabe2
0xabcf
0xabcc
0xabc1
0xa9af
0xa957
0x3aea
0x3a50
0x3adc
0x3ae9
0x8203
0x8201
0x7e40
0x7ef9
0x7e46
0x7e76
0x7e89
0x7e86
0x1220
0x1240
0x12ee
0x12f2
0x12ba
0x1227
0x4dea
0x4d40
0x4d60
0x4d5d
0x4d2a
0x4d3a
0x4d7b
0x4de3
0x4d39
0x9ffb
0x9168
0x915d
0x9175
0x917a
0xb32f
0xbd7a
0xbd73
0xbd98
0xa29a
0xa291
0xa297
0x8950
0x8960
0x8990
0x8944
0x897d
0x8975
0x892f
0x8949
0x8986
0x8953
0x899b
0x8984
0x8987
0x899c
0x895c
0x8941
0x894c
0x8994
0x2c76
0x2cdf
0x2c5f
0x2cc8
0xa650
0xa6dc
0xa6e2
0xa6e1
0xa73b
0x93ee
0x93eb
0x93e4
0x937b
0x93ca
0x937e
0x7d00
0x7d9d
0x7d7d
0x7d89
0x7d8e
0x7de2
0x7d98
0xb7e6
0x9f62
0x9f67
0xd53a
0x9b1f
0xaeaf
0xaeaa
0x9e93
0x1308
0x130f
0x130c
0x1301
0x1313
0x1317
0x9fd0
0x720a
0x738a
0x8bd6
0xbc8c
0x85b7
0x85bb
0x7279
0x29a3
0x1363
0x1366
0x13b3
0x7e78
0x948f
0x9483
0x948b
0x9480
0x91cf
0x5260
0x52f0
0x5268
0x521d
0x5244
0x5228
0x529e
0x5242
0x521e
0x5219
0x85c5
0x73d3
0x73db
0x73d0
0x7f6f
0x85d3
0x85db
0x94cc
0x8c9c
0x8c99
0x857f
0x8577
0x9184
0x7e6a
0x13d3
0x144a
0x1469
0x1466
0x6888
0x688f
0x6885
0x6881
0xa6cb
0x68c4
0x68ca
0x68c2
0x1484
0x725c
0x1497
0x7eec
0x7ee9
0x71d9
0x71d6
0x7408
0x72fd
0x72cc
0x72aa
0x8c6f
0x9161
0x8daf
0x8dac
0x8e08
0x950f
0x9584
0x958b
0xc236
0x9751
0x975e
0x9756
0x8963
0x8967
0x896b
0xabbf
0xabbc
0xabd7
0x73a2
0x73ad
0x8d6b
0x865a
0x681e
0x938b
0x8dc1
0x9498
0x949c
0x949a
0x9491
0x8df1
0x8dfb
0x8d74
0x8d71
0x7302
0x7f7e
0xa9df
0xa9dc
0xa9d1
0xa9d7
0x7c8a
0x8d14
0x8d1a
0x89a1
0x735c
0x897f
0x7d0f
0x34b0
0xa9ca
0xa60f
0x71cb
0x2ec5
0x7d14
0x8777
0x11df
0x11d6
0xaba5
0xaba1
0xabad
0x9406
0x9f17
0x9f1e
0x9f1b
0x123c
0xa5d4
0x8932
0x8937
0x974e
0x974b
0x1274
0x7c94
0x7c99
0x7c61
0x7c6d
0x7c66
0x9bd4
0x9bd7
0x9d65
0xa74a
0x7d59
0x7c74
0x7c71
0x7c7b
0x5235
0x5292
0x5297
0x94d8
0x126c
0x1262
0x9f2c
0x9f2a
0x9f26
0x4e0a
0x4e07
0x4d04
0x4d05
0x4d02
0x5272
0x93df
0x93dc
0x93d2
0xb38b
0x9ebf
0x9eb4
0x9ebc
0x9eb3
0x9eb7
0x9ebb
0x528f
0x5281
0x5259
0x5263
0x526d
0x9ae5
0x9ae1
0x4dd5
0x4dd2
0x4ddd
0x9ed5
0x2d5f
0x4da4
0x4dac
0x4da0
0xab41
0xab4e
0x686d
0x6869
0xa73f
0x9c0b
0x9c06
0x1535
0xd71b
0x6895
0x6893
0x7d45
0x52a8
0x52a5
0x8d5a
0x9e0f
0x9e0c
0x9e01
0x9dfa
0xa70c
0xa777
0x9f47
0x9f4e
0x2bb3
0x9afb
0x11ca
0x11c1
0x11cd
0x4d14
0x71ef
0x9c83
0x957b
0x1259
0x4d83
0x4d8b
0x9d0f
0x9424
0x94a2
0x4d6a
0x4d67
0x558d
0x9d51
0x2ea8
0x2ea5
0x4d4a
0x8d87
0x8d80
0x8c8f
0x8c83
0x8983
0x898d
0x1321
0x132b
0x7d84
0x9f5f
0xb9d5
0xb36d
0x44fa
0x35d7
0x8995
0x9121
0x9f37
0x941a
0x9bfc
0x9371
0x2b9c
0x4db7
0x4d69
0x4d8f
0x4d95
0x4e37
0xab2
0xa8e
0xa22
0xa6d
0xab3
0xad2
0xa22e
0xa865
0xa222
0xa2e8
0xa8fc
0xad95
0xa2d8
0xadbf
0xa24e
0xa6bc
0x7d34
0x7db7
0x7c3f
0x7c54
0x7e37
0x7dbf
0x7345
0x714e
0x564
0x544
0x535
0x52db
0x52d6
0x5395
0x542e
0x5311
0x34d
0x34a
0x3d7e
0x8c54
0x8d95
0x8d4c
0xb16
0xb25
0xb0d
0xb8b
0xb35
0xb93
0xb7b
0xb1a
0xb652
0xb122
0xb666
0x959
0x9878
0x9d34
0x94fc
0x9f57
0x9fad
0x9547
0x9be5
##eaa
0x657c
0x6582
0x651b
0x6583
0x65ec
0x6578
0x112b
0x11b5
0x1122
0x11bc
0x13f7
0x1124
0x1666
0x11f7
0xb4e3
0x5add
0x5ae7
0x5ae1
0x5ae8
0x5ade
0xa048
0xa0e4
0xa0aa
0xa014
0xa09a
0xa059
0xa067
0xa0b1
0xa005
0xa080
0xa095
0x5910
0x593d
0x5913
0x592c
0x5938
0x59b2
0x59b6
0x5924
0x5919
0x599f
0x599c
0x59c7
0x590f
0x591b
0x5974
0x5909
0x59cb
0x59be
0x591f
0x5905
0x596f
0x590a
0x594c
0x5983
0x59a2
0x59ac
0x5921
0x5991
0x594e
0x59c1
0x597e
0x5947
0x5995
0x5979
0x598d
0x5908
0x4046
0x403e
0x4037
0x403c
0x4034
0x43ba
0x43dc
0x4353
0x4380
0x6fef
0x4110
0x4168
0x4113
0x4117
0x411e
0x4165
0x410f
0x416a
0x4167
0x4162
0x4169
0x42dd
0x42f0
0x42e0
0x429d
0x42e9
0x4281
0x42e6
0x42d6
0x428f
0x4298
0x42cf
0x4292
0x42d9
0x4285
0x427e
0x42d2
0x4ceb
0x4ced
0x4c3b
0x4c37
0x4c3c
0xaa58
0xaae9
0xaac6
0xaac1
0x22
0x2f0
0x27d
0x2f3
0x2f09
0x2ed6
0x2f32
0x2e21
0x2fa8
0x9616
0x960f
0xa1ff
0xa1bd
0xa106
0x8346
0x8335
0x833c
0x8343
0xc56
0xc12
0xca6
0xc545
0xceaa
0x82fa
0x778c
0x360e
0x6dbc
0x844d
0x8449
0x8455
0x8467
0x8466
0x8452
0x845a
0x45c0
0x45a1
0x45b5
0x45ac
0x45a7
0x7aa3
0x63ba
0x63ae
0x63b4
0x6374
0x63b1
0x6385
0x638a
0x63bc
0x6379
0x10ea
0x10e0
0x1070
0x10fe
0x10ed
0x10d7
0x10e3
0x10e1
0x10f7
0x10b0
0x10de
0x3f90
0x3fa4
0x3f9c
0x3f98
0x3f94
0xa47d
0xb5e0
0xb56c
0xb563
0xb584
0xb55c
0xb5cf
0xb566
0xb561
0x79b2
0x79c8
0x79cc
0x79bf
0x79b7
0x7bee
0x7bf5
0x7bf1
0x7be9
0x7bd0
0x7bd7
0x7be3
0x7bd3
0x7bdb
0x7bfc
0x5ca9
0x465b
0x4678
0x4671
0xa336
0xa313
0xa312
0xa365
0xa361
0x39ab
0x39f8
0x39a4
0x395e
0x398e
0x39e7
0x39ae
0x399f
0x3987
0x399c
0x3957
0x3998
0x39a2
0x3991
0x3994
0x8066
0x3eec
0x3ee2
0x3eed
0x3ee7
0x3eee
0x30e5
##56a
0x1400
0x143d
0x1426
0x143b
0x1429
0x1435
0x1424
0x1419
0x1459
0x14be
0x14b3
0x142b
0x14bc
0x509d
0x50ce
0x50a5
0x50dc
0x50c4
0x50c7
0x50c2
0x5091
0x35ea
##ca00
0x9013
0x9017
0x9024
0x9041
0x901a
0x904b
0x901f
0x9039
0x903c
0x9764
0x97ee
0x9768
0x9770
0x979d
0x97bd
0x97af
0x97f1
0x97f4
0x9789
0x97f6
0x97b6
0x97e7
0x9787
0x9793
0x977b
0x9783
0x9799
0x97e5
0x97ef
0x978d
0x97fc
##c51
##66f
0x9f50
0x9f46
0x9fa5
0x9f4d
0x9f7b
0x9f7f
0x9f71
0x9864
0x9850
0x9860
0x9810
0x9830
0x982d
0x985d
0x9828
0x982a
0x9825
0x984d
0x9849
0x9873
0x9853
0x9839
0x9804
0x9803
0x9801
##acd
##f7f7f
0xb830
0xb856
0xb8d0
0xb85a
0x3edd
0x3e25
0x3e2c
0x3e22
0x3e1e
0x5470
0x13ff
0x1350
0x135d
0x13a3
0x1390
0x13f8
0x13f1
0x13e6
0x13f3
0x13fb
0x1372
0x1392
0x1378
0x6afe
0xa2ff
0xa2ee
0xa2ab
0xa2e0
0xa218
0xa258
0xa228
0xa2f8
0xa275
0xa2af
0xa2c3
0xa22a
0xa2b2
0xa212
0xa2bb
0xa21c
0xa2b4
0xa2b7
0x44e4
0x44cb
0x4437
##6ef
0xac48
0xacdf
0xacc5
0x58ff
0x58da
0x58bd
0x58f4
0x58d5
0x58d2
0x58de
0x3d86
0x3d92
0x94ea
0x9413
0x94f6
0x94e7
0x94e4
0x62bb
0xa870
0xa896
0xa836
0xa8f2
0xa8b2
0xa8f1
0xa8eb
0xa87c
0xa80f
0x8b00
0x92a0
0x92b9
0x92b6
0x8788
0x7330
0x732d
0x7316
0x73af
0x732a
0x73b9
0x734d
0x73c9
0x739c
0x7341
0x73ca
0xd56a
0x7c50
0x7c23
0x7c58
0x7c48
0x7c25
0x7c42
0x7cae
0x7c1b
0x7c1f
0x7140
0x7148
0x71a4
0x71b9
0x7156
0x71aa
0x88ee
0x88f2
0x88f1
0x88fd
0x88ed
0x88f6
0x4f40
0x4e68
0x4e16
0x4e2f
0x4e26
0x4e22
0x95ff
0x9520
0x9596
0x9516
0x9536
0x9512
0x951e
0x954f
0x959b
0x95ad
0xad20
0xad18
0xad22
0x1564
0x1560
0x1523
0x1575
0x156c
0x1549
0x1556
0x1573
0x1515
0x1521
0xb960
0xb9f2
0xb92a
0x9adc
0x9ae6
0x9aae
0x9ac8
0x9ac4
0x9ad7
0x9c1d
0x9cbd
0x9cf2
0x9cf8
0x9c7a
0x9ca9
0x9cf1
0x9ca4
0x9cb9
0x9c6c
0x9c56
0x9c1e
0x9cca
0x9c1f
0x9cd3
0x11dd
0x11ab
0x11e0
0x11ce
0x1131
0x11c3
0x1127
0x119e
0x11b2
0x11b6
0x1142
0x11a6
0x11aa
0xa280
0x9e9d
0x9ed1
0x9e75
0x9e2f
0x9e38
0x9e3a
0x9e8e
0x9e8b
0x8d64
0x8d68
0x8d48
0x8d5e
0x8d8e
0x8d4f
0x8af0
0x8a68
0x8aaf
0x8a6c
0x8ae9
0x8a7b
0x72da
0x72a0
0x7213
0x72e7
0x72b4
0xab64
0xabdd
0xab00
0xabe4
0xa910
0xa9f2
0xa9f1
0xa949
0xa9c6
0xa9c4
0x3aab
0x3af8
0x3aa4
0x3ae7
0x3a63
0x3aae
0x3a24
0x3a87
0x7e59
0x7e51
0x1260
0x125b
0x12e9
0x124d
0x1242
0x1219
0x121b
0x4d1d
0x4dce
0x4d48
0x4d28
0x4d7d
0x4d75
0x4dba
0x4d2f
0x4d9e
0x4d0d
0x4d9a
0x4db4
0x4d98
0x4dbe
0x9ff1
0x9f9c
0x9f97
0xb300
0xb34d
0xb34b
0xa203
0xa207
0xa20b
0xa200
0xa29c
0x8900
0x8917
0x8929
0xa96c
0x9f8e
0x5190
0x519e
0x51a5
0xb216
0xa660
0xa628
0xa67d
0xa6f1
0xa656
0xa6d5
0xa6e4
0xa693
0xa61c
0xa698
0xa6b8
0xa6ec
0xa720
0xa730
0xa72d
0xa796
0xa726
0xa78c
0xa71e
0xa77c
0xa71b
0xa77b
0xa785
0x93f0
0x939d
0x93a0
0x93f8
0x93a9
0x93a5
0x939b
0x93c4
0x9398
0x7d64
0x7d28
0x7d2a
0x7deb
0x7d3b
0x7d3e
0x7d32
0xb760
0xb7bd
0xb736
0xb711
0xb77a
0xb7b6
0xb7bb
0xd541
0xd571
0x9be2
0xa303
0xa30e
0xa306
0x976c
0x9765
0xe30
0xe15
0xe59
0xa2f3
0xa2fb
0xa27a
0xa272
0xa277
0xa27e
0xb882
0xa2a7
0x927f
0x138d
0x1387
0x8b91
0x3a6a
0x3a61
0x3a6d
0x864a
cmovg
0xb118
0xb1f6
0xb1b6
xmmword
0x2dea
0x9d68
0x9d5d
0x9d27
0x9d9b
0x90e5
0x135a
0x1357
0xd91a
0xac3e
0x728f
0x7285
0x7283
0x728b
0x3a5e
0x9649
0x9841
0x8fe6
0x7138
0x7134
0x7135
0x719f
0x719c
0xb62f
0x2fab
0x2fcf
0x52f9
0x52bd
0x52e4
0x52b5
0x52b3
0x9d1a
0x9d19
0x128f
0x1507
0x5568
0x55af
0x557c
0x559f
0x5593
0x55ad
0x55a2
0x55a7
0x8a9b
0x97dc
0x715a
0x7153
0x73be
0x73b6
0xa25a
0xa251
0xa263
0xa267
0xa26e
0x8ab4
0x9183
0x9189
0xa2c8
0xa2c5
0x7e65
0x12ca
0x12cd
0x4f25
0x144c
0x1445
0x7338
0x733c
0x7332
0x733e
0x7295
0x7297
0x8c3f
0x518f
0xbfea
0xbf88
0xbfba
0xbfc1
0x98ca
0x44d0
0x72c4
0x72c9
0x1584
0x1585
0x1589
0x88888888888
0x72a8
0x8c62
0xb7ac
0x7188
0x7184
0x718a
0x718e
0x913c
0x9139
0x4f47
0xac9b
0x950a
0x9501
0x9507
0x986b
0x8af3
0x8afb
0x8af6
0x958e
0x71a2
0x71ad
0x71a7
0x1293
0x8d69
0x1408
0x1404
0x12d8
0x12db
0x9814
0x9817
0x9384
0x938c
0x9389
0x9877
0x8dd0
0x730c
0x9208
0xa68c
0xa687
0x7171
0x3ab0
0x91d8
0x91db
0x1204
0x120c
0x1205
0x120a
0x1203
0x1201
0x120b
0x7f7f7f7f
0x1591
0x8b8a
0x890e
0x731c
0x7313
0x731e
0x3a94
0x3a9c
0x3a91
0x8d01
0x7e54
0x876f
0x93bf
0x93bc
0x93b5
0x95fa
0x7161
0x3e34
0x53ea
0x5350
0x5390
0x53a5
0xa754
0xa751
0xa75b
0x8c74
0x7dc8
0x7dc5
0x2e13
0x2ef6
0x2e1a
0x914a
0x9141
0x9147
0x7d1e
0xac0c
0x9774
0x9777
0x11d4
0x11d5
0xace3
0x940b
0xab94
0x123f
0x1234
0x1231
0xa9e8
0xa9e1
0xa9eb
0xab61
0x7ddc
0x7dd3
0x7dd7
0x7dd9
0x7dae
0x7c4b
0x1273
0x1279
0x127b
0x7d6b
0xb308
0xb30f
0xb304
0xb301
0xb30b
0x9bdc
0x9bd0
0x3d8a
0x3d82
0x3d8d
0x9d6a
0x9d6d
0xa74b
0x7d5f
0x94d6
0x97c8
0x97cc
0x95e5
0x88b8
0x92c2
0x92cd
0x4d06
0x7c3a
0x7c37
0x9ea6
0xb38c
0xb38d
0x2da5
0x2da2
0x7c0c
0x4dd8
0x4d5f
0xa86d
0xa869
0xa866
0x11ec
0x9dd3
0xab45
0x92aa
0x9c35
0x113f
0x1134
0x113c
0x1534
0x153e
0xac74
0x7d43
0x52a4
0x52ae
0x52a9
0x8a5e
0x8d54
0x8d59
0x9e0d
0x9dfb
0x91ef
0xa705
0xa70a
0xa703
0xa771
0x7e4a
0x5194
0x5193
0x9c65
0x9c69
0x110a
0x1103
0x1101
0x110d
0x1107
0x110e
0xabec
0x3aa2
0x8a85
0x8a83
0x9abf
0x9ab5
0x9aba
0x9ab2
0x11c5
0x4d15
0xa657
0x556d
0x9c85
0x9579
0x118d
0x1187
0x118e
0x1189
0x1256
0xc293
##88889
0x4f54
0x4f59
0x4d80
0x396a
0x3963
0x3961
0x396d
0x9d02
0x9d0b
0x4dc4
0x4dc1
0x4dcb
0x4d6e
0xa7aa
0xa7a6
0xa765
0x5584
0x5582
0x52cc
0x52c2
0x52c7
0x58c8
0x58cf
0x58c1
0x58e8
0x58ef
0x58ec
0x58e3
0xb684
0xb70f
0xb70b
0x9d54
0x9d59
0x111f
0x1114
0x111c
0x1111
0x1198
0x1195
0x1191
0x2f12
0x2f19
0x4d45
0x71b0
0x7c52
0x538d
0x589b
0xbff1
0x9cbf
0x9cb5
0x1161
0x1167
0x2df1
0xa2d4
0xa2dc
0xa2d1
0xa238
0xa234
0xa7cf
0xa7c2
0xa8b4
0xa8be
0xa8b0
0x5309
0xb645
0x93ec
0x1178
0x156f
0x1565
0x156a
0x11a2
0xa874
0xa87e
0x7d82
0x52d3
0x52de
0x531c
0xb317
0xb319
0xb17c
0xb172
0x9f56
0x953e
0x53a8
0x5574
0x5577
0xb20c
0xb6a7
0xb6d9
0x97bf
0x97b3
0x9394
0x9391
0x2ee2
0x2ee9
0xa24a
0x50de
0x5495
0x5598
0x3109
0x863c
0xb9b8
0x9d45
0x2dd6
0x66666667
0x3b9aca00
0xab2e
0xa224
0xab34
0x34d4
0x34ad
0xb7b3
0x9591
0x2f02
0x27d4
0x2f39
0xc566
0xca65
0x8888888888888889
##c50
movdq
0x61a
0x61b1
0x6247
0x61f7
0x44a
0x44c
0x4f7
0x4d9
0x4ecc
0x4421
0x4e08
0x4dbc
0xa5c
0xa7b
0xad7
0xac5
0xa6f
0xab5
0xad9
0xacc
0xa78
0xa5d0
0xa6b
0xa878
0xace9
0xa652
0xace5
0xa7be
0xab97
0xa7b1
0xad8f
0xab21
0xa7a1
0xac87
0xad71
0xa547
0xa699
0xa78d
0xad4c
0xa66f
0xa6ef
0x732
0x74f3
0x7ffffff
0x53d
0x56a
0x51a
0x539
0x53fc
0x51b7
0x51b1
0x53b3
0x53e1
0x5421
0x52d5
0x51bc
0x53d5
0x5197
0x53d3
0x512e
0x56bc
0x5347
0x3adb
0x3acd
0x882
0x863e
0x8be5
0x8c51
0xb73
0xbe7
0xbc6
0xb24
0xb9c
0xb0f
0xb62
0xb98
0xb640
0xb83
0xb34
0xb7f
0xb1e8
0xb8b5
0xb9ad
0xb9e9
0xb24c
0xb947
0xb632
0xb8b8
0xb72b
0xb695
0xb780
0xb688
0xb699
0xb12e
0xb839
0xb7e8
0xb6bc
0xb66f
0xb6ef
0x6436
0x644c
0x6452
0x9b2
0x91b
0x9ca
0x9c2
0x9ad
0x952
0x94e
0x9db
0x9e5
0x924b
0x91e8
0x9d47
0x9d62
0x9b97
0x9d78
0x9ecc
0x9ec1
0x9adb
0x9d3c
0x91bc
0x9222
0x9d41
0x9b8d
0x9cfc
0x9221
0x9cf7
0x94f7
0x9fa7
0x9c2b
0x9c51
0x9acd
0x6596
0x6591
0x115
0x124
0x15c
0x15d8
0x15cc
0x1162
0x1237
0x110f
0x116c
0x15cf
0xb45d
0xb4c8
0xb4c4
0xb461
0xa060
0xa0e0
0xa0a3
0xa018
0xa01d
0xa016
0xa028
0xa03d
0xa05b
0xa046
0xa026
0xa0a5
0xa0b9
0xa0eb
0xa0ed
0xa05e
0xa08c
0xa012
0xa0c9
0xa053
0xa04f
0xa084
0xa035
0xa019
0xa093
0xa06a
0xa0fb
0xa062
0xa0e2
0xa072
0xa0c5
0xa06f
0xa0a1
0xa039
0xa0f7
0xa0d9
0xa0c1
0xa07e
0xa037
0xa06b
0xa0bc
0xa0ef
0xa0e8
0x5964
0x5968
0x59f2
0x5911
0x59dc
0x5953
0x595f
0x595c
0x59d4
0x596d
0x5902
0x5904
0x59ef
0x59e8
0x40db
0x43c0
0x4310
0x431d
0x43fe
0x43f8
0x435b
0x43f5
0x4326
0x432c
0x439e
0x437a
0x4338
0x43a4
0x436c
0x4349
0x43bb
0x43c6
0x437c
0x43e4
0x43aa
0x4365
0x43c8
0x439a
0x4397
0x43fb
0x4332
0x4362
0x4372
0x431f
0x43b1
0x433f
0x436f
0x43a7
0x43b3
0x4369
0x437e
0x43d2
0x43b7
0x438d
0x6f18
0x6f1d
0x6f44
0x6f4b
0x6fb3
0x6f71
0x419f
0x6edb
0x6ebc
0x7040
0x7016
0x707a
0x7059
0x42ff
0x42fe
0x42f6
0x42fa
0x4272
0x4266
0x4239
0x4261
0xaaee
0xaada
0xaa2d
0xaa90
0xaaf1
0xaafd
0xaa4d
0xaaf6
0xaa29
0xaad6
0xaa82
0xaab4
0xaafa
0xaad7
0xaae2
0xaa6f
0xaa91
0xaa7e
0xaad2
0xaa79
0xaade
0x2b2
0x2d8
0x2ae
0x2fb
0x21f
0x2d95
0x9650
0x96a0
0x9658
0x967d
0x962a
0x9676
0x966c
0x9681
0x961e
0x969b
0x965c
0x966a
0x968f
0x963e
0x9698
0x9672
0x961a
0x960a
0x962e
0x9637
0x963c
0x9654
0x9606
0x968d
0xa136
0xa111
0xa12a
0xa133
0xa10d
0xa13b
0xa13a
0xa115
0xa11c
0xa11a
0xa1ad
0xa139
0xa102
0xa147
0x8340
0x832d
0x83e7
0x8385
0x8345
0xc58
0xcc50
0x82fd
0x8289
0x82ca
0x78ea
0x7826
0x78a5
0x78eb
0x7857
0x7862
0x7892
0x782b
0x4a9d
0x4a92
0x6681
0x66f7
0x667e
0x6679
0x4976
0x496c
0x497b
0x49e3
0x4971
0x49de
0x5bb2
0x5be3
0x5b51
0x5bde
subss
0x77af
0x77ed
0x771c
0x77b4
0x77ca
0x77cf
0x77c5
0x77d9
0x6df0
0x6d90
0x6d2f
0x6d25
0x6d86
0x6d1e
0x6d19
0x6d69
0x6d54
0x6d34
0x6d6e
0x8428
0x84f8
0x84ba
0x8414
0x84c4
0x6764
0x67ca
0x6769
0x6026
0x606c
0x605e
0x6063
0x606a
0x6078
0x6071
0x7a64
0x7a5d
0x7a58
0x7a7a
0x7a29
0x7a86
0x7a24
0x7ac8
0x7a61
0x7a4e
0x7acd
0x7a0c
0x6323
0x639d
0x633d
0x6338
0x63a5
0x633a
0x639f
0x10c0
0x1060
0x10d1
0x10df
0x10a9
0x10b2
0x10a4
0x10b6
0x10c9
0x10c6
0x10d8
0x10d6
0x10a6
0x10aa
0x10c4
0x10ca
0x10c5
0x10b1
0x10b8
0x10ad
0x10d3
0x10b3
0x10bf
0x10cd
0x10e5
0x10d2
0x10ef
0x3f30
0x3f34
0xbace
0x6c48
0x6c4d
0x6cd0
0x6cec
0xae8a
0xa426
0xa495
0x757d
0x7576
0x75b6
0x7584
0x7597
0x758f
0x7577
0x7598
0x75c2
0x7591
0x7599
0xb5ea
0xb5ee
0xb530
0xb5a3
0xb57d
0xb575
0xb52c
0xb5a9
0xb5f1
0xb5b9
0xb5e6
0xb589
0xb58c
0xb5b6
0xb5e7
0xb5d6
0xb5ae
0xb59b
0xb5a6
0xb59f
0xb587
0xb5fa
0xb5ca
0xb5e2
0xb598
0xb572
0xb5c5
0xb5be
0xb5e1
0xb56d
0xb5d3
0xb591
0xb5b3
0xb5db
0xb5cd
0xb571
0xb5bc
0xb579
0xb5fc
0xb5de
0x79f2
0x79e6
0x794c
0x79b3
0x7bab
0x7bfe
0x7bc4
0x7ba1
0x5cce
0x5cc9
0xbbf8
0xbbe6
0x48a0
0x488e
0x487c
0x81c0
0x81b6
0x81b7
0x4611
0x46e6
0x7690
0x7612
0xa340
0xa3e0
0xa3a3
0xa31d
0xa396
0xa3bd
0xa348
0xa33d
0xa32f
0xa325
0xa39e
0xa3a5
0xa3f1
0xa3dc
0xa36c
0xa381
0xa33a
0xa35e
0xa3d5
0xa386
0xa3bb
0xa322
0xa3ae
0xa34f
0xa3aa
0xa38b
0xa314
0xa393
0xa31c
0xa357
0xa359
0xa3d7
0xa377
0xa3ca
0xa332
0xa3c2
0xa3b1
0xa3e1
0xa321
0xa385
0xa399
0xa3cd
0xa371
0xa345
0x6b13
0x6b15
0x6b09
0x6b0c
0x392d
0x39ce
0x3936
0x3931
0x392a
0x3933
0x3926
0x3938
0x39f4
0x3929
0x3924
0x39c4
0x39f3
0x3932
0x39e2
0x39cb
0x393f
0x39ec
0x39cd
0x3945
0x5dc4
0x5d6a
0x5d6f
0x141d
0x1433
0x1413
0x142c
0x14e9
0x14ed
0x1456
0x145e
0x14fb
0x14e2
0x14cf
0x1472
0x141a
0x14f7
0x50c0
0x5016
0x5011
0x50eb
0x50fa
0x50b3
0x50cc
##422
##c9ff
0x9920
0x9923
0x9913
0x9981
0x9922
0x998b
0x991b
0x9941
0x9932
0x993c
0x992b
0x9945
0x74d1
0x74f2
0x742a
0x74df
0x74f1
0x74eb
0x74c9
0x74e3
0x7439
0x74cd
0x74e5
0x7434
0x74ef
0x4303
0x90dd
0x90e0
0x90a0
0x90ce
0x9090
0x90e7
0x90c6
0x90c7
0x90ca
0x9078
0x97a3
0x979f
0x9fea
0x9fb2
0x9fb6
0x9fca
0x9fc2
0x98fe
0x98d1
0x98f8
0x987d
0x98c3
0x98a5
0x98f1
0x98dc
0x98eb
0x98aa
0x98fb
0x98a2
0x6890
0x685f
0x6805
0xb850
0xb8c0
0xb8f0
0xb810
0xb82d
0xb8e0
0xb8f8
0xb85b
0xb82a
0xb826
0xb8fd
0xb8eb
0xb8ed
0xb8f4
0xb8e6
0xb8bb
0xb822
0xb8d4
0xb8d3
0xb804
0xb854
0xb80c
0xb808
0x3ec9
0x3e83
0x5410
0x547d
0x543d
0x5425
0x542c
0x5476
0x5473
0x5415
0x545f
0x5419
0x541c
0x5457
0x547b
0x543f
0x5451
0x5478
0x5437
0x5454
0x5434
0x1373
0x698f
0x6999
0xafce
0xafd1
0xafc4
0xafcb
0x34bd
0x34c2
0x6a50
0x6a58
0x6adf
0x6adc
0x6ae9
0x6ad7
0x8c5b
0x4450
0x4468
0x4430
0x442d
0x4496
0x4490
0x442a
0x44df
0x44a9
0x4456
0x445e
0x44c9
0x44c6
0x4453
0x44a6
0x4414
0x441b
0x4472
0x443f
0x443c
0x4479
0x61b2
0x862f
0x8627
0x8633
0x862c
0x86e9
0x86d0
0x86d5
0xacea
0xac30
0xaca3
0xac36
0xac90
0xac7d
0xacc3
0xac11
0xacf5
0xac2c
0xaca9
0xacb2
0xacf1
0xac81
0xacd0
0xac29
0xac8c
0xac42
0xacd8
0xacae
0xaca6
0xac14
0xac24
0xacca
0xac1a
0x58a0
0x58a5
0x94ff
0x943d
0x94f1
0x94dc
0x94ed
0x94e3
0x62da
0x622d
0x629d
0x62ce
0x62b9
0x62b4
0xa8ee
0xa8a3
0xa818
0xa89d
0xa8ce
0xa8af
0xa846
0xa8c3
0xa82a
0xa8f5
0xa813
0xa89e
0xa8dc
0xa8fd
0xa8a4
0xa8b9
0xa8e6
0xa8d5
0xa8bb
0xa8d7
0xa83f
0xa8ac
0xa851
0xa8db
0xa8de
0x92a3
0x92ce
0x9288
0x9290
0x9244
0x92af
0x92ba
0x9227
0x922c
0x9214
0x921c
0x92b4
0x92b8
0x92b5
0x92bf
0xb0dd
0xb0ce
0xb0c3
0xb0b2
0xb0f1
0xb0eb
0xb0f6
0xb0c4
0xb0c7
0xb0cb
0xb083
0xb08d
0x8764
0x8768
0x87f9
0x875d
0x8736
0x87f5
0x877a
0x8776
0x87f1
0x87e9
0x8749
0x8781
0x87ed
0x87f4
0x87e6
0x873a
0x8773
0x8742
0x8786
0x874f
0x8793
0x87f3
0x87fa
0x87e1
0x7397
0xd422
0x85dd
0x8568
0x857c
0x881d
0x8816
0x882f
0x8827
0x8833
0x880e
0x8824
0x880f
0x8832
0x8805
0x880a
0x4f00
0x4f23
0x4ef9
0x4e31
0x4eba
0x4ef1
0x4e1c
0x4ec5
0x4e8a
0x4e80
0x4e8d
0xa5c0
0xa560
0xa5f0
0xa5da
0xa568
0xa530
0xa5ce
0xa536
0xa548
0xa5f2
0xa57d
0xa533
0xa576
0xa5a4
0xa556
0xa55e
0xa573
0xa542
0xa5ae
0xa59f
0xa5c4
0xa59c
0xa54a
0xa5a2
0xa54e
0x95da
0x952d
0x9523
0x9518
0x9558
0x95f8
0x955b
0x9546
0x95c3
0x9527
0x9533
0x9513
0x9526
0x959e
0x95a9
0x95f1
0x956c
0x9517
0x953a
0x9556
0x9542
0x955f
0x9524
0x959f
0x959a
0x9597
0x95c7
0x951b
0x951f
0x95a1
0x95a2
0x954e
0xadc0
0xad5d
0xadbd
0xad44
0xad75
0xad26
0xad9e
0xadb9
0xad4d
0xad81
0xad29
0xad7c
0xad32
0xadb1
0xadb5
0xad2e
0x7f75
0x7fc3
0x15ab
0x1518
0x1558
0x1548
0x1511
0x1513
0x1526
0x15f1
0x15f6
0x1529
0x15c9
0x15ae
0x15a6
0x15aa
0x1524
0x15c4
0xb920
0xb964
0xb950
0xb9da
0xb92d
0xb996
0xb958
0xb9bd
0xb95b
0xb9c3
0xb99e
0xb976
0xb9a9
0xb9f1
0xb9a4
0xb93b
0xb98c
0xb973
0xb912
0xb9bb
0xb922
0xb91e
0xb915
0xb984
0xb919
0xb9c8
0xb987
0xb99c
0xb98f
0xb94a
0xb994
0xb954
0x9aee
0x9af9
0x9aab
0x9ace
0x9aaf
0x9ac3
0x9ad8
0x9cea
0x9cff
0x9cee
0x9cda
0x9c68
0x9ca3
0x9c16
0x9cce
0x9c36
0x9c90
0x9c31
0x9cd1
0x9cc3
0x9c11
0x9cf5
0x9cdf
0x9cfd
0x9c49
0x9c81
0x9c8c
0x9cb6
0x9cd5
0x9cc6
0x9cd8
0x9cd6
0x9ca6
0x9caa
0x9cc8
0x9cc7
0x9cf3
0x9c59
0x9cfb
0x9cc2
0x9ccf
0x1164
0x11c0
0x115b
0x1176
0x114d
0x1156
0x17da
0x9eea
0x9e20
0x9e50
0x9e30
0x9e70
0x9ebd
0x9e11
0x9e2a
0x9e33
0x9e9e
0x9e8c
0x9e53
0x9e14
0x9eca
0x9e8a
0x9e80
0x8a64
0x8aa3
0x8a70
0x8a58
0x8ace
0x8a48
0x8ad1
0x8a9e
0x8a89
0x8ad6
0x8a8b
0x8ac4
0x8a72
0x72e0
0x7215
0xadd1
0xab40
0xabee
0xab18
0xab88
0xabf2
0xab75
0xab46
0xab2f
0xab27
0xab13
0xab7a
0xab38
0xab6c
0xab56
0xabf6
0xab86
0xab1e
0xab4f
0xab0e
0xab5f
0xab82
0xab57
0xab1b
0xabf3
0xabfa
0xab8f
0xab32
0xab1f
0xab78
0xab7f
0xa940
0xa950
0xa958
0xa927
0xa925
0xa9b9
0xa922
0xa935
0xa919
0xa91b
0xa95c
0x3a20
0x3ac0
0x3a2d
0x3a2a
0x3a29
0x3ad6
0x3ac4
0x3a1f
0xaf53
0x7e23
0x7e28
0x7e29
0x7e32
0x1264
0x12a3
0x129d
0x12bd
0x121e
0x12b5
0x4d90
0x4dc3
0x4d38
0x4db6
0x4d86
0x4d9c
0x4dec
0x4de5
0x4def
0x9ff4
0x9ff6
0x91f0
0x91f9
0x91ab
0x91ce
0x915b
0x91fd
0x91b9
0x91f6
0x91c8
0x664c
0xb320
0xb368
0xb32a
0xb325
0xb35e
0xb34f
0xb37c
0xb377
0xb372
0xadc4
0x4481
0x4487
0x448e
0xbd60
0x6c08
0x89a6
0xa965
0x9f8c
0x9fe1
0x9fed
0x51ff
0x51f0
0x51da
0x5196
0x51f8
0x51af
0x51b2
0x51b9
0x51e9
0x51c6
0x519b
0x51aa
0x51f3
0xb220
0xb260
0xb2a0
0xb25b
0xb22a
0xb225
0xb22c
0xb249
0xb242
0xb24f
0xb219
0xb21b
0x95cf
0xa620
0xa664
0xa6dd
0xa6ee
0xa6c0
0xa610
0xa668
0xa630
0xa6a3
0xa696
0xa6a0
0xa6fe
0xa636
0xa690
0xa6d1
0xa63d
0xa65b
0xa626
0xa62c
0xa69e
0xa67a
0xa676
0xa6a9
0xa6a5
0xa6b2
0xa6fd
0xa6e9
0xa6ed
0xa63b
0xa617
0xa6f4
0xa6e6
0xa6f6
0xa629
0xa612
0xa663
0xa6aa
0xa624
0xa69a
0xa69c
0xa6f3
0xa6fa
0xa66a
0xa6fb
0xa67b
0xa662
0xa6b1
0xa692
0xa691
0xa694
0x6253
0xa750
0xa760
0xa7e0
0xa723
0xa770
0xa79d
0xa7a0
0xa716
0xa728
0xa7d1
0xa7f8
0xa73d
0xa775
0xa746
0xa711
0xa727
0xa72a
0xa725
0xa7f5
0xa72c
0xa74d
0xa712
0xa78e
0xa7bb
0xa7c6
0xa74f
0xa719
0xa79f
0xa787
0xa793
0xa79a
0xa71c
0xa7b4
0xa7fa
0xa78f
0xa741
0xa7e2
0xa798
0xa792
0xa783
0xa791
0x937a
0x939f
0x7d7b
0xa5b8
0xa5b5
0xa5ba
0xa5b2
0xa404
0xb7ff
0xb7f0
0xb730
0xb718
0xb788
0xb790
0xb744
0xb7d1
0xb7f8
0xb727
0xb74d
0xb749
0xb7f4
0xb73a
0xb78c
0xb773
0xb7e7
0xb7c9
0xb722
0xb784
0xb714
0xb71c
0xb79c
0xb741
0xb7e2
0xb71f
0xb7ec
0xb785
0xb794
0xb799
0xd53d
0xd515
0x9bff
0x9b30
0x9b2d
0x9ba3
0x9b88
0x9b7d
0x9b75
0x9b46
0x9b25
0x9bf5
0x9b33
0x9b13
0x9b9e
0x9bfd
0x9be9
0x9b49
0x9beb
0x9bed
0x9b3b
0x9b17
0x9be6
0x9bc9
0x9b8b
0x9b35
0x9b5f
0x9b55
0x9bc7
0x9b0f
0x9bfb
0x9bc2
0x9be3
0x9b09
0x9bc5
0x9b3f
0x9b07
0x9bcd
0x7483
0x9908
0x990f
0x990a
0xc964
0x9e9a
0x9fd5
0x9fd2
0x9fd7
0x9fd9
0x6235
0x623a
0x9277
0x5e01
0x6a56
0x9fb3
0x9fbe
0x5004
0x3a6f
0x3a3f
0x3a33
0x3a32
0x864c
0x8645
0x8642
0x864b
0x8646
0x738d
0x9562
0x9569
0xb1ea
0xb100
0xb1c0
0xb1da
0xb12d
0xb170
0xb1a0
0xb148
0xb144
0xb146
0xb1c3
0xb12f
0xb127
0xb125
0xb133
0xb12c
0xb19e
0xb1a5
0xb1f1
0xb14d
0xb1e6
0xb1bb
0xb1c8
0xb1fb
0x2d9d
0x2dbd
0x2d86
0x2db5
0xc522
0x449f
0x446a
0x4462
0x9d20
0x9d2d
0x9df9
0x9d1d
0x9dce
0x9df2
0x9d7d
0x9d2f
0x9d26
0x9d38
0x9d4d
0x9d81
0x9d3b
0x9d89
0x9db6
0x9d42
0x9d22
0x9d4f
0x9de4
0x9d9f
0x9d39
0x9d2b
0x9def
0x9aa7
0xac37
0xac39
0x8fff
0x6afd
0x6af6
0x62fb
0x9645
0x9642
0x964d
0x9647
0x57f9
0x57fe
0x3a45
0x91c5
0x91ca
0x9238
0x923d
0x4e6d
0x7192
0x95d4
0x95de
0xb188
0xb181
0xb18d
0xb187
0xb18e
0xb189
0xb6ea
0xb664
0xb6dd
0xb660
0xb610
0xb62d
0xb623
0xb61d
0xb69d
0xb628
0xb67d
0xb6af
0xb62a
0xb6f5
0xb633
0xb613
0xb626
0xb676
0xb638
0xb6dc
0xb6fd
0xb6a4
0xb6b9
0xb6e6
0xb622
0xb615
0xb6d4
0xb66a
0xb6d7
0xb667
0xb6e2
0xb6e3
0xb61a
0xb6b1
0xb6b5
0xb691
0xb6bf
0x61df
0x2fbd
0x2f13
0x2f7c
0x52ff
0x52dd
0x5218
0x52ce
0x52ba
0x5211
0x52e9
0x52eb
0x5217
0x52b1
0x925a
0x9252
0x9257
0x925e
0x9d1c
0x9d12
0x9d11
0x9d17
0x14de
0x14db
0x85d5
0x56a9
0x56b5
0x56bf
0x56b0
0x1284
0x128c
0x128b
0x1280
0x1502
0x555b
0x8a92
0x97a6
0xad0a
0xad01
0xad06
0x926c
0x9261
0x628b
0xadfc
0xb1d8
0xb1dc
0xb1d2
0x4fe8
0x4fef
0x8abd
0x9185
0x918a
0x918d
0x4f21
0x1442
0x1465
0x1462
0x1554
0x7335
0x733a
0xa7d4
0xa7dc
0xa7db
0xa7d0
0xa6c4
0xa6cc
0xa6c1
0xa6cd
0x1483
0x15df
0x15d5
0x15d2
0x15d9
0xa90b
0x12a8
0x3497
0xbfbd
0x936e
0x928f
0x928c
0x9285
0x9282
0x9287
0x928e
0x928b
0x9280
0x62d3
0x74d5
0x74d9
0x4e79
0x9198
0x9195
0x6aec
0x4eef
0x4ee9
0x4ee6
0x4ee0
0x98c8
0x98c6
0x6151
0x44d4
0x44b8
0x44bc
0xb7a5
0xb7aa
0xb7a1
0xafe3
0x4f0e
0x4f09
0x4f06
0x15b8
0x15b3
0x3af4
0x950c
0x9505
0x9503
0x950d
0x950b
0x1394
0xb195
0xb191
0x616d
0x6166
0x9588
0x958f
0x9582
0x958d
0x9580
0xb134
0xb137
0xb13e
0xb13b
0x15ec
0x15e2
0x3aec
0x3ae2
0x1294
0x4e9c
0x4e97
0x8d65
0x4f15
0x4f1b
0xa56b
0xa58c
0xa583
0xa58e
0xa589
0xa586
0x989f
0x9894
0x9891
0x9897
0x989b
0x7fb8
0x987e
0x4eb8
0x4ebf
0x4eb5
0xad55
0xad52
0x730e
0x9205
0x9203
0x920b
0xa688
0xa684
0xa68a
0xa686
0x7173
0x91df
0x91d6
0x9354
0x9359
0x120f
0x8a3d
0x8a3e
0x8a39
0x89a7
0xb15f
0xb15c
0xb152
0xb157
0x4405
0x4403
0x4407
0xb334
0xb33e
0xb339
0x9ba5
0x444d
0xac69
0xac66
0x95b8
0x95b4
0x95bc
0x95b1
0x876d
0x9442
0x7445
0x95f3
0x6a3a
0x6a32
0x6a3e
0x7163
0x7167
0x9338
0x9333
0x53dd
0x5300
0x5340
0x53f0
0x53da
0x5310
0x5368
0x53ab
0x5323
0x5318
0x53ce
0x5336
0x5344
0x53d1
0x53c3
0x5326
0x537a
0x53b2
0x53f6
0x5329
0x5373
0x53e7
0x53c9
0x539b
0x539f
0x53c7
0x5377
0x5398
0x53c2
0x53c5
0x534a
0xb778
0xb77f
0x988a
0x9882
0x9881
0x988e
0x9886
0x44e8
0xadaf
0xadaa
0xada1
0xada6
0xa75e
0xa756
0xa9c2
0x875a
0x8753
0x8756
0xa899
0xbf95
0x98ec
0x98e2
0xa60a
0xa602
0xa606
0x9bb5
0x9bb3
0x9bbb
0x2e9d
0x2e7d
0x2e86
0x2e82
0x2ef3
0xb765
0xb767
0xb76b
0x877f
0xac02
0xac07
0xac09
0xa81f
0xa5fc
0xa5f7
0x9b93
0x9b9b
0x11d8
0x11d3
0x11d2
0x4424
0xace4
0xaced
0xa985
0x5135
0x862b
0xb8c5
0xb8ca
0xb8c9
0x9f1f
0x9f1a
0xab98
0xab92
0xb96e
0xb969
0x1239
0xac43
0xac41
0xac4b
0xb0e8
0xb0e5
0xb0e2
0x9b67
0x9b6b
0xa5d6
0x7da9
0x9eef
0x1277
0x127e
0x1276
0x7d6d
0x9bdf
0x9bd1
0x9bd9
0x9bdb
0xa63c
0xa632
0xa637
0xa63e
0x9d6e
0x9d66
0xa745
0xa743
0x8b06
0xb0bf
0xb0b7
0x94d4
0x94d9
0x126d
0x126e
0x126b
0x90d2
0x90d9
0x95e3
0x95e1
0x4f8a
0xa88f
0xa885
0xa88a
0xa886
0xa880
0x9f2b
0x92ca
0x92cb
0x92c6
0xad83
0xad87
0xad8b
0x5202
0x5207
0x520e
0x9ea8
0x9eac
0x9ea5
0x51d5
0xb381
0xb386
0x9da8
0x9da4
0x9da2
0x2f92
0xacb7
0xacbe
0x9eb5
0x2b39
0x7c02
0x7c0e
0x881f
0x881a
0x8812
0x881e
0xb26c
0xb26a
0xb26b
0x9ae8
0x9ae2
0x4ddb
0x4d55
0x4d53
0xa862
0xa867
0xa86e
0xb8e8
0xb8e4
0xb8ec
0x11e5
0xc7cb
0x878d
0x9ddd
0x9ddb
0x9ed2
0x6a2e
0x4da2
0x4da9
0xab4c
0xab43
0xab4b
0xb945
0x92a4
0x92a5
0x92ad
0x92a7
0x92a9
0xa732
0xa737
0xa739
0xab04
0x8a62
0x8808
0x8801
0x9c0f
0x9c0a
0x9c0d
0x9c07
0x9c3a
0x9c32
0x9c37
0x9c3e
0x9dc7
0x1532
0x689f
0x689c
0x689a
0xac72
0xac79
0x52aa
0x39d9
0x39db
0x39d6
0x8a5c
0x8a53
0x8a52
0x8a56
0x9e02
0x9e09
0x9df4
0x15f7
0xa70f
0xa701
0xa707
0xa6a8
0xa6ac
0xa77e
0xa62e
0x519a
0x51b4
0x874c
0x8745
0x9c6f
0x9c6a
0x9c66
0xad61
0xad6d
0x56c4
0x3e7c
0x9ab3
0x9ab7
0x9abb
0x9af3
0x9af1
0x9afd
0x9b85
0x2a77
0xa843
0xa84b
0xa659
0x5566
0x8a45
0x8a41
0x8a4d
0x9c8f
0x9571
0x9b43
0x9b4b
0x118c
0x1182
0x125c
0x1255
0x1252
0x1257
0x125e
0x4d87
0xa5e8
0xa5ec
0xa5e1
0xa939
0xa7e8
0xa7ef
0x396f
0x9d07
0x9d09
0x9d84
0x11b0
0xc287
movaps
0x4dcf
0x4dc9
0xa7ac
0xa7a2
0xa7a7
0xa7ae
0xa76f
0xa76c
0xa763
0xa761
0xa76e
0xa769
0xa598
0x5587
0x52c9
0x52c6
0x58c2
0x58c7
0x51e4
0x51e1
0xb683
0xb682
0xb68d
0xb687
0xb68e
0xb689
0xb704
0xb701
0xb70d
0xb709
0x9ce8
0x9ce4
0x9cec
0x9ce6
0x9d5a
0x9c98
0x9c94
0x9c9c
0x9c95
0x9c92
0x9c91
0x9c97
0x9c99
0x9c74
0x9c77
0x9c7e
0x9c7b
0x1194
0x1193
0x2ea2
0x2ea6
0x4d4c
0x4d4e
0xa648
0xa644
0xa64a
0xa642
0xa64d
0xa647
0xa64e
0x5384
0x5381
0x5387
0x538e
0x5389
0x53b1
0x53b7
0x53bb
0x5554
0x51cb
0x9cb3
0x9cb1
0x9cb0
0x9b04
0x9b01
0x116d
0x116e
0x116b
0x2df3
##666667
##6666666667
0xa23a
0xa23e
0xa7c5
0xa7ca
0x530f
0x5303
0x5301
0x5306
0x3ad9
0xb648
0xb64f
0xb644
0xb64d
0xb9ef
0xb9ec
0xb9e5
0xb9e3
0xb9ed
0xb9eb
0x9e69
0x9298
0x9294
0x929c
0x9295
0x9292
0x9299
0x9e4a
0x9e43
0x9552
0x9559
0x1174
0x1173
0x1179
0x117b
0xa87f
0x52df
0x531f
0x5315
0x5313
0xb23c
0xb235
0xb23a
0xb231
0xb23d
0xb31b
0xb754
0xb752
0xb75e
0xb759
0xb75b
0xb814
0xb81c
0xb81a
0xb817
0xb81e
0xb17f
0x953c
0x9537
0x9539
0x98b4
0x98bc
0x98b7
0x98be
0x98b0
0x9c4e
0xa8c8
0xa8c5
0xa8cd
0xa8cb
0xa674
0xa672
0xa671
0xa67e
0x546c
0x5463
0x5469
0x5466
0x52f4
0x52f3
0x52f7
0x52f6
0x53a2
0x53ad
0xb20a
0xb200
0xb604
0xb60d
0xb607
0xb609
0xb9d0
0xb363
0xb7d8
0xb7df
0xb7dc
0xb7d5
0xb6c4
0xb6cd
0xb6c7
0xb6cb
0xb84c
0xb845
0xb84a
0xb841
0xb1cf
0xb1c1
0xb1c7
0xb1cb
0xb6ac
0xb6a2
0xb6d2
0xb6de
0xa241
0x5408
0x5402
0x540d
0x536f
0x536c
0x5361
0x548c
0x5485
0x5489
0x533c
0x5333
0x5339
0x50db
0x5493
0x5591
0x8732
0x8737
0x873e
0x8637
0xb10c
0xb105
0xb107
0xb90d
0xb90b
0xb906
0xb634
0xb63c
0xb639
0xb1ef
0xb1ec
0xb1e1
0xb7c4
0xb7c1
0xb7cd
0xb9b1
0xb65c
0xb65a
0xb657
0xb971
0xb977
0xb97b
0xb678
0xb67f
0xb672
0x9d4a
0x2ddd
0x6666666666666667
0x3b9ac9ff
0xa8e5
0xa8e1
0xa6d2
0xa6d9
0x5642
0x5649
0x5447
0x544e
0x5355
0x535a
0xb161
0xb166
0xb259
0xb256
0xb0d8
0xb0d4
0xb8b4
0xb8b0
0xb354
0xb359
0xb932
0xb93e
0xb1ac
0xb1a2
movdqu
0x61ad
0x44a7
0x44c1
0x4f78
0x4d91
0xa5cb
0xa7b7
0xad79
0xac5a
0xa6f7
0xab5a
0xad99
0xaccc
0xa78a
0xa6b7
0x732b
0x7fffffff
0x53d0
0x56a2
0x51a8
0x5394
0x882b
0xb73e
0xbe7b
0xbc65
0xb241
0xb9cc
0xb0fb
0xb621
0xb980
0xb83c
0xb343
0xb7fc
0x9b29
0x91b4
0x9ca8
0x9c21
0x9ade
0x952b
0x94e8
0x9db0
0x9e5a
0x1159
0x124a
0x15c2
0x2d82
0x2fb8
0xc583
